#ifndef MODEL_H
#define MODEL_H

alignas(8) const unsigned char g_model[] = {
    0x1c, 0x00, 0x00, 0x00, 0x54, 0x46, 0x4c, 0x33, 0x14, 0x00, 0x20, 0x00,
    0x1c, 0x00, 0x18, 0x00, 0x14, 0x00, 0x10, 0x00, 0x0c, 0x00, 0x00, 0x00,
    0x08, 0x00, 0x04, 0x00, 0x14, 0x00, 0x00, 0x00, 0x1c, 0x00, 0x00, 0x00,
    0x8c, 0x00, 0x00, 0x00, 0xe4, 0x00, 0x00, 0x00, 0xc0, 0x1a, 0x00, 0x00,
    0xd0, 0x1a, 0x00, 0x00, 0x40, 0x27, 0x00, 0x00, 0x03, 0x00, 0x00, 0x00,
    0x01, 0x00, 0x00, 0x00, 0x04, 0x00, 0x00, 0x00, 0x5a, 0xe3, 0xff, 0xff,
    0x0c, 0x00, 0x00, 0x00, 0x1c, 0x00, 0x00, 0x00, 0x3c, 0x00, 0x00, 0x00,
    0x0f, 0x00, 0x00, 0x00, 0x73, 0x65, 0x72, 0x76, 0x69, 0x6e, 0x67, 0x5f,
    0x64, 0x65, 0x66, 0x61, 0x75, 0x6c, 0x74, 0x00, 0x01, 0x00, 0x00, 0x00,
    0x04, 0x00, 0x00, 0x00, 0x90, 0xff, 0xff, 0xff, 0x16, 0x00, 0x00, 0x00,
    0x04, 0x00, 0x00, 0x00, 0x08, 0x00, 0x00, 0x00, 0x6f, 0x75, 0x74, 0x70,
    0x75, 0x74, 0x5f, 0x30, 0x00, 0x00, 0x00, 0x00, 0x01, 0x00, 0x00, 0x00,
    0x04, 0x00, 0x00, 0x00, 0x12, 0xe5, 0xff, 0xff, 0x04, 0x00, 0x00, 0x00,
    0x0c, 0x00, 0x00, 0x00, 0x6b, 0x65, 0x72, 0x61, 0x73, 0x5f, 0x74, 0x65,
    0x6e, 0x73, 0x6f, 0x72, 0x00, 0x00, 0x00, 0x00, 0x02, 0x00, 0x00, 0x00,
    0x34, 0x00, 0x00, 0x00, 0x04, 0x00, 0x00, 0x00, 0xdc, 0xff, 0xff, 0xff,
    0x19, 0x00, 0x00, 0x00, 0x04, 0x00, 0x00, 0x00, 0x13, 0x00, 0x00, 0x00,
    0x43, 0x4f, 0x4e, 0x56, 0x45, 0x52, 0x53, 0x49, 0x4f, 0x4e, 0x5f, 0x4d,
    0x45, 0x54, 0x41, 0x44, 0x41, 0x54, 0x41, 0x00, 0x08, 0x00, 0x0c, 0x00,
    0x08, 0x00, 0x04, 0x00, 0x08, 0x00, 0x00, 0x00, 0x18, 0x00, 0x00, 0x00,
    0x04, 0x00, 0x00, 0x00, 0x13, 0x00, 0x00, 0x00, 0x6d, 0x69, 0x6e, 0x5f,
    0x72, 0x75, 0x6e, 0x74, 0x69, 0x6d, 0x65, 0x5f, 0x76, 0x65, 0x72, 0x73,
    0x69, 0x6f, 0x6e, 0x00, 0x1a, 0x00, 0x00, 0x00, 0xd8, 0x19, 0x00, 0x00,
    0xd0, 0x19, 0x00, 0x00, 0x40, 0x19, 0x00, 0x00, 0xf0, 0x18, 0x00, 0x00,
    0xa0, 0x18, 0x00, 0x00, 0x84, 0x18, 0x00, 0x00, 0x68, 0x18, 0x00, 0x00,
    0x4c, 0x18, 0x00, 0x00, 0x3c, 0x0c, 0x00, 0x00, 0xac, 0x0a, 0x00, 0x00,
    0x1c, 0x09, 0x00, 0x00, 0x0c, 0x01, 0x00, 0x00, 0xf8, 0x00, 0x00, 0x00,
    0xe4, 0x00, 0x00, 0x00, 0xdc, 0x00, 0x00, 0x00, 0xd4, 0x00, 0x00, 0x00,
    0xcc, 0x00, 0x00, 0x00, 0xc4, 0x00, 0x00, 0x00, 0xbc, 0x00, 0x00, 0x00,
    0xb4, 0x00, 0x00, 0x00, 0xac, 0x00, 0x00, 0x00, 0xa4, 0x00, 0x00, 0x00,
    0x9c, 0x00, 0x00, 0x00, 0x94, 0x00, 0x00, 0x00, 0x74, 0x00, 0x00, 0x00,
    0x04, 0x00, 0x00, 0x00, 0xf6, 0xe5, 0xff, 0xff, 0x04, 0x00, 0x00, 0x00,
    0x60, 0x00, 0x00, 0x00, 0x0c, 0x00, 0x00, 0x00, 0x08, 0x00, 0x0e, 0x00,
    0x08, 0x00, 0x04, 0x00, 0x08, 0x00, 0x00, 0x00, 0x10, 0x00, 0x00, 0x00,
    0x28, 0x00, 0x00, 0x00, 0x00, 0x00, 0x06, 0x00, 0x08, 0x00, 0x04, 0x00,
    0x06, 0x00, 0x00, 0x00, 0x04, 0x00, 0x00, 0x00, 0x01, 0x00, 0x00, 0x00,
    0xea, 0x03, 0x00, 0x00, 0x0c, 0x00, 0x18, 0x00, 0x14, 0x00, 0x10, 0x00,
    0x0c, 0x00, 0x04, 0x00, 0x0c, 0x00, 0x00, 0x00, 0x43, 0x98, 0x3c, 0xf9,
    0xfa, 0x83, 0x63, 0xc8, 0x02, 0x00, 0x00, 0x00, 0x02, 0x00, 0x00, 0x00,
    0x04, 0x00, 0x00, 0x00, 0x06, 0x00, 0x00, 0x00, 0x32, 0x2e, 0x32, 0x30,
    0x2e, 0x30, 0x00, 0x00, 0x62, 0xe6, 0xff, 0xff, 0x04, 0x00, 0x00, 0x00,
    0x10, 0x00, 0x00, 0x00, 0x31, 0x2e, 0x31, 0x30, 0x2e, 0x30, 0x00, 0x00,
    0x00, 0x00, 0x00, 0x00, 0x00, 0x00, 0x00, 0x00, 0xc8, 0xda, 0xff, 0xff,
    0xcc, 0xda, 0xff, 0xff, 0xd0, 0xda, 0xff, 0xff, 0xd4, 0xda, 0xff, 0xff,
    0xd8, 0xda, 0xff, 0xff, 0xdc, 0xda, 0xff, 0xff, 0xe0, 0xda, 0xff, 0xff,
    0xe4, 0xda, 0xff, 0xff, 0xe8, 0xda, 0xff, 0xff, 0xec, 0xda, 0xff, 0xff,
    0xa6, 0xe6, 0xff, 0xff, 0x04, 0x00, 0x00, 0x00, 0x04, 0x00, 0x00, 0x00,
    0xfd, 0xff, 0xff, 0xff, 0xb6, 0xe6, 0xff, 0xff, 0x04, 0x00, 0x00, 0x00,
    0x04, 0x00, 0x00, 0x00, 0x01, 0x00, 0x00, 0x00, 0xc6, 0xe6, 0xff, 0xff,
    0x04, 0x00, 0x00, 0x00, 0x00, 0x08, 0x00, 0x00, 0x06, 0x05, 0xe5, 0x3d,
    0xd0, 0xd0, 0x80, 0xbd, 0x82, 0x0b, 0xaf, 0xbe, 0x66, 0xd7, 0xb4, 0x3e,
    0xbe, 0x4d, 0x03, 0x3e, 0x2c, 0x00, 0x65, 0xbd, 0x27, 0x08, 0x75, 0xbc,
    0x39, 0x17, 0xaa, 0x39, 0xb4, 0x5c, 0x32, 0xbe, 0xc4, 0x73, 0xf4, 0x3d,
    0x9a, 0xd7, 0xb6, 0x3d, 0xfa, 0x94, 0x73, 0x3d, 0xd0, 0x55, 0x2b, 0x3e,
    0xa3, 0x74, 0x43, 0x3d, 0x25, 0x3d, 0xda, 0xbe, 0x44, 0x02, 0x48, 0x3e,
    0x6d, 0x3f, 0xf4, 0xbd, 0x35, 0xd9, 0x38, 0xbd, 0xe8, 0xca, 0x35, 0x3e,
    0x78, 0xfa, 0x3f, 0xbd, 0x32, 0x0e, 0x40, 0xbe, 0x87, 0xb2, 0xae, 0xbe,
    0x92, 0x58, 0xba, 0x3e, 0x32, 0x7d, 0x7e, 0xbe, 0xfa, 0xa7, 0xdf, 0x3e,
    0xd2, 0x64, 0x68, 0x3e, 0xf7, 0x5d, 0x6b, 0xbe, 0x85, 0x99, 0x6c, 0x3d,
    0xf4, 0xab, 0x90, 0xbd, 0x48, 0x58, 0xef, 0x3e, 0xb9, 0x79, 0x43, 0xbd,
    0x93, 0x09, 0x70, 0x3e, 0x6b, 0xfb, 0xf2, 0xbd, 0x32, 0x7a, 0x66, 0xbe,
    0x26, 0xa1, 0x97, 0xbe, 0x7c, 0xf7, 0x3d, 0xbe, 0xd5, 0xa2, 0x72, 0x3d,
    0x22, 0x71, 0xb4, 0xbe, 0xcc, 0x25, 0x88, 0x3e, 0xa4, 0x00, 0x79, 0x3e,
    0x8d, 0x91, 0xb2, 0x3e, 0xdc, 0xb8, 0x1b, 0x3e, 0x7e, 0x96, 0x62, 0x3b,
    0x6c, 0xd0, 0x34, 0xbe, 0x2f, 0x03, 0x81, 0x3e, 0x64, 0x29, 0x11, 0xbe,
    0x29, 0x26, 0x04, 0x3d, 0x3c, 0xa4, 0x61, 0xbd, 0x43, 0x03, 0xb8, 0xbe,
    0xd9, 0x97, 0x95, 0x3e, 0x41, 0x77, 0xa8, 0x3c, 0x41, 0x89, 0x3d, 0x3e,
    0xc0, 0xe3, 0xc1, 0x3e, 0x4a, 0x59, 0x92, 0xbd, 0xe6, 0x3d, 0xdd, 0x3d,
    0x23, 0x8d, 0x23, 0xbd, 0xa0, 0x3b, 0x9d, 0xbd, 0x8c, 0x56, 0x26, 0xbf,
    0x77, 0xd6, 0x8d, 0x3e, 0xab, 0x08, 0x83, 0xbe, 0x83, 0xe5, 0x39, 0xbe,
    0x32, 0x62, 0x35, 0x3e, 0x7e, 0x0a, 0x8c, 0x3e, 0xa3, 0xdc, 0xa3, 0x3e,
    0xb0, 0x08, 0x96, 0xbe, 0x2a, 0xa7, 0x87, 0xbe, 0x20, 0xd9, 0x14, 0x3e,
    0xfe, 0x8e, 0x58, 0xbe, 0xfe, 0xff, 0x86, 0x3e, 0xb6, 0x49, 0x94, 0xbe,
    0x4c, 0x69, 0x8e, 0x3e, 0x21, 0x77, 0x45, 0xbe, 0x7f, 0xf3, 0x8f, 0xbe,
    0xd2, 0x1b, 0x9e, 0xbc, 0xcb, 0x6c, 0xbc, 0xbe, 0x9b, 0x45, 0x37, 0xbe,
    0xdc, 0x14, 0x31, 0xbe, 0x92, 0x81, 0x98, 0x3e, 0x7e, 0xe7, 0x1a, 0x3e,
    0x64, 0xb9, 0x9c, 0xbe, 0x51, 0x99, 0x70, 0xbc, 0xf3, 0x17, 0xa7, 0x3c,
    0x94, 0xc0, 0x7c, 0x3e, 0xd6, 0xac, 0xaf, 0x3d, 0x61, 0x56, 0x69, 0xbe,
    0x22, 0x3b, 0x77, 0xbd, 0xac, 0xc1, 0xbd, 0x3e, 0x1c, 0x76, 0x7b, 0x3e,
    0x45, 0x5d, 0xd5, 0x3d, 0xe2, 0x7f, 0xb4, 0x3e, 0x4c, 0x31, 0x70, 0x3e,
    0x0c, 0x76, 0xba, 0x3e, 0x1c, 0xa5, 0x4f, 0xbe, 0x19, 0xae, 0x3e, 0x3e,
    0x75, 0x85, 0xfe, 0xbe, 0x96, 0x9c, 0x51, 0xbe, 0x8c, 0x8f, 0x22, 0x3d,
    0x54, 0x63, 0x59, 0x3d, 0xde, 0x68, 0xac, 0x3e, 0x17, 0x5a, 0x7b, 0xbe,
    0x6a, 0xff, 0xed, 0x3e, 0x54, 0x02, 0xa6, 0x3e, 0xe0, 0x64, 0x51, 0x3e,
    0x78, 0x34, 0x01, 0xbe, 0x8e, 0x54, 0xa5, 0x3e, 0xb7, 0x7f, 0xa8, 0xbe,
    0x5c, 0xf7, 0x5c, 0x3e, 0xe7, 0x02, 0xdd, 0x3a, 0xb8, 0x31, 0x9f, 0xbe,
    0xd3, 0x3b, 0x84, 0xbe, 0x0d, 0xb1, 0xa9, 0x3e, 0xed, 0x81, 0x93, 0x3e,
    0xa4, 0xa6, 0x56, 0x3d, 0x2c, 0x23, 0xe3, 0xbe, 0x0a, 0x15, 0x71, 0xbe,
    0xec, 0xf5, 0xb1, 0xbe, 0x4e, 0xbe, 0x7f, 0xbe, 0x5b, 0xa3, 0xe5, 0xbe,
    0x69, 0x75, 0x62, 0xbd, 0x9a, 0x98, 0x17, 0xbe, 0x7b, 0x6e, 0x2a, 0xbd,
    0xd8, 0x8b, 0x18, 0x3e, 0xc4, 0xa1, 0x85, 0xbe, 0x2f, 0x68, 0x19, 0xbd,
    0x26, 0xf3, 0x5b, 0xbd, 0x0e, 0x90, 0xa8, 0x3e, 0x68, 0xcc, 0x31, 0x3e,
    0x9a, 0x49, 0x98, 0xbe, 0xab, 0x78, 0xd9, 0xbd, 0xb4, 0x94, 0xd7, 0x3c,
    0x00, 0x6d, 0x8c, 0xbe, 0x21, 0x99, 0xdf, 0x3d, 0x97, 0xf4, 0xf1, 0x3e,
    0xe2, 0x2a, 0x86, 0x3e, 0x2d, 0xb2, 0x9b, 0x3d, 0x70, 0x6c, 0x9b, 0x3e,
    0x58, 0x63, 0x81, 0x3e, 0x0f, 0xa3, 0xe7, 0xbd, 0x6a, 0xad, 0x23, 0xbe,
    0x6b, 0xe8, 0xce, 0xba, 0x36, 0x7a, 0xe9, 0x3d, 0x3b, 0x29, 0xa4, 0xbe,
    0x5c, 0xe7, 0x83, 0x3e, 0x58, 0xed, 0x90, 0x3e, 0x84, 0x12, 0x9b, 0x3d,
    0xd2, 0x88, 0xf1, 0xbd, 0xb4, 0x1a, 0xbb, 0xbd, 0x37, 0x04, 0x88, 0x3e,
    0x0d, 0x3b, 0x83, 0xbe, 0x48, 0x52, 0xc4, 0x3d, 0xce, 0x90, 0xf3, 0xbd,
    0x40, 0xea, 0xc9, 0xbb, 0xa8, 0x83, 0xa5, 0xbd, 0xe0, 0x37, 0x5b, 0xbd,
    0xc0, 0x8e, 0xce, 0xbb, 0x4b, 0x58, 0x47, 0xbe, 0x5c, 0xc8, 0xe6, 0x3d,
    0x58, 0x9c, 0x8d, 0xbd, 0xc1, 0x05, 0xa9, 0xbe, 0xad, 0x80, 0xae, 0x3e,
    0xab, 0x76, 0xcc, 0xbd, 0x75, 0x3a, 0x17, 0x3f, 0x57, 0xbb, 0x67, 0xbe,
    0x5c, 0x58, 0xa5, 0x3e, 0x71, 0x10, 0xf4, 0x3e, 0xba, 0x26, 0x7f, 0x3d,
    0x71, 0xd4, 0x2c, 0x3d, 0x6f, 0x15, 0xcb, 0xbc, 0x14, 0xa8, 0xa3, 0xbe,
    0x38, 0xbf, 0xf1, 0xbc, 0xad, 0xa1, 0x1c, 0x3e, 0xa3, 0x2d, 0x3a, 0xbe,
    0x9e, 0xfa, 0x16, 0x3d, 0x76, 0xef, 0x25, 0xbe, 0x0f, 0x89, 0xde, 0x3d,
    0x8a, 0xd8, 0x61, 0x3e, 0x1e, 0x21, 0x75, 0x3e, 0x3c, 0x0d, 0xee, 0x3e,
    0x32, 0x8a, 0x1f, 0x3d, 0x1c, 0xb2, 0xdd, 0x3e, 0xfe, 0x75, 0x99, 0x3e,
    0xf0, 0x5d, 0xa6, 0x3e, 0xbb, 0xa6, 0xcb, 0x3e, 0xf6, 0xdc, 0x5b, 0x3e,
    0xec, 0xef, 0x04, 0x3e, 0x7d, 0x82, 0x2f, 0xbd, 0x4e, 0xa6, 0xf5, 0x3e,
    0xf2, 0xe4, 0x8d, 0xbe, 0x7f, 0x48, 0x10, 0x3e, 0x29, 0x4b, 0x2a, 0xbe,
    0x47, 0x42, 0x08, 0x3f, 0x47, 0xfb, 0x6b, 0xbe, 0x50, 0xbb, 0xba, 0x3e,
    0x5c, 0x25, 0x00, 0xbf, 0x64, 0x83, 0xd8, 0x3d, 0xee, 0x36, 0x1f, 0x3e,
    0xb7, 0xb7, 0xf8, 0xbe, 0xae, 0x22, 0xa7, 0x3e, 0xf1, 0xf0, 0x9f, 0x3e,
    0x39, 0x2f, 0x3b, 0xbe, 0xc0, 0x8c, 0x34, 0xbe, 0x76, 0x0c, 0xe9, 0xbd,
    0x5f, 0xbc, 0x1d, 0x3e, 0xfe, 0x95, 0x07, 0x3e, 0x00, 0xe9, 0x25, 0xbd,
    0x39, 0x0d, 0x88, 0x3e, 0xb4, 0xf1, 0x40, 0x3d, 0x58, 0x2b, 0x76, 0xbe,
    0xb6, 0x90, 0x40, 0x3d, 0xe0, 0xc7, 0x81, 0x3e, 0x46, 0x91, 0xd0, 0x3d,
    0xb1, 0x0e, 0xd7, 0xbd, 0x37, 0x6d, 0xae, 0x3e, 0xab, 0x86, 0xca, 0x3d,
    0x11, 0x11, 0xb3, 0x3e, 0x69, 0x37, 0x8f, 0x3e, 0x67, 0xef, 0x73, 0xbd,
    0x0b, 0xb5, 0xa4, 0xbe, 0x5a, 0x9b, 0x27, 0xbe, 0x22, 0xf9, 0x0d, 0xbd,
    0xac, 0xea, 0x8d, 0xbe, 0x24, 0xb2, 0x5f, 0x3e, 0x4a, 0x67, 0x8f, 0x3e,
    0xd0, 0x10, 0x4b, 0x3d, 0x7f, 0x3a, 0x8c, 0xbe, 0x2f, 0xa4, 0x3d, 0xbe,
    0x88, 0x89, 0xe4, 0x3d, 0xc6, 0xe4, 0x3c, 0x3e, 0x75, 0x25, 0xac, 0xbe,
    0xb9, 0xd2, 0x1b, 0xbe, 0x14, 0x61, 0x8e, 0xbe, 0x93, 0xc3, 0x97, 0x3e,
    0xab, 0x75, 0x0f, 0xbe, 0xb8, 0xe6, 0x8a, 0xbe, 0x19, 0x33, 0x0d, 0xbe,
    0x2c, 0xe8, 0x94, 0xbe, 0x02, 0xd0, 0x30, 0x3e, 0xea, 0x7f, 0x10, 0xbe,
    0xcb, 0x12, 0x09, 0xbe, 0x33, 0x44, 0x12, 0xbe, 0x48, 0x26, 0xd4, 0x3d,
    0x45, 0x6f, 0x15, 0x3e, 0x1c, 0x62, 0x16, 0x3e, 0xb4, 0xa4, 0x9a, 0xbc,
    0xa1, 0xc9, 0x01, 0xbe, 0xa1, 0x31, 0xb3, 0xbc, 0x49, 0x0e, 0xc7, 0xbe,
    0x4e, 0xec, 0xa1, 0x3e, 0x07, 0x1f, 0x8a, 0xbe, 0x06, 0x38, 0xb3, 0x3c,
    0x26, 0xf9, 0x48, 0xbe, 0x11, 0xd1, 0x88, 0x3d, 0x89, 0x1b, 0x6e, 0xbe,
    0xc8, 0xbb, 0x11, 0xbc, 0x8d, 0x2f, 0x95, 0x3e, 0x16, 0xfc, 0x5a, 0xbe,
    0x4c, 0xca, 0xac, 0xbd, 0x77, 0x37, 0x49, 0xbc, 0xca, 0x72, 0xfd, 0xbd,
    0xf4, 0x72, 0x2b, 0x3e, 0xd9, 0x3d, 0xb0, 0xbd, 0xea, 0x7f, 0x0d, 0xbe,
    0x94, 0x4b, 0x89, 0x3e, 0x8e, 0xea, 0x9b, 0x3d, 0xde, 0xc9, 0x7f, 0x3e,
    0xa0, 0xc7, 0x08, 0x3f, 0x27, 0xb4, 0x8c, 0xbe, 0xf5, 0x92, 0xad, 0xbd,
    0x7f, 0xab, 0xa2, 0xbe, 0xc9, 0x23, 0xe8, 0xbd, 0xf5, 0xb0, 0x06, 0x3e,
    0xbe, 0xa8, 0x3c, 0xbe, 0xa1, 0x5d, 0x97, 0x3d, 0xe6, 0xa7, 0xdb, 0xbe,
    0xc4, 0xae, 0x38, 0xbe, 0xaa, 0x64, 0xbb, 0x3e, 0x78, 0x9f, 0x14, 0x3e,
    0x5b, 0xcf, 0x03, 0xbe, 0x1d, 0xd2, 0xc9, 0xbc, 0xa0, 0x8f, 0x92, 0xbe,
    0x26, 0xa1, 0x48, 0x3e, 0xd7, 0xe7, 0xd7, 0x3e, 0xe5, 0xf6, 0x87, 0xbd,
    0xb1, 0xb9, 0x58, 0x3e, 0xd5, 0xb8, 0x4c, 0xbe, 0x5c, 0x48, 0x97, 0x3c,
    0x1c, 0x0a, 0x0a, 0xbe, 0x29, 0x5e, 0x4e, 0x3c, 0xd0, 0x94, 0x4a, 0x3d,
    0x8c, 0x40, 0x80, 0xbe, 0xb4, 0x85, 0x04, 0x3e, 0x00, 0x09, 0x57, 0xbc,
    0x4e, 0x08, 0x64, 0x3e, 0x80, 0x05, 0x07, 0x3d, 0x37, 0x2d, 0x5a, 0xbe,
    0x2d, 0xb8, 0x92, 0x3e, 0x69, 0x76, 0x2e, 0xbe, 0x47, 0xbd, 0x47, 0xbe,
    0xe5, 0x1e, 0xa8, 0xbe, 0xbf, 0x1c, 0x57, 0xbe, 0x00, 0xc7, 0xae, 0xbe,
    0x1a, 0x7a, 0xb2, 0xbe, 0x7b, 0xa3, 0x34, 0xbe, 0xa4, 0xab, 0x9d, 0x3d,
    0xd1, 0x68, 0xf7, 0x3d, 0xf0, 0x8c, 0x96, 0xbc, 0xdc, 0x62, 0x16, 0x3e,
    0x4e, 0xac, 0x8a, 0x3e, 0x0c, 0x91, 0xe9, 0xbe, 0x7e, 0xe2, 0x29, 0x3c,
    0xe9, 0x97, 0x21, 0xbe, 0x93, 0xd0, 0xe1, 0x3d, 0x96, 0xe8, 0x95, 0xbe,
    0xd3, 0x12, 0x8b, 0x3e, 0x8f, 0x2f, 0xc7, 0x3d, 0x11, 0x4f, 0xe8, 0x3e,
    0xdf, 0xc1, 0x05, 0x3c, 0x21, 0x3e, 0x4e, 0xbd, 0xf2, 0x9a, 0x19, 0xbd,
    0x4f, 0x37, 0x2f, 0xbd, 0x00, 0xf1, 0x8f, 0x3e, 0x73, 0x8c, 0x01, 0xbf,
    0x31, 0x99, 0xe4, 0xbc, 0x44, 0x59, 0xb9, 0x3d, 0x31, 0x91, 0x63, 0xbd,
    0x56, 0xc8, 0x5c, 0x3e, 0x2a, 0xa9, 0x82, 0xbe, 0x72, 0x43, 0xdd, 0xbd,
    0x5c, 0x00, 0x23, 0xbe, 0x20, 0x5c, 0x07, 0xbe, 0x05, 0x64, 0xe2, 0x3d,
    0x49, 0x87, 0xe2, 0x3d, 0x27, 0x81, 0xfc, 0x3d, 0x73, 0x44, 0xf0, 0x3e,
    0xff, 0x7c, 0x54, 0xbe, 0x8e, 0x15, 0xa2, 0xbe, 0xe1, 0x8b, 0x1a, 0xbe,
    0xab, 0xa8, 0x3e, 0x3e, 0xf8, 0x72, 0xb5, 0x3e, 0xd0, 0xc5, 0x17, 0x3c,
    0x13, 0xd2, 0x79, 0xbe, 0x87, 0x83, 0xa6, 0xbe, 0xa4, 0x87, 0x23, 0xbe,
    0x2a, 0xde, 0x92, 0xbe, 0x41, 0xef, 0x05, 0xbe, 0x02, 0xde, 0x0e, 0x3e,
    0x80, 0x6f, 0x46, 0x3e, 0x15, 0x72, 0x1f, 0xbe, 0x86, 0xd9, 0x78, 0xbe,
    0x5c, 0x46, 0xf9, 0xbd, 0xbb, 0x01, 0x07, 0xbe, 0x92, 0xf4, 0x35, 0x3e,
    0xe8, 0x39, 0x3f, 0xbe, 0xc7, 0x22, 0x22, 0xbe, 0x26, 0xd9, 0x06, 0x3e,
    0xaf, 0xb5, 0x6a, 0x3e, 0x24, 0xcc, 0xd3, 0xbe, 0x11, 0x7f, 0xa1, 0x3e,
    0x36, 0xf5, 0x4b, 0x3d, 0x3a, 0xba, 0x79, 0xbe, 0x61, 0xa9, 0x1b, 0xbd,
    0x33, 0x67, 0xd9, 0x3d, 0xe2, 0xe1, 0x63, 0xbe, 0xda, 0x7e, 0xdf, 0xbd,
    0x56, 0x20, 0xf0, 0x3d, 0x63, 0xf8, 0x34, 0xbe, 0x42, 0xc6, 0x7b, 0x3e,
    0x7a, 0x6e, 0x2e, 0x3e, 0xbe, 0x90, 0xa2, 0x3d, 0x5a, 0x36, 0xdd, 0xbe,
    0xb1, 0x53, 0xdb, 0xbb, 0xe8, 0x7d, 0xad, 0x3e, 0x4a, 0x7d, 0xd0, 0xbe,
    0xae, 0x73, 0x32, 0xbe, 0xbc, 0x96, 0xd5, 0x3d, 0x5a, 0xf8, 0x2d, 0xbe,
    0x3a, 0x03, 0xd5, 0xbd, 0x50, 0x19, 0x11, 0xbe, 0x9c, 0x8b, 0x58, 0x3e,
    0xb8, 0xff, 0xb1, 0x3e, 0x46, 0x42, 0x31, 0xbd, 0x5a, 0xfb, 0x6d, 0x3e,
    0xdb, 0xc1, 0xda, 0x3d, 0x6a, 0xf5, 0x99, 0xbe, 0x1b, 0xeb, 0xbe, 0x3e,
    0xb8, 0xfe, 0x93, 0xbd, 0x05, 0x11, 0x39, 0x3e, 0x82, 0x5e, 0x47, 0xbe,
    0xd8, 0x30, 0xb9, 0xbe, 0x82, 0x2b, 0x15, 0x3d, 0x4d, 0xf1, 0x2a, 0x3e,
    0xfe, 0x7d, 0x86, 0x3e, 0xdf, 0xfe, 0x9a, 0x3b, 0xfa, 0xa2, 0x1a, 0x3e,
    0x3b, 0x3c, 0x30, 0x3e, 0x53, 0xf8, 0x5c, 0xbe, 0x46, 0x84, 0x96, 0x3e,
    0x81, 0xb3, 0x7c, 0x3e, 0xe3, 0x4b, 0xec, 0xbc, 0x10, 0x54, 0xc8, 0x3d,
    0x94, 0xd9, 0xa6, 0x3e, 0x73, 0x12, 0x2e, 0xbe, 0x85, 0x2c, 0x81, 0x3e,
    0x8c, 0x5a, 0xbc, 0xbd, 0x22, 0x21, 0xb8, 0xbd, 0x29, 0xf8, 0x35, 0xbe,
    0xec, 0x31, 0x6e, 0x3b, 0xf8, 0x03, 0x9b, 0xbe, 0xbd, 0xbc, 0xbb, 0x3e,
    0x00, 0xa9, 0xcb, 0x3e, 0x55, 0x44, 0xdc, 0xbd, 0xef, 0x39, 0x23, 0x3e,
    0xcd, 0x97, 0x97, 0xbe, 0x71, 0x48, 0xfe, 0x3e, 0xa0, 0x0c, 0xa1, 0xbe,
    0x6c, 0x35, 0xd6, 0x3d, 0xe1, 0xfb, 0x54, 0x3e, 0x36, 0xc0, 0x03, 0xbe,
    0xe5, 0x38, 0x45, 0xbe, 0xea, 0x9e, 0x95, 0x3e, 0x26, 0x82, 0x96, 0x3e,
    0x43, 0x6f, 0x15, 0x3f, 0xdb, 0x91, 0xaa, 0x3d, 0xb7, 0x3f, 0x51, 0x3e,
    0xab, 0x14, 0xa6, 0xbe, 0x50, 0xe1, 0x69, 0x3d, 0x4f, 0x09, 0x93, 0x3e,
    0x66, 0x73, 0x88, 0x3e, 0x7b, 0xd7, 0x72, 0xbe, 0xd7, 0xeb, 0xae, 0x3e,
    0x58, 0x04, 0x06, 0x3f, 0xd6, 0xc1, 0x8c, 0x3e, 0xe1, 0x94, 0xf5, 0x3d,
    0xb4, 0x62, 0x69, 0xbc, 0xb2, 0x35, 0xc8, 0x3d, 0x22, 0xe9, 0x7b, 0xbe,
    0x41, 0xf2, 0x9b, 0xbe, 0x2e, 0xac, 0xab, 0x3d, 0xf2, 0xbb, 0x2e, 0x3c,
    0xf5, 0x06, 0x82, 0xbd, 0x61, 0x34, 0xe3, 0x3e, 0xbb, 0x4c, 0xae, 0x3e,
    0x55, 0x8f, 0x7e, 0xbd, 0xd5, 0x5a, 0xd3, 0xbd, 0x88, 0xa4, 0x6f, 0x3e,
    0x39, 0x9a, 0x6f, 0x3d, 0xcc, 0xcf, 0x83, 0x3d, 0xc6, 0x18, 0xad, 0xbc,
    0xb8, 0x27, 0x48, 0xbe, 0xa6, 0xc7, 0x64, 0x3e, 0xb7, 0xf9, 0x98, 0xbe,
    0x9a, 0x57, 0xab, 0xbe, 0x88, 0x93, 0x72, 0xbe, 0x7a, 0x1d, 0x70, 0xbe,
    0xc8, 0x6a, 0xff, 0xbd, 0x6a, 0x03, 0x2b, 0x3e, 0xdc, 0xee, 0x3b, 0xbe,
    0xfc, 0x76, 0xe0, 0xbd, 0x9c, 0x6a, 0x91, 0xbe, 0x2a, 0xf1, 0x50, 0x3e,
    0xfb, 0xd1, 0xb4, 0xbe, 0x80, 0xf7, 0x82, 0xbb, 0x8c, 0x70, 0xcc, 0xbd,
    0x35, 0x34, 0x9f, 0x3e, 0xde, 0x9b, 0x9f, 0xbe, 0x60, 0x8c, 0x68, 0x3d,
    0x3d, 0x82, 0x4a, 0xbe, 0x51, 0x62, 0x9f, 0x3e, 0x2b, 0xdf, 0x09, 0xbe,
    0x93, 0xa7, 0x2a, 0xbe, 0x7e, 0xeb, 0x45, 0xbe, 0x08, 0x9f, 0x57, 0xbe,
    0x5d, 0x85, 0x51, 0xbe, 0xa0, 0x01, 0x48, 0x3c, 0x69, 0x96, 0x4f, 0xbe,
    0x10, 0x65, 0x3a, 0x3d, 0xdd, 0x8f, 0x26, 0xbe, 0x64, 0x14, 0xa9, 0x3d,
    0xee, 0xa3, 0x11, 0xbe, 0xb2, 0x60, 0x25, 0x3e, 0x0a, 0xae, 0x19, 0xbe,
    0xc0, 0x59, 0x6a, 0x3c, 0xbc, 0x20, 0xbc, 0xbd, 0x98, 0x8c, 0x92, 0xbd,
    0x0d, 0xdb, 0x95, 0xbe, 0x15, 0x44, 0x7f, 0xbc, 0xb3, 0xd9, 0x20, 0x3e,
    0x5d, 0xf3, 0x85, 0xbe, 0x5f, 0xec, 0x8f, 0xbe, 0xd7, 0x3f, 0x04, 0x3e,
    0x2e, 0x52, 0x9c, 0xbd, 0xfc, 0xdb, 0x8a, 0xbe, 0x10, 0x21, 0x81, 0xbc,
    0xa7, 0xc1, 0x56, 0x3c, 0x85, 0x74, 0x47, 0xbe, 0x14, 0x56, 0x7b, 0xbe,
    0x77, 0xab, 0x90, 0xbe, 0x38, 0x41, 0x7b, 0x3e, 0x56, 0x14, 0x31, 0x3e,
    0xa7, 0x0e, 0xb8, 0xbd, 0xaf, 0x0c, 0x90, 0xbe, 0xf8, 0x56, 0xc2, 0xbe,
    0x12, 0xbf, 0x5a, 0xbe, 0xa8, 0x61, 0x67, 0xbd, 0xb2, 0xc3, 0xa7, 0x3e,
    0x5c, 0x6c, 0x93, 0x3e, 0x30, 0x4b, 0x7b, 0xbc, 0x68, 0x5a, 0x94, 0x3d,
    0x36, 0x65, 0x99, 0xbe, 0x67, 0x86, 0x34, 0x3e, 0x4c, 0xd0, 0x35, 0xbe,
    0x86, 0x26, 0x7d, 0x3e, 0xd2, 0xee, 0xff, 0xff, 0x04, 0x00, 0x00, 0x00,
    0x80, 0x01, 0x00, 0x00, 0x4f, 0x2f, 0x14, 0xbf, 0xe0, 0x2e, 0xa4, 0xbe,
    0xa0, 0x6d, 0xa3, 0xbe, 0x8b, 0x5d, 0x9e, 0x3e, 0x7d, 0xda, 0x95, 0xbd,
    0x5a, 0xcd, 0x88, 0xbe, 0x42, 0x08, 0xdb, 0x3d, 0xc3, 0xbf, 0xa3, 0xbe,
    0x24, 0xd9, 0x05, 0xbc, 0xa2, 0x87, 0x0d, 0x3e, 0x8f, 0x33, 0xf0, 0x3e,
    0xff, 0x68, 0x98, 0x3e, 0x0d, 0x9d, 0xb6, 0xbe, 0x83, 0xca, 0x90, 0x3e,
    0x54, 0xf2, 0x82, 0xbd, 0xcf, 0x42, 0x2f, 0xbe, 0x6f, 0x66, 0x2a, 0xbf,
    0x6b, 0x33, 0x33, 0xbf, 0x62, 0x81, 0x70, 0x3e, 0x05, 0xa6, 0xea, 0x3d,
    0xfe, 0x00, 0x1c, 0x3d, 0xbe, 0xbe, 0x38, 0xbe, 0x45, 0x3b, 0x76, 0x3e,
    0xcc, 0x60, 0xc4, 0xbe, 0xd9, 0xb2, 0x1f, 0xbf, 0x87, 0x63, 0x01, 0xbf,
    0x17, 0x83, 0xb0, 0x3e, 0x43, 0xc0, 0xa4, 0xbe, 0x14, 0x2e, 0x86, 0xbe,
    0xdc, 0x4f, 0xf6, 0x3d, 0x2e, 0xea, 0x24, 0xbe, 0x84, 0xe0, 0xc6, 0xbe,
    0xc9, 0x67, 0x54, 0xbe, 0xb9, 0xa2, 0x7a, 0x3e, 0x8f, 0x24, 0xc1, 0xbe,
    0xad, 0xd1, 0xd6, 0xbe, 0xef, 0x70, 0xd3, 0xbe, 0x35, 0x0e, 0x94, 0x3e,
    0x03, 0x9d, 0x9d, 0xbe, 0xdc, 0x9d, 0xe8, 0xbe, 0xbe, 0x98, 0xf1, 0xbe,
    0x30, 0x24, 0x60, 0xbe, 0x03, 0xca, 0xaa, 0xbb, 0x3c, 0x26, 0x8d, 0x3c,
    0x19, 0xe6, 0x02, 0x3d, 0xe9, 0xe2, 0xa7, 0xbe, 0x3b, 0xc4, 0x8f, 0x3e,
    0x53, 0x02, 0xb0, 0xbd, 0x15, 0x1c, 0x02, 0xbe, 0x37, 0x61, 0x87, 0x3e,
    0x58, 0xd8, 0x38, 0x3d, 0xd1, 0x92, 0x04, 0x3f, 0xf8, 0x87, 0x22, 0x3f,
    0x44, 0xa5, 0xd1, 0xbc, 0x1d, 0x66, 0x48, 0x3e, 0xe9, 0xdc, 0x91, 0x3d,
    0xfa, 0x8a, 0x01, 0x3f, 0x76, 0x53, 0xb8, 0x3e, 0xcb, 0xf7, 0xa1, 0x3e,
    0x1f, 0xf2, 0x6c, 0xbd, 0x7a, 0x5d, 0x24, 0x3e, 0xfa, 0x51, 0x2b, 0x3e,
    0x79, 0xae, 0x7f, 0xbe, 0x14, 0x82, 0x5f, 0xbe, 0xde, 0x05, 0x99, 0xbe,
    0x28, 0xf1, 0xa2, 0x3e, 0x0a, 0x8b, 0xf4, 0x3e, 0x88, 0xad, 0xc5, 0xbe,
    0x06, 0xb5, 0xc1, 0xbe, 0xb0, 0x12, 0x39, 0x3e, 0xc8, 0x29, 0x1c, 0xbe,
    0x44, 0x79, 0x3a, 0xbd, 0xa1, 0x7c, 0x4c, 0xbe, 0xc0, 0x2c, 0xc0, 0xbe,
    0x43, 0x74, 0x8c, 0xbe, 0xb9, 0x91, 0xbc, 0xbe, 0x67, 0x57, 0x9b, 0xbe,
    0x7b, 0xe5, 0x8f, 0xbe, 0xc4, 0x94, 0xd1, 0xbd, 0x1e, 0x7a, 0xed, 0x3d,
    0x54, 0xed, 0x3a, 0xbe, 0x76, 0xf2, 0x8e, 0x3e, 0x6b, 0x63, 0xbc, 0x3e,
    0x90, 0x2a, 0x81, 0x3e, 0xd9, 0x53, 0x24, 0xbe, 0xa4, 0x66, 0xb5, 0xbe,
    0x46, 0xe8, 0x1d, 0xbd, 0x83, 0xa5, 0xcd, 0xbe, 0x06, 0xb5, 0x9e, 0x3e,
    0xf2, 0x9d, 0xe9, 0x3e, 0x80, 0x3c, 0x0e, 0xbf, 0x0b, 0x36, 0x82, 0x3e,
    0xb8, 0x6b, 0x99, 0xbd, 0x0f, 0xfe, 0xb2, 0x3e, 0xa9, 0x56, 0x9f, 0x3d,
    0x12, 0xa4, 0xd3, 0x3e, 0x5e, 0xf0, 0xff, 0xff, 0x04, 0x00, 0x00, 0x00,
    0x80, 0x01, 0x00, 0x00, 0xd5, 0x36, 0xe8, 0xbd, 0xc8, 0x44, 0x01, 0xbf,
    0x8b, 0xba, 0x87, 0xbe, 0x60, 0x43, 0xf3, 0xbe, 0x50, 0xd5, 0x0c, 0x3e,
    0x99, 0xf4, 0x79, 0xbe, 0xa7, 0x2c, 0x81, 0x3e, 0x02, 0x89, 0x56, 0xbe,
    0xa2, 0x8d, 0xc1, 0x3e, 0xed, 0xc6, 0xa9, 0x3d, 0x62, 0xc8, 0xcf, 0x3e,
    0xc0, 0xb8, 0xa2, 0x3e, 0xbd, 0x24, 0x83, 0x3d, 0xeb, 0x34, 0xb2, 0xbe,
    0x30, 0xfe, 0xce, 0xbc, 0xe2, 0x79, 0x69, 0xbe, 0x07, 0xa1, 0x8f, 0xbe,
    0x0a, 0x58, 0x53, 0xbc, 0xb4, 0x5b, 0x9f, 0xbe, 0x03, 0x82, 0x0e, 0x3f,
    0x42, 0x9c, 0xd8, 0xbc, 0xda, 0xb1, 0xae, 0x3e, 0xe3, 0x0e, 0xcb, 0x3d,
    0xd0, 0x7e, 0x26, 0x3c, 0x3e, 0x40, 0x97, 0x3e, 0xd7, 0x9f, 0xac, 0xbe,
    0x10, 0x5b, 0xa7, 0x3e, 0xe3, 0x75, 0x4f, 0xbb, 0x6e, 0x7e, 0xc6, 0x3e,
    0x0f, 0xf8, 0x9f, 0xbe, 0xaf, 0x02, 0xe4, 0x3d, 0x6e, 0x7e, 0xa2, 0x3e,
    0xaa, 0x43, 0xdb, 0x3e, 0x46, 0xbd, 0x17, 0x3e, 0x44, 0x48, 0x99, 0xbd,
    0x6a, 0xe8, 0x92, 0xbe, 0x9c, 0xd5, 0x5a, 0x3e, 0x43, 0x47, 0x4a, 0xbc,
    0x9a, 0xed, 0x28, 0x3e, 0x0d, 0xb3, 0x40, 0x3e, 0x9d, 0x16, 0xf6, 0x3b,
    0xf6, 0x21, 0x06, 0x3e, 0xbd, 0x60, 0xb9, 0xbd, 0x83, 0x7b, 0xea, 0xbe,
    0x3d, 0xb3, 0xe2, 0x3c, 0xd0, 0x0c, 0x16, 0xbf, 0x11, 0xbe, 0x15, 0xbe,
    0x79, 0xe4, 0x05, 0xbf, 0x8a, 0x14, 0x77, 0x3d, 0x99, 0x81, 0x08, 0x3f,
    0xab, 0xf6, 0xb2, 0xbe, 0x9f, 0xdb, 0xde, 0x3e, 0x6d, 0xb5, 0x32, 0xbe,
    0xb4, 0xf3, 0xce, 0x3e, 0xa7, 0x3a, 0xaf, 0x3e, 0xf1, 0x46, 0x3f, 0xbb,
    0xc8, 0xe3, 0x39, 0x3e, 0xe5, 0xb9, 0x89, 0x3e, 0x8a, 0xaf, 0x5e, 0x3e,
    0x27, 0x38, 0x94, 0x3e, 0x34, 0xac, 0x51, 0xbe, 0x95, 0x6e, 0x14, 0x3f,
    0x61, 0xf0, 0x72, 0xbe, 0x0f, 0x29, 0x83, 0x3e, 0xc0, 0xcf, 0x4e, 0xbe,
    0xce, 0x6b, 0x85, 0x3e, 0x85, 0xff, 0x47, 0xbd, 0x76, 0x0f, 0x88, 0xbe,
    0x59, 0xee, 0x94, 0xbd, 0x75, 0x16, 0xf3, 0xbd, 0x16, 0xce, 0xdb, 0xbc,
    0x71, 0x1d, 0xd8, 0x3d, 0xe5, 0x1d, 0x83, 0xbe, 0xf4, 0x63, 0x68, 0xbe,
    0x7e, 0x53, 0x09, 0xbe, 0xe4, 0x37, 0xa1, 0xbe, 0xd3, 0xf2, 0x81, 0xbe,
    0x4d, 0x07, 0x4b, 0x3e, 0x02, 0xbf, 0x95, 0x3e, 0xfd, 0x6e, 0x75, 0x3e,
    0x5b, 0xbe, 0xb8, 0xbd, 0xed, 0x52, 0x10, 0x3e, 0xb8, 0x8a, 0x26, 0x3e,
    0xe7, 0x68, 0x31, 0xbd, 0xd5, 0x1e, 0x72, 0xbe, 0xc3, 0x84, 0x15, 0xbf,
    0x1f, 0x49, 0x75, 0x3e, 0x11, 0x42, 0x1b, 0xbf, 0x43, 0xdb, 0x93, 0x3c,
    0xe5, 0x92, 0x15, 0xbf, 0xf4, 0x28, 0xac, 0xbe, 0x46, 0xfb, 0xb0, 0xbe,
    0xb1, 0x55, 0x9e, 0xbe, 0x0a, 0x9c, 0x5d, 0x3e, 0xe0, 0x81, 0x4d, 0x3e,
    0x4a, 0x09, 0x89, 0xbe, 0xea, 0xf1, 0xff, 0xff, 0x04, 0x00, 0x00, 0x00,
    0x00, 0x0c, 0x00, 0x00, 0x16, 0x70, 0x6b, 0xbe, 0x18, 0x77, 0xa7, 0x3e,
    0xab, 0x27, 0x0f, 0xbd, 0xc7, 0xa0, 0x92, 0xbe, 0x47, 0x0d, 0x9c, 0x3e,
    0x7d, 0xcc, 0x82, 0x3d, 0xd1, 0xba, 0x63, 0x3d, 0xa6, 0xf2, 0x9e, 0xbe,
    0x1a, 0xb4, 0x00, 0xbe, 0x3e, 0x7e, 0x8b, 0xbd, 0xb1, 0x78, 0x02, 0x3d,
    0xde, 0xaf, 0x9c, 0xbe, 0x4c, 0xac, 0xc1, 0x3d, 0xe8, 0x08, 0xff, 0x3c,
    0xe7, 0x24, 0x0e, 0x3d, 0x39, 0x27, 0x28, 0xbd, 0x72, 0x15, 0xa7, 0xbb,
    0xb5, 0x86, 0xab, 0x3e, 0x88, 0x13, 0x03, 0x3e, 0x14, 0x89, 0xff, 0xbd,
    0x25, 0x60, 0xcb, 0xbd, 0x2d, 0xba, 0x9d, 0x3e, 0x74, 0xc4, 0x19, 0xbe,
    0x5b, 0x30, 0x2e, 0x3d, 0x83, 0xe1, 0xd9, 0xbd, 0x84, 0xe2, 0x8f, 0x3e,
    0x42, 0x4a, 0xa4, 0x3c, 0x11, 0x12, 0x90, 0xbd, 0x14, 0x48, 0x9f, 0x3d,
    0x1b, 0xc6, 0x8e, 0x3e, 0xb5, 0x90, 0x3c, 0x3e, 0x66, 0x52, 0x29, 0xbd,
    0x03, 0x94, 0x4e, 0xbe, 0xf2, 0x51, 0x74, 0xbd, 0x7b, 0x7e, 0xb6, 0xbe,
    0x17, 0xc6, 0xf9, 0xbe, 0xeb, 0x71, 0x96, 0x3e, 0x58, 0xd0, 0xa9, 0x3e,
    0x94, 0xbf, 0x10, 0x3e, 0x76, 0x58, 0xa4, 0xbd, 0x06, 0x42, 0x8e, 0xbe,
    0x29, 0xd1, 0xe9, 0x3d, 0x40, 0x53, 0x08, 0x3e, 0x4d, 0x38, 0xcb, 0xbe,
    0xad, 0x9c, 0xab, 0xbc, 0x62, 0x45, 0xce, 0xbc, 0x8a, 0xb1, 0xe8, 0x3d,
    0x8a, 0x91, 0x41, 0x3e, 0x3f, 0xbb, 0x2e, 0xbe, 0x9c, 0x1a, 0x8b, 0xbd,
    0xb2, 0xf7, 0x0e, 0xbe, 0x07, 0x62, 0x9f, 0x3e, 0x68, 0x04, 0x40, 0xbd,
    0xf7, 0x97, 0xaf, 0x3e, 0x47, 0xb5, 0xaa, 0x3e, 0xbe, 0xe7, 0x5f, 0xbd,
    0x1d, 0x28, 0xa7, 0x3e, 0x0f, 0x0f, 0xac, 0x3c, 0x6e, 0x0a, 0x58, 0x3d,
    0xdc, 0x06, 0xe3, 0x3d, 0x8e, 0xcd, 0x12, 0x3e, 0x40, 0xc0, 0xa1, 0x3d,
    0x7d, 0xc9, 0x0c, 0xbf, 0xd0, 0xa8, 0x6c, 0x3e, 0x21, 0x9b, 0x93, 0xbe,
    0x54, 0x68, 0x14, 0xbe, 0x0d, 0x7a, 0xf9, 0x3d, 0x93, 0x1f, 0xc4, 0x3e,
    0x1a, 0xc5, 0x26, 0xbe, 0x8c, 0xf6, 0x40, 0x3e, 0x19, 0xcd, 0x03, 0x3d,
    0x2c, 0xb2, 0x8a, 0xbe, 0x1d, 0x74, 0x99, 0x3d, 0x34, 0x86, 0xeb, 0x3d,
    0xd5, 0xa4, 0x87, 0xbd, 0x5a, 0x59, 0x3a, 0x3e, 0xa3, 0xc2, 0xb2, 0x3d,
    0x01, 0x8a, 0x2d, 0x3e, 0x8e, 0x85, 0xc1, 0xbe, 0x3b, 0x0e, 0x5a, 0x3e,
    0x33, 0xc3, 0xba, 0xbe, 0x9c, 0x9f, 0x55, 0x3c, 0x52, 0x1d, 0x42, 0xbd,
    0xee, 0x4a, 0x53, 0x3d, 0xc6, 0xac, 0x68, 0xbe, 0x3f, 0xe5, 0x14, 0xbe,
    0x48, 0xee, 0x23, 0x3e, 0x2d, 0xb6, 0x73, 0xbc, 0xba, 0x70, 0x98, 0x3d,
    0x9b, 0xbf, 0xb4, 0x3d, 0xb6, 0x0e, 0x1f, 0x3e, 0xf7, 0xc6, 0x5c, 0xbc,
    0xef, 0x52, 0xb2, 0xbd, 0x8f, 0xc0, 0xaf, 0x3e, 0x20, 0xce, 0x11, 0xbf,
    0x84, 0x98, 0x52, 0xbe, 0x63, 0x88, 0x45, 0xbe, 0xf4, 0x29, 0x83, 0xbe,
    0xf1, 0xf5, 0x73, 0xbe, 0x08, 0xa7, 0x75, 0xbe, 0xe3, 0x75, 0x05, 0x3e,
    0x59, 0x43, 0x11, 0x3e, 0x49, 0x31, 0x86, 0xbe, 0x7f, 0xe9, 0x5e, 0xbe,
    0x3c, 0xd8, 0x2b, 0x3e, 0xc8, 0x55, 0x76, 0xbe, 0x9e, 0xfa, 0xdd, 0x3d,
    0x60, 0x9e, 0xad, 0x3d, 0x56, 0xce, 0x4f, 0x3e, 0xb7, 0xf7, 0xf5, 0xbd,
    0x1a, 0x6c, 0x4e, 0x3e, 0x73, 0x6c, 0xca, 0x3d, 0x14, 0xc0, 0xb6, 0xbd,
    0x14, 0x67, 0x35, 0x3e, 0xbb, 0x13, 0x1b, 0xbe, 0x8e, 0x12, 0x52, 0xbe,
    0x80, 0x6e, 0x54, 0xbd, 0xf0, 0x55, 0x62, 0xbe, 0xce, 0x44, 0xaf, 0x3d,
    0x9d, 0x08, 0x7c, 0xbe, 0xc9, 0x07, 0x59, 0x3e, 0xc1, 0x6f, 0x5d, 0x3d,
    0xfa, 0x32, 0x58, 0x3d, 0x1b, 0x18, 0x38, 0xbe, 0xbb, 0x41, 0x26, 0x3e,
    0xd0, 0xec, 0xf5, 0x3d, 0xd9, 0x52, 0x6a, 0xbe, 0x74, 0xbc, 0x0a, 0x3e,
    0x9a, 0xdc, 0x44, 0xba, 0xa2, 0x21, 0x49, 0x3e, 0x6f, 0xd1, 0x5d, 0xbe,
    0x98, 0xde, 0x03, 0x3e, 0x35, 0xac, 0x08, 0xbe, 0x0d, 0x19, 0x85, 0xbe,
    0x30, 0x06, 0x1d, 0x3c, 0x6a, 0x96, 0x40, 0x3e, 0x8a, 0xa1, 0x49, 0xbe,
    0xfd, 0x9f, 0x47, 0x3e, 0x48, 0xec, 0x4d, 0xbd, 0x20, 0x6a, 0xac, 0x3d,
    0xe8, 0x31, 0x81, 0xbe, 0x8a, 0x4c, 0xc3, 0xbd, 0xb9, 0xdc, 0x81, 0xbe,
    0x1d, 0x4a, 0xb5, 0xbc, 0xdf, 0xf0, 0xa9, 0xbe, 0xc8, 0x4d, 0x93, 0x3d,
    0x3b, 0xb5, 0x27, 0x3c, 0x3e, 0x74, 0x2e, 0xbe, 0x82, 0x58, 0x8d, 0x3e,
    0x78, 0x37, 0x0d, 0x3e, 0x74, 0x07, 0x4b, 0x3e, 0x43, 0x5b, 0xb8, 0xbe,
    0x17, 0xb1, 0x4a, 0x3e, 0x39, 0xe4, 0xab, 0x3e, 0xd9, 0x52, 0x05, 0x3e,
    0x89, 0xa9, 0x14, 0xbe, 0x55, 0xb3, 0x09, 0x3e, 0xae, 0x5a, 0x53, 0x3e,
    0x5f, 0x25, 0xc9, 0xbd, 0x6a, 0x92, 0x0e, 0xbe, 0x34, 0x8e, 0xac, 0x3d,
    0xc7, 0xff, 0xb2, 0x3d, 0x9f, 0xf1, 0x44, 0xbe, 0xb8, 0xfa, 0x01, 0x3c,
    0x03, 0x36, 0x15, 0xbe, 0xd3, 0x4e, 0x03, 0x3d, 0xb9, 0x4a, 0x9e, 0x3e,
    0x1d, 0x85, 0x9c, 0xbd, 0xa4, 0x8d, 0x6d, 0x3e, 0xa8, 0x9c, 0x89, 0x3e,
    0x63, 0xc1, 0xad, 0x3e, 0xdd, 0x6f, 0xaa, 0xbe, 0x98, 0xd3, 0x21, 0xbd,
    0xd9, 0x6b, 0x73, 0x3e, 0x72, 0xed, 0x59, 0x3e, 0x5e, 0x9e, 0x1b, 0x3e,
    0xe3, 0x54, 0x0e, 0xbe, 0x08, 0x28, 0x96, 0x3d, 0x41, 0xe7, 0x34, 0xbe,
    0x55, 0x9c, 0xe0, 0x3d, 0xd7, 0x6e, 0x40, 0x3d, 0x05, 0x44, 0xa3, 0x3e,
    0xb0, 0x1a, 0x85, 0x3e, 0x92, 0x73, 0x6d, 0xbe, 0x2f, 0x54, 0x5e, 0x3d,
    0x01, 0x4e, 0xc1, 0xbc, 0xbb, 0x5e, 0xf8, 0x3d, 0xb9, 0x32, 0x7c, 0x3d,
    0x76, 0xf0, 0x5c, 0xbe, 0x64, 0x93, 0x92, 0x3e, 0xc3, 0xc3, 0x02, 0x3e,
    0x0e, 0xf2, 0x77, 0x3c, 0x82, 0x01, 0x81, 0x3d, 0xb8, 0xe0, 0xde, 0x3d,
    0xef, 0x3f, 0xe8, 0xbd, 0x73, 0x0c, 0x42, 0xbd, 0xf6, 0x7d, 0x37, 0xbe,
    0xd0, 0x09, 0xad, 0xbd, 0x9c, 0x4a, 0x32, 0x3e, 0x51, 0x08, 0x40, 0xbe,
    0x18, 0x2c, 0x79, 0x3e, 0xbf, 0x84, 0x9c, 0x3e, 0x00, 0xf9, 0x80, 0x3d,
    0x6f, 0xd4, 0x85, 0x3e, 0x04, 0xee, 0xea, 0xbd, 0xf6, 0xd5, 0xca, 0x3d,
    0x4d, 0x0f, 0xf0, 0xbe, 0xcb, 0xb1, 0x13, 0x3e, 0x35, 0x72, 0x32, 0xbe,
    0x22, 0x02, 0x8f, 0xbe, 0x2f, 0x34, 0x56, 0x3e, 0xbc, 0xe0, 0xbc, 0x3e,
    0xac, 0x63, 0x3a, 0xbe, 0x40, 0xe0, 0x2c, 0xbe, 0x38, 0x51, 0x95, 0x3e,
    0x81, 0xe6, 0x31, 0xbe, 0x5c, 0xf1, 0xc0, 0x3c, 0x47, 0xe0, 0x5a, 0xbd,
    0x20, 0x67, 0x93, 0x3d, 0x77, 0x76, 0x93, 0x3e, 0x0b, 0xe8, 0x5c, 0x3e,
    0x8b, 0x97, 0x9d, 0x3e, 0x29, 0xed, 0xf3, 0xbe, 0xa6, 0x96, 0xef, 0x3d,
    0x9e, 0x61, 0xf3, 0x3d, 0x74, 0x9b, 0x2a, 0x3e, 0x98, 0xbc, 0x33, 0x3e,
    0xa1, 0xc4, 0x85, 0x3e, 0x29, 0x96, 0x9e, 0x3d, 0x9c, 0x4d, 0x26, 0x3c,
    0x9b, 0x02, 0xa7, 0x3d, 0xb4, 0xcd, 0x23, 0xbe, 0xc7, 0x7d, 0x6d, 0x3e,
    0x14, 0x4b, 0xcb, 0x3d, 0x0a, 0xee, 0x68, 0xbc, 0x23, 0xc1, 0x8b, 0x3d,
    0x6b, 0x0c, 0x4d, 0x3e, 0x6e, 0x0a, 0x31, 0x3e, 0x41, 0x77, 0xe5, 0xbe,
    0x41, 0x85, 0xae, 0xbd, 0x6f, 0x65, 0xa3, 0xbb, 0xea, 0x4f, 0x89, 0xbd,
    0x13, 0x70, 0x47, 0x3e, 0x6e, 0x6b, 0x6a, 0xbc, 0x81, 0x65, 0x18, 0xbe,
    0x27, 0xe1, 0xbe, 0x3e, 0xfb, 0x2d, 0x9b, 0x3e, 0x29, 0x28, 0x3d, 0xbe,
    0x51, 0x3f, 0x96, 0x3e, 0xc0, 0xb7, 0x90, 0x3e, 0x3c, 0x14, 0x96, 0x3e,
    0x14, 0xac, 0x54, 0xbd, 0x20, 0xd6, 0xbe, 0x3d, 0x16, 0x9c, 0xb2, 0x3e,
    0x13, 0x45, 0x84, 0xbe, 0xb6, 0xd2, 0xf9, 0x3d, 0xcb, 0x06, 0x87, 0xbe,
    0xd2, 0xbf, 0x33, 0x3e, 0x08, 0xbe, 0x41, 0xbe, 0x0b, 0x49, 0xc7, 0x3c,
    0x40, 0x96, 0xca, 0x3d, 0x3c, 0x8d, 0xab, 0x3e, 0xe3, 0xea, 0x7d, 0x3e,
    0x43, 0xa6, 0x25, 0xbe, 0x88, 0x2e, 0x9b, 0x3d, 0x6d, 0xfd, 0xb8, 0x3d,
    0xd5, 0x1b, 0x31, 0x3e, 0x3a, 0xaa, 0x5b, 0x3e, 0x5f, 0x09, 0x12, 0xbe,
    0x73, 0xfe, 0xf7, 0x3d, 0xdd, 0x28, 0xd8, 0x3b, 0xf4, 0x4e, 0x2e, 0x3e,
    0x62, 0xeb, 0x1e, 0x3e, 0x03, 0x70, 0x72, 0x3d, 0xcc, 0x71, 0x25, 0xbe,
    0xc0, 0xe2, 0x3a, 0x3e, 0x00, 0xd7, 0x5b, 0xbb, 0xa7, 0x7e, 0x13, 0x3e,
    0x28, 0x59, 0x8e, 0x3e, 0x74, 0xcd, 0xab, 0xbe, 0xdd, 0x82, 0xbd, 0x3d,
    0xcf, 0xda, 0x12, 0x3d, 0x15, 0xfa, 0x0d, 0x3c, 0x95, 0xb1, 0x92, 0xbd,
    0x8b, 0x46, 0x86, 0xbd, 0x8d, 0x86, 0x08, 0x3e, 0xcc, 0xe4, 0x84, 0xbe,
    0xcb, 0xa8, 0x4d, 0xbd, 0xcb, 0x27, 0x45, 0xbe, 0x78, 0x22, 0x11, 0xbd,
    0x57, 0xd7, 0x41, 0xbd, 0x22, 0xcc, 0xbd, 0xbc, 0x22, 0x2d, 0x9c, 0xbc,
    0x8e, 0x79, 0x71, 0x3d, 0xa7, 0x28, 0x95, 0x3e, 0x6c, 0xf8, 0xf6, 0x3d,
    0x94, 0x42, 0xe8, 0x3d, 0xa0, 0x10, 0x3c, 0x3e, 0x13, 0xa2, 0xf1, 0x3d,
    0xf8, 0xfe, 0x6c, 0x3e, 0x51, 0x43, 0x50, 0x3e, 0x40, 0x7b, 0x37, 0x3e,
    0xfa, 0x8d, 0x24, 0xbe, 0x86, 0xd2, 0x32, 0xbe, 0xb7, 0x16, 0x06, 0x3c,
    0x53, 0x92, 0x49, 0xbe, 0xb4, 0x67, 0x81, 0x3d, 0x45, 0x3c, 0x56, 0x3e,
    0x52, 0xd3, 0x38, 0x3e, 0x2f, 0xb5, 0x03, 0xbd, 0x9e, 0x13, 0xbe, 0xbd,
    0x69, 0xcd, 0x15, 0xbe, 0x18, 0x3f, 0xc8, 0x3d, 0x3c, 0x23, 0x44, 0x3c,
    0x9f, 0x01, 0x19, 0xbe, 0x48, 0x14, 0x40, 0xbe, 0x3d, 0x09, 0x4d, 0xbd,
    0xc9, 0x01, 0x01, 0x3e, 0x48, 0xd3, 0x3b, 0x3e, 0x6e, 0x71, 0x8c, 0xbe,
    0x63, 0x26, 0xdf, 0xbd, 0xbe, 0x30, 0x34, 0x3e, 0x22, 0x93, 0xa6, 0xbd,
    0xef, 0xb9, 0x82, 0x3e, 0x79, 0xdf, 0x7d, 0x3e, 0x6c, 0x37, 0xe2, 0x3d,
    0xa8, 0xf6, 0xc4, 0x3d, 0x20, 0x1f, 0x1d, 0x3e, 0xe2, 0xa0, 0x8c, 0xbd,
    0x0f, 0xf1, 0x6a, 0xbb, 0x0a, 0x02, 0x79, 0xbe, 0xc0, 0x79, 0x17, 0xbe,
    0x2e, 0xd1, 0x31, 0xbe, 0x36, 0x0c, 0xb1, 0x3e, 0xfa, 0xc6, 0x47, 0x3e,
    0xdb, 0x16, 0x6e, 0xbe, 0xa3, 0x88, 0x8a, 0x3c, 0x4d, 0x5a, 0xff, 0xbd,
    0x76, 0xbd, 0x50, 0xbe, 0x0d, 0x2a, 0x5b, 0xbe, 0x40, 0x3c, 0x22, 0xbe,
    0x47, 0xe9, 0x06, 0x3d, 0x00, 0xfd, 0x31, 0x3e, 0x02, 0x83, 0x90, 0x3d,
    0x8e, 0x81, 0x31, 0xbe, 0x26, 0x5d, 0x7b, 0xbc, 0xfd, 0x4c, 0x53, 0x3e,
    0x52, 0x0b, 0xf8, 0x3d, 0xe5, 0x52, 0xb4, 0x3d, 0xd5, 0xfc, 0xe6, 0xbd,
    0x2d, 0x03, 0x1c, 0xbe, 0x5a, 0xe8, 0xc1, 0xbd, 0xd7, 0x25, 0xfd, 0x3d,
    0xe3, 0x05, 0x69, 0xbe, 0xd2, 0xa7, 0x7d, 0x3d, 0xf3, 0x2d, 0x1c, 0xbe,
    0x43, 0x53, 0x5d, 0x3e, 0x4c, 0x5f, 0x0c, 0xbe, 0xda, 0x93, 0x9f, 0x3d,
    0x14, 0x25, 0x8d, 0xbd, 0x2e, 0x9e, 0x01, 0x3e, 0xfb, 0x26, 0x00, 0x3e,
    0x58, 0xdd, 0x06, 0x3d, 0xf2, 0x66, 0x83, 0x3d, 0xb0, 0xfb, 0x59, 0xbe,
    0xf1, 0x94, 0xe5, 0xbc, 0x97, 0xcc, 0xd2, 0x3d, 0x7f, 0xd7, 0x4f, 0xbe,
    0xd9, 0xb7, 0x55, 0xbe, 0x08, 0x29, 0x13, 0xbe, 0x92, 0xe5, 0x98, 0x3d,
    0xb9, 0x45, 0xfc, 0x3d, 0x50, 0x8b, 0x07, 0xbe, 0xd1, 0xbc, 0xae, 0x3d,
    0x4b, 0xd7, 0xf3, 0xbd, 0xd0, 0x91, 0x80, 0xbd, 0x8f, 0x58, 0x1f, 0x3d,
    0xbe, 0x82, 0xd2, 0xbd, 0xf5, 0xae, 0x09, 0xbe, 0xbf, 0x08, 0xb0, 0x3d,
    0xfe, 0x35, 0x5f, 0xbd, 0x48, 0x2d, 0x76, 0x3d, 0x1a, 0x57, 0x43, 0x3e,
    0x88, 0x66, 0x4a, 0xbe, 0x7c, 0x05, 0x85, 0x3e, 0x6a, 0x7e, 0x92, 0xbe,
    0x29, 0x3c, 0x16, 0x3e, 0xb7, 0xe5, 0x13, 0xbe, 0x3a, 0xf9, 0x21, 0xbe,
    0x2e, 0x78, 0x68, 0xbe, 0x83, 0x96, 0xa7, 0xbd, 0x37, 0xf1, 0x58, 0x3d,
    0x1f, 0x30, 0xa0, 0xbd, 0x0d, 0x19, 0x33, 0x3e, 0x1c, 0x59, 0x0b, 0x3e,
    0xa4, 0xf2, 0xa1, 0x3e, 0x36, 0x48, 0x8c, 0x3e, 0x99, 0x87, 0x0b, 0xbe,
    0x6c, 0x64, 0x82, 0x3e, 0xaa, 0xf1, 0x8a, 0xbd, 0xa1, 0xaa, 0x81, 0x3e,
    0x4d, 0x0b, 0x9f, 0xbd, 0x12, 0x17, 0x5c, 0x3e, 0xbd, 0xdf, 0x88, 0x3d,
    0xc7, 0x7b, 0x8a, 0x3e, 0xf1, 0x6a, 0x02, 0xbe, 0xf7, 0x16, 0xbe, 0xbe,
    0x24, 0x4e, 0x5f, 0x3e, 0xff, 0x09, 0x13, 0xbe, 0xc1, 0xd3, 0x15, 0x3d,
    0xb2, 0x2b, 0x74, 0xbe, 0x57, 0xcb, 0x86, 0x3e, 0x5f, 0x2a, 0x8c, 0x3d,
    0x79, 0x2d, 0x28, 0x3d, 0xdd, 0x5d, 0xc0, 0x3e, 0x54, 0x3e, 0x90, 0x3e,
    0xa8, 0x01, 0x1b, 0x3e, 0xf4, 0x4a, 0x58, 0x3e, 0x35, 0x0f, 0x59, 0x3d,
    0x01, 0x8f, 0x8f, 0x3d, 0x95, 0xf9, 0x29, 0x3e, 0x17, 0x9a, 0x57, 0xbe,
    0xaf, 0xba, 0xdf, 0xbd, 0x70, 0xf2, 0xb9, 0x3e, 0xaa, 0x34, 0x8d, 0xbe,
    0x0d, 0xfb, 0x3b, 0x3e, 0x96, 0x7f, 0x15, 0xbe, 0x07, 0xcc, 0xd2, 0x3d,
    0x24, 0xb9, 0x50, 0x3e, 0xe7, 0x78, 0xec, 0x3c, 0xd5, 0x8a, 0xc1, 0x3d,
    0x4f, 0xa7, 0x1e, 0x3e, 0x94, 0xc5, 0xc3, 0x3e, 0x0d, 0xb4, 0x9c, 0x3e,
    0xdd, 0x43, 0x72, 0x3e, 0x02, 0x90, 0x17, 0xbe, 0x42, 0x16, 0x8a, 0xbd,
    0xd0, 0x7d, 0x0b, 0xbe, 0xf9, 0xe2, 0x47, 0xbe, 0xa1, 0xd7, 0x33, 0x3c,
    0xdc, 0x77, 0xad, 0xbe, 0xd8, 0x08, 0x3a, 0xbd, 0xcf, 0x59, 0x7f, 0xbe,
    0x4e, 0x96, 0x9d, 0x3e, 0xb1, 0x77, 0x6a, 0x3d, 0x11, 0x4f, 0xdc, 0x3d,
    0x54, 0xc4, 0xc5, 0x3e, 0x24, 0xd4, 0xb9, 0x3d, 0x0a, 0x0e, 0x9f, 0x3e,
    0xa3, 0x27, 0x0a, 0xbc, 0x1e, 0x96, 0x47, 0x3e, 0xaa, 0xb9, 0x5f, 0xbe,
    0xe9, 0x94, 0x7b, 0x3e, 0x0d, 0x52, 0x92, 0x3c, 0xbb, 0x8f, 0x1f, 0x3e,
    0xdc, 0x34, 0x05, 0x3d, 0x69, 0x19, 0x9b, 0xbe, 0x8f, 0xd5, 0x32, 0x3d,
    0xf9, 0x64, 0x65, 0xbe, 0x8d, 0xa7, 0xdc, 0xbd, 0x12, 0x86, 0x84, 0xbc,
    0xff, 0x4b, 0x65, 0xbd, 0x16, 0x0a, 0xe4, 0x3e, 0x66, 0x2b, 0xa3, 0x3e,
    0xd6, 0x4f, 0xb8, 0x3e, 0x2a, 0x01, 0x04, 0x3d, 0x48, 0x4c, 0x01, 0x3d,
    0x55, 0xe4, 0x68, 0xbd, 0xc4, 0xc1, 0xbf, 0x3e, 0xb5, 0xbe, 0x94, 0x3e,
    0xdb, 0x0a, 0x82, 0xbe, 0x27, 0x67, 0xb0, 0x3e, 0x6f, 0x0f, 0xa2, 0xbd,
    0xba, 0x09, 0x61, 0x3d, 0xb9, 0xd4, 0x44, 0xbc, 0x0c, 0x45, 0x2a, 0x3e,
    0xbf, 0x18, 0x8e, 0x3e, 0x53, 0x67, 0x93, 0xbd, 0x77, 0x3e, 0xf1, 0x3e,
    0x57, 0xac, 0x6d, 0x3d, 0x39, 0xb4, 0x87, 0xbe, 0x91, 0x1d, 0xad, 0xbc,
    0x84, 0xd8, 0x54, 0x3e, 0x43, 0x3f, 0x8a, 0x3d, 0x34, 0x0c, 0xb9, 0x3d,
    0xfc, 0xa9, 0xb1, 0x3e, 0x02, 0xb2, 0xb2, 0x3e, 0x84, 0xfe, 0x69, 0xbe,
    0x4f, 0xa2, 0xa4, 0x3e, 0x96, 0x72, 0x6d, 0x3e, 0x31, 0x22, 0x90, 0x3e,
    0xf8, 0x1c, 0xfc, 0x3d, 0x10, 0x54, 0xa8, 0xbd, 0xe3, 0xec, 0x96, 0x3e,
    0x15, 0x68, 0xe1, 0x3c, 0x9f, 0x76, 0x77, 0x3e, 0xb8, 0x35, 0x10, 0xbe,
    0x86, 0x43, 0x14, 0xbe, 0xe1, 0x7d, 0xe6, 0x3d, 0xd6, 0xcc, 0x97, 0xbc,
    0x7c, 0xf7, 0xbf, 0x3d, 0x00, 0x33, 0x6c, 0x3e, 0xb0, 0xa2, 0x44, 0x3e,
    0x9b, 0x8d, 0x03, 0xbd, 0x17, 0x25, 0xbf, 0x3e, 0xb2, 0xa6, 0x0c, 0xbe,
    0x60, 0x19, 0x05, 0x3e, 0xdf, 0x30, 0x14, 0xbe, 0x15, 0xd1, 0x8d, 0x3e,
    0x0c, 0xaa, 0x07, 0x3d, 0xfd, 0x4b, 0xbc, 0xbe, 0xaa, 0xfe, 0xe9, 0xbc,
    0xe1, 0x57, 0x8c, 0xbe, 0x47, 0x86, 0x0b, 0x3e, 0x83, 0x42, 0x01, 0x3e,
    0x84, 0x24, 0x73, 0x3e, 0x25, 0xb7, 0x68, 0x3e, 0x2b, 0xd6, 0x67, 0x3c,
    0xf0, 0xb4, 0xc1, 0x3c, 0x16, 0xef, 0xf0, 0xbc, 0x03, 0xcc, 0xde, 0xbd,
    0xc5, 0x46, 0x74, 0x3e, 0x10, 0xd7, 0x85, 0x3a, 0x44, 0x1e, 0x0f, 0xbe,
    0xf3, 0x3e, 0x79, 0x3e, 0x0f, 0x3b, 0xb4, 0x3e, 0x4c, 0xf1, 0x5b, 0xbe,
    0x8b, 0xc3, 0x9b, 0xbc, 0xcd, 0x2a, 0x27, 0xbe, 0x41, 0x8f, 0x63, 0x3b,
    0xf7, 0xc2, 0x8f, 0xbe, 0x1c, 0xed, 0x83, 0xbe, 0x43, 0xb9, 0x93, 0x3e,
    0xc4, 0x50, 0x05, 0x3e, 0xbb, 0x5d, 0x35, 0x3e, 0x6b, 0x3b, 0x5d, 0x3d,
    0x31, 0xfa, 0xaf, 0xbe, 0xfd, 0x2c, 0x15, 0x3e, 0xae, 0x87, 0xea, 0xbd,
    0x9f, 0x84, 0xbe, 0xbe, 0xd7, 0x14, 0x49, 0x3e, 0xcc, 0x8e, 0xc1, 0xbc,
    0xb9, 0xfd, 0x1c, 0x3e, 0x66, 0x89, 0xe4, 0xbd, 0x87, 0x4e, 0x90, 0x3d,
    0x51, 0x39, 0x94, 0x3d, 0x05, 0xb9, 0xa7, 0x3d, 0x3c, 0xee, 0xc6, 0xbe,
    0xed, 0xe7, 0x96, 0x3e, 0xcb, 0x49, 0x92, 0x3e, 0xe6, 0x50, 0x59, 0x3e,
    0x38, 0x5c, 0x64, 0xbe, 0xe0, 0x2b, 0x84, 0xbe, 0xd5, 0x05, 0x04, 0x3e,
    0x19, 0x74, 0x26, 0xbc, 0x8e, 0x73, 0xc9, 0xbe, 0x43, 0xcb, 0x07, 0x3e,
    0x65, 0x43, 0x80, 0x3e, 0xc0, 0x58, 0x76, 0x3e, 0xa9, 0x8e, 0x34, 0xbe,
    0x72, 0xba, 0x53, 0xbe, 0x83, 0xa2, 0x39, 0x3e, 0xe8, 0x30, 0x0d, 0xbe,
    0x8d, 0x7a, 0x0f, 0xbf, 0x7f, 0x62, 0x45, 0x3e, 0xd3, 0x89, 0x9c, 0x3e,
    0xdf, 0xc4, 0x44, 0xbe, 0x15, 0x9d, 0xa6, 0xbe, 0xf6, 0x01, 0xa7, 0x3c,
    0x39, 0x40, 0x3e, 0x3d, 0x84, 0x66, 0xb2, 0xbd, 0x93, 0xff, 0xa6, 0xbe,
    0x5c, 0x5c, 0x03, 0x3e, 0x20, 0x05, 0x80, 0x3e, 0xf5, 0x75, 0x8a, 0x3c,
    0xa2, 0xe1, 0x89, 0xbe, 0x0d, 0x48, 0x00, 0xbe, 0x70, 0xa6, 0xda, 0x3d,
    0x84, 0x59, 0x0a, 0xbe, 0xc0, 0x4e, 0x30, 0xbb, 0x09, 0x6c, 0xae, 0xbd,
    0x00, 0xbd, 0xfe, 0xba, 0xfe, 0xf0, 0x32, 0x3e, 0x8d, 0x1f, 0xb3, 0x3b,
    0xfa, 0x7c, 0x7d, 0xbe, 0xb9, 0x67, 0x68, 0xbe, 0xcd, 0x57, 0x2f, 0xbd,
    0xa2, 0x8d, 0x0a, 0x3e, 0x40, 0xc6, 0x0f, 0xbe, 0xf9, 0x0b, 0x35, 0x3e,
    0xd5, 0x26, 0x17, 0xbe, 0x0b, 0xe7, 0x7b, 0xbe, 0x73, 0xb7, 0xf0, 0xbd,
    0x80, 0xd4, 0xd8, 0xbb, 0x87, 0xba, 0xeb, 0xbd, 0x89, 0x6a, 0x50, 0x3e,
    0x05, 0xd1, 0x2c, 0xbe, 0xcb, 0xfe, 0x84, 0xbd, 0x60, 0x8a, 0x71, 0xbe,
    0xbf, 0xb4, 0x1b, 0xbe, 0x35, 0x8a, 0xee, 0xbd, 0x3b, 0x05, 0x40, 0xbe,
    0xcb, 0x6e, 0xf2, 0xbc, 0xf6, 0xc6, 0xfa, 0x3d, 0x01, 0xe5, 0x5b, 0x3e,
    0xbe, 0x27, 0x5f, 0x3e, 0xa0, 0x22, 0x16, 0x3e, 0xb9, 0x5f, 0xff, 0xbd,
    0xe8, 0xcb, 0x27, 0x3d, 0x1a, 0x45, 0x60, 0xbe, 0x6d, 0x6d, 0xba, 0xbd,
    0x5b, 0x4d, 0x70, 0xbd, 0xbc, 0xef, 0x19, 0x3e, 0x33, 0x9b, 0x31, 0xbe,
    0x7c, 0x8b, 0x01, 0xbd, 0xf7, 0xcb, 0xe6, 0xbd, 0x38, 0xba, 0xe9, 0x3d,
    0xee, 0x9f, 0x12, 0x3d, 0x73, 0x02, 0x56, 0xbe, 0x56, 0x40, 0x70, 0xbe,
    0x09, 0x88, 0x08, 0x3e, 0xdc, 0x7a, 0x4a, 0x3e, 0x29, 0x1f, 0x59, 0x3e,
    0x2f, 0x1a, 0x18, 0x3e, 0xb9, 0xa8, 0xaa, 0x3d, 0x9e, 0xd5, 0xd0, 0xbd,
    0x09, 0xbb, 0x75, 0x3e, 0xdd, 0x89, 0x2a, 0xbe, 0xe3, 0x06, 0xf3, 0x3d,
    0x5f, 0x3b, 0x40, 0x3e, 0x5a, 0x20, 0xcb, 0x3e, 0x08, 0x20, 0x78, 0x3e,
    0x3a, 0xca, 0x85, 0xbe, 0x53, 0x66, 0x48, 0x3e, 0x21, 0xed, 0x0a, 0x3e,
    0x89, 0xd8, 0xcd, 0x3d, 0x9d, 0x51, 0x0a, 0xbd, 0xa0, 0x9b, 0x83, 0x3e,
    0xb2, 0x25, 0xae, 0x3d, 0x33, 0x8d, 0x84, 0xbd, 0xf3, 0x2e, 0x9e, 0x3e,
    0x38, 0xb8, 0x70, 0x3e, 0xbd, 0xa9, 0x8a, 0x3e, 0x07, 0x18, 0x74, 0x3e,
    0xcb, 0x7c, 0x8c, 0x3d, 0xcc, 0x6a, 0x5b, 0x3d, 0xef, 0x1c, 0x6e, 0x3e,
    0x50, 0xce, 0x67, 0xbd, 0x35, 0x4f, 0xb9, 0x3d, 0x6a, 0x79, 0x8d, 0x3d,
    0x8b, 0x05, 0x16, 0xbe, 0x7e, 0xe7, 0xbb, 0xbc, 0x51, 0x2c, 0x71, 0x3e,
    0xd5, 0x84, 0xcc, 0x3c, 0xd3, 0x71, 0xaa, 0x3e, 0x0f, 0xed, 0xdd, 0x3d,
    0xb3, 0x57, 0x1e, 0xbd, 0x5a, 0x8e, 0xa2, 0x3e, 0xfb, 0x4c, 0xbb, 0xbd,
    0xe9, 0xab, 0x62, 0xbe, 0x67, 0xd0, 0x8e, 0x3d, 0x29, 0xf4, 0xa7, 0x3e,
    0x66, 0x90, 0x24, 0x3e, 0x53, 0x16, 0x40, 0x3e, 0xc7, 0x91, 0x37, 0xbe,
    0x8b, 0xd0, 0xa3, 0x3d, 0x5e, 0x26, 0x01, 0xbe, 0xa1, 0x2f, 0xb1, 0xbc,
    0x64, 0x1e, 0x84, 0x3e, 0xcc, 0x10, 0xe2, 0x3e, 0xde, 0x88, 0x53, 0x3d,
    0x15, 0xd3, 0xcc, 0x3d, 0x11, 0xd0, 0x9d, 0xbd, 0xb6, 0x98, 0xdf, 0x3d,
    0x20, 0xed, 0x99, 0x3d, 0xeb, 0x72, 0x19, 0x3e, 0x0b, 0x58, 0x1e, 0xbe,
    0x9e, 0xb0, 0xa4, 0x3e, 0x6f, 0xc0, 0xbd, 0x3d, 0x89, 0x5a, 0xaa, 0xbe,
    0x74, 0xd6, 0x4c, 0x3e, 0xed, 0xf3, 0xab, 0x3d, 0x34, 0x52, 0x33, 0xbc,
    0x22, 0x62, 0x06, 0xbd, 0x57, 0x2a, 0x1f, 0x3e, 0x97, 0x36, 0xd3, 0x3e,
    0xfd, 0xc6, 0x05, 0xbf, 0x24, 0x93, 0x84, 0x3e, 0xa1, 0xe6, 0x97, 0xbe,
    0xe8, 0x1a, 0x1e, 0x3d, 0xde, 0x11, 0xf8, 0x3d, 0x58, 0xbc, 0x94, 0x3e,
    0xa1, 0xb2, 0x36, 0xbe, 0x13, 0x15, 0x41, 0x3e, 0xc8, 0x6f, 0xd3, 0x3e,
    0x6a, 0xb7, 0x44, 0xbe, 0xf9, 0xf3, 0xe3, 0x3c, 0x8f, 0x08, 0x7c, 0x3e,
    0xd1, 0x95, 0xbb, 0x3d, 0xb2, 0x73, 0xf0, 0x3d, 0x92, 0xd4, 0x4d, 0x3e,
    0xc7, 0x53, 0x3a, 0x3e, 0xcd, 0x47, 0xcd, 0xbe, 0x9e, 0xb4, 0x51, 0xbe,
    0x02, 0xbb, 0x8b, 0xbe, 0x29, 0xa2, 0xee, 0xbc, 0x11, 0x29, 0x10, 0xbe,
    0x80, 0x64, 0x99, 0x3e, 0xa7, 0x67, 0x9c, 0xbd, 0x23, 0x97, 0xa1, 0x3e,
    0xc0, 0x13, 0x99, 0x3e, 0xc4, 0x9a, 0x14, 0xbe, 0x4d, 0x5b, 0x09, 0xbd,
    0x49, 0xfe, 0x87, 0x3e, 0x6f, 0xd2, 0x92, 0x3e, 0xa5, 0x65, 0x2b, 0xbd,
    0x74, 0xc7, 0xa2, 0xbc, 0xa1, 0xeb, 0x9a, 0xbc, 0xc0, 0xb6, 0xc9, 0xbe,
    0x14, 0x7c, 0x89, 0xbd, 0x9a, 0x9b, 0x7b, 0xbe, 0xcc, 0x33, 0x70, 0xbe,
    0x4c, 0x77, 0x13, 0xbe, 0x0a, 0x69, 0x2b, 0xbe, 0x84, 0xae, 0x37, 0xbe,
    0xb4, 0xe2, 0x43, 0xbe, 0x43, 0x29, 0x14, 0xbe, 0x51, 0x3e, 0x48, 0xbb,
    0x74, 0x01, 0xc3, 0x3d, 0x13, 0x5d, 0x13, 0xbe, 0xde, 0xfd, 0x82, 0xbe,
    0xd0, 0x0c, 0xbe, 0x3d, 0xad, 0xf0, 0xdf, 0xbc, 0x83, 0xc0, 0x30, 0xbe,
    0x58, 0x66, 0xdf, 0xbd, 0x1b, 0x75, 0x41, 0xbe, 0x03, 0x0d, 0xaa, 0xbc,
    0xa0, 0xb9, 0x85, 0xbc, 0x61, 0x50, 0x5d, 0xbe, 0x9e, 0x62, 0x01, 0x3e,
    0xfc, 0x37, 0x34, 0x3e, 0x75, 0x20, 0x59, 0xbe, 0x09, 0x3a, 0x36, 0x3e,
    0x37, 0x0f, 0x45, 0x3e, 0x7c, 0x54, 0x5a, 0x3e, 0xcc, 0x68, 0x43, 0xbe,
    0x65, 0x05, 0x4e, 0x3e, 0x0b, 0x4f, 0x5f, 0x3e, 0xed, 0x34, 0xd0, 0xbd,
    0xff, 0xcc, 0x09, 0x3e, 0x57, 0xe4, 0x20, 0xbc, 0x9f, 0xe8, 0x70, 0xbe,
    0x54, 0x13, 0xe1, 0xbd, 0x60, 0x22, 0xa0, 0xbd, 0x63, 0x6d, 0x45, 0x3d,
    0x0a, 0x09, 0x71, 0xbe, 0x88, 0x06, 0xa1, 0xbd, 0xbe, 0x59, 0xd0, 0xbd,
    0xd6, 0x2f, 0x4e, 0x3d, 0xa5, 0x86, 0x7e, 0x3c, 0xbf, 0x5c, 0x2d, 0x3e,
    0x6c, 0xb5, 0x60, 0xbe, 0xfc, 0x82, 0x39, 0x3e, 0xbc, 0xb3, 0x63, 0x3c,
    0x36, 0x73, 0x31, 0x3c, 0xcd, 0xab, 0x4a, 0x3c, 0xbf, 0xa4, 0x54, 0x3e,
    0x73, 0xea, 0x77, 0xbe, 0xf6, 0xfd, 0xff, 0xff, 0x04, 0x00, 0x00, 0x00,
    0x0c, 0x00, 0x00, 0x00, 0xff, 0xff, 0xff, 0xff, 0x08, 0x00, 0x00, 0x00,
    0x10, 0x00, 0x00, 0x00, 0x0e, 0xfe, 0xff, 0xff, 0x04, 0x00, 0x00, 0x00,
    0x0c, 0x00, 0x00, 0x00, 0xff, 0xff, 0xff, 0xff, 0x06, 0x00, 0x00, 0x00,
    0x10, 0x00, 0x00, 0x00, 0x26, 0xfe, 0xff, 0xff, 0x04, 0x00, 0x00, 0x00,
    0x0c, 0x00, 0x00, 0x00, 0xb7, 0xce, 0xeb, 0x3d, 0x2c, 0x78, 0x2c, 0xbb,
    0x8b, 0x18, 0x20, 0xbe, 0x3e, 0xfe, 0xff, 0xff, 0x04, 0x00, 0x00, 0x00,
    0x40, 0x00, 0x00, 0x00, 0x13, 0x06, 0x84, 0x3d, 0x9b, 0x02, 0xbb, 0xbd,
    0x37, 0xad, 0xf6, 0x3d, 0x9d, 0x2f, 0x4c, 0x3e, 0x4d, 0x59, 0xf5, 0xbd,
    0xc2, 0x6e, 0x91, 0x3d, 0x85, 0x56, 0x4e, 0x3e, 0x07, 0x84, 0xd1, 0x3c,
    0x6a, 0x35, 0x0e, 0x3e, 0x52, 0x16, 0x22, 0x3e, 0x8b, 0xde, 0xe6, 0x3c,
    0x25, 0x09, 0x1a, 0x3e, 0xe8, 0x9a, 0x6c, 0x3d, 0x43, 0x12, 0x3f, 0x3e,
    0x82, 0x97, 0x03, 0x3b, 0xca, 0x29, 0x8e, 0x3d, 0x8a, 0xfe, 0xff, 0xff,
    0x04, 0x00, 0x00, 0x00, 0x40, 0x00, 0x00, 0x00, 0x01, 0xa5, 0xbf, 0xbd,
    0xbb, 0xdc, 0x08, 0x3e, 0x4b, 0xa2, 0x88, 0xbc, 0x92, 0xaf, 0xa0, 0x3d,
    0x90, 0x72, 0xd6, 0x3d, 0x28, 0xba, 0xd2, 0x3d, 0xf3, 0x58, 0xcb, 0x3d,
    0x05, 0xae, 0x79, 0xbc, 0xed, 0x87, 0x6c, 0xbc, 0x78, 0xd0, 0x1b, 0x3d,
    0x86, 0xa2, 0xab, 0x3d, 0x22, 0x47, 0xe5, 0xbd, 0x86, 0xd4, 0x73, 0xbc,
    0x36, 0x76, 0x0b, 0x3e, 0x8a, 0x5b, 0xe8, 0x3d, 0xc8, 0xf5, 0x15, 0xbc,
    0xd6, 0xfe, 0xff, 0xff, 0x04, 0x00, 0x00, 0x00, 0x80, 0x00, 0x00, 0x00,
    0x64, 0x6e, 0x5d, 0xbd, 0xe8, 0x96, 0x65, 0x3d, 0x28, 0x33, 0x1a, 0xbd,
    0xa2, 0x96, 0x8f, 0x3d, 0xed, 0x3a, 0xe4, 0xbc, 0x45, 0xd3, 0xa6, 0x3d,
    0x49, 0xa1, 0x5d, 0x3c, 0x7c, 0x0e, 0x19, 0xbe, 0x77, 0xbf, 0x73, 0x3d,
    0x00, 0x00, 0x00, 0x00, 0x85, 0x3b, 0x46, 0x3e, 0xc4, 0x8b, 0xcf, 0x3d,
    0xde, 0xdc, 0x11, 0xbd, 0xd5, 0x85, 0x4c, 0x3d, 0x00, 0x00, 0x00, 0x00,
    0x83, 0x65, 0x50, 0xbd, 0x35, 0xe0, 0x87, 0x3d, 0x12, 0x0b, 0x8e, 0x3d,
    0x00, 0x00, 0x00, 0x00, 0x7c, 0x4b, 0xfa, 0x3c, 0xb0, 0x97, 0x05, 0x3e,
    0xb6, 0x28, 0x7d, 0xbc, 0xd9, 0x67, 0x3f, 0xbd, 0x40, 0xd6, 0x30, 0x3d,
    0xee, 0xbd, 0x99, 0x3d, 0x37, 0x76, 0x8d, 0x3d, 0x41, 0x1a, 0xe5, 0x3d,
    0x02, 0x95, 0x71, 0xbd, 0x00, 0x00, 0x00, 0x00, 0x00, 0x00, 0x00, 0x00,
    0x5f, 0x40, 0x2b, 0xbc, 0x60, 0x1f, 0x62, 0xbc, 0xac, 0xf3, 0xff, 0xff,
    0xb0, 0xf3, 0xff, 0xff, 0x0f, 0x00, 0x00, 0x00, 0x4d, 0x4c, 0x49, 0x52,
    0x20, 0x43, 0x6f, 0x6e, 0x76, 0x65, 0x72, 0x74, 0x65, 0x64, 0x2e, 0x00,
    0x01, 0x00, 0x00, 0x00, 0x14, 0x00, 0x00, 0x00, 0x00, 0x00, 0x0e, 0x00,
    0x18, 0x00, 0x14, 0x00, 0x10, 0x00, 0x0c, 0x00, 0x08, 0x00, 0x04, 0x00,
    0x0e, 0x00, 0x00, 0x00, 0x14, 0x00, 0x00, 0x00, 0x1c, 0x00, 0x00, 0x00,
    0x90, 0x02, 0x00, 0x00, 0x94, 0x02, 0x00, 0x00, 0x98, 0x02, 0x00, 0x00,
    0x04, 0x00, 0x00, 0x00, 0x6d, 0x61, 0x69, 0x6e, 0x00, 0x00, 0x00, 0x00,
    0x0a, 0x00, 0x00, 0x00, 0x48, 0x02, 0x00, 0x00, 0xe4, 0x01, 0x00, 0x00,
    0xac, 0x01, 0x00, 0x00, 0x70, 0x01, 0x00, 0x00, 0x28, 0x01, 0x00, 0x00,
    0x00, 0x01, 0x00, 0x00, 0xcc, 0x00, 0x00, 0x00, 0x88, 0x00, 0x00, 0x00,
    0x40, 0x00, 0x00, 0x00, 0x04, 0x00, 0x00, 0x00, 0x92, 0xff, 0xff, 0xff,
    0x1c, 0x00, 0x00, 0x00, 0x00, 0x00, 0x00, 0x09, 0x1c, 0x00, 0x00, 0x00,
    0x20, 0x00, 0x00, 0x00, 0x05, 0x00, 0x00, 0x00, 0x00, 0x00, 0x06, 0x00,
    0x08, 0x00, 0x04, 0x00, 0x06, 0x00, 0x00, 0x00, 0x00, 0x00, 0x80, 0x3f,
    0x01, 0x00, 0x00, 0x00, 0x16, 0x00, 0x00, 0x00, 0x01, 0x00, 0x00, 0x00,
    0x15, 0x00, 0x00, 0x00, 0x86, 0xfe, 0xff, 0xff, 0x14, 0x00, 0x00, 0x00,
    0x00, 0x00, 0x00, 0x08, 0x10, 0x00, 0x00, 0x00, 0x14, 0x00, 0x00, 0x00,
    0x04, 0x00, 0x00, 0x00, 0x80, 0xf4, 0xff, 0xff, 0x01, 0x00, 0x00, 0x00,
    0x15, 0x00, 0x00, 0x00, 0x03, 0x00, 0x00, 0x00, 0x14, 0x00, 0x00, 0x00,
    0x09, 0x00, 0x00, 0x00, 0x04, 0x00, 0x00, 0x00, 0x00, 0x00, 0x0e, 0x00,
    0x1a, 0x00, 0x14, 0x00, 0x10, 0x00, 0x0c, 0x00, 0x0b, 0x00, 0x04, 0x00,
    0x0e, 0x00, 0x00, 0x00, 0x1c, 0x00, 0x00, 0x00, 0x00, 0x00, 0x00, 0x08,
    0x1c, 0x00, 0x00, 0x00, 0x20, 0x00, 0x00, 0x00, 0x04, 0x00, 0x00, 0x00,
    0x00, 0x00, 0x06, 0x00, 0x08, 0x00, 0x07, 0x00, 0x06, 0x00, 0x00, 0x00,
    0x00, 0x00, 0x00, 0x01, 0x01, 0x00, 0x00, 0x00, 0x14, 0x00, 0x00, 0x00,
    0x03, 0x00, 0x00, 0x00, 0x13, 0x00, 0x00, 0x00, 0x0a, 0x00, 0x00, 0x00,
    0x01, 0x00, 0x00, 0x00, 0x0a, 0xff, 0xff, 0xff, 0x14, 0x00, 0x00, 0x00,
    0x00, 0x00, 0x00, 0x1b, 0x10, 0x00, 0x00, 0x00, 0x14, 0x00, 0x00, 0x00,
    0x03, 0x00, 0x00, 0x00, 0x04, 0xf5, 0xff, 0xff, 0x01, 0x00, 0x00, 0x00,
    0x13, 0x00, 0x00, 0x00, 0x02, 0x00, 0x00, 0x00, 0x12, 0x00, 0x00, 0x00,
    0x0b, 0x00, 0x00, 0x00, 0x6a, 0xff, 0xff, 0xff, 0x0c, 0x00, 0x00, 0x00,
    0x10, 0x00, 0x00, 0x00, 0x02, 0x00, 0x00, 0x00, 0x01, 0x00, 0x00, 0x00,
    0x12, 0x00, 0x00, 0x00, 0x02, 0x00, 0x00, 0x00, 0x11, 0x00, 0x00, 0x00,
    0x05, 0x00, 0x00, 0x00, 0x5e, 0xff, 0xff, 0xff, 0x14, 0x00, 0x00, 0x00,
    0x00, 0x00, 0x00, 0x01, 0x20, 0x00, 0x00, 0x00, 0x24, 0x00, 0x00, 0x00,
    0x01, 0x00, 0x00, 0x00, 0x50, 0xff, 0xff, 0xff, 0x00, 0x00, 0x00, 0x01,
    0x01, 0x00, 0x00, 0x00, 0x01, 0x00, 0x00, 0x00, 0x00, 0x00, 0x00, 0x01,
    0x01, 0x00, 0x00, 0x00, 0x11, 0x00, 0x00, 0x00, 0x03, 0x00, 0x00, 0x00,
    0x10, 0x00, 0x00, 0x00, 0x07, 0x00, 0x00, 0x00, 0x02, 0x00, 0x00, 0x00,
    0x42, 0xff, 0xff, 0xff, 0x10, 0x00, 0x00, 0x00, 0x00, 0x00, 0x00, 0x34,
    0x0c, 0x00, 0x00, 0x00, 0x10, 0x00, 0x00, 0x00, 0x98, 0xf5, 0xff, 0xff,
    0x01, 0x00, 0x00, 0x00, 0x10, 0x00, 0x00, 0x00, 0x02, 0x00, 0x00, 0x00,
    0x0f, 0x00, 0x00, 0x00, 0x0c, 0x00, 0x00, 0x00, 0x00, 0x00, 0x0a, 0x00,
    0x10, 0x00, 0x0c, 0x00, 0x08, 0x00, 0x04, 0x00, 0x0a, 0x00, 0x00, 0x00,
    0x0c, 0x00, 0x00, 0x00, 0x10, 0x00, 0x00, 0x00, 0x02, 0x00, 0x00, 0x00,
    0x01, 0x00, 0x00, 0x00, 0x0f, 0x00, 0x00, 0x00, 0x02, 0x00, 0x00, 0x00,
    0x0e, 0x00, 0x00, 0x00, 0x06, 0x00, 0x00, 0x00, 0x00, 0x00, 0x0e, 0x00,
    0x18, 0x00, 0x14, 0x00, 0x10, 0x00, 0x0c, 0x00, 0x0b, 0x00, 0x04, 0x00,
    0x0e, 0x00, 0x00, 0x00, 0x20, 0x00, 0x00, 0x00, 0x00, 0x00, 0x00, 0x01,
    0x2c, 0x00, 0x00, 0x00, 0x30, 0x00, 0x00, 0x00, 0x01, 0x00, 0x00, 0x00,
    0x0c, 0x00, 0x14, 0x00, 0x13, 0x00, 0x0c, 0x00, 0x08, 0x00, 0x07, 0x00,
    0x0c, 0x00, 0x00, 0x00, 0x00, 0x00, 0x00, 0x01, 0x01, 0x00, 0x00, 0x00,
    0x01, 0x00, 0x00, 0x00, 0x00, 0x00, 0x00, 0x01, 0x01, 0x00, 0x00, 0x00,
    0x0e, 0x00, 0x00, 0x00, 0x03, 0x00, 0x00, 0x00, 0x0d, 0x00, 0x00, 0x00,
    0x08, 0x00, 0x00, 0x00, 0x03, 0x00, 0x00, 0x00, 0x00, 0x00, 0x0e, 0x00,
    0x14, 0x00, 0x00, 0x00, 0x10, 0x00, 0x0c, 0x00, 0x0b, 0x00, 0x04, 0x00,
    0x0e, 0x00, 0x00, 0x00, 0x10, 0x00, 0x00, 0x00, 0x00, 0x00, 0x00, 0x34,
    0x0c, 0x00, 0x00, 0x00, 0x10, 0x00, 0x00, 0x00, 0x64, 0xf6, 0xff, 0xff,
    0x01, 0x00, 0x00, 0x00, 0x0d, 0x00, 0x00, 0x00, 0x02, 0x00, 0x00, 0x00,
    0x00, 0x00, 0x00, 0x00, 0x0c, 0x00, 0x00, 0x00, 0x01, 0x00, 0x00, 0x00,
    0x16, 0x00, 0x00, 0x00, 0x01, 0x00, 0x00, 0x00, 0x00, 0x00, 0x00, 0x00,
    0x17, 0x00, 0x00, 0x00, 0x44, 0x09, 0x00, 0x00, 0xf0, 0x08, 0x00, 0x00,
    0x9c, 0x08, 0x00, 0x00, 0x60, 0x08, 0x00, 0x00, 0x24, 0x08, 0x00, 0x00,
    0xe4, 0x07, 0x00, 0x00, 0x8c, 0x07, 0x00, 0x00, 0x44, 0x07, 0x00, 0x00,
    0xfc, 0x06, 0x00, 0x00, 0xbc, 0x06, 0x00, 0x00, 0x7c, 0x06, 0x00, 0x00,
    0x3c, 0x06, 0x00, 0x00, 0xfc, 0x05, 0x00, 0x00, 0x7c, 0x05, 0x00, 0x00,
    0xa4, 0x04, 0x00, 0x00, 0xf8, 0x03, 0x00, 0x00, 0x78, 0x03, 0x00, 0x00,
    0x98, 0x02, 0x00, 0x00, 0xe4, 0x01, 0x00, 0x00, 0x74, 0x01, 0x00, 0x00,
    0xe0, 0x00, 0x00, 0x00, 0x60, 0x00, 0x00, 0x00, 0x04, 0x00, 0x00, 0x00,
    0x2e, 0xf7, 0xff, 0xff, 0x00, 0x00, 0x00, 0x01, 0x14, 0x00, 0x00, 0x00,
    0x1c, 0x00, 0x00, 0x00, 0x1c, 0x00, 0x00, 0x00, 0x17, 0x00, 0x00, 0x00,
    0x34, 0x00, 0x00, 0x00, 0x02, 0x00, 0x00, 0x00, 0xff, 0xff, 0xff, 0xff,
    0x03, 0x00, 0x00, 0x00, 0x14, 0xf7, 0xff, 0xff, 0x1b, 0x00, 0x00, 0x00,
    0x53, 0x74, 0x61, 0x74, 0x65, 0x66, 0x75, 0x6c, 0x50, 0x61, 0x72, 0x74,
    0x69, 0x74, 0x69, 0x6f, 0x6e, 0x65, 0x64, 0x43, 0x61, 0x6c, 0x6c, 0x5f,
    0x31, 0x3a, 0x30, 0x00, 0x02, 0x00, 0x00, 0x00, 0x01, 0x00, 0x00, 0x00,
    0x03, 0x00, 0x00, 0x00, 0x86, 0xf7, 0xff, 0xff, 0x00, 0x00, 0x00, 0x01,
    0x14, 0x00, 0x00, 0x00, 0x1c, 0x00, 0x00, 0x00, 0x1c, 0x00, 0x00, 0x00,
    0x16, 0x00, 0x00, 0x00, 0x58, 0x00, 0x00, 0x00, 0x02, 0x00, 0x00, 0x00,
    0xff, 0xff, 0xff, 0xff, 0x03, 0x00, 0x00, 0x00, 0x6c, 0xf7, 0xff, 0xff,
    0x3c, 0x00, 0x00, 0x00, 0x73, 0x65, 0x71, 0x75, 0x65, 0x6e, 0x74, 0x69,
    0x61, 0x6c, 0x5f, 0x31, 0x2f, 0x64, 0x65, 0x6e, 0x73, 0x65, 0x5f, 0x31,
    0x5f, 0x32, 0x2f, 0x4d, 0x61, 0x74, 0x4d, 0x75, 0x6c, 0x3b, 0x73, 0x65,
    0x71, 0x75, 0x65, 0x6e, 0x74, 0x69, 0x61, 0x6c, 0x5f, 0x31, 0x2f, 0x64,
    0x65, 0x6e, 0x73, 0x65, 0x5f, 0x31, 0x5f, 0x32, 0x2f, 0x42, 0x69, 0x61,
    0x73, 0x41, 0x64, 0x64, 0x00, 0x00, 0x00, 0x00, 0x02, 0x00, 0x00, 0x00,
    0x01, 0x00, 0x00, 0x00, 0x03, 0x00, 0x00, 0x00, 0x02, 0xf8, 0xff, 0xff,
    0x00, 0x00, 0x00, 0x01, 0x14, 0x00, 0x00, 0x00, 0x1c, 0x00, 0x00, 0x00,
    0x1c, 0x00, 0x00, 0x00, 0x15, 0x00, 0x00, 0x00, 0x6c, 0x00, 0x00, 0x00,
    0x02, 0x00, 0x00, 0x00, 0xff, 0xff, 0xff, 0xff, 0x20, 0x00, 0x00, 0x00,
    0xe8, 0xf7, 0xff, 0xff, 0x52, 0x00, 0x00, 0x00, 0x73, 0x65, 0x71, 0x75,
    0x65, 0x6e, 0x74, 0x69, 0x61, 0x6c, 0x5f, 0x31, 0x2f, 0x64, 0x65, 0x6e,
    0x73, 0x65, 0x5f, 0x31, 0x2f, 0x4d, 0x61, 0x74, 0x4d, 0x75, 0x6c, 0x3b,
    0x73, 0x65, 0x71, 0x75, 0x65, 0x6e, 0x74, 0x69, 0x61, 0x6c, 0x5f, 0x31,
    0x2f, 0x64, 0x65, 0x6e, 0x73, 0x65, 0x5f, 0x31, 0x2f, 0x52, 0x65, 0x6c,
    0x75, 0x3b, 0x73, 0x65, 0x71, 0x75, 0x65, 0x6e, 0x74, 0x69, 0x61, 0x6c,
    0x5f, 0x31, 0x2f, 0x64, 0x65, 0x6e, 0x73, 0x65, 0x5f, 0x31, 0x2f, 0x42,
    0x69, 0x61, 0x73, 0x41, 0x64, 0x64, 0x00, 0x00, 0x02, 0x00, 0x00, 0x00,
    0x01, 0x00, 0x00, 0x00, 0x20, 0x00, 0x00, 0x00, 0x92, 0xf8, 0xff, 0xff,
    0x00, 0x00, 0x00, 0x01, 0x14, 0x00, 0x00, 0x00, 0x1c, 0x00, 0x00, 0x00,
    0x1c, 0x00, 0x00, 0x00, 0x14, 0x00, 0x00, 0x00, 0x48, 0x00, 0x00, 0x00,
    0x02, 0x00, 0x00, 0x00, 0xff, 0xff, 0xff, 0xff, 0x10, 0x00, 0x00, 0x00,
    0x78, 0xf8, 0xff, 0xff, 0x2c, 0x00, 0x00, 0x00, 0x73, 0x65, 0x71, 0x75,
    0x65, 0x6e, 0x74, 0x69, 0x61, 0x6c, 0x5f, 0x31, 0x2f, 0x67, 0x6c, 0x6f,
    0x62, 0x61, 0x6c, 0x5f, 0x61, 0x76, 0x65, 0x72, 0x61, 0x67, 0x65, 0x5f,
    0x70, 0x6f, 0x6f, 0x6c, 0x69, 0x6e, 0x67, 0x31, 0x64, 0x5f, 0x31, 0x2f,
    0x4d, 0x65, 0x61, 0x6e, 0x00, 0x00, 0x00, 0x00, 0x02, 0x00, 0x00, 0x00,
    0x01, 0x00, 0x00, 0x00, 0x10, 0x00, 0x00, 0x00, 0xfe, 0xf8, 0xff, 0xff,
    0x00, 0x00, 0x00, 0x01, 0x14, 0x00, 0x00, 0x00, 0x20, 0x00, 0x00, 0x00,
    0x20, 0x00, 0x00, 0x00, 0x13, 0x00, 0x00, 0x00, 0x88, 0x00, 0x00, 0x00,
    0x03, 0x00, 0x00, 0x00, 0xff, 0xff, 0xff, 0xff, 0x06, 0x00, 0x00, 0x00,
    0x10, 0x00, 0x00, 0x00, 0xe8, 0xf8, 0xff, 0xff, 0x69, 0x00, 0x00, 0x00,
    0x73, 0x65, 0x71, 0x75, 0x65, 0x6e, 0x74, 0x69, 0x61, 0x6c, 0x5f, 0x31,
    0x2f, 0x63, 0x6f, 0x6e, 0x76, 0x31, 0x64, 0x5f, 0x31, 0x5f, 0x32, 0x2f,
    0x52, 0x65, 0x6c, 0x75, 0x3b, 0x73, 0x65, 0x71, 0x75, 0x65, 0x6e, 0x74,
    0x69, 0x61, 0x6c, 0x5f, 0x31, 0x2f, 0x63, 0x6f, 0x6e, 0x76, 0x31, 0x64,
    0x5f, 0x31, 0x5f, 0x32, 0x2f, 0x42, 0x69, 0x61, 0x73, 0x41, 0x64, 0x64,
    0x3b, 0x73, 0x65, 0x71, 0x75, 0x65, 0x6e, 0x74, 0x69, 0x61, 0x6c, 0x5f,
    0x31, 0x2f, 0x63, 0x6f, 0x6e, 0x76, 0x31, 0x64, 0x5f, 0x31, 0x5f, 0x32,
    0x2f, 0x63, 0x6f, 0x6e, 0x76, 0x6f, 0x6c, 0x75, 0x74, 0x69, 0x6f, 0x6e,
    0x2f, 0x53, 0x71, 0x75, 0x65, 0x65, 0x7a, 0x65, 0x3b, 0x00, 0x00, 0x00,
    0x03, 0x00, 0x00, 0x00, 0x01, 0x00, 0x00, 0x00, 0x06, 0x00, 0x00, 0x00,
    0x10, 0x00, 0x00, 0x00, 0xae, 0xf9, 0xff, 0xff, 0x00, 0x00, 0x00, 0x01,
    0x14, 0x00, 0x00, 0x00, 0x24, 0x00, 0x00, 0x00, 0x24, 0x00, 0x00, 0x00,
    0x12, 0x00, 0x00, 0x00, 0xb0, 0x00, 0x00, 0x00, 0x04, 0x00, 0x00, 0x00,
    0xff, 0xff, 0xff, 0xff, 0x01, 0x00, 0x00, 0x00, 0x06, 0x00, 0x00, 0x00,
    0x10, 0x00, 0x00, 0x00, 0x9c, 0xf9, 0xff, 0xff, 0x8d, 0x00, 0x00, 0x00,
    0x73, 0x65, 0x71, 0x75, 0x65, 0x6e, 0x74, 0x69, 0x61, 0x6c, 0x5f, 0x31,
    0x2f, 0x63, 0x6f, 0x6e, 0x76, 0x31, 0x64, 0x5f, 0x31, 0x5f, 0x32, 0x2f,
    0x52, 0x65, 0x6c, 0x75, 0x3b, 0x73, 0x65, 0x71, 0x75, 0x65, 0x6e, 0x74,
    0x69, 0x61, 0x6c, 0x5f, 0x31, 0x2f, 0x63, 0x6f, 0x6e, 0x76, 0x31, 0x64,
    0x5f, 0x31, 0x5f, 0x32, 0x2f, 0x42, 0x69, 0x61, 0x73, 0x41, 0x64, 0x64,
    0x3b, 0x73, 0x65, 0x71, 0x75, 0x65, 0x6e, 0x74, 0x69, 0x61, 0x6c, 0x5f,
    0x31, 0x2f, 0x63, 0x6f, 0x6e, 0x76, 0x31, 0x64, 0x5f, 0x31, 0x5f, 0x32,
    0x2f, 0x63, 0x6f, 0x6e, 0x76, 0x6f, 0x6c, 0x75, 0x74, 0x69, 0x6f, 0x6e,
    0x2f, 0x53, 0x71, 0x75, 0x65, 0x65, 0x7a, 0x65, 0x3b, 0x3b, 0x73, 0x65,
    0x71, 0x75, 0x65, 0x6e, 0x74, 0x69, 0x61, 0x6c, 0x5f, 0x31, 0x2f, 0x63,
    0x6f, 0x6e, 0x76, 0x31, 0x64, 0x5f, 0x31, 0x5f, 0x32, 0x2f, 0x63, 0x6f,
    0x6e, 0x76, 0x6f, 0x6c, 0x75, 0x74, 0x69, 0x6f, 0x6e, 0x00, 0x00, 0x00,
    0x04, 0x00, 0x00, 0x00, 0x01, 0x00, 0x00, 0x00, 0x01, 0x00, 0x00, 0x00,
    0x06, 0x00, 0x00, 0x00, 0x10, 0x00, 0x00, 0x00, 0x8a, 0xfa, 0xff, 0xff,
    0x00, 0x00, 0x00, 0x01, 0x14, 0x00, 0x00, 0x00, 0x24, 0x00, 0x00, 0x00,
    0x24, 0x00, 0x00, 0x00, 0x11, 0x00, 0x00, 0x00, 0x50, 0x00, 0x00, 0x00,
    0x04, 0x00, 0x00, 0x00, 0xff, 0xff, 0xff, 0xff, 0x01, 0x00, 0x00, 0x00,
    0x08, 0x00, 0x00, 0x00, 0x10, 0x00, 0x00, 0x00, 0x78, 0xfa, 0xff, 0xff,
    0x2e, 0x00, 0x00, 0x00, 0x73, 0x65, 0x71, 0x75, 0x65, 0x6e, 0x74, 0x69,
    0x61, 0x6c, 0x5f, 0x31, 0x2f, 0x63, 0x6f, 0x6e, 0x76, 0x31, 0x64, 0x5f,
    0x31, 0x5f, 0x32, 0x2f, 0x63, 0x6f, 0x6e, 0x76, 0x6f, 0x6c, 0x75, 0x74,
    0x69, 0x6f, 0x6e, 0x2f, 0x45, 0x78, 0x70, 0x61, 0x6e, 0x64, 0x44, 0x69,
    0x6d, 0x73, 0x00, 0x00, 0x04, 0x00, 0x00, 0x00, 0x01, 0x00, 0x00, 0x00,
    0x01, 0x00, 0x00, 0x00, 0x08, 0x00, 0x00, 0x00, 0x10, 0x00, 0x00, 0x00,
    0x06, 0xfb, 0xff, 0xff, 0x00, 0x00, 0x00, 0x01, 0x14, 0x00, 0x00, 0x00,
    0x20, 0x00, 0x00, 0x00, 0x20, 0x00, 0x00, 0x00, 0x10, 0x00, 0x00, 0x00,
    0x80, 0x00, 0x00, 0x00, 0x03, 0x00, 0x00, 0x00, 0xff, 0xff, 0xff, 0xff,
    0x08, 0x00, 0x00, 0x00, 0x10, 0x00, 0x00, 0x00, 0xf0, 0xfa, 0xff, 0xff,
    0x63, 0x00, 0x00, 0x00, 0x73, 0x65, 0x71, 0x75, 0x65, 0x6e, 0x74, 0x69,
    0x61, 0x6c, 0x5f, 0x31, 0x2f, 0x63, 0x6f, 0x6e, 0x76, 0x31, 0x64, 0x5f,
    0x31, 0x2f, 0x52, 0x65, 0x6c, 0x75, 0x3b, 0x73, 0x65, 0x71, 0x75, 0x65,
    0x6e, 0x74, 0x69, 0x61, 0x6c, 0x5f, 0x31, 0x2f, 0x63, 0x6f, 0x6e, 0x76,
    0x31, 0x64, 0x5f, 0x31, 0x2f, 0x42, 0x69, 0x61, 0x73, 0x41, 0x64, 0x64,
    0x3b, 0x73, 0x65, 0x71, 0x75, 0x65, 0x6e, 0x74, 0x69, 0x61, 0x6c, 0x5f,
    0x31, 0x2f, 0x63, 0x6f, 0x6e, 0x76, 0x31, 0x64, 0x5f, 0x31, 0x2f, 0x63,
    0x6f, 0x6e, 0x76, 0x6f, 0x6c, 0x75, 0x74, 0x69, 0x6f, 0x6e, 0x2f, 0x53,
    0x71, 0x75, 0x65, 0x65, 0x7a, 0x65, 0x3b, 0x00, 0x03, 0x00, 0x00, 0x00,
    0x01, 0x00, 0x00, 0x00, 0x08, 0x00, 0x00, 0x00, 0x10, 0x00, 0x00, 0x00,
    0xae, 0xfb, 0xff, 0xff, 0x00, 0x00, 0x00, 0x01, 0x14, 0x00, 0x00, 0x00,
    0x24, 0x00, 0x00, 0x00, 0x24, 0x00, 0x00, 0x00, 0x0f, 0x00, 0x00, 0x00,
    0xa8, 0x00, 0x00, 0x00, 0x04, 0x00, 0x00, 0x00, 0xff, 0xff, 0xff, 0xff,
    0x01, 0x00, 0x00, 0x00, 0x08, 0x00, 0x00, 0x00, 0x10, 0x00, 0x00, 0x00,
    0x9c, 0xfb, 0xff, 0xff, 0x85, 0x00, 0x00, 0x00, 0x73, 0x65, 0x71, 0x75,
    0x65, 0x6e, 0x74, 0x69, 0x61, 0x6c, 0x5f, 0x31, 0x2f, 0x63, 0x6f, 0x6e,
    0x76, 0x31, 0x64, 0x5f, 0x31, 0x2f, 0x52, 0x65, 0x6c, 0x75, 0x3b, 0x73,
    0x65, 0x71, 0x75, 0x65, 0x6e, 0x74, 0x69, 0x61, 0x6c, 0x5f, 0x31, 0x2f,
    0x63, 0x6f, 0x6e, 0x76, 0x31, 0x64, 0x5f, 0x31, 0x2f, 0x42, 0x69, 0x61,
    0x73, 0x41, 0x64, 0x64, 0x3b, 0x73, 0x65, 0x71, 0x75, 0x65, 0x6e, 0x74,
    0x69, 0x61, 0x6c, 0x5f, 0x31, 0x2f, 0x63, 0x6f, 0x6e, 0x76, 0x31, 0x64,
    0x5f, 0x31, 0x2f, 0x63, 0x6f, 0x6e, 0x76, 0x6f, 0x6c, 0x75, 0x74, 0x69,
    0x6f, 0x6e, 0x2f, 0x53, 0x71, 0x75, 0x65, 0x65, 0x7a, 0x65, 0x3b, 0x3b,
    0x73, 0x65, 0x71, 0x75, 0x65, 0x6e, 0x74, 0x69, 0x61, 0x6c, 0x5f, 0x31,
    0x2f, 0x63, 0x6f, 0x6e, 0x76, 0x31, 0x64, 0x5f, 0x31, 0x2f, 0x63, 0x6f,
    0x6e, 0x76, 0x6f, 0x6c, 0x75, 0x74, 0x69, 0x6f, 0x6e, 0x00, 0x00, 0x00,
    0x04, 0x00, 0x00, 0x00, 0x01, 0x00, 0x00, 0x00, 0x01, 0x00, 0x00, 0x00,
    0x08, 0x00, 0x00, 0x00, 0x10, 0x00, 0x00, 0x00, 0x82, 0xfc, 0xff, 0xff,
    0x00, 0x00, 0x00, 0x01, 0x14, 0x00, 0x00, 0x00, 0x24, 0x00, 0x00, 0x00,
    0x24, 0x00, 0x00, 0x00, 0x0e, 0x00, 0x00, 0x00, 0x50, 0x00, 0x00, 0x00,
    0x04, 0x00, 0x00, 0x00, 0xff, 0xff, 0xff, 0xff, 0x01, 0x00, 0x00, 0x00,
    0x0a, 0x00, 0x00, 0x00, 0x02, 0x00, 0x00, 0x00, 0x70, 0xfc, 0xff, 0xff,
    0x2c, 0x00, 0x00, 0x00, 0x73, 0x65, 0x71, 0x75, 0x65, 0x6e, 0x74, 0x69,
    0x61, 0x6c, 0x5f, 0x31, 0x2f, 0x63, 0x6f, 0x6e, 0x76, 0x31, 0x64, 0x5f,
    0x31, 0x2f, 0x63, 0x6f, 0x6e, 0x76, 0x6f, 0x6c, 0x75, 0x74, 0x69, 0x6f,
    0x6e, 0x2f, 0x45, 0x78, 0x70, 0x61, 0x6e, 0x64, 0x44, 0x69, 0x6d, 0x73,
    0x00, 0x00, 0x00, 0x00, 0x04, 0x00, 0x00, 0x00, 0x01, 0x00, 0x00, 0x00,
    0x01, 0x00, 0x00, 0x00, 0x0a, 0x00, 0x00, 0x00, 0x02, 0x00, 0x00, 0x00,
    0x4a, 0xfe, 0xff, 0xff, 0x00, 0x00, 0x00, 0x01, 0x14, 0x00, 0x00, 0x00,
    0x14, 0x00, 0x00, 0x00, 0x0d, 0x00, 0x00, 0x00, 0x00, 0x00, 0x00, 0x02,
    0x20, 0x00, 0x00, 0x00, 0xd8, 0xfc, 0xff, 0xff, 0x10, 0x00, 0x00, 0x00,
    0x61, 0x72, 0x69, 0x74, 0x68, 0x2e, 0x63, 0x6f, 0x6e, 0x73, 0x74, 0x61,
    0x6e, 0x74, 0x31, 0x31, 0x00, 0x00, 0x00, 0x00, 0x00, 0x00, 0x00, 0x00,
    0x86, 0xfe, 0xff, 0xff, 0x00, 0x00, 0x00, 0x01, 0x14, 0x00, 0x00, 0x00,
    0x14, 0x00, 0x00, 0x00, 0x0c, 0x00, 0x00, 0x00, 0x00, 0x00, 0x00, 0x02,
    0x20, 0x00, 0x00, 0x00, 0x14, 0xfd, 0xff, 0xff, 0x10, 0x00, 0x00, 0x00,
    0x61, 0x72, 0x69, 0x74, 0x68, 0x2e, 0x63, 0x6f, 0x6e, 0x73, 0x74, 0x61,
    0x6e, 0x74, 0x31, 0x30, 0x00, 0x00, 0x00, 0x00, 0x00, 0x00, 0x00, 0x00,
    0xc6, 0xfd, 0xff, 0xff, 0x00, 0x00, 0x00, 0x01, 0x10, 0x00, 0x00, 0x00,
    0x10, 0x00, 0x00, 0x00, 0x0b, 0x00, 0x00, 0x00, 0x1c, 0x00, 0x00, 0x00,
    0x4c, 0xfd, 0xff, 0xff, 0x0f, 0x00, 0x00, 0x00, 0x61, 0x72, 0x69, 0x74,
    0x68, 0x2e, 0x63, 0x6f, 0x6e, 0x73, 0x74, 0x61, 0x6e, 0x74, 0x39, 0x00,
    0x02, 0x00, 0x00, 0x00, 0x20, 0x00, 0x00, 0x00, 0x10, 0x00, 0x00, 0x00,
    0x02, 0xfe, 0xff, 0xff, 0x00, 0x00, 0x00, 0x01, 0x10, 0x00, 0x00, 0x00,
    0x10, 0x00, 0x00, 0x00, 0x0a, 0x00, 0x00, 0x00, 0x1c, 0x00, 0x00, 0x00,
    0x88, 0xfd, 0xff, 0xff, 0x0f, 0x00, 0x00, 0x00, 0x61, 0x72, 0x69, 0x74,
    0x68, 0x2e, 0x63, 0x6f, 0x6e, 0x73, 0x74, 0x61, 0x6e, 0x74, 0x38, 0x00,
    0x02, 0x00, 0x00, 0x00, 0x03, 0x00, 0x00, 0x00, 0x20, 0x00, 0x00, 0x00,
    0x3e, 0xfe, 0xff, 0xff, 0x00, 0x00, 0x00, 0x01, 0x10, 0x00, 0x00, 0x00,
    0x10, 0x00, 0x00, 0x00, 0x09, 0x00, 0x00, 0x00, 0x1c, 0x00, 0x00, 0x00,
    0xc4, 0xfd, 0xff, 0xff, 0x0f, 0x00, 0x00, 0x00, 0x61, 0x72, 0x69, 0x74,
    0x68, 0x2e, 0x63, 0x6f, 0x6e, 0x73, 0x74, 0x61, 0x6e, 0x74, 0x37, 0x00,
    0x04, 0x00, 0x00, 0x00, 0x10, 0x00, 0x00, 0x00, 0x01, 0x00, 0x00, 0x00,
    0x03, 0x00, 0x00, 0x00, 0x02, 0x00, 0x00, 0x00, 0x82, 0xfe, 0xff, 0xff,
    0x00, 0x00, 0x00, 0x01, 0x10, 0x00, 0x00, 0x00, 0x10, 0x00, 0x00, 0x00,
    0x08, 0x00, 0x00, 0x00, 0x1c, 0x00, 0x00, 0x00, 0x08, 0xfe, 0xff, 0xff,
    0x0f, 0x00, 0x00, 0x00, 0x61, 0x72, 0x69, 0x74, 0x68, 0x2e, 0x63, 0x6f,
    0x6e, 0x73, 0x74, 0x61, 0x6e, 0x74, 0x36, 0x00, 0x04, 0x00, 0x00, 0x00,
    0x10, 0x00, 0x00, 0x00, 0x01, 0x00, 0x00, 0x00, 0x03, 0x00, 0x00, 0x00,
    0x10, 0x00, 0x00, 0x00, 0xc2, 0xff, 0xff, 0xff, 0x00, 0x00, 0x00, 0x01,
    0x14, 0x00, 0x00, 0x00, 0x14, 0x00, 0x00, 0x00, 0x07, 0x00, 0x00, 0x00,
    0x00, 0x00, 0x00, 0x02, 0x1c, 0x00, 0x00, 0x00, 0x50, 0xfe, 0xff, 0xff,
    0x0f, 0x00, 0x00, 0x00, 0x61, 0x72, 0x69, 0x74, 0x68, 0x2e, 0x63, 0x6f,
    0x6e, 0x73, 0x74, 0x61, 0x6e, 0x74, 0x35, 0x00, 0x01, 0x00, 0x00, 0x00,
    0x03, 0x00, 0x00, 0x00, 0x00, 0x00, 0x16, 0x00, 0x1c, 0x00, 0x18, 0x00,
    0x17, 0x00, 0x10, 0x00, 0x0c, 0x00, 0x08, 0x00, 0x00, 0x00, 0x00, 0x00,
    0x00, 0x00, 0x07, 0x00, 0x16, 0x00, 0x00, 0x00, 0x00, 0x00, 0x00, 0x01,
    0x14, 0x00, 0x00, 0x00, 0x14, 0x00, 0x00, 0x00, 0x06, 0x00, 0x00, 0x00,
    0x00, 0x00, 0x00, 0x02, 0x1c, 0x00, 0x00, 0x00, 0xa4, 0xfe, 0xff, 0xff,
    0x0f, 0x00, 0x00, 0x00, 0x61, 0x72, 0x69, 0x74, 0x68, 0x2e, 0x63, 0x6f,
    0x6e, 0x73, 0x74, 0x61, 0x6e, 0x74, 0x34, 0x00, 0x01, 0x00, 0x00, 0x00,
    0x03, 0x00, 0x00, 0x00, 0x56, 0xff, 0xff, 0xff, 0x00, 0x00, 0x00, 0x01,
    0x10, 0x00, 0x00, 0x00, 0x10, 0x00, 0x00, 0x00, 0x05, 0x00, 0x00, 0x00,
    0x1c, 0x00, 0x00, 0x00, 0xdc, 0xfe, 0xff, 0xff, 0x0f, 0x00, 0x00, 0x00,
    0x61, 0x72, 0x69, 0x74, 0x68, 0x2e, 0x63, 0x6f, 0x6e, 0x73, 0x74, 0x61,
    0x6e, 0x74, 0x33, 0x00, 0x01, 0x00, 0x00, 0x00, 0x03, 0x00, 0x00, 0x00,
    0x8e, 0xff, 0xff, 0xff, 0x00, 0x00, 0x00, 0x01, 0x10, 0x00, 0x00, 0x00,
    0x10, 0x00, 0x00, 0x00, 0x04, 0x00, 0x00, 0x00, 0x1c, 0x00, 0x00, 0x00,
    0x14, 0xff, 0xff, 0xff, 0x0f, 0x00, 0x00, 0x00, 0x61, 0x72, 0x69, 0x74,
    0x68, 0x2e, 0x63, 0x6f, 0x6e, 0x73, 0x74, 0x61, 0x6e, 0x74, 0x32, 0x00,
    0x01, 0x00, 0x00, 0x00, 0x10, 0x00, 0x00, 0x00, 0xc6, 0xff, 0xff, 0xff,
    0x00, 0x00, 0x00, 0x01, 0x10, 0x00, 0x00, 0x00, 0x10, 0x00, 0x00, 0x00,
    0x03, 0x00, 0x00, 0x00, 0x1c, 0x00, 0x00, 0x00, 0x4c, 0xff, 0xff, 0xff,
    0x0f, 0x00, 0x00, 0x00, 0x61, 0x72, 0x69, 0x74, 0x68, 0x2e, 0x63, 0x6f,
    0x6e, 0x73, 0x74, 0x61, 0x6e, 0x74, 0x31, 0x00, 0x01, 0x00, 0x00, 0x00,
    0x10, 0x00, 0x00, 0x00, 0x00, 0x00, 0x16, 0x00, 0x18, 0x00, 0x14, 0x00,
    0x00, 0x00, 0x10, 0x00, 0x0c, 0x00, 0x08, 0x00, 0x00, 0x00, 0x00, 0x00,
    0x00, 0x00, 0x07, 0x00, 0x16, 0x00, 0x00, 0x00, 0x00, 0x00, 0x00, 0x01,
    0x10, 0x00, 0x00, 0x00, 0x10, 0x00, 0x00, 0x00, 0x02, 0x00, 0x00, 0x00,
    0x1c, 0x00, 0x00, 0x00, 0x9c, 0xff, 0xff, 0xff, 0x0e, 0x00, 0x00, 0x00,
    0x61, 0x72, 0x69, 0x74, 0x68, 0x2e, 0x63, 0x6f, 0x6e, 0x73, 0x74, 0x61,
    0x6e, 0x74, 0x00, 0x00, 0x01, 0x00, 0x00, 0x00, 0x20, 0x00, 0x00, 0x00,
    0x00, 0x00, 0x16, 0x00, 0x1c, 0x00, 0x18, 0x00, 0x00, 0x00, 0x14, 0x00,
    0x10, 0x00, 0x0c, 0x00, 0x00, 0x00, 0x00, 0x00, 0x08, 0x00, 0x07, 0x00,
    0x16, 0x00, 0x00, 0x00, 0x00, 0x00, 0x00, 0x01, 0x14, 0x00, 0x00, 0x00,
    0x24, 0x00, 0x00, 0x00, 0x24, 0x00, 0x00, 0x00, 0x01, 0x00, 0x00, 0x00,
    0x40, 0x00, 0x00, 0x00, 0x03, 0x00, 0x00, 0x00, 0xff, 0xff, 0xff, 0xff,
    0x0a, 0x00, 0x00, 0x00, 0x02, 0x00, 0x00, 0x00, 0x04, 0x00, 0x04, 0x00,
    0x04, 0x00, 0x00, 0x00, 0x1e, 0x00, 0x00, 0x00, 0x73, 0x65, 0x72, 0x76,
    0x69, 0x6e, 0x67, 0x5f, 0x64, 0x65, 0x66, 0x61, 0x75, 0x6c, 0x74, 0x5f,
    0x6b, 0x65, 0x72, 0x61, 0x73, 0x5f, 0x74, 0x65, 0x6e, 0x73, 0x6f, 0x72,
    0x3a, 0x30, 0x00, 0x00, 0x03, 0x00, 0x00, 0x00, 0x01, 0x00, 0x00, 0x00,
    0x0a, 0x00, 0x00, 0x00, 0x02, 0x00, 0x00, 0x00, 0x06, 0x00, 0x00, 0x00,
    0x60, 0x00, 0x00, 0x00, 0x44, 0x00, 0x00, 0x00, 0x34, 0x00, 0x00, 0x00,
    0x24, 0x00, 0x00, 0x00, 0x14, 0x00, 0x00, 0x00, 0x04, 0x00, 0x00, 0x00,
    0xc4, 0xff, 0xff, 0xff, 0x19, 0x00, 0x00, 0x00, 0x00, 0x00, 0x00, 0x19,
    0xd0, 0xff, 0xff, 0xff, 0x09, 0x00, 0x00, 0x00, 0x00, 0x00, 0x00, 0x09,
    0xdc, 0xff, 0xff, 0xff, 0x28, 0x00, 0x00, 0x00, 0x00, 0x00, 0x00, 0x28,
    0xe8, 0xff, 0xff, 0xff, 0x16, 0x00, 0x00, 0x00, 0x00, 0x00, 0x00, 0x16,
    0xf4, 0xff, 0xff, 0xff, 0x03, 0x00, 0x00, 0x00, 0x00, 0x00, 0x00, 0x03,
    0x0c, 0x00, 0x0c, 0x00, 0x0b, 0x00, 0x00, 0x00, 0x00, 0x00, 0x04, 0x00,
    0x0c, 0x00, 0x00, 0x00, 0x46, 0x00, 0x00, 0x00, 0x00, 0x00, 0x00, 0x46,

};
const unsigned int model_len = sizeof(g_model);

#endif
