/**
 * TFLite / LiteRT model byte array.
 *
 * Auto-generated by model_to_tflite.py
 * Timestamp  : 2026-03-01 09:17 UTC
 * Source     : model.tflite
 * Model size : 28,652 bytes
 * Quantized  : no (float32)
 *
 * Usage (Arduino / TFLite Micro):
 *
 *   #include "model.h"
 *   const tflite::Model* model = tflite::GetModel(g_model);
 */

#ifndef MODEL_H
#define MODEL_H

/* 8-byte alignment required by TFLite Micro */
alignas(8) const unsigned char g_model[] = {
    0x1c, 0x00, 0x00, 0x00, 0x54, 0x46, 0x4c, 0x33, 0x14, 0x00, 0x20, 0x00,
    0x1c, 0x00, 0x18, 0x00, 0x14, 0x00, 0x10, 0x00, 0x0c, 0x00, 0x00, 0x00,
    0x08, 0x00, 0x04, 0x00, 0x14, 0x00, 0x00, 0x00, 0x1c, 0x00, 0x00, 0x00,
    0x1c, 0x00, 0x00, 0x00, 0x74, 0x00, 0x00, 0x00, 0x38, 0x65, 0x00, 0x00,
    0x48, 0x65, 0x00, 0x00, 0x58, 0x6f, 0x00, 0x00, 0x03, 0x00, 0x00, 0x00,
    0x00, 0x00, 0x00, 0x00, 0x02, 0x00, 0x00, 0x00, 0x34, 0x00, 0x00, 0x00,
    0x04, 0x00, 0x00, 0x00, 0xdc, 0xff, 0xff, 0xff, 0x16, 0x00, 0x00, 0x00,
    0x04, 0x00, 0x00, 0x00, 0x13, 0x00, 0x00, 0x00, 0x43, 0x4f, 0x4e, 0x56,
    0x45, 0x52, 0x53, 0x49, 0x4f, 0x4e, 0x5f, 0x4d, 0x45, 0x54, 0x41, 0x44,
    0x41, 0x54, 0x41, 0x00, 0x08, 0x00, 0x0c, 0x00, 0x08, 0x00, 0x04, 0x00,
    0x08, 0x00, 0x00, 0x00, 0x15, 0x00, 0x00, 0x00, 0x04, 0x00, 0x00, 0x00,
    0x13, 0x00, 0x00, 0x00, 0x6d, 0x69, 0x6e, 0x5f, 0x72, 0x75, 0x6e, 0x74,
    0x69, 0x6d, 0x65, 0x5f, 0x76, 0x65, 0x72, 0x73, 0x69, 0x6f, 0x6e, 0x00,
    0x17, 0x00, 0x00, 0x00, 0xc0, 0x64, 0x00, 0x00, 0xb8, 0x64, 0x00, 0x00,
    0xa8, 0x63, 0x00, 0x00, 0x18, 0x63, 0x00, 0x00, 0x88, 0x62, 0x00, 0x00,
    0x64, 0x62, 0x00, 0x00, 0x48, 0x62, 0x00, 0x00, 0x38, 0x32, 0x00, 0x00,
    0x28, 0x26, 0x00, 0x00, 0x18, 0x21, 0x00, 0x00, 0x08, 0x01, 0x00, 0x00,
    0xf4, 0x00, 0x00, 0x00, 0xd4, 0x00, 0x00, 0x00, 0xcc, 0x00, 0x00, 0x00,
    0xc4, 0x00, 0x00, 0x00, 0xbc, 0x00, 0x00, 0x00, 0xb4, 0x00, 0x00, 0x00,
    0xac, 0x00, 0x00, 0x00, 0xa4, 0x00, 0x00, 0x00, 0x9c, 0x00, 0x00, 0x00,
    0x94, 0x00, 0x00, 0x00, 0x74, 0x00, 0x00, 0x00, 0x04, 0x00, 0x00, 0x00,
    0x0a, 0x9b, 0xff, 0xff, 0x04, 0x00, 0x00, 0x00, 0x60, 0x00, 0x00, 0x00,
    0x10, 0x00, 0x00, 0x00, 0x00, 0x00, 0x00, 0x00, 0x08, 0x00, 0x0e, 0x00,
    0x08, 0x00, 0x04, 0x00, 0x08, 0x00, 0x00, 0x00, 0x10, 0x00, 0x00, 0x00,
    0x24, 0x00, 0x00, 0x00, 0x00, 0x00, 0x06, 0x00, 0x08, 0x00, 0x04, 0x00,
    0x06, 0x00, 0x00, 0x00, 0x04, 0x00, 0x00, 0x00, 0x00, 0x00, 0x00, 0x00,
    0x0c, 0x00, 0x18, 0x00, 0x14, 0x00, 0x10, 0x00, 0x0c, 0x00, 0x04, 0x00,
    0x0c, 0x00, 0x00, 0x00, 0x62, 0xb7, 0x00, 0xed, 0x62, 0x94, 0x8a, 0xc8,
    0x03, 0x00, 0x00, 0x00, 0x02, 0x00, 0x00, 0x00, 0x04, 0x00, 0x00, 0x00,
    0x06, 0x00, 0x00, 0x00, 0x32, 0x2e, 0x32, 0x30, 0x2e, 0x30, 0x00, 0x00,
    0x76, 0x9b, 0xff, 0xff, 0x04, 0x00, 0x00, 0x00, 0x10, 0x00, 0x00, 0x00,
    0x31, 0x2e, 0x36, 0x2e, 0x30, 0x00, 0x00, 0x00, 0x00, 0x00, 0x00, 0x00,
    0x00, 0x00, 0x00, 0x00, 0x18, 0x92, 0xff, 0xff, 0x1c, 0x92, 0xff, 0xff,
    0x20, 0x92, 0xff, 0xff, 0x24, 0x92, 0xff, 0xff, 0x28, 0x92, 0xff, 0xff,
    0x2c, 0x92, 0xff, 0xff, 0x30, 0x92, 0xff, 0xff, 0x34, 0x92, 0xff, 0xff,
    0xb2, 0x9b, 0xff, 0xff, 0x04, 0x00, 0x00, 0x00, 0x10, 0x00, 0x00, 0x00,
    0x01, 0x00, 0x00, 0x00, 0x01, 0x00, 0x00, 0x00, 0x0a, 0x00, 0x00, 0x00,
    0x08, 0x00, 0x00, 0x00, 0xce, 0x9b, 0xff, 0xff, 0x04, 0x00, 0x00, 0x00,
    0x04, 0x00, 0x00, 0x00, 0x01, 0x00, 0x00, 0x00, 0xde, 0x9b, 0xff, 0xff,
    0x04, 0x00, 0x00, 0x00, 0x00, 0x20, 0x00, 0x00, 0xc3, 0xcd, 0xd9, 0x3e,
    0x83, 0x9f, 0xd7, 0xbe, 0x05, 0x1d, 0xf2, 0xbd, 0x71, 0x4f, 0x65, 0xbe,
    0x22, 0xbc, 0x2a, 0xbe, 0x86, 0xbb, 0x5b, 0xbe, 0xbe, 0x1d, 0x35, 0xbd,
    0xb1, 0x5d, 0xb6, 0x3e, 0x81, 0x8a, 0xec, 0xbd, 0x6f, 0xed, 0x20, 0xbe,
    0x9e, 0x3d, 0x94, 0xbe, 0x14, 0xd0, 0xc8, 0x3d, 0x6c, 0x3e, 0x47, 0x3e,
    0xf8, 0xa0, 0x09, 0x3f, 0xf9, 0x80, 0xa3, 0xbd, 0xfa, 0x25, 0x49, 0xbd,
    0x5d, 0x75, 0x96, 0xbe, 0xbc, 0x3e, 0x81, 0x3d, 0x91, 0xdf, 0x1e, 0xbd,
    0x6c, 0xbf, 0xc7, 0x3d, 0x51, 0xa1, 0xb6, 0x3d, 0x43, 0x57, 0x9c, 0xbe,
    0xdb, 0xaa, 0x9a, 0x3e, 0x85, 0x22, 0x97, 0xbe, 0x27, 0x03, 0x5b, 0xbe,
    0x3d, 0x64, 0x9c, 0x3d, 0xab, 0x60, 0x99, 0x3b, 0x57, 0x3b, 0x74, 0x3f,
    0x36, 0xd5, 0x92, 0x3e, 0x44, 0xe1, 0x0f, 0x3e, 0x88, 0xbd, 0x76, 0xbe,
    0x09, 0xbe, 0x8a, 0x3e, 0xe7, 0xf3, 0xaa, 0x3e, 0xa7, 0x85, 0xc1, 0xbe,
    0x7e, 0xf4, 0x84, 0xbe, 0xdd, 0x40, 0x77, 0xbd, 0x06, 0x30, 0x43, 0xbe,
    0x8f, 0xcd, 0x9f, 0xbb, 0x59, 0x72, 0xee, 0x3d, 0xa8, 0x2b, 0x68, 0xbe,
    0x88, 0x56, 0x8d, 0xbe, 0xe8, 0x7b, 0x99, 0xbc, 0xa5, 0xcd, 0xe6, 0x3b,
    0xc1, 0x17, 0x44, 0xbe, 0x69, 0x46, 0x41, 0x3d, 0x81, 0x50, 0x21, 0xbe,
    0xc8, 0xab, 0xac, 0x3d, 0xc4, 0x00, 0xf0, 0x3c, 0xbb, 0x82, 0x4b, 0xbf,
    0xde, 0x5b, 0xc8, 0xbe, 0xb3, 0x3b, 0x59, 0x3e, 0x98, 0x48, 0x33, 0x3d,
    0xc4, 0x21, 0x4e, 0xbe, 0xed, 0x19, 0x30, 0x3f, 0x0a, 0x4f, 0x1b, 0xbe,
    0xa3, 0x17, 0x6e, 0xbd, 0xdc, 0x0b, 0x3c, 0x3e, 0x33, 0x47, 0x7c, 0x3e,
    0x92, 0x63, 0x07, 0xbe, 0xee, 0x7b, 0xce, 0xbc, 0x3c, 0xbd, 0x9f, 0xbe,
    0x42, 0x56, 0xd3, 0x3e, 0x44, 0xbb, 0xc0, 0x3e, 0x0e, 0xa8, 0xc1, 0x3e,
    0x8b, 0x51, 0xcf, 0x3e, 0x32, 0x2a, 0x08, 0xbe, 0x47, 0x4d, 0xd3, 0x3d,
    0xd8, 0xce, 0x7c, 0x3e, 0x12, 0xcb, 0xda, 0x3d, 0x82, 0x64, 0xf0, 0xbe,
    0x08, 0xea, 0xe6, 0x3d, 0x1a, 0x65, 0x95, 0xbd, 0x71, 0x47, 0x3a, 0x3e,
    0xba, 0x1a, 0x14, 0xbd, 0xa1, 0xe7, 0xf0, 0xbe, 0x76, 0x74, 0xe2, 0x3d,
    0xf7, 0xd0, 0xc8, 0xbd, 0x5d, 0x01, 0x2d, 0xbc, 0xab, 0x30, 0x25, 0xbe,
    0xf7, 0xb2, 0x52, 0xbf, 0xc0, 0x74, 0xa8, 0x3d, 0x1f, 0xa7, 0x63, 0x3d,
    0x47, 0x91, 0xe8, 0x3c, 0xf8, 0xc6, 0x74, 0xbe, 0xe8, 0x6d, 0x14, 0x3d,
    0x0a, 0x96, 0x97, 0xbe, 0x65, 0x06, 0xe8, 0xbc, 0xfb, 0x9e, 0x35, 0x3e,
    0xbf, 0x81, 0x48, 0x3e, 0xc6, 0x71, 0x5d, 0x3e, 0x83, 0x2d, 0xc9, 0x3e,
    0x97, 0xaf, 0x5a, 0x3e, 0x62, 0x87, 0xc6, 0xbe, 0x53, 0xab, 0x8c, 0xbe,
    0x7b, 0xba, 0x1f, 0x3e, 0x7e, 0x9d, 0xa4, 0xbe, 0x88, 0x04, 0x9d, 0xbe,
    0xa5, 0x46, 0xc6, 0x3c, 0xdf, 0x31, 0x79, 0x3e, 0xb2, 0x41, 0x11, 0xbe,
    0x6e, 0x7d, 0xbe, 0xbe, 0x1b, 0x01, 0x2a, 0xbe, 0x40, 0xbf, 0xdc, 0xbc,
    0xd4, 0x74, 0xa0, 0xbe, 0xe0, 0xd5, 0xf0, 0x3e, 0x27, 0x21, 0x99, 0x3d,
    0x69, 0xaf, 0xcf, 0x3a, 0x22, 0x8f, 0x07, 0xbf, 0x25, 0x6f, 0x27, 0x3e,
    0xad, 0xc6, 0x95, 0x3e, 0x8a, 0x88, 0x2f, 0xbe, 0x09, 0xfb, 0x68, 0xbe,
    0x0a, 0x95, 0xf1, 0x3d, 0x5a, 0x22, 0x79, 0xbe, 0x17, 0x02, 0xc7, 0xbd,
    0x3e, 0xcf, 0xa4, 0x3d, 0xce, 0x0f, 0x9f, 0xbe, 0xb0, 0x19, 0x13, 0xbe,
    0xdf, 0xd1, 0xf1, 0x3d, 0x42, 0xc7, 0x81, 0x3e, 0x55, 0x7a, 0x8b, 0xbe,
    0x4f, 0x70, 0x4f, 0xbe, 0x35, 0x0d, 0x85, 0xbc, 0xc9, 0x14, 0x29, 0x3f,
    0x17, 0x02, 0x0f, 0x3e, 0x30, 0xbc, 0x07, 0xbd, 0x68, 0xb7, 0x9c, 0xbd,
    0x1f, 0xff, 0x8d, 0x3e, 0xe4, 0xcb, 0x50, 0xbe, 0x15, 0x4b, 0xa5, 0x3e,
    0x38, 0xab, 0x29, 0x3e, 0x47, 0xc2, 0xb0, 0x3d, 0x89, 0xd7, 0x9f, 0x3a,
    0x3c, 0x47, 0xdf, 0x3e, 0xde, 0x87, 0x96, 0x3d, 0xa0, 0x21, 0x08, 0xbe,
    0x2b, 0x2c, 0x19, 0xbf, 0xa3, 0xff, 0xd0, 0xbd, 0xa0, 0x69, 0xde, 0x3e,
    0x9a, 0x5d, 0x48, 0xbe, 0xc8, 0x17, 0xf2, 0x3e, 0xb0, 0x8d, 0x8c, 0x3e,
    0xdb, 0xf0, 0x3b, 0xbe, 0x54, 0x41, 0x92, 0x3e, 0xb7, 0x0d, 0x76, 0xbd,
    0xfb, 0x5c, 0x3a, 0xbe, 0x72, 0x3c, 0x06, 0x3e, 0x56, 0xd5, 0x91, 0xbe,
    0x7a, 0x22, 0xf3, 0xbc, 0xcd, 0x40, 0x6b, 0xbf, 0x7e, 0x36, 0x47, 0xbe,
    0xa8, 0x34, 0x79, 0xbe, 0xb4, 0xf4, 0x82, 0x3d, 0xca, 0x98, 0x3b, 0xbe,
    0x96, 0x80, 0x7b, 0xbf, 0xa2, 0x48, 0x04, 0xbf, 0xdc, 0x07, 0x6f, 0x3e,
    0x0f, 0x60, 0x7a, 0xbd, 0x95, 0xd7, 0xf9, 0xbd, 0x99, 0x39, 0x57, 0x3e,
    0x40, 0x48, 0x62, 0xbd, 0xd4, 0x20, 0x65, 0xbe, 0x68, 0xc7, 0x45, 0x3e,
    0xc1, 0x22, 0x57, 0x3e, 0xf5, 0x96, 0x91, 0xbe, 0xf8, 0xdd, 0x48, 0xbd,
    0x63, 0x94, 0x92, 0x3c, 0x13, 0x89, 0x63, 0xbe, 0x9e, 0x1e, 0xfb, 0xbd,
    0xd4, 0x3a, 0x88, 0x3e, 0x2c, 0x4d, 0x2b, 0xbd, 0x73, 0x16, 0xa4, 0x3e,
    0x8b, 0xd3, 0x07, 0x3e, 0xe7, 0xa8, 0x84, 0xbe, 0x73, 0xa3, 0x1f, 0x3e,
    0xd8, 0x23, 0x80, 0xbd, 0xd3, 0x22, 0x17, 0x3e, 0xdd, 0x86, 0x41, 0x3e,
    0x50, 0xf1, 0xa8, 0xbe, 0xec, 0xcd, 0xdc, 0x3d, 0xfa, 0x4d, 0x58, 0xbf,
    0xb5, 0xc2, 0xbe, 0xbe, 0x47, 0x17, 0x72, 0xbd, 0xc0, 0x51, 0xb6, 0xbe,
    0x74, 0xba, 0x22, 0xbd, 0x14, 0xb4, 0x4b, 0x3d, 0x3a, 0x3d, 0xe8, 0x3c,
    0x04, 0xd5, 0xbc, 0xbd, 0xfd, 0x89, 0x6e, 0x3c, 0x3a, 0xe5, 0x24, 0xbe,
    0x2c, 0x38, 0x85, 0xbe, 0xf3, 0x57, 0xbb, 0xbe, 0x09, 0xb0, 0xa0, 0xbe,
    0x5d, 0xdb, 0x1d, 0x3e, 0xdc, 0xcf, 0x65, 0x3e, 0x02, 0x33, 0x33, 0xbd,
    0x04, 0xda, 0x66, 0xbe, 0x46, 0x36, 0xf1, 0xbd, 0x04, 0xd9, 0x4a, 0xbd,
    0xdd, 0xf5, 0x58, 0xbe, 0xfa, 0x3a, 0x68, 0xbf, 0x58, 0x3a, 0xa9, 0xbd,
    0xc0, 0x89, 0xc8, 0x3e, 0x34, 0xf0, 0x0a, 0xbd, 0x91, 0xe9, 0xab, 0x3e,
    0x33, 0x6a, 0xaf, 0x3e, 0x5c, 0xc7, 0xa7, 0xbe, 0x88, 0x49, 0xce, 0xbe,
    0x07, 0x20, 0xd5, 0xbe, 0x24, 0xa4, 0x65, 0xbe, 0x67, 0xa9, 0x93, 0xbe,
    0xbc, 0x54, 0xc0, 0xbe, 0x01, 0xe8, 0x0c, 0xbd, 0x35, 0x86, 0x2a, 0xbe,
    0xab, 0x64, 0x39, 0xbe, 0x19, 0xda, 0x3e, 0x3e, 0xb1, 0x2d, 0xa2, 0x3d,
    0x19, 0x47, 0x4d, 0xbc, 0x2e, 0x9b, 0xc4, 0xbe, 0x8b, 0xf8, 0x4c, 0x3d,
    0xd4, 0x08, 0x4c, 0x3e, 0x0e, 0xdd, 0x5b, 0x3d, 0x57, 0x32, 0x3a, 0xbe,
    0x66, 0xcc, 0x9b, 0xbe, 0xce, 0x3a, 0x87, 0xbe, 0x68, 0xd9, 0x26, 0xbe,
    0x58, 0xa7, 0x66, 0x3e, 0x99, 0x33, 0x33, 0x3e, 0xa2, 0xb6, 0x21, 0xbf,
    0x3f, 0x6d, 0xb4, 0x3e, 0xe5, 0xcc, 0xb6, 0xbe, 0x4b, 0x63, 0xbb, 0xbe,
    0x1a, 0x3e, 0xc1, 0x3e, 0xb6, 0x38, 0x22, 0xbe, 0x78, 0xeb, 0xaf, 0x3c,
    0x28, 0x92, 0x3d, 0xbe, 0xab, 0x41, 0xce, 0xbd, 0x0e, 0x0f, 0xc4, 0xbd,
    0xc6, 0x19, 0x04, 0xbe, 0x63, 0x2f, 0x0a, 0xbf, 0x0d, 0x8d, 0xd0, 0xbd,
    0x6d, 0x75, 0xa7, 0x3d, 0xdc, 0xe9, 0x30, 0xbe, 0xea, 0xb9, 0x02, 0x3d,
    0xe7, 0xbc, 0x21, 0xbd, 0xab, 0x61, 0x65, 0xbe, 0x34, 0x83, 0x47, 0x3e,
    0x30, 0x11, 0x17, 0x3e, 0x7c, 0x41, 0x6f, 0xbc, 0x02, 0x02, 0xa0, 0xbe,
    0x09, 0xa4, 0x04, 0x3e, 0x0f, 0x57, 0xfe, 0xbe, 0x12, 0x07, 0x0a, 0x3f,
    0x75, 0x52, 0x07, 0xbf, 0x21, 0x62, 0xf0, 0x3c, 0xa6, 0x17, 0x90, 0x3e,
    0x24, 0x3a, 0x5c, 0xbe, 0x40, 0x0d, 0xc3, 0xbd, 0x00, 0xd1, 0x70, 0xbd,
    0xcb, 0x1f, 0x88, 0x3d, 0x80, 0xb9, 0x72, 0xbd, 0x56, 0xc5, 0x1b, 0xbe,
    0xc0, 0xe7, 0xe0, 0xbc, 0x44, 0xfb, 0x76, 0xbe, 0x7c, 0x1a, 0x48, 0xbe,
    0x04, 0xf3, 0xe6, 0x3d, 0x50, 0xce, 0x63, 0xbd, 0x37, 0xb1, 0x43, 0xbe,
    0xa8, 0x2e, 0x74, 0xbe, 0xf0, 0xeb, 0x0d, 0xbe, 0xc6, 0xca, 0x89, 0x3b,
    0x80, 0x1c, 0x17, 0xbe, 0x83, 0xa2, 0x92, 0xbd, 0xf4, 0x22, 0x71, 0xbe,
    0x5b, 0x81, 0x22, 0xbe, 0xd9, 0xa6, 0xde, 0x3d, 0x00, 0x27, 0x2f, 0xbe,
    0x2d, 0xd2, 0x4a, 0xbe, 0xf9, 0xf2, 0xf2, 0x3d, 0x33, 0xc9, 0x84, 0xbe,
    0xb0, 0xd1, 0x41, 0xbe, 0xd8, 0x3f, 0x70, 0xbe, 0x20, 0x27, 0x04, 0xbd,
    0x18, 0xf1, 0x1a, 0x3e, 0x79, 0x1a, 0x84, 0x3c, 0x00, 0xbb, 0x6a, 0xbe,
    0x98, 0xed, 0x8b, 0xbe, 0x21, 0x38, 0xc7, 0x3d, 0x93, 0x41, 0x87, 0xbe,
    0x17, 0xa6, 0x13, 0xbd, 0x92, 0x3c, 0x11, 0xbe, 0x52, 0x91, 0x98, 0xbd,
    0x87, 0xaa, 0xa1, 0xbe, 0x54, 0xa2, 0xb8, 0x3e, 0xb7, 0x7e, 0x47, 0xbe,
    0x05, 0x14, 0xec, 0xbe, 0x88, 0xec, 0xa1, 0x3e, 0xcd, 0x44, 0x6d, 0x3e,
    0xdb, 0xd0, 0x92, 0x3e, 0x09, 0x83, 0x01, 0xbe, 0xfc, 0x20, 0x87, 0xbd,
    0xd7, 0x1c, 0x28, 0x3e, 0x4e, 0x6e, 0x87, 0xbe, 0x5b, 0x73, 0xa7, 0x3e,
    0x68, 0x0b, 0x8a, 0xbd, 0x02, 0xc4, 0x07, 0xbe, 0x28, 0xb0, 0x36, 0xbd,
    0x66, 0x11, 0x35, 0x3e, 0x24, 0x55, 0x5c, 0xbe, 0xeb, 0x68, 0x90, 0xbc,
    0xd2, 0xf8, 0x1a, 0xbd, 0xe3, 0x81, 0x59, 0x3c, 0x5e, 0xfa, 0x8d, 0xbd,
    0x0c, 0x5b, 0xd6, 0xbd, 0x10, 0x15, 0xc5, 0x3e, 0x5b, 0x36, 0x34, 0xbe,
    0x0f, 0xdb, 0x28, 0x3f, 0x0f, 0xd9, 0x25, 0xbf, 0xcc, 0xc8, 0xc2, 0xbd,
    0x9c, 0xdf, 0x57, 0x3e, 0xd0, 0xad, 0x7c, 0xbd, 0x41, 0x81, 0xd7, 0xbe,
    0x82, 0xf1, 0x46, 0x3e, 0x1e, 0x41, 0xd3, 0x3d, 0xcb, 0x2d, 0x20, 0xbf,
    0x4c, 0xfe, 0x79, 0xbe, 0x5a, 0x89, 0x94, 0xbe, 0x3b, 0x5f, 0x2c, 0xbe,
    0x96, 0x09, 0x63, 0x3e, 0xec, 0x0b, 0xbc, 0x3d, 0x87, 0x59, 0xa6, 0xbe,
    0xf9, 0xf3, 0xbf, 0x3e, 0x61, 0xd3, 0xb5, 0xbe, 0x6e, 0xb6, 0x5d, 0xbe,
    0xda, 0x63, 0x80, 0xbd, 0x24, 0x5d, 0x75, 0xbf, 0xe0, 0xad, 0xa9, 0xbd,
    0x03, 0xb2, 0x8e, 0x3e, 0xaa, 0x76, 0x4f, 0xbe, 0x9f, 0x38, 0xf7, 0xbe,
    0x9e, 0xc2, 0x57, 0x3e, 0x8a, 0x2c, 0x3d, 0x3d, 0xb9, 0x2b, 0x1a, 0xbf,
    0x62, 0xb2, 0x42, 0x3e, 0xcb, 0x34, 0x95, 0xbe, 0xc3, 0x12, 0xe4, 0xbd,
    0x70, 0xb7, 0x99, 0x3e, 0xc4, 0xdd, 0x86, 0x3d, 0x87, 0xb8, 0xf7, 0x3d,
    0xff, 0xa0, 0xc5, 0xbd, 0x60, 0x4d, 0xd8, 0x3e, 0xa6, 0x3c, 0x1d, 0xbf,
    0x2f, 0x7c, 0x96, 0xbe, 0x7f, 0x19, 0xbc, 0x3e, 0x97, 0x05, 0x38, 0x3d,
    0xde, 0xc4, 0x02, 0x3d, 0x2d, 0x11, 0xc0, 0xbe, 0x00, 0x0a, 0x09, 0x3e,
    0x89, 0x81, 0x36, 0xbf, 0x5a, 0x64, 0x89, 0xbe, 0xa6, 0x9a, 0x15, 0x3e,
    0x97, 0xfc, 0x25, 0xbd, 0xee, 0xcf, 0x49, 0x3e, 0xc2, 0xab, 0xe1, 0x3c,
    0xe2, 0x47, 0x80, 0xbe, 0x4f, 0x2d, 0x81, 0x3e, 0x22, 0xe4, 0x11, 0xbf,
    0x95, 0x99, 0x2c, 0x3f, 0xf1, 0x5c, 0xa7, 0x3e, 0xe6, 0xfe, 0x65, 0x3e,
    0x1a, 0x14, 0x21, 0x3e, 0xb0, 0x93, 0xbc, 0xbe, 0xe9, 0xe5, 0x09, 0x3e,
    0xa9, 0xae, 0xbd, 0xbe, 0xc9, 0xfc, 0xfc, 0xbd, 0x77, 0xf4, 0x2e, 0xbf,
    0xd7, 0x2b, 0xbc, 0xbf, 0x2c, 0xaa, 0xc6, 0xbe, 0x73, 0x58, 0xab, 0x3e,
    0x75, 0xa6, 0xad, 0x3d, 0xb3, 0xd4, 0x80, 0xbd, 0x06, 0xbf, 0x80, 0xbf,
    0x50, 0x50, 0x69, 0xbf, 0xfc, 0x21, 0x0c, 0x3f, 0xfa, 0x18, 0xd1, 0xbe,
    0xcb, 0x5e, 0xea, 0x3d, 0xcb, 0x1c, 0xf7, 0xbd, 0x54, 0xc4, 0xdc, 0xbe,
    0x28, 0xfb, 0xda, 0xbe, 0x62, 0xeb, 0xe9, 0x3d, 0x4a, 0xbe, 0xdd, 0xbe,
    0x01, 0x56, 0x4c, 0xbe, 0x2a, 0x61, 0x61, 0x3d, 0x56, 0xa6, 0xea, 0x3d,
    0x11, 0x33, 0xb9, 0x3e, 0xb7, 0xf5, 0x30, 0xbe, 0x76, 0x6c, 0x10, 0x3e,
    0xea, 0x00, 0x9d, 0x3e, 0xa8, 0x94, 0x20, 0x3d, 0x12, 0x01, 0xaf, 0x3c,
    0x54, 0xc2, 0x11, 0x3e, 0x9c, 0xea, 0xfa, 0xbd, 0xd7, 0x16, 0x33, 0x3e,
    0x79, 0x3a, 0x0c, 0x3d, 0xc2, 0x50, 0x4a, 0x3e, 0x90, 0x05, 0x54, 0x3e,
    0xab, 0x5f, 0x4e, 0xbe, 0x1a, 0xb9, 0xee, 0xbd, 0x8b, 0xba, 0x8c, 0x3d,
    0x08, 0x50, 0xc2, 0xbd, 0xa5, 0x5e, 0xed, 0x3e, 0xe4, 0x06, 0xd0, 0x3e,
    0xae, 0x63, 0x41, 0x3e, 0xcd, 0x67, 0x34, 0x3d, 0x8b, 0x66, 0x81, 0xbd,
    0xb8, 0xd6, 0xa0, 0xbe, 0xd3, 0xdc, 0xd6, 0x3e, 0x05, 0x9b, 0x57, 0x3e,
    0x56, 0x9e, 0x38, 0x3e, 0x83, 0x03, 0x0a, 0x3d, 0xaf, 0xaf, 0x93, 0xbe,
    0xfd, 0x81, 0xca, 0xbe, 0x24, 0xe4, 0x38, 0xbe, 0xa4, 0x56, 0xde, 0x3d,
    0x31, 0x5c, 0x01, 0xbe, 0x25, 0x7b, 0xc5, 0x3c, 0xd4, 0x6a, 0xaf, 0x3e,
    0x0c, 0xcc, 0x54, 0x3e, 0x58, 0xca, 0x15, 0xbc, 0xf8, 0xa3, 0x43, 0xbf,
    0xac, 0xc1, 0x26, 0xbe, 0xe9, 0x9c, 0xe2, 0xbc, 0xe6, 0x82, 0x9e, 0x3d,
    0x97, 0xd4, 0x68, 0x3a, 0xeb, 0x1a, 0x94, 0xbe, 0x98, 0xdc, 0x97, 0xbe,
    0x4c, 0xab, 0xe8, 0x3e, 0xd3, 0x9d, 0x0e, 0xbf, 0x40, 0xef, 0xf0, 0x3d,
    0x4c, 0x70, 0xef, 0xbd, 0x14, 0xf4, 0x38, 0xbe, 0x0d, 0x91, 0x3d, 0x3e,
    0xc8, 0x2f, 0xa0, 0xbe, 0xca, 0xef, 0x99, 0xbf, 0x54, 0x44, 0x0f, 0x3e,
    0xf4, 0x5e, 0x07, 0xbf, 0x30, 0x13, 0x5b, 0x3e, 0x7a, 0x83, 0x79, 0xbf,
    0x98, 0xc3, 0x14, 0x3e, 0x09, 0x07, 0xaf, 0xbc, 0x39, 0x02, 0xd2, 0x3c,
    0xb2, 0x8d, 0x6a, 0x3c, 0x71, 0x46, 0x55, 0x3e, 0x92, 0x5b, 0x33, 0xbf,
    0x0c, 0xaa, 0x12, 0x3e, 0xf9, 0xe9, 0x3c, 0xbe, 0xb8, 0x99, 0x4d, 0x3e,
    0xa2, 0x0e, 0x52, 0xbe, 0x79, 0x0d, 0xee, 0xbe, 0xdb, 0x2f, 0xa1, 0x3e,
    0x40, 0xd1, 0xcb, 0xbe, 0x15, 0x42, 0x22, 0x3e, 0xee, 0xcd, 0xab, 0xbe,
    0x48, 0xde, 0xac, 0xbe, 0x11, 0x53, 0xa1, 0x3b, 0x78, 0xdf, 0x52, 0xbd,
    0x69, 0xb8, 0xf0, 0xbe, 0x5f, 0xf6, 0x9b, 0xbe, 0xb9, 0x1d, 0x1a, 0x3d,
    0xea, 0x68, 0x7f, 0x3e, 0x55, 0x56, 0x12, 0xbe, 0x66, 0x5e, 0x17, 0xbe,
    0x9b, 0x74, 0x89, 0xbc, 0x6b, 0x4f, 0x7f, 0x3e, 0x0e, 0x22, 0x84, 0x3e,
    0xd3, 0x99, 0xae, 0xbd, 0xa5, 0xaa, 0xae, 0xbe, 0x3d, 0x73, 0x08, 0xbe,
    0xa9, 0x03, 0x3f, 0x3e, 0x00, 0x25, 0xac, 0xbd, 0x83, 0xd0, 0x36, 0x3e,
    0x8d, 0x05, 0x07, 0x3f, 0x6c, 0x66, 0x5d, 0x3d, 0xdc, 0xb0, 0x90, 0x3e,
    0x43, 0xe8, 0x7c, 0xbe, 0x51, 0xee, 0x1c, 0xbf, 0x5c, 0x9f, 0xf3, 0x3d,
    0x4d, 0xbd, 0x8c, 0x3e, 0x1f, 0x9e, 0x23, 0xbe, 0x70, 0x00, 0xed, 0xbd,
    0x73, 0x13, 0xbd, 0x3e, 0x03, 0x4d, 0x3b, 0x3e, 0xe1, 0xfe, 0x8a, 0xbc,
    0xa4, 0x3f, 0xe8, 0xbe, 0xdf, 0xa6, 0x13, 0x3c, 0x19, 0x57, 0x70, 0xbd,
    0x66, 0x01, 0x77, 0xbe, 0x6b, 0x06, 0x61, 0x3c, 0xeb, 0x1a, 0xab, 0xbd,
    0xa6, 0x90, 0xec, 0x3c, 0xf9, 0xba, 0x8a, 0x3e, 0x4b, 0x40, 0x01, 0xbf,
    0x13, 0x90, 0x96, 0x3d, 0xad, 0xc8, 0x39, 0xbf, 0xff, 0x67, 0x4b, 0xbf,
    0xac, 0xc5, 0x4e, 0x3e, 0x64, 0xcd, 0x01, 0xbf, 0x8c, 0x24, 0xd9, 0xbe,
    0x5f, 0x89, 0xbf, 0xbc, 0xd8, 0xc3, 0x15, 0xbf, 0x99, 0x99, 0x24, 0x3e,
    0xc5, 0x32, 0x8d, 0xbe, 0xd1, 0x16, 0xb7, 0xbe, 0xe2, 0x7d, 0xe1, 0x3e,
    0xa0, 0xbd, 0x78, 0xbd, 0xf2, 0x8f, 0xc0, 0xbd, 0x36, 0x1b, 0xc5, 0xbe,
    0x51, 0xde, 0xb5, 0x3d, 0x39, 0xcc, 0x2b, 0xbf, 0xc4, 0x2b, 0x36, 0x3e,
    0x44, 0xa2, 0x1b, 0x3e, 0x7a, 0x00, 0x29, 0x3e, 0xf0, 0x03, 0x26, 0x3e,
    0xae, 0x55, 0x55, 0x3d, 0xce, 0x8e, 0x24, 0xbe, 0x07, 0xac, 0x10, 0x3e,
    0x49, 0xa4, 0xc0, 0xbe, 0x03, 0xd5, 0xe2, 0x3e, 0x71, 0xd7, 0x9b, 0x3e,
    0x8c, 0x48, 0x82, 0x3e, 0x0a, 0x82, 0xcb, 0x3d, 0xbc, 0x57, 0xdb, 0xbe,
    0xc8, 0x08, 0xa5, 0x3d, 0x2a, 0x9b, 0x7c, 0xbe, 0x5e, 0x46, 0x67, 0xbe,
    0xd7, 0xfe, 0x2f, 0xbd, 0x18, 0xd2, 0xee, 0xbd, 0xad, 0x67, 0xed, 0xbd,
    0x7e, 0xff, 0x71, 0x3e, 0x2d, 0xce, 0x0a, 0xbf, 0x49, 0xae, 0x60, 0x3d,
    0xad, 0x19, 0x6f, 0xbf, 0x79, 0xe4, 0x78, 0xbf, 0x3f, 0x28, 0x5b, 0x3d,
    0x25, 0x9f, 0xd0, 0xbd, 0xb0, 0x9f, 0xda, 0xbc, 0xf8, 0xa9, 0x17, 0x3e,
    0xb8, 0x3f, 0xda, 0x3c, 0x12, 0x00, 0xc0, 0x3e, 0x89, 0x1f, 0xb4, 0xbe,
    0xdf, 0x1c, 0xa0, 0x3e, 0x61, 0xc7, 0x2f, 0xbe, 0x6b, 0xbc, 0x80, 0xbd,
    0xa0, 0x0d, 0x5b, 0xbe, 0x55, 0x8c, 0x50, 0xbd, 0x1e, 0x35, 0xea, 0xbd,
    0xf4, 0x26, 0x58, 0xbe, 0xfe, 0x65, 0x06, 0x3d, 0x3d, 0x07, 0x15, 0xbe,
    0x39, 0x43, 0x3b, 0xbe, 0x63, 0x01, 0x37, 0x3e, 0x36, 0x4d, 0x28, 0x3e,
    0x3f, 0x9f, 0x88, 0x3d, 0x3f, 0x52, 0x3c, 0x3e, 0x05, 0x4f, 0x9c, 0xbe,
    0x12, 0xcd, 0x98, 0x3d, 0x80, 0xc6, 0x9d, 0xbd, 0x90, 0xeb, 0x80, 0x3e,
    0x62, 0x4e, 0x48, 0xbc, 0xee, 0xdd, 0x14, 0xbe, 0xa1, 0xc3, 0x0f, 0x3e,
    0x99, 0x9b, 0x9f, 0x3e, 0xeb, 0x5b, 0xf9, 0xbb, 0xa0, 0xbf, 0x96, 0x3e,
    0x75, 0x15, 0xb7, 0xbe, 0xdc, 0x21, 0x32, 0xbe, 0x6c, 0xe0, 0x0c, 0xbe,
    0x8b, 0x07, 0xc5, 0x3e, 0xec, 0xe2, 0x84, 0x3d, 0xe8, 0xb2, 0xc8, 0x3d,
    0x81, 0xf8, 0x8d, 0xbe, 0xe7, 0xc5, 0xe6, 0xbe, 0x9e, 0xaf, 0x85, 0x3e,
    0x10, 0x6f, 0xc7, 0xbd, 0x8c, 0xbb, 0x5b, 0xbe, 0x32, 0x71, 0x4e, 0x3e,
    0xef, 0xdc, 0x26, 0x3e, 0xe4, 0x7b, 0x23, 0x3e, 0x01, 0x53, 0xd5, 0x3d,
    0xfd, 0x94, 0x40, 0xbf, 0x82, 0x40, 0x8b, 0x3e, 0xf9, 0x57, 0x54, 0xbe,
    0x57, 0x09, 0xab, 0xbe, 0xda, 0xb9, 0xd0, 0xbe, 0x3a, 0xeb, 0xc0, 0x3e,
    0xff, 0xfd, 0xf2, 0xbd, 0xb9, 0xc5, 0x9d, 0x3d, 0x03, 0x4b, 0x35, 0xbe,
    0x2e, 0x7e, 0xf1, 0x3d, 0x0a, 0x2e, 0x81, 0xbe, 0x60, 0x1b, 0x33, 0xbe,
    0xb8, 0x27, 0xce, 0xbc, 0x1e, 0xe4, 0x9d, 0xbe, 0x24, 0xb8, 0xd2, 0xbd,
    0xd3, 0xaf, 0x76, 0x3e, 0xa7, 0x91, 0xa0, 0xbe, 0xae, 0xd3, 0x10, 0xbe,
    0xe7, 0x47, 0x2b, 0x3d, 0xf6, 0x5e, 0x9d, 0x3e, 0xb3, 0xcd, 0xd1, 0xbc,
    0xd5, 0x65, 0x02, 0x3e, 0x36, 0x70, 0x70, 0xbe, 0xe4, 0x9a, 0x85, 0x3e,
    0x0c, 0x09, 0x1d, 0x3d, 0x4e, 0xb4, 0x0f, 0x3e, 0xa6, 0x10, 0x91, 0x3e,
    0x02, 0xf8, 0x73, 0x3d, 0xdf, 0xd7, 0x70, 0xbd, 0x78, 0x7f, 0x25, 0xbe,
    0x7a, 0xc8, 0x42, 0x3e, 0x85, 0x6e, 0xa7, 0x3e, 0xb7, 0x04, 0x71, 0xbd,
    0xbb, 0x46, 0x19, 0x3d, 0x8b, 0xbe, 0x47, 0xbe, 0xc7, 0x18, 0x1e, 0x3d,
    0x82, 0x0f, 0x1a, 0xbe, 0x13, 0xb1, 0x16, 0xbe, 0xcc, 0xdd, 0x09, 0xbf,
    0xbc, 0xd1, 0xd2, 0x3d, 0x53, 0xba, 0x56, 0x3d, 0xe8, 0xe6, 0xe6, 0x3d,
    0xd2, 0xfb, 0x0a, 0xbc, 0x2a, 0xd9, 0xc0, 0xbe, 0x01, 0xf3, 0x9a, 0x3e,
    0xad, 0x76, 0xc6, 0xbe, 0xde, 0x20, 0x0e, 0xbe, 0xb9, 0xb0, 0x86, 0x3d,
    0x68, 0x21, 0xcf, 0x3e, 0xc8, 0x78, 0x0b, 0xbf, 0x10, 0x35, 0xbb, 0x3e,
    0xdc, 0xe8, 0x7a, 0xbd, 0xc0, 0x06, 0x2e, 0x3c, 0x20, 0x08, 0x33, 0xbd,
    0x63, 0x92, 0x15, 0xbe, 0xc0, 0x18, 0x2d, 0x3e, 0x25, 0x4c, 0x34, 0xbe,
    0xc1, 0x17, 0x5d, 0xbc, 0x53, 0xfe, 0x37, 0xbd, 0x70, 0x8a, 0x71, 0xbd,
    0x07, 0xdb, 0x58, 0xbe, 0xbc, 0x7f, 0x27, 0xbe, 0xb8, 0xd5, 0x10, 0xbe,
    0x1e, 0x03, 0x67, 0x3d, 0x25, 0x93, 0x57, 0xbd, 0x65, 0x86, 0x3f, 0xbe,
    0x60, 0xaf, 0x1e, 0x3e, 0x68, 0xe6, 0xfc, 0xbd, 0xf2, 0xef, 0x92, 0xbe,
    0x50, 0x76, 0x93, 0xbd, 0xe4, 0xe6, 0x3f, 0xbc, 0x5b, 0xf0, 0x20, 0xbe,
    0x88, 0x70, 0x12, 0x3e, 0x6f, 0x85, 0x86, 0xbe, 0x43, 0x14, 0x45, 0x3c,
    0x70, 0x99, 0x6f, 0xbd, 0xb2, 0xf0, 0x95, 0xbe, 0x4c, 0x03, 0x4f, 0xbe,
    0x98, 0x48, 0xe9, 0x3d, 0xa0, 0xcc, 0x8d, 0x3c, 0xcd, 0xc2, 0xac, 0x3d,
    0x5f, 0x08, 0xef, 0x3d, 0x29, 0x78, 0x13, 0x3a, 0x15, 0x69, 0x92, 0x3e,
    0x3c, 0x0f, 0x87, 0x3e, 0x92, 0x08, 0xd9, 0x3d, 0xda, 0x63, 0xa7, 0xbe,
    0x04, 0xb1, 0x2e, 0x3e, 0xa0, 0x60, 0x3a, 0xbd, 0x8e, 0xdc, 0xba, 0x3e,
    0x05, 0x4b, 0x81, 0x3e, 0xaa, 0x97, 0x7b, 0x3d, 0x51, 0x3a, 0x56, 0xbe,
    0xb0, 0xfc, 0x40, 0xbc, 0xf8, 0xe4, 0x09, 0x3e, 0x27, 0x51, 0x20, 0x3e,
    0xbf, 0xaf, 0xff, 0x3d, 0x25, 0x59, 0xfb, 0xbc, 0xbc, 0x31, 0x91, 0x3e,
    0xaf, 0x56, 0xad, 0x3e, 0xcd, 0x5e, 0x81, 0xbe, 0x4e, 0xce, 0xe9, 0x3c,
    0x50, 0x78, 0x5f, 0xbe, 0xdc, 0x55, 0xad, 0x3d, 0x32, 0x46, 0x55, 0x3e,
    0xb8, 0xa0, 0x49, 0x3d, 0xf8, 0xaf, 0xb8, 0xbe, 0x74, 0x86, 0x69, 0xbf,
    0x62, 0xd7, 0xd6, 0x3c, 0x78, 0x47, 0x11, 0xbf, 0xaf, 0x8e, 0x99, 0xbe,
    0xe9, 0xbd, 0xd1, 0xbe, 0x73, 0x60, 0x3e, 0xbe, 0xdc, 0xac, 0xe3, 0xbd,
    0x85, 0xf1, 0x5b, 0xbd, 0x22, 0xe2, 0xed, 0xbe, 0x89, 0xf3, 0x48, 0xbe,
    0xc1, 0xc5, 0xd8, 0x3d, 0xce, 0x55, 0x5c, 0x3e, 0xd8, 0x3b, 0x9b, 0x3e,
    0x07, 0x26, 0x19, 0x3f, 0x85, 0xed, 0x34, 0xbe, 0xa4, 0x21, 0x13, 0x3e,
    0x06, 0x1c, 0x54, 0x3e, 0xbe, 0x2a, 0x2b, 0xbe, 0x2a, 0x8c, 0xcd, 0xbd,
    0x15, 0xec, 0x24, 0xbe, 0xbf, 0x58, 0x51, 0x3e, 0x40, 0xf6, 0x5b, 0x3d,
    0x83, 0x2b, 0xd8, 0xbd, 0xcd, 0xcf, 0xea, 0xbe, 0x33, 0xc0, 0xab, 0x3e,
    0x3c, 0xfb, 0x3b, 0xbe, 0x54, 0x32, 0x51, 0xbe, 0xd2, 0xf3, 0x08, 0x3e,
    0xbd, 0xbc, 0x48, 0xbe, 0x84, 0x6b, 0x13, 0xbf, 0x5d, 0x36, 0xd3, 0xbd,
    0x2b, 0x15, 0x58, 0x3e, 0x68, 0x7c, 0xbb, 0xbe, 0x6d, 0xdd, 0x9e, 0xbe,
    0x82, 0xcd, 0x61, 0xbd, 0x88, 0xe0, 0x74, 0xbe, 0x11, 0xd5, 0x04, 0x3f,
    0xa6, 0x3d, 0xd5, 0xbd, 0x50, 0x51, 0x98, 0x3d, 0xd4, 0xb7, 0x58, 0x3d,
    0x8e, 0x70, 0xa8, 0x3e, 0x99, 0x27, 0x87, 0xbe, 0x8e, 0x1c, 0xaa, 0xbd,
    0x86, 0xe4, 0xf0, 0xbe, 0x39, 0xf6, 0xd3, 0x3c, 0x68, 0x12, 0x11, 0xbf,
    0xec, 0x3f, 0x37, 0x3e, 0x25, 0x92, 0x9d, 0x3e, 0x78, 0xa4, 0x6a, 0xbd,
    0x64, 0xd2, 0xa6, 0xbe, 0x8f, 0x69, 0x3d, 0xbe, 0x20, 0x83, 0xdb, 0xbc,
    0x14, 0x4d, 0xd2, 0x3d, 0x3d, 0x7d, 0xc5, 0x3e, 0xc0, 0x38, 0xf1, 0x3a,
    0xbf, 0x48, 0x3d, 0xbe, 0xd9, 0x34, 0x2d, 0xbe, 0x04, 0x1d, 0x20, 0xbe,
    0x32, 0x68, 0xbc, 0x3c, 0x0f, 0x9c, 0x86, 0xbe, 0x43, 0x3d, 0x45, 0x3e,
    0x9b, 0x3f, 0x02, 0xbd, 0xf8, 0x95, 0x42, 0x3e, 0x94, 0x63, 0x56, 0xbd,
    0x56, 0xa2, 0x7f, 0xbe, 0xe9, 0x02, 0xe7, 0x3e, 0xda, 0xc3, 0x84, 0xbd,
    0xdf, 0x67, 0x13, 0x3f, 0xb5, 0xd8, 0xa2, 0x3e, 0x23, 0xac, 0x1c, 0x3f,
    0xaa, 0x72, 0xcd, 0xbe, 0x50, 0x5a, 0x5b, 0x3e, 0x7b, 0x72, 0x6a, 0x3e,
    0xf5, 0x60, 0x69, 0x3e, 0xcf, 0x4a, 0x3e, 0xbc, 0xbc, 0x70, 0x48, 0xbe,
    0x0d, 0xd5, 0x6b, 0x3b, 0x82, 0x1e, 0xa3, 0xbe, 0xb0, 0x4f, 0x35, 0xbe,
    0x10, 0xbc, 0x40, 0x3e, 0xc2, 0x86, 0xae, 0xbd, 0x03, 0x39, 0x52, 0xbd,
    0x27, 0x65, 0x99, 0x3e, 0x09, 0x9f, 0x93, 0xbe, 0x29, 0x23, 0xd3, 0x3d,
    0x80, 0x2c, 0xc2, 0xbd, 0x90, 0xa4, 0x83, 0x3c, 0xa7, 0x4f, 0xf0, 0x3e,
    0xfe, 0x2b, 0xc4, 0xbd, 0x4b, 0x2d, 0xcf, 0xbe, 0x16, 0x9a, 0x3d, 0xbd,
    0xbd, 0xa5, 0x81, 0x3d, 0x07, 0x6d, 0x0d, 0xbd, 0xf8, 0x68, 0x8b, 0xbe,
    0xe5, 0x57, 0xe7, 0x3d, 0x28, 0x28, 0x0c, 0xbe, 0x22, 0xa3, 0x57, 0x3d,
    0xd9, 0x67, 0x42, 0x3d, 0xe0, 0x25, 0x0e, 0xbf, 0xcd, 0xfe, 0x1d, 0xbf,
    0xd9, 0x25, 0xad, 0x3d, 0x46, 0xd3, 0x06, 0xbf, 0xb1, 0x7e, 0x18, 0x3e,
    0x44, 0xfb, 0x8b, 0x3e, 0x93, 0x50, 0x26, 0xbe, 0x70, 0xae, 0xb4, 0xbe,
    0x65, 0xcf, 0x32, 0xbd, 0x7e, 0xca, 0x97, 0xbe, 0x34, 0x5d, 0xdc, 0xbe,
    0x21, 0x43, 0x87, 0x3d, 0x5b, 0x3d, 0x38, 0xbf, 0x5f, 0x6d, 0x93, 0x3d,
    0x4b, 0x3e, 0xf9, 0x3e, 0x1b, 0xad, 0x8b, 0x3d, 0x80, 0xc3, 0xfd, 0xbd,
    0xac, 0x77, 0xfa, 0x3d, 0x84, 0x22, 0xf1, 0xbd, 0x9e, 0x82, 0x08, 0x3f,
    0x3e, 0x9b, 0x8e, 0xbd, 0x0e, 0x7b, 0x39, 0xbe, 0x99, 0x2d, 0xb2, 0xbe,
    0x47, 0x5e, 0x22, 0xbd, 0xdd, 0x4c, 0x20, 0x3e, 0xd7, 0x55, 0x92, 0x3c,
    0x1f, 0xe6, 0x47, 0x3e, 0x12, 0xa5, 0x96, 0x3f, 0xbb, 0x9c, 0x05, 0x3d,
    0xb3, 0x56, 0xc8, 0x3e, 0x75, 0x6b, 0x65, 0x3e, 0xd3, 0x2d, 0xa4, 0xbd,
    0xec, 0x1c, 0x41, 0x3f, 0x8f, 0x97, 0x77, 0x3e, 0x2f, 0x45, 0x78, 0x3c,
    0xc2, 0xea, 0x57, 0xbe, 0xff, 0xe3, 0xb5, 0xbd, 0x97, 0x28, 0xc9, 0xbe,
    0xa3, 0xd0, 0xa5, 0x3d, 0x64, 0xe9, 0xbb, 0xbc, 0x44, 0x97, 0xae, 0xbd,
    0xc7, 0xb2, 0x85, 0xbd, 0xc8, 0x29, 0x92, 0x3e, 0x95, 0xf3, 0x10, 0xbd,
    0x85, 0x27, 0x7f, 0xbe, 0x14, 0x72, 0x6c, 0x3e, 0x91, 0x0c, 0x43, 0x3e,
    0xc6, 0x4d, 0x8e, 0xbe, 0x9d, 0x29, 0xca, 0xbe, 0x44, 0x7f, 0xa2, 0x3e,
    0xb2, 0xcd, 0xd2, 0x3c, 0x2e, 0x7c, 0xb6, 0xbd, 0x3e, 0xf9, 0x9e, 0xbe,
    0x41, 0x76, 0x47, 0xbd, 0x01, 0x98, 0xbb, 0x3d, 0xf6, 0x2f, 0xb7, 0xbc,
    0x4f, 0x42, 0xed, 0x3d, 0xc1, 0xb8, 0x26, 0xbf, 0x58, 0x9d, 0x8d, 0x3e,
    0x0c, 0xd4, 0xbe, 0x3c, 0xed, 0x3f, 0xc4, 0xbe, 0xf8, 0x2e, 0xf3, 0xb9,
    0x08, 0x6d, 0x23, 0xbd, 0x47, 0x90, 0x86, 0x3e, 0x1a, 0x4a, 0xc1, 0x3c,
    0xab, 0x76, 0x49, 0x3e, 0x94, 0x06, 0x1a, 0xbe, 0xa8, 0x18, 0x04, 0xba,
    0xe0, 0x9a, 0xa3, 0xbe, 0x46, 0xa1, 0x95, 0xbe, 0x50, 0x1c, 0xbe, 0xbe,
    0xc5, 0x5d, 0x6c, 0x3e, 0x77, 0x0e, 0x25, 0xbd, 0x10, 0xaf, 0x04, 0x3b,
    0x76, 0x1d, 0xab, 0xbe, 0xee, 0xb2, 0xf7, 0xbe, 0x10, 0x05, 0xe5, 0xbe,
    0x63, 0xba, 0x43, 0xbe, 0x3a, 0xfa, 0x94, 0xbe, 0xe4, 0xff, 0x05, 0x3f,
    0xb3, 0x4b, 0xe5, 0x3e, 0x4b, 0x67, 0xa8, 0x3e, 0xb1, 0xd4, 0x4d, 0xbd,
    0xaa, 0xfb, 0xb6, 0x3d, 0x14, 0xe3, 0xe4, 0x3d, 0xda, 0xc8, 0x1c, 0x3e,
    0xab, 0xd2, 0x92, 0xbd, 0x95, 0xdc, 0xee, 0xbe, 0x1e, 0x83, 0x42, 0x3e,
    0xd5, 0x13, 0xa6, 0xbd, 0xde, 0x8b, 0x97, 0x3e, 0x92, 0xbf, 0x44, 0xbc,
    0xfe, 0x66, 0x0c, 0xbe, 0xa9, 0xbe, 0x8e, 0x3e, 0x5d, 0xf9, 0x1e, 0xbe,
    0x7b, 0x75, 0xa0, 0x3e, 0x54, 0x7a, 0x8a, 0xbe, 0xc8, 0x8b, 0x81, 0xbf,
    0xc0, 0x16, 0x2f, 0x3d, 0xd7, 0xb5, 0xd4, 0x3d, 0xfc, 0xc0, 0x87, 0xbd,
    0x8d, 0x11, 0xb9, 0xbe, 0x81, 0xd9, 0x52, 0x3e, 0xa8, 0x3b, 0x22, 0xbf,
    0xb1, 0xc0, 0x60, 0xbe, 0xce, 0xf0, 0x6f, 0xbd, 0xb2, 0x00, 0xec, 0x3e,
    0x38, 0xa3, 0x0a, 0x3f, 0xf6, 0xf5, 0xdd, 0x3e, 0xd5, 0xb6, 0x01, 0xbe,
    0x65, 0x69, 0x36, 0x3e, 0x90, 0x98, 0x41, 0xbd, 0x04, 0x4e, 0x34, 0xbf,
    0x8e, 0xb8, 0x82, 0xbd, 0xd2, 0xe5, 0x1c, 0xbe, 0xac, 0x4d, 0xf2, 0x3e,
    0xfc, 0x7a, 0x02, 0xbf, 0x25, 0xe5, 0x00, 0xbf, 0x00, 0xbf, 0xaa, 0xbc,
    0xae, 0x74, 0x0b, 0x3e, 0x19, 0x9a, 0x54, 0xbf, 0x29, 0xef, 0x71, 0xbe,
    0xb9, 0xa6, 0x96, 0xbd, 0x9f, 0xed, 0xb2, 0x3e, 0x26, 0xf6, 0x2b, 0xbf,
    0x65, 0x8f, 0x52, 0x3e, 0x0e, 0xf2, 0x4e, 0x3f, 0x38, 0xe9, 0xba, 0xbd,
    0xc0, 0x60, 0x9d, 0x3e, 0x7b, 0x06, 0xcd, 0x3e, 0x3d, 0x7f, 0xf8, 0xbd,
    0x48, 0x25, 0xb9, 0x3e, 0x8b, 0x92, 0x57, 0xbe, 0x5c, 0xd8, 0x49, 0xbf,
    0x25, 0x6a, 0x01, 0xbf, 0x57, 0x12, 0xd6, 0xbe, 0x72, 0xbf, 0x42, 0x3d,
    0xcf, 0xe5, 0x66, 0xbd, 0x14, 0x51, 0xb8, 0xbe, 0x55, 0x73, 0xaa, 0xbd,
    0xc1, 0x11, 0xcc, 0xbe, 0x3f, 0x98, 0xfb, 0xbe, 0x56, 0xdd, 0x8a, 0x3e,
    0x85, 0x5d, 0xb5, 0x3d, 0x36, 0xcc, 0x9e, 0xbc, 0x13, 0xa1, 0x26, 0x3c,
    0x83, 0x83, 0x78, 0x3c, 0x81, 0x4c, 0x4b, 0x3e, 0x13, 0x02, 0x25, 0x3e,
    0x32, 0x57, 0xf8, 0xbd, 0xf8, 0xd7, 0xe8, 0x3d, 0xf4, 0x10, 0xe9, 0xbe,
    0x8b, 0x79, 0x0d, 0x3d, 0x0e, 0x15, 0x99, 0x3e, 0x14, 0x08, 0xdc, 0xbd,
    0x22, 0x17, 0xd0, 0x3e, 0x3b, 0x7a, 0xe0, 0x3d, 0xc2, 0x3d, 0x09, 0x3f,
    0x09, 0x79, 0xa5, 0x3d, 0xc1, 0x69, 0xae, 0xbe, 0x64, 0x47, 0xf5, 0x3e,
    0x06, 0x9b, 0x30, 0x3e, 0x09, 0x2c, 0x5d, 0x3e, 0x06, 0x67, 0x10, 0x3e,
    0x9a, 0xeb, 0x58, 0x3e, 0xe7, 0x9c, 0xd1, 0xbe, 0x1f, 0xe7, 0x0d, 0x3f,
    0xe1, 0x9d, 0xdb, 0xbe, 0x94, 0xa7, 0x11, 0xbe, 0x1d, 0x29, 0x2b, 0xbe,
    0xaa, 0xab, 0xac, 0x3e, 0xa4, 0x88, 0x95, 0xbe, 0x3d, 0x08, 0x54, 0xbd,
    0x45, 0xf3, 0x98, 0xbe, 0xc1, 0x08, 0x80, 0xbd, 0x83, 0xaa, 0x20, 0x3e,
    0xf0, 0x30, 0x6b, 0xbd, 0xdf, 0x32, 0xef, 0x3c, 0x7e, 0x0c, 0x96, 0xbe,
    0x43, 0x0f, 0xac, 0xbe, 0xc7, 0x5c, 0x5d, 0x3d, 0x63, 0x3b, 0xdf, 0xbd,
    0x85, 0xb7, 0x35, 0xbd, 0x05, 0xb3, 0xfb, 0xbd, 0x25, 0x00, 0xfd, 0x3c,
    0x92, 0xc9, 0xb6, 0x3e, 0x6f, 0x8d, 0x97, 0xbe, 0xa5, 0x5f, 0x4a, 0x3e,
    0x8f, 0x89, 0x98, 0x3d, 0x48, 0x89, 0x36, 0xbe, 0x93, 0x17, 0x8d, 0x3d,
    0x15, 0x8a, 0xb5, 0xbe, 0xb6, 0x4f, 0x10, 0xbf, 0xbf, 0x3f, 0x14, 0x3e,
    0x3e, 0x4b, 0xe3, 0xbe, 0xe1, 0xd4, 0x4b, 0x3d, 0x0e, 0x76, 0x10, 0x3e,
    0x43, 0x87, 0xc7, 0x3e, 0xe5, 0x0d, 0x74, 0x3e, 0xb7, 0x51, 0xfc, 0xbe,
    0x6f, 0x48, 0x12, 0x3e, 0x97, 0xb0, 0x53, 0x3e, 0x20, 0x4b, 0x80, 0x3b,
    0x9a, 0x41, 0x1e, 0xbe, 0xbd, 0xe5, 0xc5, 0xbe, 0xe0, 0x1c, 0x60, 0xb7,
    0x8d, 0x26, 0xc8, 0xbe, 0x0d, 0x2c, 0xad, 0xbd, 0x41, 0x3a, 0x93, 0xbd,
    0xad, 0x4b, 0x33, 0xbe, 0xcf, 0x50, 0xd1, 0x3d, 0x71, 0xd3, 0x85, 0xbe,
    0x33, 0x3a, 0x50, 0xbc, 0xdf, 0x0b, 0x84, 0xbd, 0x5a, 0x6b, 0x46, 0xbe,
    0xb8, 0x2d, 0xce, 0xbe, 0x1f, 0x52, 0x45, 0x3e, 0x4d, 0xfa, 0xfe, 0xbd,
    0x5f, 0x43, 0xdf, 0x3d, 0xa0, 0x7e, 0x39, 0x3f, 0x99, 0xb2, 0x8a, 0x3e,
    0xb5, 0x95, 0xbc, 0xbe, 0xcc, 0x2e, 0x70, 0xbe, 0xaf, 0x60, 0x1a, 0x3d,
    0x6f, 0x56, 0x6a, 0xbf, 0x6e, 0x0c, 0x8b, 0x3d, 0x01, 0xc8, 0x4c, 0x3e,
    0x74, 0x3c, 0x57, 0xbe, 0xed, 0xee, 0x19, 0xbe, 0xfc, 0x38, 0xe1, 0x3e,
    0x07, 0x7a, 0xe8, 0xbd, 0xb3, 0x35, 0x40, 0x3d, 0x25, 0x71, 0x96, 0xbd,
    0x58, 0x68, 0xff, 0xbd, 0x12, 0xc2, 0xd3, 0x3e, 0xe1, 0xe6, 0xb0, 0xbd,
    0x53, 0x63, 0x2d, 0x3e, 0xb6, 0x74, 0xe5, 0x3e, 0x7c, 0x51, 0x99, 0x3d,
    0xa2, 0x34, 0xb9, 0xbe, 0x7d, 0xd1, 0xa2, 0xbd, 0xc3, 0x24, 0x00, 0x3f,
    0xaa, 0x46, 0x48, 0x3e, 0x12, 0x2d, 0xbc, 0xbc, 0xb0, 0xe1, 0x78, 0xbe,
    0x55, 0x82, 0x49, 0xbe, 0x08, 0x0d, 0xb5, 0x3e, 0xa2, 0x22, 0xca, 0xbd,
    0xaa, 0x62, 0xa8, 0xbe, 0x02, 0xb3, 0xd2, 0xbe, 0xe6, 0x92, 0x90, 0x3e,
    0xbb, 0x7a, 0x77, 0xbd, 0xe7, 0xc4, 0xac, 0xbe, 0x8b, 0xa8, 0x1f, 0xbf,
    0xcd, 0xc4, 0xf2, 0xbd, 0x29, 0x4f, 0x3a, 0x3e, 0x1f, 0xf3, 0x38, 0xbd,
    0xc0, 0x97, 0x55, 0x3e, 0x9d, 0x03, 0xcf, 0x3d, 0x7c, 0x62, 0x0c, 0xbf,
    0xef, 0x7d, 0xb3, 0xbe, 0x62, 0xf7, 0x44, 0xbe, 0x94, 0x44, 0xc8, 0xbd,
    0x52, 0xe9, 0xff, 0x3e, 0xc4, 0x10, 0x2c, 0xbc, 0xe0, 0x5a, 0x3f, 0x3e,
    0x4c, 0xc5, 0xb9, 0xbe, 0x38, 0xaa, 0x9b, 0x3e, 0x1a, 0xf0, 0xcd, 0xbe,
    0x67, 0x33, 0x3d, 0xbe, 0x5e, 0x48, 0xf8, 0xbe, 0x42, 0xaa, 0x23, 0x3e,
    0x15, 0x36, 0xa3, 0xbd, 0xac, 0x97, 0x96, 0x3e, 0x12, 0xcf, 0xcc, 0xbe,
    0x43, 0x13, 0xff, 0x3e, 0x1a, 0x42, 0xae, 0x3e, 0x79, 0x7d, 0x44, 0xbd,
    0xd1, 0x11, 0xf3, 0xbe, 0x7c, 0x6f, 0xa5, 0xbe, 0xb4, 0xf3, 0xc8, 0x3e,
    0xf2, 0xeb, 0x10, 0x3f, 0xf3, 0x24, 0xd8, 0x3d, 0x34, 0xcc, 0x8f, 0xbe,
    0x38, 0x34, 0x6a, 0x3e, 0x96, 0x11, 0x6a, 0x3e, 0x2d, 0x09, 0xcd, 0x3d,
    0xdb, 0x6d, 0xe8, 0x3d, 0xcd, 0xf8, 0x61, 0xbe, 0xc0, 0x0e, 0x3a, 0xbe,
    0x5a, 0xee, 0x4c, 0x3e, 0x01, 0x83, 0x21, 0xbe, 0xc6, 0x2e, 0x09, 0x3f,
    0xe1, 0x5b, 0x1a, 0xbe, 0x04, 0x0d, 0x9b, 0xbe, 0xcf, 0x3f, 0xb4, 0x3d,
    0x52, 0x50, 0xc5, 0x3d, 0x92, 0xca, 0x9b, 0xbe, 0x5d, 0xc2, 0x23, 0x3c,
    0xba, 0x7e, 0x8e, 0x3e, 0x2d, 0xad, 0x03, 0x3e, 0x4a, 0x3c, 0xbc, 0x3d,
    0xe9, 0x6b, 0xb6, 0x3e, 0xbf, 0x5b, 0x45, 0x3e, 0x82, 0xfe, 0x46, 0xbe,
    0x0a, 0x3a, 0x9e, 0x3e, 0x19, 0xde, 0x06, 0xbe, 0x22, 0x48, 0x8d, 0x3d,
    0xdf, 0xc8, 0xa4, 0xbe, 0xf9, 0xbb, 0x04, 0xbd, 0x19, 0x5f, 0xf7, 0x3d,
    0xea, 0xfb, 0xbd, 0xbe, 0x70, 0x1c, 0xfd, 0xbb, 0xcc, 0x21, 0x62, 0xbe,
    0xb9, 0xf2, 0xa6, 0x3d, 0x2c, 0xfa, 0x3b, 0x3f, 0x35, 0x59, 0xb6, 0xbc,
    0x57, 0x8c, 0x88, 0xbd, 0x3f, 0xbd, 0x01, 0xbe, 0x82, 0x5f, 0x1b, 0xbd,
    0xd5, 0x6c, 0x5b, 0x3d, 0x31, 0x43, 0xd1, 0xbe, 0xee, 0x71, 0x6b, 0xbe,
    0x5d, 0xd8, 0x09, 0x3e, 0x95, 0x4c, 0xd0, 0xbe, 0xc2, 0x9e, 0xeb, 0x3e,
    0xd6, 0xaf, 0x16, 0x3e, 0x12, 0xbf, 0x50, 0x3d, 0x18, 0x49, 0xbd, 0x3d,
    0x7c, 0x15, 0xa5, 0x3e, 0x1e, 0x74, 0x7e, 0xbd, 0x91, 0x6e, 0xf0, 0x3d,
    0xbd, 0xdd, 0x2f, 0xbe, 0x0c, 0xd4, 0xb8, 0xbd, 0xb3, 0x4e, 0x63, 0xbe,
    0xf5, 0x61, 0x8f, 0x3c, 0xe5, 0xbb, 0x07, 0x3e, 0x95, 0xfe, 0xbf, 0xbc,
    0x9c, 0x18, 0x4d, 0xbc, 0x9d, 0xa8, 0x30, 0xbe, 0xc8, 0x95, 0xa7, 0xbd,
    0x5f, 0x13, 0x9c, 0x3e, 0x40, 0xf7, 0x90, 0xbe, 0xbc, 0x6c, 0x1d, 0xbe,
    0x53, 0x39, 0x75, 0x3e, 0x6c, 0xb4, 0x82, 0xbd, 0xd5, 0x73, 0x68, 0x3e,
    0x0b, 0x9d, 0x37, 0xbf, 0x67, 0x81, 0x0a, 0xbd, 0xf5, 0x55, 0x77, 0xbe,
    0xac, 0xe9, 0x8b, 0xbe, 0x9d, 0x80, 0xb1, 0xbe, 0x4d, 0x0c, 0xaa, 0xbe,
    0x15, 0xf0, 0x29, 0x3d, 0x0b, 0x32, 0x1d, 0x3e, 0xff, 0x08, 0x29, 0xbf,
    0x51, 0xbf, 0x05, 0x3e, 0xec, 0x7a, 0xd4, 0x3e, 0xbc, 0x52, 0x38, 0xbe,
    0x37, 0x60, 0xc5, 0x3c, 0xc3, 0x90, 0xa2, 0xbc, 0xe0, 0x3a, 0x78, 0x3e,
    0x6f, 0xd1, 0xdb, 0xbe, 0xf6, 0x02, 0xe7, 0xbe, 0x85, 0x80, 0xbf, 0xbe,
    0xc5, 0xe0, 0xc1, 0xbe, 0x85, 0x60, 0x65, 0x3d, 0x5e, 0x6c, 0x9f, 0xbd,
    0x0c, 0x58, 0xd4, 0xbe, 0x70, 0x4b, 0x6f, 0x3e, 0xe6, 0x57, 0xa0, 0xbe,
    0xa7, 0xda, 0xb1, 0x3e, 0xdd, 0x26, 0x9d, 0x3c, 0x26, 0x26, 0x26, 0x3e,
    0xa5, 0x18, 0x64, 0xbd, 0x94, 0x68, 0x2b, 0x3e, 0x0b, 0x50, 0x00, 0x3e,
    0xf9, 0xd4, 0x2e, 0x3e, 0xd9, 0xfa, 0x89, 0xbd, 0x1a, 0x52, 0xf4, 0x3e,
    0xb0, 0xc7, 0x01, 0xbf, 0x28, 0x49, 0xf2, 0x3d, 0xa3, 0xc6, 0xbb, 0x3c,
    0x36, 0x25, 0x90, 0x3e, 0x49, 0xf2, 0x5d, 0x3e, 0x12, 0x98, 0x3b, 0xbd,
    0x98, 0xdd, 0x5c, 0xbe, 0xe7, 0x7c, 0x25, 0x3d, 0xa6, 0xe1, 0xb4, 0x3e,
    0x7f, 0x0d, 0x2a, 0xbf, 0x20, 0x92, 0xaf, 0x3e, 0x5d, 0xb6, 0x14, 0xbf,
    0xcf, 0x37, 0x80, 0x3d, 0xa6, 0x9f, 0x9a, 0x3e, 0x87, 0x48, 0x3a, 0x3e,
    0x2a, 0xf8, 0xd0, 0xbd, 0x55, 0xa1, 0x06, 0x3d, 0x42, 0x37, 0x97, 0x3e,
    0xe1, 0xf3, 0x4a, 0x3e, 0x6e, 0x47, 0x99, 0xbe, 0xba, 0xdf, 0x8f, 0xbf,
    0x55, 0x0d, 0x21, 0x3d, 0x03, 0xe3, 0xb5, 0xbe, 0x87, 0xc5, 0x6d, 0x3d,
    0x7f, 0x90, 0xa2, 0xbe, 0xbc, 0x92, 0x4a, 0xbf, 0x42, 0xe7, 0xa5, 0x3e,
    0x7b, 0x10, 0x3b, 0xbe, 0x53, 0x27, 0xe6, 0xbe, 0xa1, 0xc2, 0x68, 0xbe,
    0xa4, 0x63, 0x86, 0x3e, 0x7b, 0xde, 0x40, 0x3d, 0x3f, 0x47, 0xfd, 0xbe,
    0xfd, 0x3e, 0xde, 0xbd, 0xa5, 0x14, 0x9f, 0x3e, 0x97, 0x99, 0x18, 0x3e,
    0x1e, 0x84, 0x81, 0x3e, 0x37, 0xec, 0xbb, 0xbe, 0xad, 0x52, 0x74, 0xbe,
    0xdb, 0x01, 0x39, 0xbe, 0x06, 0x69, 0xaf, 0x3c, 0x6a, 0x54, 0xf0, 0xbe,
    0x7d, 0x6b, 0x10, 0xbe, 0x3c, 0xc2, 0x24, 0xbd, 0xc1, 0x84, 0x51, 0x3d,
    0x3d, 0x87, 0x53, 0xbd, 0xaa, 0xee, 0x4a, 0xbf, 0xf6, 0xd4, 0x95, 0x3d,
    0xca, 0x17, 0x0a, 0xbf, 0x1e, 0x11, 0x30, 0xbe, 0x8c, 0xf7, 0x9b, 0x3e,
    0xb2, 0xd1, 0x46, 0x3d, 0x24, 0xc7, 0x08, 0xbe, 0xa3, 0xf2, 0xad, 0x3e,
    0xa2, 0xc7, 0xc5, 0xbe, 0xed, 0x8a, 0xee, 0x3c, 0x20, 0xb5, 0x08, 0x3d,
    0xd3, 0x53, 0xa9, 0xbe, 0x70, 0x2e, 0xe1, 0x3c, 0x33, 0x2c, 0x0a, 0x3e,
    0xc0, 0x27, 0x37, 0xbd, 0xd9, 0xc2, 0xe8, 0x3d, 0x0c, 0xe1, 0x40, 0xbe,
    0xc3, 0x58, 0x48, 0x3f, 0x77, 0xfd, 0x5d, 0x3e, 0xa5, 0x78, 0xd0, 0x3e,
    0x6f, 0x30, 0x22, 0x3d, 0x27, 0x85, 0x3a, 0x3d, 0x31, 0x05, 0xb9, 0x3e,
    0x26, 0x40, 0xf5, 0x3d, 0xba, 0x30, 0x7b, 0xbc, 0x47, 0x73, 0x37, 0xbf,
    0x60, 0x74, 0x6c, 0xbe, 0x78, 0x57, 0x93, 0xbd, 0xcb, 0x4b, 0xdd, 0xbd,
    0x43, 0xb6, 0x3a, 0x3d, 0xd1, 0x17, 0x79, 0xb9, 0x51, 0x52, 0x5b, 0xbd,
    0x9c, 0x72, 0x67, 0x3e, 0xf7, 0x35, 0x16, 0xbe, 0xa9, 0xbb, 0x2e, 0xbd,
    0x6f, 0xc3, 0x6b, 0x3e, 0x4c, 0x65, 0x1d, 0xbe, 0xeb, 0x1e, 0x42, 0x3e,
    0x4f, 0x0f, 0x50, 0x3c, 0xe9, 0x6c, 0x23, 0xbe, 0xe3, 0xfe, 0x10, 0xbe,
    0xff, 0xcd, 0x22, 0xbe, 0xf7, 0x6f, 0x82, 0x3d, 0xaa, 0x01, 0xb5, 0x3e,
    0x2d, 0xdc, 0x54, 0x3e, 0x9a, 0x99, 0xd6, 0x3c, 0x70, 0xdc, 0x31, 0x3d,
    0x77, 0xc3, 0x39, 0x3e, 0x6a, 0x2c, 0xa2, 0x3c, 0xd4, 0x0e, 0x57, 0x3d,
    0x7e, 0x7e, 0x1b, 0x3e, 0x46, 0x18, 0xf3, 0xbe, 0xd7, 0xa2, 0x18, 0xbf,
    0x55, 0xe3, 0x30, 0x3d, 0x57, 0xbd, 0xf1, 0xbe, 0x7d, 0xc0, 0x65, 0xbf,
    0x67, 0x2f, 0x49, 0x3e, 0xc6, 0xd3, 0xb1, 0x3e, 0x51, 0x90, 0x80, 0xbe,
    0xfd, 0x07, 0xb3, 0x3e, 0x4d, 0xd6, 0xa9, 0xbd, 0xc0, 0xeb, 0xa1, 0x3e,
    0x05, 0x9f, 0x6b, 0x3e, 0x41, 0xfc, 0xc8, 0xbe, 0x39, 0xa3, 0x6d, 0x3e,
    0x2d, 0x39, 0x9f, 0x3e, 0x28, 0xf1, 0xef, 0xbd, 0x0f, 0x84, 0xe1, 0xbb,
    0xb5, 0x63, 0x51, 0xbd, 0x0e, 0xfa, 0x61, 0x3e, 0x1f, 0xba, 0x0c, 0x3e,
    0x39, 0x9d, 0x9b, 0xbd, 0xf2, 0xb4, 0x9c, 0xbb, 0x2a, 0x73, 0x6b, 0x3e,
    0xff, 0x5f, 0x7a, 0xbd, 0x79, 0x3d, 0x82, 0x3e, 0x19, 0xa6, 0xc8, 0xbd,
    0x2f, 0xc4, 0xf6, 0xba, 0x78, 0x1b, 0x90, 0x3e, 0xaa, 0x1d, 0xa5, 0xbd,
    0x0b, 0xa9, 0x0a, 0xbd, 0xf9, 0xcb, 0x57, 0x3e, 0xcf, 0xb1, 0x52, 0xbe,
    0x26, 0x9f, 0x9b, 0xbd, 0xf0, 0x85, 0xcb, 0xbd, 0xb8, 0x8a, 0x33, 0xbe,
    0x7c, 0x32, 0x70, 0x3d, 0x1b, 0x3d, 0x26, 0xbf, 0x3a, 0x64, 0x3e, 0x3e,
    0x0c, 0xb2, 0xe4, 0x3e, 0x49, 0x5b, 0x3b, 0x3d, 0xe7, 0x2b, 0xae, 0xbd,
    0xed, 0x09, 0x8a, 0x3e, 0x6f, 0xd7, 0x87, 0xbd, 0x9a, 0x2a, 0x7d, 0xbd,
    0xb3, 0xf7, 0x8c, 0xbe, 0x0c, 0xaa, 0x97, 0x3d, 0x11, 0xed, 0x44, 0xbe,
    0x93, 0x37, 0x8e, 0xbe, 0x2b, 0x80, 0x88, 0x3e, 0xd0, 0xc4, 0x3a, 0x3e,
    0xd3, 0x34, 0xaa, 0xbe, 0xa2, 0x7e, 0x05, 0xbe, 0x5f, 0x37, 0x52, 0xbd,
    0x48, 0x9f, 0x50, 0xbd, 0xb1, 0xa5, 0x5f, 0xbe, 0xe8, 0x60, 0x14, 0x3e,
    0x9a, 0x61, 0xa9, 0x3e, 0xaf, 0x52, 0x9b, 0x3d, 0x85, 0xec, 0xd2, 0x3d,
    0x55, 0x51, 0xc0, 0xbe, 0x70, 0x18, 0x87, 0xbe, 0x98, 0x9e, 0xe5, 0x3d,
    0xaa, 0xa4, 0x1e, 0xbe, 0x41, 0xcd, 0x43, 0x3e, 0x1b, 0x08, 0xf5, 0xbe,
    0xaf, 0xa4, 0xc4, 0xbe, 0x8b, 0xec, 0xc3, 0x3d, 0x53, 0x60, 0xba, 0xbe,
    0xa6, 0xfb, 0x9b, 0x3e, 0xc6, 0x0e, 0x44, 0x3e, 0x61, 0xc3, 0x60, 0xbe,
    0x93, 0x25, 0x75, 0xbe, 0xae, 0x39, 0x0e, 0x3f, 0x88, 0x76, 0x4e, 0xbd,
    0xe0, 0x7b, 0x28, 0xbe, 0xbb, 0x93, 0x93, 0xba, 0xd2, 0xf4, 0xa6, 0xbc,
    0xf6, 0xb9, 0xf3, 0x3d, 0x54, 0x97, 0x06, 0xbf, 0x1a, 0x50, 0xb5, 0x3e,
    0x12, 0x0a, 0x29, 0x3e, 0xe7, 0xea, 0xaa, 0x3e, 0x10, 0xa4, 0x14, 0xbe,
    0x41, 0x96, 0x00, 0xbd, 0x48, 0x66, 0x09, 0x3e, 0x8d, 0xf9, 0x1d, 0x3e,
    0x69, 0xa5, 0x10, 0xbf, 0xb5, 0x15, 0x6f, 0x3e, 0x7f, 0x07, 0x85, 0xbe,
    0xd1, 0xce, 0xe1, 0x3c, 0x78, 0x2a, 0x67, 0xbe, 0x62, 0x2d, 0x4b, 0xbe,
    0xd3, 0xe6, 0x65, 0xbe, 0x86, 0xba, 0x7a, 0x3e, 0x29, 0xbd, 0x10, 0xbf,
    0x1d, 0x33, 0x2e, 0xbc, 0x50, 0xac, 0x5f, 0xbf, 0x4a, 0x8d, 0x19, 0xbf,
    0x8d, 0x21, 0xa5, 0x3e, 0x37, 0x78, 0x6e, 0xbc, 0xa6, 0x79, 0x5d, 0x3d,
    0x2e, 0x5f, 0xf5, 0x3d, 0x6d, 0xdd, 0xbf, 0xbe, 0xf0, 0x96, 0xb7, 0x3d,
    0x37, 0x64, 0xd3, 0xbe, 0x65, 0x7c, 0xb6, 0xbe, 0xa4, 0x89, 0xc9, 0xbe,
    0x1f, 0xa7, 0x26, 0x3e, 0x30, 0x00, 0x0b, 0x3e, 0x22, 0x17, 0xd1, 0x3e,
    0x9d, 0xe1, 0xed, 0x3e, 0x45, 0xcf, 0x55, 0x3d, 0xfd, 0x32, 0xe3, 0x3d,
    0xa7, 0x97, 0x07, 0x3e, 0xa3, 0x91, 0x12, 0xbf, 0x00, 0xbf, 0x0e, 0x3e,
    0x6d, 0x73, 0xff, 0x3c, 0x1c, 0x34, 0xde, 0x3d, 0x5b, 0xee, 0x24, 0xbd,
    0x40, 0xb2, 0xc7, 0x3d, 0x3a, 0x70, 0x9b, 0xbe, 0xac, 0x89, 0x4d, 0x3e,
    0x6e, 0x7f, 0x8e, 0xbe, 0x1f, 0xdf, 0x38, 0xbe, 0x5b, 0xff, 0x77, 0xbe,
    0xce, 0xfe, 0x1a, 0x3c, 0xef, 0x85, 0x04, 0xbe, 0xa0, 0x80, 0xb7, 0xbd,
    0x76, 0xb4, 0xd0, 0xbe, 0x57, 0xf2, 0x85, 0x3e, 0xcd, 0x41, 0xe7, 0x3e,
    0x3c, 0x46, 0xb4, 0xbe, 0xfe, 0xd0, 0xb0, 0x3d, 0x8c, 0x90, 0x59, 0x3e,
    0x0c, 0x52, 0x59, 0x3e, 0xd3, 0x6e, 0xb5, 0xbe, 0x22, 0x1a, 0x32, 0x3e,
    0x28, 0x77, 0xd1, 0xbe, 0xe7, 0x5d, 0x83, 0xbe, 0x66, 0xcf, 0x7a, 0xbe,
    0xad, 0xfe, 0x58, 0xbe, 0xc9, 0xce, 0xcf, 0x3d, 0xf8, 0x2d, 0xc2, 0x3e,
    0x56, 0xbe, 0xb7, 0xbd, 0x7f, 0x11, 0xc2, 0xbb, 0x4c, 0xd1, 0x9d, 0x3e,
    0x22, 0x22, 0x9a, 0x3e, 0x79, 0xf5, 0x08, 0x3e, 0x89, 0xb8, 0x89, 0x3e,
    0x66, 0xb6, 0xd1, 0xbd, 0xaf, 0xa3, 0xf6, 0xbc, 0x36, 0x75, 0x04, 0xbe,
    0x6b, 0xad, 0x36, 0x3d, 0xd0, 0xb3, 0x3f, 0xbe, 0x6f, 0x1b, 0xef, 0xbd,
    0xd7, 0xe0, 0x6f, 0xbd, 0x6d, 0x08, 0x2f, 0xbe, 0x34, 0xa2, 0x3d, 0xbe,
    0x1e, 0xbe, 0x75, 0x3e, 0x00, 0x60, 0x2b, 0x3d, 0x2a, 0x30, 0xcf, 0x3d,
    0x80, 0xe5, 0x84, 0x3c, 0xe8, 0xc4, 0x83, 0x3b, 0x9f, 0xd7, 0xa9, 0x3e,
    0x66, 0xca, 0xb2, 0xbd, 0x44, 0x81, 0x76, 0x3e, 0x86, 0xda, 0x09, 0x3e,
    0x4a, 0xce, 0xb4, 0xbe, 0xc3, 0xd7, 0x78, 0x3e, 0xc3, 0x07, 0x51, 0xbd,
    0xb5, 0x96, 0xd7, 0xbd, 0x70, 0xdd, 0xdb, 0x3d, 0xb0, 0xb9, 0x0c, 0xbe,
    0xdb, 0x76, 0x5e, 0xbd, 0x38, 0xb4, 0x0c, 0x3e, 0x17, 0x8c, 0xf1, 0xbd,
    0x00, 0x62, 0x6f, 0xbe, 0x65, 0xa4, 0x35, 0x3d, 0x02, 0x50, 0x7c, 0x3c,
    0x14, 0xbe, 0x21, 0xbe, 0x24, 0x1c, 0x37, 0xbe, 0x1e, 0x84, 0x25, 0x3e,
    0x04, 0x27, 0xd9, 0x3d, 0xb0, 0xca, 0xba, 0xbc, 0xde, 0x3c, 0x52, 0xbe,
    0xff, 0xb0, 0x06, 0xbe, 0x3e, 0xe4, 0x80, 0xbe, 0x00, 0x36, 0x25, 0xbe,
    0x97, 0xb0, 0x00, 0xbd, 0x96, 0x48, 0xb2, 0x3d, 0xd5, 0x69, 0x35, 0xbe,
    0x85, 0x91, 0x3f, 0xbe, 0x0e, 0xb6, 0x53, 0xbe, 0x3f, 0xdc, 0xae, 0xbc,
    0xa9, 0x71, 0xa0, 0xbc, 0xa0, 0x2f, 0x60, 0x3e, 0x11, 0xbb, 0x58, 0x3d,
    0x60, 0x0e, 0xbb, 0x3c, 0xcc, 0xf4, 0xef, 0x3d, 0x1d, 0xcd, 0x84, 0xbd,
    0x48, 0xf4, 0x3e, 0x3e, 0xba, 0xd6, 0xf3, 0x3e, 0xe0, 0x79, 0x78, 0x3e,
    0x82, 0x27, 0xcb, 0xbd, 0x6b, 0xa9, 0xa3, 0x3e, 0x31, 0x87, 0x49, 0x3e,
    0xab, 0xce, 0x4d, 0xbf, 0x39, 0x85, 0xf0, 0x3d, 0x19, 0xb2, 0xec, 0xbd,
    0xc5, 0x90, 0x1c, 0xbe, 0xc8, 0x9a, 0x9f, 0xbe, 0x3e, 0x0f, 0xcc, 0x3d,
    0x14, 0xfa, 0x85, 0xbe, 0x49, 0x6e, 0x7e, 0x3d, 0xb5, 0xce, 0x88, 0xbe,
    0x42, 0x6c, 0x60, 0x3e, 0x04, 0xf3, 0xcb, 0xbd, 0x01, 0x06, 0x1c, 0x3e,
    0x03, 0x63, 0x17, 0xbb, 0x89, 0xa5, 0xbb, 0xbe, 0xa3, 0x80, 0x05, 0x3f,
    0xd3, 0xce, 0xb7, 0xbd, 0xf8, 0xe2, 0x45, 0xbf, 0x4e, 0x31, 0xb0, 0x3e,
    0xde, 0x1e, 0x8f, 0xbe, 0x32, 0x48, 0x28, 0x3c, 0xc0, 0xed, 0x19, 0xbe,
    0xa3, 0x2e, 0x81, 0xbe, 0xe8, 0xcd, 0xa4, 0x3f, 0x2e, 0xe5, 0x8c, 0x3e,
    0xaa, 0xd5, 0x34, 0xbe, 0x93, 0x8f, 0x01, 0x3f, 0x39, 0x77, 0x6a, 0x3d,
    0x54, 0x0b, 0xbc, 0x3e, 0x24, 0xff, 0x65, 0x3e, 0x21, 0x74, 0x65, 0x3e,
    0x88, 0x1b, 0x88, 0x3d, 0x4e, 0xd7, 0x16, 0x3f, 0xa5, 0x2b, 0x0b, 0x3e,
    0x27, 0x9f, 0x27, 0x3e, 0xf6, 0x4a, 0x11, 0x3f, 0xe8, 0xb4, 0xcf, 0xbd,
    0xdb, 0x5c, 0xbb, 0xbe, 0x22, 0xb8, 0x78, 0xbe, 0x00, 0x8f, 0x87, 0x3e,
    0xd8, 0x62, 0x5a, 0x3e, 0x63, 0x79, 0x51, 0xbe, 0x03, 0xb4, 0x9a, 0xbe,
    0x1a, 0xfb, 0x9a, 0xbb, 0x5c, 0x27, 0x8a, 0x3e, 0x17, 0x33, 0x5b, 0xbe,
    0x1b, 0xc2, 0x95, 0xbe, 0x39, 0xfd, 0xf8, 0xbe, 0x5c, 0x42, 0x90, 0x3e,
    0x2c, 0x3c, 0x0f, 0xbe, 0x17, 0xd4, 0x94, 0xbe, 0xdc, 0xcf, 0x1b, 0xbf,
    0xc5, 0xdd, 0x8d, 0xbd, 0x84, 0xff, 0x9a, 0x3e, 0xd6, 0x01, 0x89, 0xbc,
    0x99, 0x94, 0x21, 0x3e, 0xee, 0x0b, 0x10, 0x3e, 0x2b, 0x65, 0x3a, 0xbe,
    0xa1, 0x68, 0x4a, 0xbe, 0x0a, 0xe4, 0x75, 0xbe, 0xb5, 0x4d, 0x34, 0xbc,
    0x37, 0xe1, 0xef, 0xbc, 0xe4, 0x86, 0x50, 0x3e, 0x31, 0xb2, 0xb5, 0xbe,
    0xe7, 0xd9, 0x82, 0x3b, 0x91, 0xb2, 0x42, 0x3e, 0x3b, 0x3e, 0xec, 0x3d,
    0x62, 0x61, 0xb6, 0xbe, 0xa1, 0xd7, 0xd6, 0x3d, 0x33, 0x9a, 0x9a, 0x3e,
    0xc5, 0xb9, 0x67, 0x3e, 0xbe, 0xb6, 0x55, 0x3d, 0xa9, 0x56, 0x8e, 0xbb,
    0xe8, 0xef, 0xbe, 0x3c, 0xa3, 0x9d, 0xbb, 0xbb, 0x6d, 0x08, 0x7b, 0x3e,
    0x95, 0x85, 0x59, 0xbd, 0xda, 0xb8, 0x62, 0xbe, 0xde, 0xcd, 0xef, 0x3e,
    0xd3, 0x75, 0xfe, 0x3d, 0xfd, 0x44, 0x74, 0xbe, 0x06, 0xd0, 0x9e, 0x3e,
    0xa2, 0x21, 0x17, 0xbe, 0x98, 0x26, 0x6f, 0x3e, 0x83, 0xcf, 0xf4, 0x3d,
    0xfb, 0x59, 0x44, 0xbe, 0xb1, 0x18, 0x45, 0x3e, 0x9d, 0x09, 0xba, 0xbe,
    0x47, 0x2b, 0x0b, 0x3e, 0x04, 0x9c, 0xa2, 0x3e, 0x53, 0x62, 0x2a, 0x3e,
    0x4c, 0xfe, 0xd4, 0xbe, 0xba, 0x93, 0x01, 0x3f, 0x11, 0xb5, 0x49, 0xbe,
    0x12, 0x68, 0xc8, 0xbd, 0xbe, 0x84, 0x3b, 0x3e, 0x74, 0x68, 0x16, 0x3e,
    0x45, 0xcd, 0x24, 0xbf, 0x8a, 0x68, 0xf6, 0x3d, 0xb1, 0x7c, 0xd8, 0x3d,
    0xa7, 0x1d, 0xe2, 0xbd, 0xa0, 0x67, 0x99, 0xbe, 0x27, 0xcc, 0x12, 0xbf,
    0xff, 0x42, 0x8c, 0x3d, 0x34, 0xf7, 0xe8, 0x3b, 0x78, 0x14, 0x35, 0xbc,
    0xd0, 0x26, 0x77, 0xbe, 0x2a, 0xcb, 0xf7, 0xbe, 0x6b, 0xe1, 0x3e, 0x3d,
    0x18, 0x9a, 0x32, 0x3e, 0x34, 0x53, 0x6a, 0xbe, 0x31, 0xe2, 0x78, 0xbe,
    0x5e, 0xaf, 0x15, 0x3e, 0xef, 0xa2, 0x54, 0xbe, 0xe2, 0x4e, 0x60, 0x3d,
    0x10, 0x64, 0x2b, 0x3e, 0x41, 0xd6, 0xa3, 0x3e, 0x99, 0xba, 0x82, 0x3e,
    0x15, 0xf3, 0xd0, 0x3e, 0x49, 0x08, 0x8a, 0x3e, 0x50, 0x86, 0x6f, 0xbe,
    0x48, 0x8b, 0xbe, 0xbe, 0x83, 0xaa, 0x80, 0x3e, 0x4b, 0xce, 0xf8, 0xbe,
    0xb0, 0x9f, 0x8e, 0xbe, 0x52, 0x7f, 0xe0, 0xbd, 0xef, 0x73, 0xc2, 0x3d,
    0xa3, 0x3b, 0x99, 0x3e, 0x3a, 0xcf, 0x40, 0x3d, 0xbe, 0xd3, 0x85, 0xbe,
    0x31, 0x07, 0xb1, 0x3b, 0x0d, 0x2b, 0x31, 0xbe, 0x40, 0xb9, 0x25, 0x3e,
    0x7b, 0x22, 0x86, 0xbd, 0xb2, 0xae, 0xcc, 0x3d, 0x40, 0x61, 0x89, 0xbe,
    0x27, 0x9a, 0x69, 0x3e, 0x57, 0x84, 0x08, 0x3e, 0x74, 0x08, 0x3b, 0x3e,
    0x77, 0xf3, 0x19, 0xbe, 0x9e, 0x76, 0xd1, 0x3d, 0xed, 0x42, 0x56, 0xbe,
    0x77, 0xae, 0x8f, 0xbd, 0xdc, 0x70, 0x20, 0xbd, 0x97, 0xc4, 0xd0, 0xbe,
    0xd3, 0x62, 0xf6, 0xbe, 0x71, 0x96, 0x8a, 0xbe, 0xed, 0xd4, 0x76, 0x3e,
    0x2b, 0x8d, 0x4d, 0xbe, 0x6b, 0x05, 0x01, 0xbe, 0xe7, 0xab, 0xf3, 0xbc,
    0x08, 0xe2, 0xbe, 0x3d, 0xdf, 0xaa, 0xaf, 0xbe, 0xbc, 0xc2, 0xc0, 0xbe,
    0x7b, 0xa0, 0xee, 0xbe, 0xc1, 0x57, 0xa8, 0x3d, 0x6f, 0xc8, 0xa7, 0x3e,
    0x3c, 0x6b, 0x1b, 0x3e, 0x24, 0xb3, 0x16, 0x3e, 0x05, 0x7a, 0x8a, 0xbe,
    0x35, 0x22, 0xbf, 0xbf, 0xc3, 0x0c, 0x9f, 0x3e, 0xf9, 0xad, 0x39, 0xbf,
    0xc3, 0x2c, 0x3f, 0xbf, 0xde, 0xdf, 0x9d, 0xbe, 0x23, 0x53, 0xff, 0x3d,
    0x88, 0x3f, 0x32, 0x39, 0xe2, 0xa6, 0x90, 0xbd, 0x6e, 0x93, 0xb1, 0xbe,
    0x9d, 0xb7, 0x7a, 0xbc, 0x69, 0x07, 0x0f, 0xbe, 0x0e, 0x87, 0x00, 0xbc,
    0x13, 0xbc, 0x7a, 0xbf, 0xca, 0x9a, 0xe0, 0x3d, 0xfc, 0x01, 0xd0, 0x3d,
    0xee, 0x3e, 0x77, 0x3d, 0xbc, 0x22, 0xd9, 0xbc, 0x3a, 0xf6, 0x78, 0x3e,
    0xbc, 0x81, 0x4a, 0x3d, 0xf6, 0x5c, 0x34, 0x3e, 0x30, 0xd9, 0x72, 0xbd,
    0x1c, 0x9d, 0x27, 0xbe, 0x0d, 0x12, 0xa7, 0xbe, 0x30, 0x6b, 0x97, 0x3d,
    0xfd, 0x0e, 0x5c, 0x3e, 0x34, 0x6d, 0x7e, 0xbe, 0xd4, 0x58, 0x17, 0x3c,
    0xa1, 0x82, 0xa8, 0xbe, 0xf4, 0xff, 0xe9, 0xbe, 0x44, 0x9f, 0xbe, 0xbd,
    0xc0, 0x5b, 0x11, 0x3e, 0xd3, 0xe2, 0xac, 0x3e, 0x55, 0x89, 0x0a, 0xbd,
    0x6f, 0x8b, 0x00, 0x3e, 0x18, 0xd6, 0x0e, 0x3e, 0xab, 0x0a, 0x3b, 0xbe,
    0xfe, 0x58, 0x54, 0xbe, 0x2e, 0x14, 0x8e, 0x3d, 0x42, 0xbe, 0xb4, 0xbe,
    0x62, 0xdc, 0xaa, 0x3c, 0xfc, 0x24, 0xee, 0xbe, 0x5e, 0x15, 0x52, 0xbe,
    0xef, 0xca, 0x4b, 0xbe, 0x1b, 0x45, 0x46, 0x3e, 0xd6, 0x4d, 0x5d, 0xbe,
    0x43, 0x17, 0xf6, 0xbe, 0x5f, 0x11, 0xb1, 0x3d, 0x8a, 0x77, 0x8e, 0x3e,
    0xf0, 0x17, 0xde, 0x3d, 0x33, 0xe5, 0x6b, 0xbe, 0xdb, 0x3c, 0x9b, 0xbe,
    0x58, 0xb5, 0x09, 0xbe, 0x66, 0xa7, 0x5e, 0xbe, 0xb3, 0xe1, 0x11, 0x3e,
    0x3e, 0x9e, 0xbd, 0x3e, 0xc8, 0xb1, 0x5d, 0xbe, 0x0e, 0x1a, 0xf4, 0xbd,
    0x68, 0xb4, 0xfc, 0x3e, 0x38, 0x13, 0xab, 0xbc, 0x8b, 0x72, 0x30, 0xbe,
    0xae, 0x23, 0xf8, 0xbd, 0x91, 0x5b, 0x11, 0x3f, 0xdc, 0xb6, 0xfb, 0xbd,
    0x4e, 0xd6, 0xf6, 0x3d, 0xeb, 0x65, 0x21, 0xbe, 0xc5, 0xb1, 0xcd, 0xbe,
    0x97, 0x4a, 0x80, 0x3c, 0x07, 0x5c, 0xec, 0x3d, 0xc8, 0x8a, 0x66, 0xbd,
    0x2f, 0xe4, 0x95, 0xbd, 0xa6, 0x42, 0x4d, 0x3e, 0xd4, 0xbd, 0xc7, 0x3e,
    0x5b, 0xaa, 0x47, 0x3b, 0x04, 0x22, 0x3e, 0xbf, 0x13, 0x0a, 0x23, 0x3e,
    0xa1, 0xb9, 0x62, 0xbe, 0x25, 0xd2, 0x7d, 0xbd, 0xa9, 0x58, 0x3d, 0x3e,
    0xaa, 0xc7, 0x48, 0xbe, 0xf1, 0x6d, 0xf5, 0x3d, 0xb4, 0x8b, 0xec, 0x3d,
    0x06, 0x98, 0x1d, 0xbf, 0xca, 0xd9, 0x07, 0x3e, 0x98, 0x47, 0xb9, 0xbe,
    0xcd, 0xe1, 0x91, 0xbe, 0x64, 0xb8, 0x4e, 0xbd, 0xa2, 0x4e, 0x4f, 0xbf,
    0xb3, 0xb6, 0x15, 0xbf, 0xf8, 0x68, 0xe1, 0x3d, 0xef, 0x08, 0xe4, 0xbe,
    0x43, 0x9a, 0x81, 0x3d, 0xfc, 0xa9, 0xc1, 0xbc, 0xc2, 0x50, 0xc6, 0xbe,
    0x4d, 0x29, 0x19, 0x3e, 0x0e, 0x1f, 0x60, 0xbe, 0xc8, 0x8e, 0xea, 0xbc,
    0x2f, 0x00, 0x3a, 0xbd, 0xd0, 0x37, 0x1c, 0x3c, 0xdb, 0x22, 0x89, 0xbe,
    0xa7, 0x42, 0x85, 0xbc, 0xb5, 0x62, 0x3d, 0xbe, 0x6b, 0x9d, 0x0e, 0x3f,
    0x5b, 0x69, 0xe8, 0x3e, 0x17, 0xb2, 0x93, 0x3e, 0x17, 0xda, 0x80, 0x3c,
    0x4b, 0x48, 0x78, 0x3e, 0xe5, 0x84, 0x8c, 0x3e, 0xa3, 0xac, 0x5d, 0x3e,
    0x5b, 0x8b, 0x46, 0x3c, 0x2a, 0x24, 0x2f, 0xbf, 0x95, 0x0e, 0x0e, 0x3f,
    0x57, 0x30, 0x18, 0x3e, 0xdf, 0x22, 0x55, 0xbe, 0x5f, 0x26, 0x73, 0x3d,
    0xcb, 0x8d, 0x9f, 0x3a, 0xf8, 0x6c, 0x4e, 0xbc, 0xa2, 0xd7, 0xb8, 0xbd,
    0x99, 0xba, 0x69, 0xbe, 0xd6, 0xce, 0x50, 0x3d, 0xbd, 0xfb, 0x12, 0xbf,
    0x53, 0xcd, 0x7a, 0x3d, 0x0d, 0xb5, 0xe2, 0x3d, 0x51, 0x6a, 0x4e, 0x3e,
    0x63, 0x59, 0x77, 0xbe, 0x7b, 0x9f, 0x19, 0xbf, 0x70, 0xea, 0x13, 0xbe,
    0xb6, 0x5c, 0x7b, 0x3c, 0x77, 0x36, 0x9a, 0x3b, 0xf8, 0x28, 0x01, 0xbf,
    0x59, 0xf5, 0x43, 0x3d, 0xa0, 0x83, 0x3a, 0xbf, 0xfc, 0x24, 0xfa, 0xbd,
    0xdf, 0x37, 0x43, 0x3d, 0x7a, 0x96, 0xe5, 0x3c, 0xbb, 0x56, 0x7a, 0xbe,
    0x20, 0x40, 0x13, 0x3e, 0xd4, 0xf6, 0xd1, 0x3d, 0xe3, 0x16, 0xac, 0x3e,
    0x8f, 0x54, 0xbc, 0x3d, 0x9e, 0x94, 0x27, 0x3d, 0x80, 0x87, 0x49, 0x3d,
    0xf3, 0xe9, 0x57, 0xbe, 0x60, 0x14, 0xb9, 0xbd, 0x99, 0xda, 0x93, 0x3d,
    0xea, 0x7b, 0x11, 0x3d, 0xec, 0x16, 0x41, 0xbc, 0x9a, 0xf6, 0x26, 0x3e,
    0x98, 0xe0, 0xa0, 0x3e, 0x5f, 0x80, 0x9e, 0x3e, 0xb0, 0xb0, 0x68, 0x3e,
    0x25, 0xf0, 0x5a, 0x3e, 0x8d, 0x80, 0x36, 0xbd, 0x04, 0xc9, 0x7b, 0x3e,
    0x73, 0x05, 0xd7, 0xbe, 0x8a, 0xa2, 0xd9, 0xbd, 0xfe, 0x51, 0x4d, 0xbf,
    0x26, 0x46, 0x8f, 0xbd, 0xce, 0x77, 0x5e, 0xbe, 0x64, 0xba, 0x15, 0x3e,
    0x65, 0x87, 0xf9, 0xbd, 0x7e, 0x21, 0xc1, 0xbe, 0x4e, 0x94, 0xc6, 0x3e,
    0x7d, 0x47, 0x05, 0xbf, 0xa7, 0xc5, 0x1a, 0xbe, 0x32, 0x8f, 0xa0, 0x3e,
    0xf5, 0x47, 0x01, 0x3e, 0x4b, 0x2b, 0xad, 0x3e, 0x3b, 0x21, 0x5c, 0x3e,
    0x52, 0x27, 0x80, 0xbe, 0x2d, 0xe9, 0x94, 0x3d, 0xeb, 0x85, 0x8b, 0xbd,
    0xef, 0x80, 0xe2, 0x3d, 0x9c, 0x94, 0xad, 0x3d, 0xc4, 0x8d, 0xb8, 0x3c,
    0x46, 0xa3, 0xe9, 0xbd, 0x58, 0xbc, 0x0e, 0xbe, 0x6c, 0x83, 0x5f, 0xbe,
    0x2f, 0xef, 0x4a, 0xbd, 0x4e, 0x50, 0xb0, 0x3c, 0x93, 0xbf, 0x47, 0x3e,
    0x09, 0x79, 0xfa, 0x3d, 0xad, 0xbe, 0xa8, 0xbe, 0x8c, 0xf3, 0xe4, 0x3e,
    0x26, 0x7f, 0x57, 0x3d, 0x7c, 0x2a, 0xc5, 0x3e, 0xb3, 0x3a, 0x39, 0xbf,
    0x94, 0xc7, 0xb1, 0xbe, 0x51, 0xd6, 0x85, 0x3d, 0x8f, 0xea, 0x92, 0xbe,
    0x8b, 0x85, 0x6c, 0x3e, 0x30, 0xc4, 0x44, 0x3e, 0x13, 0x0f, 0x8c, 0x3e,
    0x83, 0x6c, 0x56, 0xbe, 0x19, 0x45, 0x85, 0xbe, 0xf8, 0x6e, 0xc0, 0xbe,
    0xd0, 0xa5, 0x96, 0xbe, 0x57, 0x2b, 0x65, 0xbe, 0x99, 0x78, 0xe7, 0x3d,
    0x35, 0xab, 0x22, 0xbd, 0xa1, 0xcf, 0x1c, 0x3e, 0x0d, 0xe6, 0x96, 0xbd,
    0x24, 0xb5, 0xa7, 0x3e, 0x46, 0x6c, 0x27, 0x3e, 0x20, 0xa5, 0x02, 0xbd,
    0x84, 0xfc, 0xf1, 0xbd, 0xb5, 0x18, 0xb4, 0xbd, 0x2c, 0x93, 0xae, 0xbd,
    0x50, 0x0e, 0xd2, 0x3e, 0x89, 0x7e, 0xaa, 0x3e, 0x9a, 0xda, 0x9e, 0xbe,
    0x65, 0xee, 0x5d, 0x3e, 0xd8, 0xf9, 0x3b, 0x3c, 0xfe, 0xd0, 0xa1, 0x3e,
    0x2f, 0xc8, 0xd2, 0xbd, 0x72, 0x38, 0x7f, 0xbd, 0x33, 0x06, 0xe1, 0xbe,
    0x91, 0x34, 0xea, 0x3d, 0x3b, 0xed, 0xab, 0xbd, 0x4b, 0xf4, 0xe9, 0x3e,
    0x41, 0x60, 0xb1, 0xbe, 0xbc, 0x94, 0xca, 0x3e, 0x37, 0xd0, 0x80, 0x3e,
    0x86, 0x4b, 0xdb, 0xbd, 0x02, 0xf4, 0x73, 0x3e, 0x46, 0x94, 0x6f, 0x3e,
    0x48, 0xba, 0x01, 0xbf, 0x96, 0xc8, 0xbe, 0x3e, 0xd7, 0xc6, 0x11, 0x3e,
    0xa6, 0xd8, 0x36, 0xbd, 0xf8, 0x05, 0x81, 0x3c, 0x01, 0xa4, 0x13, 0xbe,
    0xe7, 0x46, 0x2b, 0xbe, 0xda, 0x5c, 0xe9, 0x3d, 0x5d, 0xc3, 0xf0, 0xbe,
    0x1d, 0xd5, 0x72, 0xbe, 0x66, 0x6e, 0xae, 0x3e, 0x87, 0xfc, 0xf0, 0xbc,
    0x72, 0x93, 0x28, 0xbe, 0x79, 0xbf, 0xd0, 0x3c, 0x08, 0x68, 0x71, 0x3e,
    0x90, 0x29, 0x83, 0x3d, 0x35, 0xf9, 0x1a, 0xbf, 0x80, 0x5b, 0x86, 0x3e,
    0xb9, 0x2d, 0x31, 0xbf, 0x77, 0xa3, 0xf9, 0xbe, 0x30, 0xd1, 0x43, 0xbe,
    0x9d, 0x74, 0x6f, 0xbf, 0x27, 0xf8, 0xea, 0x3e, 0x1f, 0x46, 0x72, 0x3c,
    0xa7, 0x8c, 0xfb, 0xbd, 0x4c, 0xe9, 0xd4, 0x3e, 0x69, 0xb6, 0xcc, 0x3e,
    0x08, 0xcc, 0xf6, 0xbe, 0x3f, 0x77, 0x0b, 0xbd, 0x0b, 0xe5, 0x3e, 0x3e,
    0xfc, 0x5f, 0x28, 0x3e, 0x94, 0x91, 0x4d, 0x3e, 0xae, 0x2f, 0xb0, 0x3e,
    0x3c, 0x4d, 0xf1, 0x3e, 0xbb, 0x0f, 0x1d, 0x3e, 0x0f, 0x31, 0xd1, 0xbe,
    0xd8, 0x07, 0xc5, 0xbd, 0x07, 0xa8, 0xc4, 0xbe, 0xe7, 0x1c, 0xb6, 0xbd,
    0xf9, 0xd9, 0x19, 0x3e, 0x2a, 0xc9, 0x2a, 0x3e, 0x71, 0xdc, 0x7f, 0xbd,
    0xf3, 0x9f, 0x7f, 0xbe, 0xe2, 0xc1, 0x8c, 0x3d, 0x52, 0xfc, 0xaf, 0xbe,
    0x44, 0xc6, 0xe2, 0xbe, 0x27, 0x01, 0x78, 0x3e, 0xde, 0xf5, 0x7c, 0xbe,
    0x44, 0x7b, 0x2e, 0xbf, 0x4a, 0x8d, 0xe8, 0xbd, 0xa4, 0x7d, 0x88, 0x3d,
    0x6c, 0x2d, 0x9f, 0x3e, 0x16, 0x24, 0x25, 0xbd, 0x47, 0xa4, 0x09, 0xbf,
    0xca, 0x5e, 0x40, 0x3f, 0x75, 0xf5, 0xc1, 0x3e, 0xe4, 0x6b, 0x17, 0x3e,
    0xff, 0xcc, 0x3c, 0xbe, 0xde, 0x50, 0x61, 0xbe, 0x0f, 0xa8, 0x91, 0x3e,
    0xcc, 0x2a, 0x38, 0x3d, 0x24, 0x4f, 0x50, 0x3e, 0x8f, 0x6a, 0xb0, 0xbe,
    0x15, 0x48, 0x2c, 0x3e, 0x7b, 0x8d, 0xb6, 0xbe, 0xfd, 0xb6, 0xbd, 0xbd,
    0x91, 0xbe, 0x7a, 0xbe, 0x61, 0xe3, 0x29, 0x3b, 0x5f, 0x37, 0x0f, 0xbe,
    0x5b, 0xdf, 0x00, 0xbe, 0xc0, 0x50, 0x30, 0xbe, 0x90, 0x64, 0x60, 0xbe,
    0x1e, 0x8f, 0x7d, 0x3e, 0x58, 0x0b, 0xf2, 0xbd, 0x0d, 0x54, 0x16, 0xbd,
    0x7f, 0xad, 0x2c, 0xbe, 0x63, 0xc6, 0xe7, 0x3c, 0x20, 0x58, 0xbd, 0x3d,
    0x4e, 0x54, 0xc9, 0xbd, 0xd6, 0x6f, 0x01, 0x3e, 0x54, 0xda, 0x22, 0xbf,
    0xd8, 0x60, 0x44, 0x3e, 0x9e, 0x8f, 0x75, 0xbc, 0x83, 0xdd, 0xfd, 0xbd,
    0xd8, 0x38, 0x07, 0xbd, 0xaf, 0xfa, 0xdc, 0x3e, 0x6f, 0xb1, 0x49, 0x3f,
    0x15, 0xb8, 0x48, 0x3e, 0x07, 0xf2, 0x65, 0x3f, 0x64, 0x94, 0x6e, 0x3e,
    0x8f, 0xcf, 0x4c, 0x3f, 0xfd, 0xed, 0xb7, 0xbe, 0x70, 0xdc, 0x91, 0xbe,
    0x08, 0x1e, 0x37, 0x3e, 0x20, 0xa7, 0x6a, 0xbe, 0xd6, 0x14, 0xcb, 0xbd,
    0xfe, 0xc9, 0x06, 0x3d, 0x0d, 0xdf, 0x4f, 0xbe, 0xcb, 0x6e, 0x8c, 0xbe,
    0xcc, 0xde, 0x21, 0x3e, 0x75, 0x2f, 0x45, 0x3e, 0x91, 0xbe, 0x73, 0x3d,
    0x06, 0x5b, 0xd9, 0x3d, 0xc4, 0xe8, 0x0a, 0xbd, 0xec, 0x78, 0xb6, 0x3e,
    0xc9, 0xac, 0x78, 0x3d, 0x36, 0x75, 0x1f, 0xbd, 0x20, 0x69, 0xb4, 0xbd,
    0x70, 0xb5, 0x7c, 0xbe, 0x2b, 0x6a, 0xd2, 0x3e, 0x9f, 0xe8, 0x6d, 0x3e,
    0xd5, 0x54, 0xb5, 0xbe, 0x21, 0x03, 0x7d, 0x3e, 0x76, 0xb5, 0x19, 0xbe,
    0x4d, 0xb8, 0x9b, 0x3e, 0x62, 0xf6, 0xd5, 0x3e, 0xba, 0xdc, 0x81, 0xbe,
    0xaf, 0x40, 0xdb, 0x3e, 0x5e, 0x31, 0xbe, 0x3f, 0xef, 0x28, 0x6f, 0x3e,
    0x0c, 0x51, 0xc4, 0x3e, 0xdd, 0xdf, 0x4f, 0x3e, 0x96, 0x1e, 0x10, 0x3e,
    0xa1, 0x15, 0x1c, 0xbe, 0xa3, 0xc1, 0xee, 0x3e, 0xde, 0x39, 0x28, 0xbd,
    0x96, 0x84, 0xcb, 0xbd, 0xa0, 0xce, 0x5b, 0xbe, 0x65, 0x2d, 0xb9, 0x3e,
    0xb1, 0x24, 0x8f, 0xbe, 0x42, 0x26, 0xf2, 0xbe, 0x8c, 0xcb, 0x01, 0xbf,
    0x32, 0x86, 0x1e, 0x3f, 0x9c, 0x7a, 0x30, 0x3e, 0x6f, 0x30, 0x63, 0x3e,
    0x55, 0x32, 0x80, 0xbe, 0x52, 0x25, 0xfc, 0x3e, 0x6a, 0x66, 0x94, 0x3e,
    0xed, 0xd8, 0x43, 0x3d, 0xc1, 0x66, 0x76, 0xbe, 0x26, 0xfa, 0x01, 0xbf,
    0x7e, 0x2d, 0xc3, 0x3e, 0x22, 0xa8, 0x19, 0x3f, 0x77, 0x7c, 0xb3, 0xbd,
    0x7e, 0xda, 0xf7, 0x3b, 0xfa, 0x62, 0xda, 0x3c, 0xca, 0x12, 0xbd, 0x3e,
    0x09, 0xef, 0xc2, 0x3d, 0x83, 0x0c, 0x2f, 0x3e, 0xd7, 0x10, 0x64, 0xbe,
    0xf1, 0x07, 0x53, 0xbe, 0x86, 0x0b, 0xca, 0x3e, 0xa9, 0x44, 0x01, 0xbe,
    0x9f, 0x53, 0x13, 0x3f, 0xd4, 0x55, 0x4c, 0xbe, 0x63, 0x67, 0x26, 0xbe,
    0x35, 0x7d, 0xd4, 0x3d, 0x20, 0x65, 0x98, 0xbd, 0xa3, 0x87, 0x03, 0xbe,
    0xb0, 0x16, 0x22, 0xbd, 0xb4, 0xba, 0x76, 0xbe, 0x0d, 0xdb, 0xed, 0x3d,
    0xff, 0x12, 0xfe, 0xbd, 0x1b, 0xb6, 0x0d, 0xbe, 0x78, 0x40, 0x40, 0x3c,
    0x58, 0x76, 0xda, 0x3d, 0xe4, 0x53, 0x0a, 0xbd, 0xdf, 0x4c, 0x94, 0xbe,
    0x20, 0x4a, 0x48, 0x3d, 0x4b, 0xaa, 0x2a, 0x3d, 0xad, 0xf3, 0x98, 0x3d,
    0x7c, 0xb4, 0x4d, 0xbe, 0x5b, 0x62, 0xf9, 0x3c, 0x85, 0xb6, 0x05, 0xbe,
    0x29, 0xb2, 0x0b, 0xbd, 0x56, 0x64, 0xec, 0xbd, 0xe2, 0x70, 0x2a, 0x3e,
    0x74, 0x7e, 0x6e, 0xbe, 0xb9, 0x5c, 0x0d, 0xbe, 0x74, 0xa6, 0x3b, 0x3e,
    0xde, 0xf4, 0x8e, 0x3d, 0x96, 0x51, 0xcb, 0x3d, 0x20, 0xd3, 0xbb, 0xbd,
    0x52, 0xef, 0xd4, 0xbd, 0x82, 0x60, 0xf3, 0xbc, 0xfc, 0x2b, 0x3a, 0xbe,
    0xf9, 0xc8, 0x3b, 0xbe, 0xea, 0xbb, 0xff, 0xff, 0x04, 0x00, 0x00, 0x00,
    0x00, 0x05, 0x00, 0x00, 0xc5, 0xb7, 0x61, 0x3e, 0xa5, 0x38, 0x97, 0xbf,
    0xcf, 0xc6, 0xa6, 0x3e, 0x15, 0xc2, 0x29, 0x3e, 0xf8, 0x29, 0x3a, 0xbc,
    0x6c, 0x55, 0x15, 0xbc, 0x88, 0xf7, 0x15, 0x3f, 0x6c, 0x12, 0xd9, 0x3e,
    0xe3, 0xfb, 0x54, 0xbe, 0x4a, 0xd8, 0x24, 0x3f, 0xe0, 0x8f, 0x8d, 0xbf,
    0xba, 0xee, 0x78, 0xbf, 0x15, 0xa4, 0x6d, 0xbe, 0x50, 0x9e, 0xff, 0x3e,
    0xa5, 0x27, 0x7c, 0xbf, 0xef, 0x6e, 0xa6, 0x3e, 0x94, 0x5d, 0x90, 0xbf,
    0x7f, 0x26, 0x1b, 0x3e, 0x98, 0x28, 0x76, 0x3e, 0x5c, 0x63, 0xeb, 0x3b,
    0xfa, 0xb5, 0x5e, 0x3b, 0x74, 0x13, 0x24, 0xbe, 0x55, 0x37, 0x50, 0x3d,
    0x2d, 0x99, 0x00, 0x3e, 0xf4, 0x3b, 0xf4, 0x3d, 0x08, 0x65, 0x29, 0xc0,
    0x11, 0x17, 0xc2, 0xbe, 0xb9, 0x49, 0x38, 0x3c, 0x2c, 0x48, 0xa7, 0x3e,
    0x2d, 0x82, 0x27, 0xbf, 0x14, 0x1a, 0xad, 0xbc, 0x28, 0x25, 0xb0, 0xbd,
    0x4f, 0xf8, 0x7c, 0x3d, 0xb1, 0x4e, 0x2c, 0x3e, 0xe0, 0xb5, 0xad, 0xbf,
    0xed, 0x11, 0xcc, 0x3e, 0xb5, 0x71, 0xb9, 0xbf, 0xa4, 0x4c, 0x8b, 0xbe,
    0x01, 0x15, 0xcc, 0xbf, 0x8a, 0x23, 0xee, 0x3d, 0x46, 0xdc, 0x19, 0x3d,
    0xba, 0x29, 0x97, 0xbd, 0x68, 0xd7, 0x0e, 0x3c, 0xcd, 0x83, 0xb2, 0x3d,
    0x00, 0xfd, 0x07, 0xbf, 0x7c, 0x25, 0x25, 0xbe, 0xb8, 0xa8, 0x5e, 0x3e,
    0xb8, 0xa2, 0xab, 0x3d, 0xd6, 0xf4, 0x80, 0x3d, 0xb8, 0x8c, 0x11, 0x3f,
    0x02, 0xb9, 0xda, 0xbd, 0xa2, 0x7b, 0x90, 0xbf, 0x3c, 0x30, 0x09, 0xbf,
    0xd3, 0x39, 0x20, 0x3f, 0x24, 0xec, 0xd3, 0x3c, 0xcc, 0xb1, 0xaa, 0xbf,
    0x38, 0x02, 0xb2, 0xbf, 0xba, 0x6a, 0x19, 0x3e, 0x64, 0x8f, 0x6d, 0x3f,
    0x13, 0x7c, 0xc2, 0x3e, 0xba, 0xf4, 0x18, 0x3e, 0x82, 0xfb, 0xea, 0x3d,
    0xb9, 0x98, 0x7e, 0x3e, 0x86, 0x2c, 0x8e, 0xbd, 0xae, 0x36, 0xda, 0xbd,
    0x0a, 0xe3, 0x44, 0x3f, 0x4f, 0xf3, 0x31, 0xbe, 0xbf, 0x94, 0xe2, 0x3e,
    0x90, 0x64, 0x07, 0x3f, 0xae, 0xd6, 0x18, 0xbf, 0xd7, 0x0f, 0x7f, 0xbe,
    0xa2, 0x11, 0x15, 0x3e, 0x40, 0x25, 0xa0, 0xbc, 0x77, 0x46, 0x2e, 0x3e,
    0x48, 0x32, 0x42, 0x3d, 0xab, 0x60, 0xb2, 0x3e, 0x84, 0xc2, 0x89, 0x3e,
    0xa3, 0xc8, 0x4b, 0xbf, 0xfe, 0x7b, 0x33, 0xbe, 0x59, 0x5a, 0x50, 0xbf,
    0xd0, 0x3b, 0xf7, 0x3e, 0xd4, 0x99, 0x3d, 0xbf, 0x27, 0x7c, 0xa0, 0xbf,
    0xbc, 0x49, 0x29, 0x3e, 0xce, 0xaf, 0xc7, 0xbd, 0x00, 0xfa, 0x3d, 0x3e,
    0x2e, 0x03, 0x46, 0x3e, 0xb0, 0xa6, 0x43, 0x3e, 0xc7, 0x69, 0xb0, 0xbf,
    0xf0, 0xc0, 0xdf, 0x3d, 0x1d, 0xa7, 0x5f, 0x3e, 0x86, 0xf6, 0x9e, 0x3d,
    0x54, 0xb3, 0x97, 0xbf, 0x1b, 0xb3, 0x8c, 0xbf, 0x80, 0xec, 0x67, 0x3f,
    0xb3, 0xb5, 0xf4, 0xbe, 0xe8, 0x17, 0x89, 0x3e, 0x2c, 0x18, 0x75, 0xbf,
    0x0d, 0x12, 0x74, 0x3e, 0x15, 0xcf, 0xf8, 0xbd, 0x19, 0xeb, 0x4d, 0x3d,
    0xfb, 0xfc, 0x30, 0xbf, 0xc1, 0xc2, 0x0f, 0x3e, 0xab, 0xcd, 0xa8, 0x3d,
    0x26, 0xf1, 0xdd, 0x3e, 0xcb, 0x86, 0xa1, 0xbc, 0x5c, 0xbb, 0x32, 0x3d,
    0x17, 0x70, 0x92, 0x3e, 0x45, 0xab, 0x4b, 0x3e, 0x04, 0xff, 0x5c, 0x3e,
    0xa6, 0x87, 0xb9, 0xbf, 0xbf, 0x8a, 0x13, 0x3e, 0x0d, 0x3c, 0x5b, 0x3d,
    0xbb, 0x5f, 0x05, 0xbf, 0xd0, 0xc9, 0x1c, 0x3e, 0x0b, 0x85, 0x97, 0xbf,
    0x82, 0x8a, 0x0a, 0x3c, 0x91, 0x36, 0x1c, 0xbf, 0x07, 0x5a, 0x99, 0x3d,
    0x4a, 0x37, 0x3e, 0xbf, 0xd2, 0xcf, 0x89, 0x3c, 0x9b, 0xd4, 0x62, 0xbf,
    0x83, 0x84, 0x42, 0xbf, 0x27, 0xd1, 0xcf, 0xbf, 0x8c, 0x87, 0x32, 0x3d,
    0x31, 0xd7, 0xe8, 0xbf, 0xb8, 0x35, 0xf5, 0xbe, 0xe2, 0x65, 0x76, 0xbe,
    0xd8, 0xf2, 0xb5, 0x3e, 0x6d, 0x9c, 0x91, 0xbf, 0xb3, 0x26, 0xce, 0x3e,
    0x76, 0x88, 0x5f, 0xbf, 0x9e, 0x81, 0x95, 0x3e, 0x57, 0x97, 0x68, 0x3e,
    0x6b, 0x1f, 0xbf, 0xbf, 0xd7, 0xf7, 0xd5, 0xbf, 0xbb, 0x44, 0x1f, 0xbe,
    0x64, 0x09, 0xce, 0xbf, 0x52, 0x70, 0x01, 0xbf, 0x12, 0xdf, 0xa0, 0xbf,
    0xad, 0xb4, 0x99, 0xbf, 0x6a, 0xe7, 0x72, 0x3e, 0x98, 0x3a, 0xaf, 0x3e,
    0x7a, 0xff, 0xa8, 0xbd, 0x8d, 0xc0, 0xd1, 0xbf, 0x16, 0x28, 0xb2, 0xbd,
    0x3c, 0xc5, 0xd7, 0xbf, 0x7e, 0x9e, 0x0d, 0x3e, 0x02, 0x1e, 0x22, 0xbe,
    0x18, 0xb2, 0xe7, 0x3d, 0x5e, 0x09, 0xf2, 0x3d, 0xab, 0x5b, 0x54, 0x3e,
    0x63, 0x8b, 0x04, 0x3f, 0x66, 0xc5, 0x66, 0x3e, 0xd6, 0x21, 0x45, 0x3e,
    0xff, 0xa3, 0x04, 0xc0, 0xd2, 0x2f, 0x13, 0xbe, 0x89, 0xf1, 0x86, 0xbf,
    0xbc, 0x96, 0x1c, 0xbf, 0x60, 0xab, 0x24, 0x3d, 0xec, 0x10, 0x84, 0x3e,
    0x1c, 0xaf, 0xe1, 0xbf, 0x47, 0x10, 0x2a, 0x3e, 0x74, 0x3e, 0x0c, 0x3f,
    0x2a, 0x0b, 0x61, 0xbf, 0x39, 0xc6, 0xf6, 0x3e, 0x41, 0x0e, 0xa1, 0xbb,
    0x34, 0x26, 0xdc, 0x3b, 0xc3, 0xee, 0x68, 0xbe, 0x76, 0xeb, 0x05, 0x3f,
    0x5b, 0xcf, 0x95, 0x3d, 0xcc, 0xad, 0x75, 0x3e, 0x5d, 0x2b, 0x08, 0x3e,
    0x9b, 0x4e, 0x43, 0x3d, 0x39, 0x8d, 0x5f, 0x3e, 0x89, 0x16, 0x0a, 0x3e,
    0xbd, 0xa9, 0x95, 0xbf, 0x4f, 0x1c, 0xca, 0x3e, 0xb9, 0x67, 0xe7, 0x3e,
    0xf7, 0x7c, 0x38, 0xbf, 0x0f, 0x43, 0x23, 0x3e, 0x1a, 0x8e, 0x6f, 0x3e,
    0x76, 0x17, 0xa2, 0xbf, 0xd6, 0x32, 0xb1, 0xbe, 0x5f, 0x76, 0x75, 0xbf,
    0x82, 0xe4, 0xe1, 0xbf, 0x36, 0xc1, 0xf6, 0x3e, 0x53, 0xb2, 0x01, 0x3d,
    0x5f, 0x8b, 0x77, 0x3d, 0xd3, 0x4a, 0xea, 0xbb, 0xf5, 0x49, 0xdc, 0xbf,
    0x6b, 0x0f, 0x37, 0xbe, 0x9b, 0x15, 0x8a, 0xbf, 0xa9, 0xa6, 0x8a, 0x3e,
    0x0e, 0x47, 0x05, 0x3f, 0x4c, 0x73, 0x05, 0xbf, 0x06, 0x35, 0x5d, 0xbf,
    0xbe, 0xb8, 0xb5, 0xbc, 0xa6, 0x74, 0x1c, 0xbe, 0x01, 0x20, 0xde, 0xbe,
    0x74, 0x52, 0x3b, 0x3e, 0x79, 0x90, 0x93, 0xbe, 0x42, 0xec, 0x87, 0x3f,
    0x86, 0x43, 0x04, 0xbf, 0x20, 0x13, 0x5b, 0xbd, 0x81, 0x22, 0x3c, 0x3f,
    0x9b, 0xd6, 0xc6, 0x3e, 0x74, 0xf2, 0xc3, 0x3e, 0x24, 0x0b, 0x7c, 0xbe,
    0xe9, 0xf3, 0x95, 0xbd, 0x89, 0xb9, 0x30, 0x3e, 0xf5, 0x3e, 0xee, 0xbe,
    0x50, 0xc6, 0xc8, 0x3d, 0x30, 0x44, 0xce, 0xbc, 0xec, 0xa2, 0x9d, 0xbf,
    0x3b, 0xbd, 0x4d, 0xbf, 0x8b, 0x7d, 0xf8, 0x3d, 0x9f, 0xc6, 0x97, 0x3d,
    0x46, 0x90, 0x29, 0x3e, 0x20, 0x78, 0xbd, 0x3c, 0x99, 0x4f, 0x8c, 0x3f,
    0xbf, 0xc8, 0x98, 0x3e, 0x34, 0xf5, 0x33, 0x3f, 0x23, 0x2f, 0x90, 0x3f,
    0x0f, 0xbf, 0x37, 0x3e, 0x7d, 0x20, 0x35, 0x3e, 0x23, 0xe2, 0x0c, 0xbe,
    0xb3, 0x0c, 0xf7, 0xbe, 0x65, 0xb9, 0xbd, 0x3e, 0x7d, 0xa3, 0x75, 0x3f,
    0xaf, 0x3a, 0x0f, 0x3e, 0x5d, 0x84, 0xde, 0xbe, 0x5c, 0x8e, 0xc1, 0xbd,
    0x1e, 0xe9, 0x6a, 0xbf, 0xa8, 0x7c, 0x04, 0xbe, 0x7b, 0xdc, 0x36, 0xbf,
    0x31, 0x5b, 0x8b, 0xbe, 0x50, 0x7c, 0x17, 0x3d, 0xa8, 0x18, 0x2d, 0x3d,
    0x08, 0xb3, 0xaa, 0xbd, 0xb3, 0xad, 0x10, 0x3e, 0xdb, 0xf6, 0x0e, 0x3f,
    0xaf, 0x8a, 0xf0, 0xbe, 0x90, 0xdd, 0x24, 0xbe, 0xab, 0x37, 0xd1, 0xbd,
    0xaa, 0x31, 0x0a, 0x3f, 0x77, 0x4f, 0x25, 0x3d, 0x4f, 0xb0, 0x71, 0x3e,
    0xc4, 0x09, 0xd2, 0xbd, 0x89, 0x47, 0x19, 0x3e, 0xb2, 0x9f, 0x32, 0xbe,
    0x60, 0x01, 0xc5, 0xbc, 0x74, 0x61, 0x51, 0xbf, 0xb1, 0x5d, 0x4a, 0x3e,
    0xe5, 0xce, 0x71, 0x3e, 0x41, 0xd6, 0x13, 0xbe, 0x86, 0x29, 0x16, 0x3f,
    0x57, 0xb4, 0x0a, 0xbe, 0x02, 0x7f, 0x4f, 0xbf, 0xf4, 0x8a, 0x02, 0x3f,
    0x43, 0x17, 0x27, 0xbf, 0x21, 0x5c, 0x81, 0x3e, 0x38, 0xbc, 0xd7, 0x3e,
    0x8f, 0x61, 0xfd, 0x3e, 0xaf, 0x4b, 0x54, 0xbe, 0x49, 0x81, 0xf8, 0x3e,
    0x3e, 0x2f, 0x05, 0xbf, 0xa0, 0xc7, 0xfe, 0x3e, 0xcf, 0xb1, 0x9c, 0x3e,
    0xcd, 0xc3, 0xc7, 0xbf, 0x93, 0xe5, 0xe8, 0xbe, 0x2a, 0x0b, 0xe4, 0xbf,
    0x9c, 0x46, 0xe5, 0x3e, 0xbd, 0x41, 0xc5, 0x3e, 0x30, 0x21, 0x0f, 0xb9,
    0x46, 0xff, 0x12, 0xbf, 0x1b, 0x70, 0x8c, 0xbd, 0x8f, 0x11, 0x87, 0xbf,
    0xd1, 0x5a, 0x95, 0x3e, 0xca, 0xd0, 0x4c, 0x3d, 0xe7, 0x9e, 0xfa, 0xbd,
    0x29, 0x2c, 0x92, 0x3d, 0xff, 0x73, 0x92, 0xbf, 0xa8, 0xd0, 0x9c, 0x3c,
    0x7f, 0x1b, 0xde, 0xbe, 0xa0, 0x09, 0x96, 0x3e, 0x90, 0x46, 0x6e, 0xbf,
    0xbe, 0xef, 0xab, 0xbf, 0xb6, 0x57, 0xc8, 0xbf, 0xbc, 0xf7, 0x2c, 0x3e,
    0x2d, 0x09, 0x80, 0x3e, 0x17, 0xa3, 0x42, 0xbe, 0x68, 0x97, 0x69, 0x3e,
    0x9b, 0x0c, 0x96, 0xbf, 0xbd, 0x8e, 0xfd, 0x3d, 0xe4, 0x25, 0x30, 0xbf,
    0x0e, 0x12, 0xad, 0x3e, 0xaa, 0xf1, 0x8e, 0x3d, 0x04, 0xee, 0xf1, 0xbf,
    0x3c, 0xaf, 0x79, 0xbf, 0x4f, 0xf4, 0xc2, 0x3e, 0x15, 0xfc, 0x39, 0x3e,
    0xbe, 0xb4, 0xd1, 0x3b, 0x13, 0x0f, 0xb2, 0xbf, 0xb0, 0x88, 0x0e, 0x3e,
    0x76, 0xff, 0x90, 0xbf, 0x68, 0xb3, 0x03, 0x3f, 0x03, 0xa8, 0x16, 0xbb,
    0xe9, 0x33, 0x93, 0x3f, 0x4b, 0x50, 0x26, 0xbf, 0xa7, 0xfd, 0x21, 0x3d,
    0xa0, 0xb7, 0x72, 0x3e, 0x17, 0x1e, 0xe2, 0x3d, 0x91, 0x66, 0x26, 0x3e,
    0xe0, 0xb4, 0x04, 0xbf, 0xcb, 0xc2, 0x84, 0xbe, 0x9d, 0x16, 0x98, 0x3e,
    0x37, 0x12, 0x40, 0x3e, 0xff, 0x49, 0x75, 0x3e, 0x29, 0x0c, 0x12, 0xbd,
    0xf6, 0xc0, 0xff, 0xff, 0x04, 0x00, 0x00, 0x00, 0x00, 0x0c, 0x00, 0x00,
    0x73, 0x1c, 0x08, 0x3e, 0x6d, 0xfb, 0xf9, 0xbd, 0x56, 0x17, 0xaf, 0x3c,
    0x42, 0x75, 0x00, 0x3f, 0xc2, 0x8f, 0xa2, 0x3e, 0x2c, 0x9b, 0x88, 0xbd,
    0x80, 0xb9, 0x7c, 0xbd, 0xf6, 0x0b, 0x95, 0x3d, 0xeb, 0xff, 0x8a, 0x3c,
    0xbd, 0xf0, 0x14, 0x3e, 0xa1, 0x41, 0x42, 0x3c, 0x50, 0x79, 0x08, 0x3f,
    0x83, 0xba, 0x82, 0x3e, 0x81, 0x09, 0x53, 0x3c, 0x97, 0x94, 0xc9, 0xbb,
    0x44, 0x56, 0xb5, 0xbe, 0x8a, 0x7c, 0x83, 0x3d, 0xe8, 0xba, 0x04, 0xbe,
    0x94, 0x90, 0x4c, 0x3d, 0x76, 0x59, 0x8b, 0x3d, 0x6f, 0x2a, 0x08, 0x3f,
    0x0e, 0xa5, 0x2b, 0xbd, 0x42, 0x22, 0xe8, 0xbd, 0x92, 0x8e, 0xc0, 0xbe,
    0x5c, 0xb1, 0x69, 0x3d, 0xb4, 0x99, 0x2e, 0xbe, 0xd9, 0x7b, 0x01, 0x3e,
    0x31, 0x31, 0xf5, 0x3e, 0xc8, 0x5b, 0xe8, 0xbe, 0x45, 0x93, 0x68, 0xbc,
    0xf2, 0x9c, 0x94, 0xbd, 0xfb, 0x2f, 0x8c, 0xbe, 0x3d, 0x43, 0x4e, 0xbe,
    0x34, 0x50, 0x30, 0xbe, 0x8a, 0x2b, 0xf8, 0x3d, 0x2c, 0x78, 0x13, 0x3c,
    0xc9, 0xd6, 0xb2, 0xbe, 0xdf, 0xde, 0x90, 0xbc, 0x2a, 0x72, 0xe5, 0xbd,
    0x75, 0x06, 0x86, 0x3e, 0x72, 0x0b, 0x8a, 0x3d, 0x93, 0x36, 0x30, 0xbe,
    0xd1, 0xb3, 0xb4, 0xbd, 0x8c, 0x14, 0xaf, 0xbe, 0x0a, 0x9d, 0x73, 0xbe,
    0x7e, 0xab, 0x6c, 0xbd, 0x05, 0x6f, 0x67, 0xbd, 0x1f, 0xd2, 0x19, 0xbe,
    0x2c, 0x58, 0x22, 0xbe, 0x53, 0x42, 0xc2, 0x3d, 0x32, 0x81, 0xba, 0xbe,
    0x46, 0x69, 0x0f, 0xbb, 0x18, 0x90, 0x6f, 0x3e, 0x3e, 0xd0, 0x74, 0x3c,
    0x10, 0xad, 0x7e, 0xbc, 0x18, 0xc9, 0x0c, 0xbe, 0xb3, 0x2e, 0x24, 0x3b,
    0x28, 0x49, 0xbb, 0x3e, 0x98, 0x32, 0xd8, 0xbe, 0x4b, 0xa7, 0xa1, 0xbc,
    0xf9, 0x47, 0x75, 0x3e, 0x11, 0xb7, 0x8c, 0x3d, 0x6d, 0x75, 0x3e, 0x3c,
    0xaf, 0x1a, 0x84, 0xbe, 0x6a, 0x3d, 0xe3, 0xbd, 0x02, 0x3e, 0xa1, 0x3e,
    0xc3, 0xcc, 0xd0, 0xbe, 0x61, 0x90, 0xbd, 0xbe, 0x57, 0x95, 0xa2, 0x3e,
    0xd9, 0x29, 0x99, 0x3d, 0x4d, 0x78, 0xaa, 0xbd, 0x05, 0x88, 0x8f, 0xbd,
    0x8a, 0x40, 0xec, 0x3e, 0x25, 0x9d, 0x80, 0xbe, 0x74, 0x9b, 0xc0, 0xbc,
    0x89, 0x19, 0x0a, 0xbf, 0x3b, 0x5d, 0xf0, 0x3d, 0xa2, 0xe5, 0x29, 0x3d,
    0x20, 0xc3, 0xed, 0xbc, 0x17, 0x24, 0xab, 0x3c, 0x03, 0x31, 0xa3, 0x3e,
    0xc7, 0x82, 0xdd, 0xbd, 0xb7, 0x58, 0xae, 0xbb, 0xad, 0x6f, 0x03, 0xbf,
    0xdd, 0x3f, 0x70, 0x3c, 0xd2, 0x51, 0xf8, 0xba, 0x0f, 0x1a, 0xe5, 0xbb,
    0x9a, 0x97, 0x08, 0x3f, 0x04, 0xed, 0xda, 0x3e, 0x49, 0x47, 0x60, 0x3d,
    0xe5, 0xc5, 0x3e, 0xbe, 0x87, 0x5c, 0xc2, 0xbe, 0x5b, 0x2f, 0x99, 0xbd,
    0xda, 0x3a, 0x6d, 0x3d, 0x9b, 0x64, 0x0c, 0xbd, 0x25, 0xe4, 0x8c, 0x3e,
    0x82, 0x55, 0xd3, 0xbe, 0x96, 0x7f, 0xc3, 0x3e, 0x5d, 0xbb, 0x40, 0xbe,
    0x6b, 0x30, 0x2d, 0x3d, 0x34, 0xde, 0x50, 0xbe, 0x69, 0x60, 0x2d, 0xbc,
    0x26, 0x61, 0x60, 0x3d, 0x9c, 0x07, 0x31, 0x3e, 0x92, 0x91, 0xa7, 0xbe,
    0xfc, 0x0f, 0x95, 0x3e, 0xa1, 0xc8, 0x08, 0xbf, 0xf5, 0xde, 0xaa, 0xbe,
    0x73, 0x3a, 0x82, 0xbd, 0xd2, 0x35, 0x55, 0xbc, 0x3d, 0xc4, 0xfb, 0x3d,
    0x22, 0x79, 0xd5, 0xbc, 0x4c, 0x98, 0xcf, 0xbe, 0x93, 0x97, 0xb7, 0x3e,
    0x11, 0x0c, 0x60, 0xbe, 0x3c, 0xad, 0x7d, 0xbe, 0x42, 0x58, 0xb2, 0x3b,
    0x9e, 0xf1, 0xf5, 0xbb, 0xd9, 0x7a, 0xc5, 0x3d, 0x3a, 0xca, 0xb7, 0xbc,
    0x14, 0xb5, 0xc9, 0x3e, 0x8f, 0x8c, 0x88, 0xbe, 0xc9, 0x4a, 0x93, 0x3e,
    0xd6, 0x8c, 0x24, 0x3f, 0xf8, 0xae, 0x4e, 0x3e, 0xef, 0x39, 0x1b, 0xbd,
    0xa5, 0x7c, 0x2c, 0x3d, 0x7c, 0xd3, 0xcd, 0xbe, 0x52, 0xd9, 0x99, 0x3e,
    0xda, 0x44, 0x75, 0xbe, 0x05, 0xdb, 0x47, 0x3d, 0x5f, 0x78, 0xad, 0x3e,
    0x0f, 0x28, 0x8a, 0x3e, 0x21, 0x8d, 0x89, 0x3d, 0x5d, 0x6f, 0x28, 0x3e,
    0x29, 0xbf, 0x87, 0xbe, 0x64, 0x9c, 0x1f, 0x3e, 0x39, 0x8a, 0x55, 0xbe,
    0x58, 0x99, 0xf9, 0x3c, 0x21, 0xec, 0xf5, 0x3d, 0x41, 0x6f, 0xb8, 0x3e,
    0x11, 0x8c, 0xa6, 0x3d, 0xe5, 0xc7, 0xde, 0x3d, 0xa2, 0x6a, 0x43, 0xbf,
    0xe0, 0xc3, 0xfc, 0x3e, 0xb6, 0xd2, 0xd6, 0x3c, 0x1e, 0x70, 0xc6, 0x3d,
    0xfa, 0xbf, 0x60, 0x3d, 0xb3, 0x90, 0xa3, 0x3e, 0xab, 0x86, 0xdd, 0x3d,
    0xb3, 0xcd, 0x23, 0x3e, 0x7d, 0xc1, 0xae, 0xbe, 0xb1, 0x88, 0xe0, 0x3e,
    0x7d, 0x4d, 0x08, 0x3d, 0x34, 0x85, 0x09, 0xbe, 0x91, 0x83, 0x73, 0xbe,
    0x6e, 0x60, 0x19, 0x3e, 0x45, 0x96, 0x9c, 0x3c, 0x5a, 0xe7, 0x21, 0x3d,
    0xab, 0xbf, 0x09, 0xbe, 0x66, 0x0c, 0x95, 0x3e, 0xfe, 0x87, 0x4a, 0xbe,
    0x75, 0x08, 0x87, 0x3d, 0x31, 0xee, 0x8c, 0x3c, 0x83, 0x19, 0xe2, 0x3e,
    0x53, 0xca, 0xeb, 0xbd, 0xbd, 0x03, 0x5d, 0x3d, 0xbf, 0xd9, 0x3a, 0x3d,
    0x7d, 0x4e, 0xb2, 0xbd, 0x0c, 0xf8, 0xc2, 0x3d, 0x28, 0xec, 0x6e, 0x3e,
    0x82, 0x1c, 0xc8, 0xbd, 0x52, 0x39, 0x31, 0xbe, 0xd0, 0x6d, 0x82, 0x3d,
    0x6a, 0x99, 0x4e, 0x3c, 0x01, 0xfb, 0x2f, 0xbd, 0xea, 0x45, 0x90, 0x3d,
    0x60, 0x99, 0xd9, 0xbc, 0xe2, 0xb6, 0x8a, 0x3e, 0x91, 0xc3, 0x67, 0xbe,
    0x21, 0x2d, 0x9c, 0xbe, 0xc2, 0x9c, 0xc0, 0x3d, 0xe8, 0xde, 0xb0, 0xbd,
    0x44, 0xfa, 0xb0, 0x3e, 0x8b, 0x91, 0x90, 0x3d, 0x11, 0xd7, 0xc5, 0xbd,
    0x0c, 0x0e, 0x88, 0x3d, 0x0e, 0xbc, 0x67, 0xbe, 0x93, 0x2d, 0xb0, 0xbe,
    0x3d, 0x8c, 0x17, 0xbe, 0x54, 0x09, 0x50, 0x3e, 0x1e, 0xad, 0xdb, 0x3e,
    0xba, 0x54, 0xd6, 0x3c, 0x47, 0x2a, 0x9c, 0xbe, 0x42, 0xa3, 0x3c, 0x3c,
    0xd6, 0xf2, 0xd5, 0xbd, 0xaf, 0xf9, 0xa6, 0xbb, 0x89, 0xd1, 0x56, 0xbd,
    0xf8, 0xfc, 0xfb, 0xbd, 0x17, 0x8d, 0xfd, 0xbe, 0xa5, 0x13, 0x41, 0xbe,
    0xcc, 0x4d, 0xb0, 0x3d, 0x71, 0xeb, 0x94, 0x3d, 0x92, 0x8a, 0x8b, 0xbe,
    0x1b, 0x6b, 0xe9, 0x3d, 0x52, 0x7a, 0x01, 0xbe, 0x6d, 0x79, 0xcd, 0xbe,
    0x55, 0xca, 0x15, 0xbf, 0x0d, 0xd6, 0xb4, 0x3c, 0x60, 0x41, 0x26, 0xbe,
    0x41, 0x19, 0xa5, 0xbe, 0xa8, 0xc9, 0x95, 0xbe, 0x3c, 0x90, 0x0a, 0x3f,
    0x57, 0x2e, 0x89, 0x3d, 0x6c, 0xd2, 0xb4, 0xbe, 0x9c, 0x5d, 0x91, 0x3e,
    0x32, 0x7b, 0x77, 0xbd, 0x27, 0xc7, 0x72, 0x3b, 0x9b, 0x33, 0xba, 0xbd,
    0x2c, 0x1a, 0xb6, 0x3e, 0x18, 0x99, 0x46, 0xbd, 0xed, 0x57, 0x1d, 0xbd,
    0x3d, 0x65, 0x93, 0x3e, 0x1b, 0x3e, 0x22, 0xbe, 0x86, 0x78, 0xdd, 0xbd,
    0xb7, 0xa3, 0xa9, 0x3d, 0x63, 0x31, 0xef, 0xbd, 0x5a, 0xe5, 0xc5, 0x3e,
    0xbc, 0xa0, 0x1e, 0xbe, 0x19, 0x29, 0x1f, 0xbc, 0x9f, 0x7e, 0x64, 0x3d,
    0x53, 0xc1, 0x23, 0x3e, 0x29, 0x36, 0x3f, 0xbe, 0xc3, 0x73, 0x41, 0xbe,
    0x7c, 0xf4, 0xcb, 0xbd, 0xc9, 0x83, 0x99, 0x3e, 0x15, 0x6d, 0x6b, 0xbe,
    0x75, 0xe6, 0x25, 0xbe, 0xd8, 0xe1, 0x2b, 0xbe, 0x55, 0xbd, 0x4d, 0xbe,
    0xdf, 0x20, 0x9e, 0xbe, 0x6b, 0x09, 0x84, 0xbe, 0x9f, 0x79, 0x83, 0x3c,
    0xac, 0x26, 0xf8, 0xbd, 0x71, 0x75, 0xde, 0xbd, 0x8c, 0x3f, 0x80, 0x3d,
    0x2c, 0x92, 0x93, 0x3e, 0xd2, 0x32, 0x46, 0x3e, 0x57, 0x1c, 0x41, 0xbe,
    0xea, 0xf2, 0xcc, 0xbe, 0xe1, 0x31, 0x21, 0x3e, 0x32, 0xb5, 0xf0, 0x3d,
    0xcc, 0x34, 0xd7, 0xbe, 0xed, 0x09, 0x9a, 0x3d, 0xe5, 0x6d, 0x66, 0x3e,
    0xcf, 0x23, 0x1d, 0xbe, 0xc3, 0x51, 0x01, 0x3d, 0x21, 0xc2, 0xaa, 0xbe,
    0xd2, 0x29, 0x28, 0xbe, 0xc0, 0x68, 0x7e, 0x3d, 0x1e, 0xaa, 0xb8, 0xbe,
    0xdf, 0x42, 0x30, 0x3c, 0x59, 0x02, 0x15, 0x3e, 0xea, 0x49, 0xfe, 0x3b,
    0x0e, 0x6c, 0x7d, 0xbd, 0xb8, 0xd3, 0x48, 0xbd, 0x04, 0xdd, 0x86, 0xbe,
    0xc6, 0x56, 0x47, 0xbe, 0x34, 0xa1, 0x70, 0xbe, 0x89, 0xbf, 0x5b, 0xbd,
    0x9c, 0x5d, 0x5e, 0x3e, 0xb8, 0x9b, 0xcf, 0xbe, 0x4a, 0xa6, 0x43, 0x3d,
    0x65, 0x76, 0x0f, 0x3e, 0x48, 0x5b, 0xcf, 0xbd, 0xff, 0x36, 0xfc, 0xbe,
    0x1c, 0x1d, 0xc3, 0xbc, 0xe7, 0x35, 0x2d, 0xbe, 0xd3, 0x70, 0x9b, 0x3e,
    0x5a, 0xc9, 0x1c, 0x3e, 0x30, 0xee, 0x2f, 0x3d, 0x21, 0x4d, 0x8e, 0x3d,
    0x6b, 0x1b, 0x0b, 0xbe, 0xd3, 0x0a, 0xba, 0xbe, 0x62, 0xbe, 0xcf, 0xbc,
    0x60, 0x16, 0x7e, 0xbd, 0xb9, 0x11, 0x51, 0x3e, 0x8b, 0xea, 0x87, 0x3b,
    0xd7, 0x16, 0xc8, 0x3e, 0x7c, 0x71, 0xae, 0x3e, 0xce, 0xf9, 0xc8, 0x3e,
    0x73, 0x72, 0x99, 0x3e, 0x28, 0xec, 0x68, 0xbe, 0x15, 0xf6, 0x42, 0x3d,
    0x18, 0xbc, 0x2b, 0x3c, 0x9b, 0x9e, 0x44, 0x3e, 0xc7, 0x54, 0xbb, 0x3e,
    0xef, 0x65, 0x52, 0x3e, 0x5e, 0x39, 0x04, 0x3e, 0xb3, 0xa5, 0x9a, 0xbc,
    0xbd, 0x7d, 0xcd, 0xbe, 0x24, 0xdb, 0xdb, 0x3c, 0xfe, 0xdf, 0x89, 0x3d,
    0x72, 0x42, 0x12, 0x3f, 0xd5, 0xcb, 0x2f, 0x3e, 0x10, 0x6d, 0xaf, 0x3e,
    0x9a, 0x54, 0x95, 0x3e, 0x12, 0x88, 0xaa, 0x3e, 0x8a, 0x13, 0xbc, 0xbe,
    0x0c, 0x2a, 0x04, 0xbd, 0x23, 0x5a, 0xa7, 0x3d, 0x78, 0xc8, 0xc6, 0xbe,
    0xfb, 0x33, 0x4b, 0xbe, 0x3e, 0xb0, 0xc2, 0x3e, 0x3b, 0x8e, 0x44, 0xbd,
    0x30, 0xc6, 0x5f, 0x3b, 0xad, 0x6b, 0xfa, 0xbd, 0x85, 0x26, 0xdc, 0x3c,
    0x82, 0x9b, 0x75, 0xbd, 0x0d, 0x39, 0x38, 0x3e, 0x97, 0x64, 0x97, 0xbe,
    0xac, 0x6d, 0xe0, 0x3e, 0x59, 0x94, 0x07, 0xbe, 0x32, 0xe4, 0x2c, 0x3e,
    0xa6, 0x8c, 0x9e, 0x3d, 0x3c, 0xba, 0x69, 0xbd, 0x29, 0xae, 0x94, 0xbd,
    0x90, 0x49, 0xb7, 0x3e, 0xc5, 0x1a, 0x54, 0xbd, 0x32, 0x3f, 0x19, 0x3f,
    0x5d, 0x20, 0x64, 0xbe, 0xa5, 0xf3, 0x64, 0xbe, 0xf9, 0xb8, 0xd5, 0x3d,
    0xa2, 0x51, 0x02, 0xbd, 0x60, 0x71, 0x05, 0xbe, 0x28, 0x21, 0xfb, 0x3d,
    0xe5, 0x83, 0x75, 0xbd, 0x68, 0x87, 0x88, 0xbd, 0xf6, 0x37, 0xbc, 0x3c,
    0xc8, 0xcc, 0x06, 0xbe, 0xdd, 0x00, 0xcb, 0x3e, 0xf3, 0x85, 0xdf, 0xbb,
    0xd6, 0xf6, 0x5a, 0x3d, 0x16, 0x20, 0xf7, 0xbe, 0x01, 0x67, 0x70, 0xbe,
    0x2a, 0x11, 0x17, 0xbd, 0xd3, 0x99, 0x8b, 0xbc, 0x78, 0x21, 0xad, 0xbe,
    0x2d, 0xc6, 0x0d, 0x3f, 0x8b, 0xce, 0xd9, 0xbc, 0x64, 0x88, 0x4f, 0xbd,
    0x59, 0xce, 0x2d, 0xbf, 0xa3, 0xbb, 0x8a, 0xbd, 0x83, 0xfe, 0xfb, 0xbb,
    0x66, 0x8d, 0x48, 0x3e, 0xac, 0x4f, 0xc1, 0xbd, 0xc4, 0x01, 0x1f, 0x3f,
    0x81, 0x06, 0x53, 0xbc, 0x70, 0x3f, 0x39, 0xbd, 0xbf, 0x4d, 0xf4, 0xbe,
    0xf7, 0x7c, 0x24, 0x3e, 0x94, 0xb0, 0x84, 0xbc, 0x82, 0x1b, 0x67, 0xbe,
    0x91, 0x45, 0x95, 0x3e, 0x54, 0x01, 0x21, 0x3f, 0xfa, 0x28, 0x8b, 0xbc,
    0xfd, 0xff, 0xe2, 0xbd, 0x00, 0xff, 0xe1, 0x3d, 0xa1, 0xcb, 0x2a, 0x3e,
    0xf5, 0x23, 0x23, 0x3d, 0xe1, 0x2d, 0xed, 0x3c, 0x29, 0xa8, 0x8b, 0x3e,
    0x9e, 0xd1, 0xb5, 0xbd, 0xd1, 0x13, 0xbb, 0x3a, 0x52, 0x84, 0x08, 0xbe,
    0x03, 0x3d, 0x29, 0xbe, 0xb1, 0x23, 0x2e, 0x3e, 0x9c, 0x30, 0xb5, 0x3d,
    0x2a, 0xd2, 0x72, 0xbe, 0x14, 0x99, 0x98, 0xbe, 0x02, 0x52, 0x3d, 0x3e,
    0x1f, 0x2c, 0x05, 0x3d, 0xb3, 0xa7, 0x4d, 0x3e, 0x33, 0x59, 0x89, 0x3d,
    0x4d, 0xd2, 0x08, 0xbf, 0x43, 0x3f, 0x9e, 0xbe, 0x1e, 0x30, 0xf4, 0xbe,
    0x77, 0xaf, 0x9c, 0xbe, 0x5a, 0xcc, 0x29, 0x3e, 0xde, 0xbe, 0x37, 0xbc,
    0x48, 0xab, 0xb5, 0x3d, 0xa8, 0x29, 0x7e, 0x3e, 0x58, 0x14, 0xbe, 0xbe,
    0x13, 0x01, 0xa2, 0xbe, 0x37, 0xbb, 0x02, 0xbf, 0xfa, 0x28, 0xfc, 0xbe,
    0xb1, 0xfc, 0xe1, 0x3d, 0x6a, 0xcb, 0xea, 0x38, 0x66, 0x30, 0xf0, 0x3d,
    0xd8, 0xa5, 0xda, 0x3d, 0xc6, 0xbe, 0x95, 0xbe, 0x14, 0xbf, 0x4e, 0xbe,
    0xa3, 0xa0, 0x06, 0xbf, 0xd7, 0x1e, 0x6e, 0xbd, 0x6a, 0xf6, 0xad, 0x3d,
    0xde, 0x63, 0x8c, 0xba, 0xca, 0x57, 0xdd, 0x3d, 0xbc, 0x90, 0x5c, 0x3d,
    0x15, 0x6c, 0xbd, 0xbc, 0x77, 0x4e, 0x36, 0xbd, 0xbd, 0x63, 0xbf, 0x3e,
    0x3d, 0xe7, 0x1a, 0x3e, 0xdd, 0x42, 0x41, 0xbe, 0x0b, 0xac, 0x9d, 0xbd,
    0xdf, 0x3e, 0xf4, 0x3d, 0xcc, 0xb8, 0x56, 0xbe, 0x75, 0x8c, 0xac, 0x3e,
    0xba, 0x10, 0xa2, 0xbe, 0xb7, 0xd2, 0x8f, 0x3d, 0x7d, 0x3d, 0x1e, 0xbe,
    0x94, 0x16, 0x3f, 0xbc, 0x7e, 0xc8, 0xf1, 0xbc, 0x7e, 0xc7, 0x6f, 0x3d,
    0x2f, 0x3b, 0x20, 0xbe, 0x5f, 0x57, 0x08, 0x3b, 0xb8, 0xcb, 0x9c, 0xbe,
    0x12, 0xb6, 0x97, 0x3e, 0x67, 0x38, 0x0a, 0xbe, 0xfa, 0x26, 0xa2, 0xbe,
    0xed, 0xe8, 0x48, 0x3d, 0x05, 0xd0, 0xb2, 0x3e, 0x6c, 0xe8, 0xc0, 0xbc,
    0x68, 0x51, 0x01, 0xbe, 0x4b, 0x52, 0x1d, 0x3e, 0xa0, 0xb1, 0xd8, 0xbe,
    0x8a, 0xdc, 0x9f, 0x3d, 0x2c, 0x26, 0x8d, 0x3e, 0x75, 0xd7, 0x08, 0xbd,
    0x51, 0x09, 0x08, 0x3e, 0xfe, 0xaf, 0x7a, 0xbc, 0x9b, 0xff, 0x89, 0xbc,
    0x36, 0xa9, 0x9a, 0x3e, 0xdc, 0x2f, 0xc8, 0xbe, 0x81, 0xd9, 0x40, 0xbc,
    0xa3, 0x3e, 0x9a, 0x3d, 0x62, 0xa2, 0x94, 0xbc, 0x0a, 0x19, 0x3f, 0x3d,
    0x53, 0x1c, 0x3e, 0xbd, 0x16, 0xa3, 0x1b, 0x3d, 0xe3, 0x67, 0xc1, 0xbd,
    0x09, 0xc1, 0xd3, 0xbe, 0x5e, 0x1b, 0x11, 0x3e, 0x4a, 0x89, 0xea, 0x3d,
    0xd3, 0x09, 0xae, 0xbd, 0xd2, 0x0a, 0x59, 0xbe, 0xdf, 0x3f, 0x38, 0xbd,
    0xf3, 0x40, 0xba, 0xbd, 0x81, 0x7e, 0x9d, 0x3e, 0x88, 0x7d, 0x09, 0x3d,
    0xcc, 0x48, 0xad, 0xbd, 0xc5, 0xc3, 0x2d, 0x3e, 0x48, 0x9e, 0xd9, 0xbc,
    0xe2, 0x3e, 0x5b, 0x3c, 0xa7, 0x90, 0x8b, 0x3e, 0x76, 0x04, 0x9b, 0x3e,
    0xc2, 0x34, 0xfa, 0x3e, 0xd2, 0x23, 0x8c, 0x3e, 0x38, 0x52, 0xa1, 0x3d,
    0x05, 0x43, 0xbd, 0xbe, 0x5b, 0x73, 0x87, 0xbb, 0x6b, 0x00, 0xe0, 0x3d,
    0xc8, 0x80, 0x03, 0x3f, 0xae, 0xce, 0xc5, 0x3d, 0x0b, 0x42, 0x04, 0x3f,
    0x47, 0x28, 0x95, 0x3e, 0xc3, 0x53, 0xb5, 0x3d, 0x83, 0x79, 0xaf, 0xbe,
    0xf7, 0x40, 0xe5, 0x3c, 0x71, 0xd5, 0xd0, 0xbb, 0x1f, 0x32, 0xd9, 0x3e,
    0x1a, 0xf8, 0xf7, 0xbe, 0x26, 0xc2, 0xa9, 0xbe, 0x8f, 0xf6, 0x37, 0xbe,
    0xee, 0x38, 0x91, 0x3e, 0x4c, 0xc9, 0x51, 0xbe, 0xb5, 0xc1, 0x0b, 0xbe,
    0x2d, 0xc6, 0x20, 0xbe, 0xc7, 0x6b, 0x89, 0x3e, 0x8f, 0xb9, 0xe0, 0xbe,
    0xa2, 0x3e, 0x5f, 0xbb, 0x2c, 0xdc, 0x88, 0x3d, 0x37, 0x9a, 0x43, 0x3d,
    0xd7, 0xcb, 0xe3, 0xbd, 0xca, 0xa8, 0xc1, 0xbc, 0x3a, 0x6d, 0xff, 0xbd,
    0x84, 0x97, 0xed, 0xbe, 0xb5, 0xef, 0xde, 0xbe, 0x6e, 0xfd, 0x02, 0xbe,
    0xde, 0x65, 0x7a, 0x3d, 0x68, 0x05, 0xf1, 0xbe, 0x82, 0xfe, 0x50, 0xbd,
    0x29, 0xa3, 0x09, 0x3d, 0x66, 0x83, 0x3d, 0x3c, 0x5b, 0xb2, 0xc9, 0xbe,
    0x7c, 0x4f, 0xfb, 0x3d, 0xc9, 0xcf, 0x98, 0xbe, 0x6b, 0x1e, 0x33, 0xbe,
    0x7a, 0xdc, 0xc4, 0xbe, 0x9e, 0xc9, 0xd4, 0xbe, 0x1c, 0x1c, 0x65, 0x3d,
    0x8e, 0xe6, 0x95, 0xbd, 0xf8, 0x36, 0x1f, 0x3d, 0xbf, 0xc5, 0xed, 0x3d,
    0xd6, 0x6f, 0x19, 0xbe, 0x00, 0xa3, 0xea, 0xbd, 0xa9, 0x73, 0x4f, 0x3e,
    0x21, 0xa2, 0x0c, 0xbf, 0x0f, 0xa6, 0x97, 0xbd, 0xee, 0x1c, 0xeb, 0xbd,
    0xa4, 0x9f, 0x03, 0x3f, 0xf9, 0x29, 0x1d, 0xbe, 0xe5, 0xdd, 0x21, 0xbe,
    0x98, 0xd2, 0xcd, 0x3b, 0x06, 0x8b, 0x00, 0x3f, 0x71, 0x12, 0x0f, 0xbf,
    0x72, 0x18, 0xf7, 0xbd, 0x24, 0x1a, 0xfc, 0x3c, 0xde, 0x12, 0x6e, 0x3d,
    0x15, 0x61, 0x14, 0x3f, 0x53, 0x3a, 0x19, 0x3e, 0x3c, 0x6d, 0x76, 0x3e,
    0xa3, 0x56, 0x51, 0x3d, 0xd9, 0x54, 0xfa, 0x3e, 0xa7, 0x84, 0x9f, 0xbd,
    0xa6, 0x67, 0x80, 0xbd, 0x16, 0x4a, 0xdc, 0xbe, 0xa6, 0xc3, 0xf3, 0x3e,
    0xd4, 0xe8, 0x8c, 0x3d, 0x7d, 0x27, 0x51, 0xbd, 0x97, 0xe9, 0x40, 0x3e,
    0x2f, 0xdd, 0xcc, 0x3e, 0xf2, 0xd2, 0xc7, 0x3c, 0xfa, 0xf1, 0x9e, 0xbc,
    0xdb, 0xa3, 0x8b, 0xbe, 0xcd, 0x7e, 0x0b, 0x3f, 0x77, 0x94, 0x48, 0x3c,
    0xde, 0x39, 0xa0, 0x3d, 0xb1, 0xe5, 0xa8, 0x3d, 0x80, 0xc5, 0x07, 0x3f,
    0x60, 0x0a, 0xfa, 0x3d, 0x26, 0xaf, 0xc7, 0xbc, 0x51, 0xa2, 0xb3, 0xbe,
    0xc2, 0x54, 0x50, 0xbc, 0x26, 0xfb, 0x47, 0x3e, 0x64, 0x1f, 0x4e, 0x3d,
    0x6b, 0x44, 0x88, 0xbd, 0x03, 0x8f, 0xab, 0x3e, 0x3b, 0x34, 0x2b, 0x3c,
    0x06, 0x18, 0xa4, 0xbe, 0x2e, 0x86, 0x27, 0x3f, 0xbd, 0x23, 0xe2, 0x3d,
    0x26, 0x65, 0x82, 0x3e, 0x7c, 0x64, 0x0f, 0xbd, 0x7f, 0x02, 0x15, 0x3e,
    0x83, 0x1d, 0x5a, 0x3c, 0x2c, 0x25, 0x22, 0x3c, 0x55, 0x35, 0x8c, 0xbe,
    0xf1, 0x4f, 0x55, 0x3e, 0x30, 0x03, 0x23, 0xbd, 0x94, 0xd5, 0x3e, 0xbe,
    0x4e, 0x0a, 0xfe, 0xbc, 0xc4, 0x9c, 0x46, 0x3e, 0x42, 0xd7, 0x10, 0xbe,
    0x8a, 0xbd, 0xcd, 0x3c, 0x61, 0x34, 0x74, 0xbe, 0x8d, 0xb1, 0x36, 0x3f,
    0xbc, 0x85, 0x19, 0x3e, 0xa1, 0xea, 0x2a, 0x3e, 0x2f, 0x21, 0x0d, 0xbe,
    0xb0, 0x19, 0x01, 0x3f, 0xf0, 0xbe, 0xde, 0xbc, 0xdd, 0x8b, 0xd8, 0xbd,
    0xd5, 0x6b, 0x45, 0x3d, 0xb1, 0x7f, 0xeb, 0x3e, 0x0d, 0xf0, 0x03, 0x3d,
    0x34, 0x1b, 0xa4, 0x3e, 0xd5, 0xca, 0xb7, 0xbe, 0x56, 0x4e, 0x8b, 0x3e,
    0x32, 0xa6, 0x50, 0xbd, 0x19, 0xd3, 0x48, 0x3d, 0xe6, 0x33, 0x1e, 0x3d,
    0x62, 0x07, 0x8c, 0xbe, 0x58, 0xe7, 0x9e, 0x3b, 0x96, 0x28, 0x40, 0x3d,
    0x1b, 0x5a, 0xa8, 0xbe, 0xd4, 0xcf, 0x05, 0x3e, 0x0a, 0xef, 0x81, 0xbe,
    0x39, 0x2b, 0x1c, 0x3d, 0xdb, 0xac, 0x85, 0xbc, 0x26, 0x88, 0xef, 0xbe,
    0xc5, 0x0d, 0xe5, 0xbe, 0x0c, 0x75, 0x9d, 0xbd, 0xf4, 0x14, 0xcc, 0x3c,
    0x3d, 0x4d, 0x81, 0xbe, 0x28, 0x0f, 0xbc, 0x3e, 0x2d, 0x56, 0xa8, 0x3c,
    0xab, 0x79, 0xa4, 0xbe, 0x70, 0xe5, 0xb0, 0xbe, 0x26, 0xfe, 0x5b, 0xbe,
    0x87, 0x7a, 0xa8, 0x3c, 0xb9, 0xa4, 0x7f, 0x3d, 0x87, 0x08, 0xbd, 0xbd,
    0x3f, 0x3b, 0x92, 0x3e, 0xca, 0x91, 0x3b, 0x3d, 0x90, 0xd1, 0xa8, 0xbe,
    0xfe, 0x85, 0x6e, 0x3e, 0x1b, 0xc2, 0xa4, 0xbe, 0x4e, 0x0f, 0x3a, 0xbe,
    0xe7, 0x4d, 0x17, 0x3e, 0xfe, 0x75, 0x00, 0x3e, 0x09, 0x3e, 0xda, 0x3d,
    0x62, 0x32, 0x65, 0xbd, 0x19, 0xfe, 0x93, 0xbd, 0xf9, 0xd6, 0xce, 0x3e,
    0xdd, 0x89, 0x70, 0x3e, 0xba, 0x47, 0xac, 0xbe, 0x3b, 0x2a, 0x35, 0x3e,
    0x7f, 0x2a, 0x04, 0xbf, 0xfd, 0x01, 0xc4, 0x3d, 0xcd, 0x1e, 0x92, 0xbc,
    0xea, 0xec, 0xa9, 0xbd, 0x1c, 0x3e, 0xa6, 0xbc, 0xa1, 0x86, 0xc1, 0x3e,
    0x15, 0x07, 0x06, 0x3c, 0x8c, 0x9b, 0xf8, 0x3d, 0xb7, 0x66, 0x95, 0xbe,
    0xda, 0xa1, 0x2b, 0x3e, 0xbb, 0xfd, 0x44, 0xbc, 0x89, 0xd3, 0x18, 0xbd,
    0x11, 0xe8, 0x20, 0x3d, 0xe4, 0x54, 0x71, 0x3e, 0x25, 0x2b, 0x69, 0xbe,
    0x90, 0x1a, 0x41, 0x3e, 0x3a, 0x1b, 0x91, 0xbe, 0x33, 0x25, 0x80, 0xbd,
    0xeb, 0xbe, 0xf4, 0xbc, 0xa6, 0x95, 0x10, 0x3d, 0x26, 0x9f, 0x3e, 0x3e,
    0x84, 0x6e, 0x7d, 0x3d, 0x21, 0x80, 0x79, 0xbe, 0x2e, 0x64, 0x26, 0x3e,
    0x0f, 0x06, 0x38, 0x3f, 0x21, 0x4d, 0xfd, 0xbd, 0x1b, 0xc9, 0x38, 0x3d,
    0xad, 0x46, 0x4c, 0x3d, 0x20, 0xc2, 0x34, 0xbe, 0xbb, 0xeb, 0xc5, 0x3d,
    0xe7, 0x03, 0x29, 0x3e, 0xdf, 0xa5, 0x8a, 0x3e, 0x35, 0x1e, 0x7c, 0x3e,
    0xc5, 0x11, 0xb7, 0xbd, 0xb0, 0x4f, 0xeb, 0xbc, 0x93, 0xca, 0xad, 0x3d,
    0x9f, 0x2e, 0xf6, 0xbe, 0xa0, 0x6a, 0x6d, 0xbc, 0xd1, 0x5a, 0x3a, 0x3e,
    0xf4, 0x47, 0x98, 0x3d, 0xdd, 0x01, 0xbd, 0xbe, 0x1c, 0xc0, 0x27, 0xbe,
    0x35, 0x87, 0x2e, 0x3d, 0xa8, 0xee, 0x58, 0x3d, 0x82, 0x59, 0x2f, 0xbe,
    0xf1, 0x73, 0x5b, 0xbe, 0x69, 0x61, 0x14, 0x3e, 0xb1, 0x10, 0x14, 0xbe,
    0xaa, 0x99, 0x83, 0xbd, 0x88, 0x37, 0x49, 0xbe, 0x9b, 0x35, 0xa2, 0xbc,
    0x41, 0x4d, 0xa6, 0xbd, 0xa5, 0x98, 0x12, 0x3e, 0xc3, 0x1d, 0xa8, 0xbe,
    0xef, 0x93, 0x1a, 0x3e, 0xb8, 0x52, 0x97, 0xbe, 0x62, 0x92, 0xf5, 0xbe,
    0xd5, 0x7c, 0x9c, 0xbe, 0xf1, 0x2e, 0x84, 0x3d, 0xed, 0xbc, 0x80, 0xbc,
    0xbf, 0x83, 0x32, 0x3e, 0x00, 0xff, 0xec, 0xbe, 0xc4, 0x2d, 0x00, 0x3e,
    0x9c, 0xda, 0x43, 0xbe, 0xeb, 0xf4, 0x86, 0xbe, 0x0e, 0x38, 0xb9, 0xbe,
    0xc6, 0x7f, 0xf6, 0x3b, 0x94, 0x5e, 0xc7, 0xbd, 0x77, 0x84, 0x59, 0x3e,
    0x62, 0xb5, 0xa1, 0xbe, 0xb7, 0xee, 0x0d, 0x3e, 0xad, 0xff, 0x6e, 0xbe,
    0x13, 0x6a, 0x3d, 0xbe, 0x1c, 0x5f, 0xc8, 0xbe, 0xa0, 0xc8, 0x14, 0x3d,
    0x30, 0x1a, 0x84, 0xbd, 0x10, 0xfd, 0x8a, 0xbe, 0x6b, 0x30, 0xf7, 0xbd,
    0xe2, 0xf9, 0x01, 0xbb, 0x2f, 0x57, 0x95, 0x3b, 0x7a, 0x2b, 0x2b, 0x3d,
    0x6a, 0xb1, 0xe4, 0xbe, 0x46, 0xcc, 0x2b, 0x3d, 0x61, 0x91, 0xb9, 0x3c,
    0xf1, 0x5f, 0x69, 0x3f, 0x39, 0xc4, 0x83, 0xbd, 0x88, 0x18, 0x60, 0xbd,
    0x88, 0x34, 0x45, 0x3d, 0xde, 0x65, 0x96, 0xbd, 0x48, 0xc5, 0x77, 0xbe,
    0xcb, 0xdb, 0xb5, 0x3d, 0x3b, 0x38, 0x8b, 0xbd, 0xcc, 0x46, 0xfa, 0x3d,
    0xf8, 0xf4, 0x1f, 0x3d, 0x9b, 0x14, 0xde, 0x3c, 0xac, 0xca, 0x8f, 0x3e,
    0xac, 0x58, 0xb2, 0x3e, 0xa7, 0xe1, 0x71, 0xbe, 0x63, 0x7c, 0x35, 0xbd,
    0xce, 0x97, 0x3d, 0x3d, 0xf4, 0x49, 0x75, 0x3f, 0x45, 0xd3, 0x6b, 0x3e,
    0x7d, 0x0b, 0x50, 0x3b, 0x7d, 0x28, 0xd3, 0x3d, 0x7a, 0x44, 0x8e, 0xb9,
    0x63, 0x9d, 0xaf, 0xbe, 0x61, 0x26, 0x34, 0x3c, 0x62, 0xf3, 0x90, 0x3d,
    0xb6, 0x66, 0xbb, 0x3d, 0xaf, 0x10, 0xc1, 0x3d, 0x7c, 0x83, 0x66, 0x3e,
    0xa0, 0xf2, 0xf1, 0x3d, 0xdc, 0x62, 0x2d, 0x3e, 0x80, 0x82, 0x6b, 0xbe,
    0x35, 0x39, 0xdf, 0x3a, 0x3b, 0x0a, 0xfa, 0xbc, 0x5a, 0xee, 0xe0, 0xbd,
    0x2e, 0x3b, 0xc1, 0x3e, 0x88, 0xa8, 0x18, 0x3e, 0x55, 0x36, 0x26, 0xbe,
    0x94, 0x10, 0x0a, 0xbe, 0x0f, 0x4a, 0xb2, 0x3e, 0xc9, 0xc0, 0x59, 0xbd,
    0x7a, 0xd0, 0xae, 0xbd, 0xd3, 0x14, 0x35, 0x3e, 0x58, 0x28, 0x3d, 0x3e,
    0x57, 0x05, 0x88, 0x3d, 0xac, 0x69, 0x35, 0xbe, 0x1c, 0x82, 0xf4, 0x3d,
    0x73, 0xd3, 0xdf, 0x3e, 0x9c, 0x3f, 0x73, 0x3d, 0x3e, 0x23, 0x9f, 0x3d,
    0xf0, 0x5a, 0x4d, 0xbb, 0x68, 0x66, 0x12, 0xbd, 0x64, 0x53, 0xc6, 0xbd,
    0xe7, 0x10, 0x65, 0xbe, 0xf3, 0x8b, 0x03, 0x3d, 0x1d, 0x7a, 0x51, 0x3e,
    0xb2, 0xb8, 0x46, 0xbe, 0x0b, 0xae, 0xc2, 0x3d, 0x51, 0x29, 0xe1, 0xbd,
    0x02, 0xcd, 0xff, 0xff, 0x04, 0x00, 0x00, 0x00, 0x00, 0x30, 0x00, 0x00,
    0x9b, 0xb8, 0x0b, 0x3e, 0x30, 0xa7, 0x09, 0x3e, 0x00, 0xf3, 0x7c, 0xbc,
    0x8a, 0x82, 0x26, 0x3e, 0x4f, 0x03, 0x92, 0x3d, 0x6b, 0x0b, 0x6d, 0xbc,
    0x7a, 0x7a, 0x00, 0xbe, 0x53, 0x87, 0x4c, 0xbe, 0x5d, 0x32, 0x00, 0x3d,
    0x18, 0x5b, 0x18, 0xbe, 0x47, 0x94, 0x50, 0x3e, 0x5a, 0x7c, 0x1f, 0xbe,
    0x76, 0xc1, 0x82, 0x3d, 0x9b, 0x75, 0xb4, 0x3d, 0x16, 0x2f, 0xb6, 0xbd,
    0xe3, 0x2d, 0xeb, 0xbd, 0x60, 0x73, 0xed, 0xbe, 0x7d, 0x79, 0x8d, 0x3e,
    0xc6, 0xad, 0x0e, 0xbd, 0x76, 0x5e, 0xe4, 0x3d, 0x2e, 0x33, 0xa1, 0xbe,
    0x5c, 0xc1, 0xd8, 0x3e, 0x9e, 0xb3, 0x03, 0x3d, 0x32, 0x92, 0xed, 0x3c,
    0x46, 0xcf, 0x9c, 0xbe, 0x57, 0x2d, 0xf2, 0xbc, 0x15, 0x10, 0xc7, 0xbc,
    0x44, 0x4f, 0x0a, 0xbf, 0x9a, 0x59, 0xd8, 0xbd, 0xe1, 0x51, 0x3b, 0xbc,
    0x83, 0xd8, 0xf1, 0xbc, 0x48, 0xb3, 0xf0, 0x3d, 0xbb, 0xc2, 0xdc, 0xbd,
    0x50, 0x9c, 0x85, 0x3e, 0xae, 0xe7, 0x05, 0xbe, 0x8b, 0xfc, 0x04, 0xbe,
    0x93, 0x48, 0x8d, 0x3d, 0x89, 0x25, 0x0b, 0x3e, 0x21, 0xa6, 0xc0, 0xbc,
    0x60, 0x03, 0x69, 0xbd, 0x3a, 0x52, 0x0b, 0xbe, 0x2f, 0x9a, 0xff, 0xbd,
    0x5b, 0x8b, 0x86, 0x3e, 0x5f, 0x5d, 0x33, 0x3c, 0x30, 0x89, 0x88, 0x3e,
    0x34, 0x52, 0x2c, 0xbd, 0x7a, 0x7d, 0xa6, 0xbd, 0x43, 0x00, 0xdc, 0xbc,
    0x89, 0xad, 0xc0, 0xbe, 0x3f, 0xf1, 0x50, 0x3e, 0x1f, 0x77, 0x8b, 0xbe,
    0xe8, 0xa6, 0xd1, 0x3d, 0x91, 0x2f, 0x31, 0xbe, 0x74, 0xa2, 0x24, 0x3f,
    0x68, 0x32, 0x47, 0x3d, 0x62, 0x13, 0x73, 0xbc, 0x76, 0x30, 0xa4, 0xbe,
    0x60, 0xa0, 0x1c, 0xbd, 0xa6, 0x45, 0x8c, 0xbb, 0xc5, 0x7f, 0xd7, 0xbe,
    0xb4, 0xd5, 0x29, 0x3e, 0x2e, 0xc0, 0x27, 0x3e, 0xaf, 0xdd, 0x69, 0x3e,
    0x9e, 0x33, 0x0b, 0xbe, 0x76, 0xf8, 0x88, 0x3d, 0xcf, 0x35, 0x3b, 0x3e,
    0xf7, 0xa5, 0xb3, 0xbd, 0x21, 0x74, 0x10, 0x3e, 0x54, 0xac, 0x86, 0x3e,
    0x86, 0x46, 0x17, 0x3e, 0x5a, 0x19, 0x9a, 0x3e, 0xfe, 0xc2, 0x72, 0xbe,
    0xcf, 0x4d, 0x4f, 0x3e, 0xff, 0x4a, 0x42, 0xbe, 0x72, 0x2a, 0xbd, 0x3e,
    0x28, 0x27, 0x03, 0xbd, 0xac, 0xf3, 0x27, 0x3e, 0x20, 0xca, 0x3b, 0x3e,
    0x58, 0x36, 0xe8, 0x3d, 0x1a, 0xd0, 0xfc, 0xbb, 0xcf, 0x08, 0xe2, 0xbe,
    0x9a, 0x08, 0x43, 0x3e, 0x15, 0x46, 0xcc, 0xbe, 0x3d, 0xe6, 0x3a, 0xbe,
    0xec, 0xc9, 0x9d, 0xbd, 0x5b, 0xe7, 0x03, 0x3f, 0x5a, 0xaf, 0x9c, 0x3d,
    0x50, 0x37, 0x51, 0xbd, 0x51, 0xe8, 0x31, 0x3e, 0x86, 0xb3, 0x95, 0xbc,
    0x4c, 0xba, 0x02, 0x3e, 0xd2, 0xc3, 0xd8, 0xbd, 0x85, 0x39, 0xbd, 0xbe,
    0x96, 0xf3, 0x8d, 0x3e, 0x78, 0xa3, 0x04, 0x3f, 0x75, 0x80, 0x64, 0x3e,
    0xf1, 0xb3, 0x00, 0x3f, 0x3c, 0xf8, 0x9b, 0xbc, 0xda, 0xdf, 0x21, 0xbe,
    0x04, 0x46, 0x8d, 0x3d, 0xfa, 0x5d, 0xa8, 0xbe, 0xdc, 0xec, 0x9c, 0x3e,
    0xd9, 0x63, 0x13, 0x3e, 0x1d, 0xcb, 0x32, 0x3d, 0xd2, 0x8e, 0x9a, 0xbe,
    0xcf, 0x51, 0xfd, 0xbc, 0x38, 0xc9, 0x66, 0xbe, 0xa7, 0x3c, 0xcf, 0x3a,
    0xde, 0xa5, 0x72, 0x3e, 0x94, 0xae, 0x50, 0xbe, 0x2a, 0x1b, 0x0f, 0x3c,
    0x0c, 0x64, 0x62, 0x3e, 0x9d, 0x73, 0x17, 0xbf, 0xcd, 0x24, 0x2d, 0xbe,
    0xb9, 0x6f, 0x1a, 0x3e, 0x7c, 0xe8, 0x1d, 0x3e, 0x3b, 0xc8, 0x84, 0xbe,
    0x3d, 0xdf, 0x6e, 0xbe, 0xad, 0x8e, 0x58, 0x3e, 0x22, 0xf2, 0x19, 0xbd,
    0x4b, 0x97, 0x1a, 0x3d, 0x12, 0x86, 0x80, 0x3c, 0xa9, 0x46, 0x58, 0x3d,
    0x3e, 0x11, 0x4e, 0xbe, 0x93, 0xd2, 0x45, 0xbe, 0x6a, 0x8d, 0x9f, 0x3d,
    0x4e, 0x1c, 0xbb, 0xbc, 0xfb, 0xc4, 0x8b, 0x3d, 0xae, 0x09, 0xea, 0x3e,
    0x6d, 0xea, 0x71, 0x3b, 0xde, 0xb8, 0x82, 0xbe, 0xff, 0x6e, 0x30, 0x3e,
    0xca, 0x7f, 0x71, 0xbe, 0xe4, 0x12, 0xb7, 0x3e, 0xe3, 0xba, 0x8f, 0x3d,
    0x2f, 0x99, 0x84, 0x3d, 0x99, 0xdc, 0x53, 0xbe, 0x2a, 0xb8, 0x55, 0x3e,
    0xb0, 0x27, 0xb0, 0xbe, 0x51, 0xf0, 0xad, 0xbc, 0xf9, 0xd5, 0x82, 0x3e,
    0x91, 0xa2, 0x67, 0xbd, 0x1c, 0x0c, 0x09, 0x3d, 0x9c, 0x74, 0x54, 0x3d,
    0xd9, 0x83, 0x30, 0xbf, 0xd4, 0x6f, 0xd8, 0x3d, 0x4a, 0xcc, 0xd0, 0xbd,
    0xd8, 0xf5, 0x35, 0x3b, 0x77, 0x4b, 0x01, 0xbe, 0x5e, 0xa6, 0x1d, 0xbe,
    0x78, 0x84, 0x5c, 0x3e, 0x97, 0x64, 0xa2, 0xbb, 0x95, 0x4f, 0xf6, 0x3c,
    0xcf, 0xf7, 0x2a, 0xbe, 0xf1, 0xfe, 0x8b, 0xbc, 0x04, 0xd7, 0x14, 0x3e,
    0xd7, 0xa6, 0x09, 0x3c, 0xc6, 0xb8, 0xf3, 0x3d, 0xac, 0xf3, 0xcb, 0x3e,
    0x45, 0xa0, 0xf8, 0x3d, 0xd9, 0x2b, 0xf5, 0x3e, 0x27, 0xb3, 0xb9, 0x3d,
    0x8c, 0x1a, 0x98, 0xbe, 0xa4, 0x81, 0x33, 0x3e, 0x40, 0xf3, 0xb8, 0x3c,
    0x29, 0x9a, 0xf3, 0x3e, 0x00, 0x20, 0x5b, 0x3e, 0x75, 0xf9, 0x1c, 0x3e,
    0x89, 0x2f, 0x85, 0x3d, 0x36, 0xed, 0xc5, 0x3d, 0xf4, 0x5d, 0x37, 0xbe,
    0x95, 0x6b, 0xcf, 0x3d, 0xd3, 0xe9, 0x9c, 0x3e, 0x2a, 0x3e, 0x35, 0xbe,
    0x88, 0x17, 0xc1, 0x3d, 0x27, 0x49, 0xf5, 0x3d, 0x0c, 0x4f, 0x29, 0xbf,
    0xc2, 0x37, 0x20, 0x3e, 0x38, 0x95, 0xe8, 0x3c, 0x6a, 0xfb, 0x2c, 0x3e,
    0x94, 0x8f, 0x26, 0x3e, 0xd1, 0x98, 0x9c, 0xbe, 0x1f, 0xba, 0x2a, 0x3e,
    0x2c, 0xd9, 0x8f, 0xbe, 0xb1, 0x15, 0xb9, 0xbc, 0x3e, 0xd2, 0xc1, 0xbd,
    0xd3, 0x97, 0xdd, 0xbd, 0x71, 0x58, 0x8e, 0x3e, 0xf6, 0x7a, 0xbf, 0x39,
    0x08, 0x64, 0x8b, 0xbd, 0x01, 0x0f, 0xca, 0x3e, 0x81, 0x9c, 0x7b, 0x3d,
    0xec, 0x5e, 0xa5, 0x3d, 0xbd, 0x5d, 0x04, 0xbe, 0xbc, 0x73, 0x47, 0xbb,
    0xc4, 0x35, 0x2c, 0x3d, 0x70, 0x99, 0x5e, 0xbd, 0x75, 0x26, 0x58, 0xbd,
    0x67, 0x4f, 0xf6, 0xbd, 0x7c, 0x77, 0x08, 0xbe, 0x16, 0x61, 0x92, 0x3c,
    0x33, 0x9e, 0x02, 0xbe, 0x80, 0x80, 0x83, 0xbd, 0x1e, 0xa9, 0x08, 0xbe,
    0xae, 0xa4, 0xf1, 0xbd, 0xc3, 0x9e, 0x04, 0xbe, 0x11, 0x00, 0xf0, 0xbd,
    0x43, 0x48, 0x38, 0xbe, 0x76, 0xc6, 0x2c, 0xbe, 0x55, 0x20, 0xe3, 0xbd,
    0xb2, 0x6f, 0x90, 0xbc, 0x53, 0x76, 0xd5, 0xbd, 0x2f, 0xe7, 0x26, 0xbe,
    0xee, 0xb4, 0x24, 0xbc, 0x8c, 0x00, 0x71, 0xbd, 0xf6, 0xfb, 0xd9, 0x3d,
    0x97, 0x62, 0x48, 0x3d, 0x74, 0x06, 0xea, 0xbd, 0x48, 0x82, 0x36, 0xbe,
    0xf2, 0x65, 0x3b, 0xbe, 0xed, 0x0c, 0x9c, 0xbc, 0xec, 0xd1, 0x09, 0x3e,
    0x15, 0xad, 0xd8, 0x3d, 0xb5, 0xdd, 0x06, 0xbe, 0x38, 0xc3, 0xe8, 0xbd,
    0xf2, 0x65, 0xf3, 0xbd, 0x59, 0x1c, 0x5b, 0x3b, 0xe8, 0x53, 0xb1, 0xbd,
    0x75, 0x9a, 0x1e, 0x3d, 0x8e, 0xd6, 0xdb, 0x3d, 0x42, 0x40, 0x32, 0x3d,
    0x2d, 0x3b, 0xf5, 0xbd, 0xf1, 0xbd, 0x10, 0xbe, 0x89, 0x75, 0xc1, 0xbd,
    0xb6, 0x16, 0xa5, 0xbd, 0xec, 0xa5, 0x5c, 0xba, 0xc9, 0xa3, 0xd6, 0x3d,
    0x08, 0xc2, 0xe7, 0xbc, 0xfd, 0x5c, 0x0f, 0xbe, 0xe1, 0xf6, 0x4f, 0xbd,
    0xf5, 0x25, 0x15, 0xbd, 0x71, 0x66, 0x17, 0x3e, 0xdb, 0xb7, 0x11, 0x3e,
    0x1e, 0xd2, 0xc1, 0xbc, 0x90, 0xed, 0x98, 0xbd, 0x4a, 0x05, 0x30, 0xbc,
    0x59, 0xdd, 0x08, 0xbe, 0xe4, 0x3f, 0x38, 0xbe, 0xb9, 0xbf, 0x48, 0xbd,
    0xa3, 0x61, 0xa0, 0x3a, 0x51, 0xf8, 0x01, 0x3e, 0x7e, 0xb7, 0x2f, 0xbb,
    0x86, 0x47, 0x39, 0xbd, 0xf1, 0x63, 0xd1, 0xbd, 0x48, 0x68, 0x09, 0xbe,
    0xb6, 0x57, 0x19, 0x3e, 0x48, 0xcf, 0xcc, 0xbd, 0x79, 0x96, 0x64, 0xbd,
    0xa1, 0x54, 0xc9, 0xbd, 0x6b, 0xe6, 0x7e, 0xbd, 0x31, 0xba, 0xbd, 0xbc,
    0xa9, 0x3e, 0x5b, 0x3d, 0x2c, 0x6d, 0x3d, 0xbd, 0xc5, 0xb8, 0x24, 0x3e,
    0xfe, 0xe3, 0xdc, 0x3d, 0x99, 0x4f, 0xda, 0xbd, 0x31, 0x06, 0x13, 0xbe,
    0x76, 0x77, 0x90, 0x3c, 0xd4, 0x0d, 0x2e, 0xbd, 0x51, 0x25, 0x2c, 0xbe,
    0x46, 0xce, 0x28, 0xbe, 0x9c, 0x22, 0xf3, 0xbc, 0xaa, 0x55, 0x13, 0xbd,
    0xce, 0xb3, 0x58, 0xbd, 0x04, 0xac, 0xe1, 0x3c, 0xe2, 0xd5, 0x6e, 0xbd,
    0x3a, 0xfd, 0x1c, 0xbe, 0x63, 0x16, 0xa8, 0x3d, 0x2e, 0x19, 0xb1, 0xbd,
    0x3b, 0xb1, 0xe6, 0x3d, 0x6a, 0x67, 0x1c, 0x3d, 0xae, 0x02, 0xfb, 0x3d,
    0xe2, 0x75, 0x02, 0xbd, 0x9b, 0x40, 0x31, 0xbe, 0xc7, 0xce, 0xa0, 0xbd,
    0x81, 0x27, 0xb0, 0x3c, 0x07, 0xc8, 0x15, 0xbe, 0x75, 0x8c, 0x0a, 0xbe,
    0x8d, 0xdb, 0x31, 0x3e, 0xa5, 0xa0, 0x65, 0xbe, 0x2c, 0xb7, 0x09, 0x3e,
    0xcf, 0x75, 0x53, 0x3e, 0x37, 0x51, 0x42, 0x3e, 0xa6, 0xac, 0xcf, 0xbd,
    0x69, 0x3b, 0x8c, 0x3d, 0x5c, 0xf9, 0x7d, 0xbd, 0x0d, 0x4c, 0x28, 0xbd,
    0xed, 0xd2, 0x39, 0x3e, 0x9b, 0x01, 0x11, 0x3e, 0xee, 0xeb, 0xde, 0xbd,
    0x46, 0xfb, 0x26, 0x3d, 0xcf, 0x68, 0x35, 0x3e, 0x77, 0x91, 0xd2, 0x3d,
    0x95, 0xaa, 0xd6, 0xbd, 0x9c, 0x49, 0x39, 0x3e, 0x32, 0xb8, 0x5d, 0xbe,
    0xed, 0x13, 0x70, 0x3c, 0x70, 0xbd, 0x12, 0x3e, 0x27, 0x2c, 0xdd, 0xbd,
    0xf8, 0x1d, 0xa2, 0x3e, 0xf8, 0x11, 0x83, 0x3d, 0x4a, 0xed, 0x97, 0xbd,
    0xa3, 0x53, 0xbd, 0xbe, 0x13, 0x9d, 0x10, 0x3e, 0x54, 0x95, 0x82, 0x3e,
    0x15, 0x22, 0xe1, 0xbe, 0x23, 0xa4, 0xa1, 0xbd, 0x26, 0x77, 0xd3, 0x3d,
    0xea, 0x94, 0x45, 0xbe, 0xd7, 0xe5, 0xa3, 0x3d, 0x87, 0x58, 0x88, 0x3e,
    0xea, 0xca, 0x68, 0x3d, 0xed, 0x95, 0xaa, 0x3e, 0x44, 0xac, 0x00, 0x3e,
    0x22, 0xa2, 0xe5, 0xbc, 0x49, 0xa2, 0x4c, 0xbe, 0x1d, 0xd8, 0x7c, 0xbe,
    0xaf, 0x10, 0xb2, 0xbd, 0xe9, 0x4b, 0xdb, 0x3c, 0x56, 0xfe, 0x84, 0x3e,
    0x9e, 0x84, 0xcd, 0x3d, 0x70, 0x8f, 0x1b, 0xbe, 0x80, 0x54, 0xdc, 0xbd,
    0xa2, 0x85, 0xeb, 0x3d, 0x22, 0x81, 0xc1, 0x3d, 0x57, 0xdb, 0xe4, 0xbc,
    0x87, 0x20, 0xcf, 0x3b, 0xcd, 0xef, 0xee, 0x3d, 0xd3, 0x9e, 0xff, 0x3d,
    0x0c, 0x7e, 0xb0, 0xbd, 0x17, 0xb1, 0xb0, 0x3e, 0x6d, 0xc8, 0x47, 0x3e,
    0x15, 0x80, 0x23, 0xbe, 0xa9, 0xfd, 0x85, 0xbd, 0x83, 0x94, 0x94, 0xbe,
    0x07, 0x45, 0xb0, 0x3d, 0x91, 0xfd, 0x49, 0x3e, 0xd9, 0xc4, 0xc0, 0xbd,
    0x21, 0x42, 0x24, 0x3e, 0x20, 0x11, 0x66, 0xbd, 0x36, 0x99, 0x5a, 0xba,
    0x58, 0x42, 0x39, 0x3d, 0xd6, 0x37, 0xc7, 0x3d, 0x4c, 0xd8, 0x15, 0xbe,
    0xe1, 0x3b, 0x2c, 0x3e, 0x74, 0x67, 0x1a, 0x3e, 0xa7, 0x0e, 0x5c, 0x3e,
    0x7b, 0x75, 0x5b, 0x3d, 0x77, 0x68, 0x78, 0xbe, 0xaa, 0x7e, 0xd2, 0x3d,
    0xb0, 0x68, 0x2c, 0xbc, 0xac, 0x59, 0x6d, 0x3e, 0x9c, 0xc7, 0x64, 0x3d,
    0x61, 0xc0, 0x05, 0xbd, 0x41, 0x02, 0x1a, 0x3e, 0xe0, 0x19, 0x64, 0x3e,
    0xb7, 0xf2, 0x84, 0xbd, 0xf7, 0xd4, 0x7c, 0xbd, 0x1d, 0x06, 0xe7, 0xbb,
    0x6e, 0xf5, 0x98, 0xbc, 0x5a, 0x8f, 0x86, 0xbc, 0x7c, 0xdb, 0x42, 0x3e,
    0x9e, 0xe2, 0x7a, 0x3e, 0xba, 0xa0, 0xb1, 0x3e, 0xd7, 0xed, 0x43, 0xbd,
    0x91, 0xfe, 0xa9, 0xbd, 0x71, 0x9e, 0xa2, 0xbe, 0x4d, 0x66, 0x07, 0x3e,
    0x8f, 0x8d, 0xdd, 0xbd, 0x33, 0x1c, 0x2a, 0xbe, 0xec, 0x1f, 0x2c, 0xbe,
    0x20, 0x5f, 0xea, 0x3d, 0x05, 0x05, 0x8b, 0x3d, 0xa7, 0x99, 0x2f, 0xbe,
    0x40, 0x33, 0xfc, 0x3d, 0xe3, 0xb6, 0x09, 0xbf, 0x5f, 0x20, 0x96, 0x3e,
    0x8e, 0x92, 0x13, 0xbd, 0x05, 0x86, 0x02, 0xbd, 0xe0, 0x06, 0xaa, 0x3d,
    0x4a, 0xf0, 0xea, 0xbd, 0x53, 0x43, 0x07, 0xbe, 0x46, 0x34, 0x66, 0xbe,
    0x4d, 0x13, 0x6f, 0x3d, 0x2b, 0xdf, 0xee, 0xbd, 0x64, 0x24, 0x0d, 0xba,
    0xac, 0xa3, 0x87, 0x3b, 0xa5, 0x19, 0xa6, 0x3e, 0xdf, 0xcb, 0x66, 0xbe,
    0x7f, 0xb8, 0x68, 0x3e, 0x75, 0x21, 0x23, 0x3e, 0x04, 0x82, 0x17, 0xbe,
    0x07, 0x45, 0x87, 0x3c, 0x98, 0xda, 0xbc, 0xbd, 0x59, 0x97, 0x45, 0x3e,
    0xc8, 0x6d, 0x96, 0x3d, 0x1a, 0x1d, 0x34, 0xbe, 0x3f, 0x17, 0x3d, 0xbc,
    0x9b, 0xd5, 0x4a, 0x3e, 0x67, 0xb0, 0x88, 0xbe, 0x2e, 0xaa, 0x3e, 0x3e,
    0xaf, 0xac, 0x21, 0xbe, 0xd1, 0x1b, 0x8a, 0x3d, 0x2c, 0xfa, 0x06, 0xbd,
    0xad, 0x56, 0x13, 0xbd, 0x33, 0xd7, 0xf6, 0x3d, 0xbe, 0x5c, 0xc3, 0x3d,
    0x7f, 0x5e, 0xc8, 0xbe, 0x58, 0x6c, 0xc3, 0x3e, 0x50, 0xd6, 0x1a, 0xbc,
    0x46, 0xc6, 0x8f, 0x3e, 0x57, 0x72, 0x0b, 0xbe, 0x59, 0x08, 0xff, 0x3c,
    0x4b, 0x25, 0x81, 0x3e, 0x4e, 0x1c, 0x36, 0x3e, 0x70, 0xa9, 0xb3, 0xbd,
    0x8b, 0x27, 0xd7, 0xbc, 0xcb, 0xf3, 0xaa, 0xbc, 0x95, 0x4d, 0x14, 0xbf,
    0x6d, 0x76, 0x20, 0x3d, 0x82, 0x74, 0x81, 0x3d, 0x69, 0x11, 0xd3, 0x3e,
    0xfb, 0x1b, 0x45, 0x3e, 0x0b, 0x3d, 0x27, 0xbe, 0x60, 0x00, 0xdf, 0x3d,
    0x8a, 0x92, 0x54, 0xbe, 0x6c, 0xff, 0x39, 0x3e, 0xb0, 0xd5, 0xb7, 0xbe,
    0x00, 0xcc, 0x0e, 0x3d, 0x6e, 0x64, 0x4c, 0xbe, 0xc3, 0x4f, 0x55, 0x3d,
    0x12, 0x5f, 0xac, 0xbe, 0x8f, 0x53, 0x44, 0x3d, 0xe7, 0x7e, 0x13, 0xbd,
    0xaa, 0xd9, 0x8a, 0x3d, 0x36, 0x09, 0x1b, 0xbe, 0x0f, 0xcf, 0x69, 0xbe,
    0x60, 0xd4, 0x41, 0xbd, 0xa8, 0x04, 0x8f, 0xbd, 0x3c, 0xf8, 0xbb, 0xbe,
    0x76, 0xae, 0xf0, 0x3e, 0xb1, 0x8f, 0x43, 0xbc, 0xf2, 0xd1, 0x6d, 0x3d,
    0x83, 0x18, 0xad, 0xbd, 0xaa, 0x8b, 0xb6, 0x3d, 0xab, 0x09, 0x16, 0xbd,
    0xc8, 0x32, 0x55, 0x3e, 0x78, 0x24, 0x8c, 0x3b, 0xfb, 0x06, 0xa3, 0xbe,
    0xbf, 0x63, 0x8e, 0x3e, 0x76, 0xcc, 0x05, 0xbf, 0xd3, 0xb5, 0xb4, 0x3d,
    0x51, 0xbb, 0x9a, 0x3e, 0x93, 0xfb, 0x72, 0xbc, 0xa3, 0x78, 0x27, 0xbe,
    0x99, 0xad, 0xeb, 0xbe, 0x73, 0x39, 0x2c, 0x3e, 0x41, 0x08, 0xbf, 0xbe,
    0x69, 0x4d, 0x57, 0xbd, 0xda, 0xc5, 0xc7, 0xbd, 0x49, 0xa0, 0xa8, 0x3d,
    0xa6, 0xcc, 0xad, 0xbe, 0x33, 0x07, 0x9c, 0x3e, 0x3f, 0x8a, 0x8b, 0xbe,
    0x3d, 0x6b, 0x66, 0x3e, 0x96, 0x8c, 0x47, 0xbe, 0x37, 0x33, 0x1f, 0xbe,
    0xd6, 0xaa, 0xeb, 0xbd, 0x19, 0xe3, 0xda, 0xbe, 0xdd, 0x56, 0x8f, 0x3e,
    0x2c, 0xd9, 0x9d, 0xbe, 0x39, 0x91, 0x3b, 0x3b, 0xc7, 0xb8, 0x2a, 0xbf,
    0xbe, 0xa1, 0xa9, 0xbf, 0xf2, 0x4f, 0x5f, 0x3e, 0x46, 0xaa, 0x60, 0x3e,
    0x89, 0x36, 0xad, 0xbe, 0x03, 0xbc, 0x10, 0x3e, 0x8f, 0x45, 0x9a, 0x3d,
    0xcd, 0x3c, 0xe2, 0xbd, 0x52, 0xcc, 0xa3, 0x3d, 0xac, 0xc9, 0xda, 0xbe,
    0x2f, 0xc8, 0x03, 0x3e, 0x38, 0x05, 0x26, 0x3e, 0x24, 0x18, 0x78, 0x3c,
    0x51, 0x2c, 0x7d, 0x3e, 0xae, 0x43, 0xa6, 0x3e, 0x92, 0x9c, 0x8d, 0xbd,
    0x2e, 0xac, 0xd3, 0xbe, 0xa6, 0x6e, 0x8c, 0x3e, 0xd7, 0x0c, 0xf5, 0xbc,
    0xc6, 0x55, 0x78, 0x3d, 0x47, 0xee, 0xda, 0xbe, 0xc3, 0xd6, 0x06, 0x3e,
    0xe6, 0x1f, 0xff, 0xbc, 0x0a, 0xe9, 0x01, 0x3e, 0xc8, 0xf1, 0xac, 0xbe,
    0xfb, 0x78, 0x63, 0xbd, 0xe2, 0xc4, 0xb5, 0x3b, 0xf7, 0x57, 0x21, 0x3e,
    0xa5, 0x32, 0x24, 0x3e, 0xa3, 0xdd, 0xe4, 0xbe, 0x60, 0xa4, 0x4b, 0xbd,
    0x50, 0x4d, 0x65, 0x3d, 0xd1, 0x74, 0x95, 0xbe, 0xa4, 0x1a, 0x3c, 0xbf,
    0x05, 0x25, 0xba, 0x3e, 0xcc, 0xfb, 0xe9, 0x3d, 0x21, 0xaa, 0x04, 0x3e,
    0xd1, 0x42, 0x6e, 0x3d, 0xbe, 0x48, 0xf7, 0xbd, 0xc7, 0x66, 0x3d, 0xbe,
    0xb3, 0xde, 0x4f, 0x3e, 0x3c, 0xdc, 0x2f, 0xbf, 0x60, 0xae, 0xa8, 0xbd,
    0x34, 0x81, 0xb2, 0x3d, 0x68, 0x4d, 0x32, 0xbd, 0x78, 0xb0, 0x71, 0x3e,
    0x1a, 0x43, 0x27, 0x3e, 0x98, 0x6a, 0xd4, 0x3d, 0xd4, 0x76, 0x95, 0xbe,
    0x2d, 0x05, 0xb4, 0x3e, 0x30, 0x35, 0x94, 0x3e, 0x00, 0xa1, 0x77, 0xbd,
    0xe1, 0x77, 0xc7, 0xbe, 0x9e, 0xd4, 0x22, 0x3e, 0x30, 0x66, 0x3f, 0x3e,
    0x48, 0xd8, 0x64, 0xbd, 0x27, 0x82, 0x8f, 0xbd, 0xc4, 0x52, 0xbf, 0x3c,
    0xa7, 0x65, 0x2a, 0x3e, 0xfc, 0x54, 0x0f, 0xbe, 0x39, 0x73, 0xf4, 0xbd,
    0xd8, 0xf7, 0x2f, 0xbf, 0x00, 0x26, 0x9e, 0xbe, 0x17, 0x15, 0x37, 0xbd,
    0xbf, 0x61, 0x47, 0xbe, 0xd8, 0x66, 0xc7, 0xbe, 0x14, 0x06, 0x8b, 0x3e,
    0xe6, 0x3f, 0xd9, 0x3d, 0xe3, 0xdf, 0x19, 0x3e, 0xf5, 0x86, 0x12, 0x3e,
    0xc1, 0xe9, 0xe4, 0xbd, 0x36, 0xda, 0x1e, 0xbe, 0x23, 0xb1, 0x36, 0xbd,
    0x66, 0xbe, 0xba, 0xbe, 0x18, 0x4d, 0x33, 0xbe, 0xcf, 0xc6, 0x49, 0x3c,
    0x68, 0xf3, 0xc3, 0xbc, 0x7d, 0x72, 0x1a, 0xbf, 0xc2, 0x06, 0xe1, 0x3e,
    0x26, 0xf0, 0x9d, 0x3e, 0x55, 0x0b, 0x8f, 0xbe, 0xc4, 0xf7, 0xb4, 0x3e,
    0x35, 0x67, 0xa0, 0x3b, 0x3f, 0x9d, 0x19, 0xbe, 0xc6, 0x78, 0x9c, 0xbe,
    0x9b, 0x6f, 0xc8, 0xbe, 0x15, 0xdd, 0x91, 0xbd, 0xac, 0x9b, 0x52, 0xbe,
    0xbc, 0x25, 0x55, 0x3d, 0x58, 0xd7, 0x0c, 0xbc, 0xc0, 0xf0, 0xa2, 0x3d,
    0xd7, 0x6a, 0xae, 0x3d, 0x52, 0x5c, 0xda, 0xbd, 0xcd, 0xb7, 0x1f, 0xbe,
    0x42, 0x07, 0x97, 0x3d, 0x57, 0x1b, 0x06, 0xbf, 0x8f, 0xcb, 0xbc, 0x3e,
    0x86, 0x21, 0x41, 0xbc, 0xc3, 0x50, 0xfe, 0x3d, 0xc0, 0xb1, 0x3b, 0xbe,
    0x44, 0x6b, 0xb3, 0xbe, 0x48, 0x77, 0x34, 0xbd, 0xc4, 0x7e, 0xfa, 0xbd,
    0x42, 0x18, 0xaa, 0x3c, 0xad, 0x21, 0x97, 0xbe, 0xe5, 0xec, 0xba, 0xbd,
    0x11, 0x63, 0x6d, 0xbe, 0xdd, 0xac, 0x86, 0x3e, 0x6d, 0xa3, 0x94, 0xbd,
    0x38, 0x7c, 0x16, 0x3e, 0xc3, 0xb6, 0xe6, 0xbd, 0x6f, 0x40, 0x36, 0xbd,
    0xdc, 0x89, 0x90, 0x3e, 0x95, 0xd2, 0x48, 0xbe, 0xd3, 0x6b, 0xca, 0x3d,
    0x85, 0x9c, 0x89, 0x3d, 0xf2, 0x81, 0x26, 0xbe, 0x78, 0x3a, 0x33, 0xbd,
    0x86, 0xba, 0x4f, 0x3e, 0x70, 0xa0, 0x7d, 0xbe, 0x05, 0xf2, 0xfd, 0xbd,
    0xc0, 0x2d, 0x5c, 0xbe, 0xad, 0xdb, 0xb5, 0xbd, 0x2e, 0x4c, 0x04, 0xbe,
    0x0a, 0x68, 0x22, 0xbd, 0x15, 0x65, 0x5b, 0x3e, 0x54, 0x07, 0x42, 0x3e,
    0x61, 0x80, 0xf5, 0xbe, 0xc5, 0x6f, 0xf6, 0x3e, 0xfe, 0xf6, 0x05, 0x3e,
    0x6e, 0x01, 0x2a, 0x3e, 0x7c, 0x6b, 0x88, 0x3d, 0x9b, 0xb1, 0x38, 0x3d,
    0xc2, 0xee, 0xf6, 0xbd, 0x59, 0xf4, 0x8a, 0x3e, 0xd7, 0xe0, 0x51, 0x3e,
    0x49, 0xa6, 0x84, 0xbe, 0xe8, 0xfe, 0x34, 0xbd, 0xa6, 0x35, 0x08, 0xbf,
    0xf1, 0xc5, 0x4c, 0x3d, 0xb5, 0xdc, 0x9f, 0x3e, 0x34, 0x75, 0xb3, 0x3e,
    0xc4, 0x09, 0xfc, 0x3d, 0x5b, 0x24, 0x82, 0xbe, 0xaf, 0xa2, 0x4d, 0x3e,
    0x4b, 0xaf, 0x43, 0xbe, 0xa9, 0x79, 0x86, 0x3e, 0x08, 0xc5, 0xb8, 0xbe,
    0x52, 0x84, 0x6b, 0xbd, 0xd2, 0xa3, 0xe0, 0x3d, 0x1d, 0x52, 0x2e, 0x3e,
    0xec, 0x2c, 0xeb, 0x3c, 0x8d, 0xfa, 0xa8, 0x3b, 0xb2, 0xd0, 0x63, 0xbe,
    0xad, 0x55, 0x46, 0xbd, 0x11, 0x2e, 0xdf, 0x3d, 0x1e, 0xc0, 0xc5, 0xbd,
    0x93, 0x2a, 0x40, 0x3d, 0xcc, 0xc3, 0x37, 0xbe, 0x1c, 0x68, 0x06, 0xbe,
    0x49, 0xf6, 0x7d, 0x3e, 0xc9, 0x75, 0x6f, 0x3e, 0x26, 0x58, 0x1a, 0x3e,
    0xd9, 0xc6, 0xb2, 0xbd, 0x6a, 0xeb, 0x78, 0x3e, 0x44, 0x24, 0x6c, 0x3c,
    0x77, 0x04, 0x50, 0x3e, 0x35, 0x90, 0xdb, 0x3d, 0xe2, 0x95, 0x94, 0xbe,
    0xd3, 0xb4, 0x5a, 0x3e, 0xba, 0x16, 0x84, 0xbe, 0x32, 0xbc, 0x11, 0xbc,
    0xef, 0x42, 0x58, 0x3e, 0xd1, 0x95, 0x78, 0x3c, 0x3e, 0x64, 0x11, 0xbe,
    0xc5, 0x9e, 0xf5, 0xbd, 0x9f, 0xd0, 0x38, 0x3d, 0x56, 0xbc, 0xd3, 0xbe,
    0x68, 0xa4, 0x03, 0x3e, 0x6e, 0x22, 0x3e, 0xbd, 0xb6, 0xc2, 0xe2, 0x3d,
