/**
 * TFLite / LiteRT model byte array.
 *
 * Auto-generated by model_to_tflite.py
 * Timestamp  : 2026-03-03 01:58 UTC
 * Source     : model.tflite
 * Model size : 5,416 bytes
 * Quantized  : no (float32)
 *
 * Usage (Arduino / TFLite Micro):
 *
 *   #include "model.h"
 *   const tflite::Model* model = tflite::GetModel(g_model);
 */

#ifndef MODEL_H
#define MODEL_H

/* 8-byte alignment required by TFLite Micro */
alignas(8) const unsigned char g_model[] = {
    0x1c, 0x00, 0x00, 0x00, 0x54, 0x46, 0x4c, 0x33, 0x14, 0x00, 0x20, 0x00,
    0x1c, 0x00, 0x18, 0x00, 0x14, 0x00, 0x10, 0x00, 0x0c, 0x00, 0x00, 0x00,
    0x08, 0x00, 0x04, 0x00, 0x14, 0x00, 0x00, 0x00, 0x1c, 0x00, 0x00, 0x00,
    0x1c, 0x00, 0x00, 0x00, 0x74, 0x00, 0x00, 0x00, 0x34, 0x0a, 0x00, 0x00,
    0x44, 0x0a, 0x00, 0x00, 0x94, 0x14, 0x00, 0x00, 0x03, 0x00, 0x00, 0x00,
    0x00, 0x00, 0x00, 0x00, 0x02, 0x00, 0x00, 0x00, 0x34, 0x00, 0x00, 0x00,
    0x04, 0x00, 0x00, 0x00, 0xdc, 0xff, 0xff, 0xff, 0x16, 0x00, 0x00, 0x00,
    0x04, 0x00, 0x00, 0x00, 0x13, 0x00, 0x00, 0x00, 0x43, 0x4f, 0x4e, 0x56,
    0x45, 0x52, 0x53, 0x49, 0x4f, 0x4e, 0x5f, 0x4d, 0x45, 0x54, 0x41, 0x44,
    0x41, 0x54, 0x41, 0x00, 0x08, 0x00, 0x0c, 0x00, 0x08, 0x00, 0x04, 0x00,
    0x08, 0x00, 0x00, 0x00, 0x15, 0x00, 0x00, 0x00, 0x04, 0x00, 0x00, 0x00,
    0x13, 0x00, 0x00, 0x00, 0x6d, 0x69, 0x6e, 0x5f, 0x72, 0x75, 0x6e, 0x74,
    0x69, 0x6d, 0x65, 0x5f, 0x76, 0x65, 0x72, 0x73, 0x69, 0x6f, 0x6e, 0x00,
    0x17, 0x00, 0x00, 0x00, 0xbc, 0x09, 0x00, 0x00, 0xb4, 0x09, 0x00, 0x00,
    0x64, 0x09, 0x00, 0x00, 0x34, 0x09, 0x00, 0x00, 0x04, 0x09, 0x00, 0x00,
    0xe4, 0x08, 0x00, 0x00, 0xc8, 0x08, 0x00, 0x00, 0xb8, 0x05, 0x00, 0x00,
    0x28, 0x04, 0x00, 0x00, 0x18, 0x03, 0x00, 0x00, 0x08, 0x01, 0x00, 0x00,
    0xf4, 0x00, 0x00, 0x00, 0xd4, 0x00, 0x00, 0x00, 0xcc, 0x00, 0x00, 0x00,
    0xc4, 0x00, 0x00, 0x00, 0xbc, 0x00, 0x00, 0x00, 0xb4, 0x00, 0x00, 0x00,
    0xac, 0x00, 0x00, 0x00, 0xa4, 0x00, 0x00, 0x00, 0x9c, 0x00, 0x00, 0x00,
    0x94, 0x00, 0x00, 0x00, 0x74, 0x00, 0x00, 0x00, 0x04, 0x00, 0x00, 0x00,
    0x0e, 0xf6, 0xff, 0xff, 0x04, 0x00, 0x00, 0x00, 0x60, 0x00, 0x00, 0x00,
    0x10, 0x00, 0x00, 0x00, 0x00, 0x00, 0x00, 0x00, 0x08, 0x00, 0x0e, 0x00,
    0x08, 0x00, 0x04, 0x00, 0x08, 0x00, 0x00, 0x00, 0x10, 0x00, 0x00, 0x00,
    0x24, 0x00, 0x00, 0x00, 0x00, 0x00, 0x06, 0x00, 0x08, 0x00, 0x04, 0x00,
    0x06, 0x00, 0x00, 0x00, 0x04, 0x00, 0x00, 0x00, 0x00, 0x00, 0x00, 0x00,
    0x0c, 0x00, 0x18, 0x00, 0x14, 0x00, 0x10, 0x00, 0x0c, 0x00, 0x04, 0x00,
    0x0c, 0x00, 0x00, 0x00, 0xab, 0xb9, 0xfa, 0x2c, 0xd1, 0xb4, 0x85, 0x5e,
    0x03, 0x00, 0x00, 0x00, 0x02, 0x00, 0x00, 0x00, 0x04, 0x00, 0x00, 0x00,
    0x06, 0x00, 0x00, 0x00, 0x32, 0x2e, 0x32, 0x30, 0x2e, 0x30, 0x00, 0x00,
    0x7a, 0xf6, 0xff, 0xff, 0x04, 0x00, 0x00, 0x00, 0x10, 0x00, 0x00, 0x00,
    0x31, 0x2e, 0x36, 0x2e, 0x30, 0x00, 0x00, 0x00, 0x00, 0x00, 0x00, 0x00,
    0x00, 0x00, 0x00, 0x00, 0xdc, 0xec, 0xff, 0xff, 0xe0, 0xec, 0xff, 0xff,
    0xe4, 0xec, 0xff, 0xff, 0xe8, 0xec, 0xff, 0xff, 0xec, 0xec, 0xff, 0xff,
    0xf0, 0xec, 0xff, 0xff, 0xf4, 0xec, 0xff, 0xff, 0xf8, 0xec, 0xff, 0xff,
    0xb6, 0xf6, 0xff, 0xff, 0x04, 0x00, 0x00, 0x00, 0x10, 0x00, 0x00, 0x00,
    0x01, 0x00, 0x00, 0x00, 0x01, 0x00, 0x00, 0x00, 0x0a, 0x00, 0x00, 0x00,
    0x04, 0x00, 0x00, 0x00, 0xd2, 0xf6, 0xff, 0xff, 0x04, 0x00, 0x00, 0x00,
    0x04, 0x00, 0x00, 0x00, 0x01, 0x00, 0x00, 0x00, 0xe2, 0xf6, 0xff, 0xff,
    0x04, 0x00, 0x00, 0x00, 0x00, 0x02, 0x00, 0x00, 0xcb, 0x6b, 0x1a, 0x3c,
    0x05, 0xd1, 0xf1, 0x3d, 0x36, 0x33, 0xec, 0x3c, 0xa8, 0xb7, 0xa0, 0xbe,
    0xaa, 0x25, 0x91, 0x3e, 0x4c, 0x8d, 0xd2, 0x3e, 0x9f, 0xaf, 0xb7, 0x3c,
    0x9e, 0x2d, 0xf3, 0x3c, 0x45, 0x7a, 0x8c, 0xbd, 0x5f, 0xf7, 0xdd, 0xbe,
    0xa9, 0xf5, 0x06, 0x3e, 0x1a, 0xe8, 0x80, 0x3e, 0x9d, 0x59, 0x00, 0xbf,
    0xda, 0xb3, 0x74, 0x3b, 0xf9, 0x58, 0xcc, 0x3d, 0x5d, 0x26, 0x99, 0x3e,
    0x5e, 0x2b, 0xcd, 0x3e, 0x39, 0x92, 0xc3, 0x3e, 0xae, 0x23, 0x82, 0xbe,
    0xf8, 0xd6, 0xa0, 0xbe, 0x1b, 0xf8, 0x69, 0x3e, 0xb4, 0xa0, 0xf6, 0x3d,
    0xff, 0x18, 0x60, 0x3e, 0x45, 0xba, 0x99, 0xbe, 0x25, 0xff, 0xdb, 0x3e,
    0x27, 0xe4, 0xbc, 0xbe, 0xc7, 0x5b, 0xed, 0x3e, 0xf9, 0xd8, 0x44, 0xbe,
    0x12, 0xd0, 0x78, 0x3e, 0xc9, 0xb0, 0x90, 0xbe, 0x76, 0x42, 0xe2, 0x3e,
    0x29, 0xfd, 0xee, 0x3e, 0x21, 0x6c, 0xba, 0x3e, 0xc1, 0x0b, 0x2f, 0xbe,
    0x91, 0xda, 0x94, 0x3e, 0xa6, 0x5d, 0x04, 0xbf, 0x5a, 0xb0, 0x9e, 0xbe,
    0xdb, 0x7d, 0x87, 0xbe, 0x96, 0x7b, 0x05, 0xbd, 0x54, 0x59, 0xbd, 0x3e,
    0x8e, 0x5f, 0xaf, 0x3e, 0x87, 0x20, 0x91, 0x3e, 0x86, 0x17, 0xfa, 0x3b,
    0x51, 0x5e, 0x30, 0xbe, 0xe0, 0xd1, 0xd6, 0x3c, 0xf0, 0x4e, 0x2a, 0xbf,
    0xd6, 0x16, 0x68, 0x3e, 0x31, 0x5a, 0x69, 0xbd, 0xf0, 0x44, 0xc4, 0xbe,
    0x4f, 0x96, 0x20, 0x3e, 0x6e, 0x05, 0xf5, 0x3e, 0xc8, 0xd4, 0xaa, 0x3e,
    0x39, 0xaa, 0x11, 0xbf, 0x85, 0x25, 0x35, 0x3e, 0x3d, 0xd3, 0xc3, 0x3c,
    0x45, 0x4d, 0x46, 0x3d, 0x64, 0x1a, 0x52, 0x3e, 0x44, 0xc7, 0xd7, 0xbe,
    0xb0, 0x4d, 0x86, 0x3d, 0x30, 0x33, 0x01, 0x3f, 0xc5, 0x89, 0x4d, 0xbe,
    0x75, 0xfb, 0x06, 0x3e, 0x37, 0x01, 0xa4, 0x3e, 0x6b, 0x05, 0x0d, 0xbf,
    0x50, 0x36, 0x0b, 0x3d, 0x18, 0xc8, 0x52, 0x3c, 0xcc, 0x53, 0x41, 0xbe,
    0x8f, 0xa6, 0x7b, 0x3e, 0x3c, 0x65, 0x0a, 0x3e, 0x4a, 0x0f, 0x1b, 0xbe,
    0x59, 0x42, 0x05, 0x3f, 0x2f, 0xa7, 0x08, 0x3f, 0xfb, 0xf1, 0x2f, 0x3e,
    0xd5, 0x4b, 0x16, 0xbd, 0xe9, 0x8a, 0x90, 0xbe, 0xcb, 0xa2, 0x44, 0xbe,
    0xc8, 0xca, 0x10, 0x3f, 0x41, 0x16, 0xa7, 0x3b, 0xd7, 0x1e, 0xbc, 0xbd,
    0xd2, 0x66, 0x27, 0x3f, 0x25, 0xdc, 0xa5, 0x3d, 0x85, 0xdc, 0xa0, 0xbe,
    0xce, 0x8f, 0xf2, 0xbb, 0x57, 0xa9, 0x76, 0x3c, 0xf3, 0xe6, 0xa2, 0x3e,
    0x1f, 0x07, 0xab, 0x3e, 0x80, 0x74, 0x21, 0x3e, 0x34, 0x4a, 0xd4, 0x3d,
    0x1e, 0xc0, 0xa9, 0x3e, 0x96, 0x64, 0xc3, 0x3e, 0x90, 0xdc, 0xcb, 0x3e,
    0xfe, 0xcd, 0x00, 0xbf, 0xb3, 0x66, 0x7f, 0xbe, 0x76, 0xac, 0xa0, 0xbe,
    0x40, 0xf8, 0x33, 0x3e, 0xca, 0xdb, 0xc1, 0x3e, 0xf8, 0x15, 0x39, 0x3d,
    0x3d, 0x94, 0x29, 0xbe, 0x76, 0x6e, 0x72, 0xbe, 0x77, 0xf0, 0x00, 0xbd,
    0x61, 0xcc, 0x53, 0xbe, 0xc0, 0xf8, 0x3b, 0x3e, 0x3f, 0x55, 0x8b, 0xbe,
    0x90, 0x12, 0x83, 0x3e, 0x8f, 0x91, 0xb1, 0x3e, 0xa8, 0x02, 0x43, 0x3e,
    0x87, 0x17, 0x81, 0x3e, 0xa1, 0x99, 0x8c, 0xbe, 0x31, 0x81, 0xe5, 0xbe,
    0x9b, 0x23, 0xe6, 0xbd, 0x44, 0x5e, 0x42, 0x3d, 0x6e, 0x5b, 0x54, 0x3e,
    0x85, 0xef, 0xcc, 0x3d, 0xe2, 0x4a, 0x42, 0xbe, 0x32, 0xc9, 0xe8, 0x3e,
    0x9a, 0x08, 0x9c, 0x3c, 0x09, 0x77, 0x05, 0x3e, 0xb9, 0xa6, 0x4b, 0x3e,
    0xf5, 0xc0, 0x5d, 0xbe, 0xac, 0x2d, 0x19, 0x3e, 0x70, 0x54, 0xe3, 0xbd,
    0xf4, 0x4a, 0x9e, 0xbe, 0x3c, 0x48, 0xda, 0x3e, 0x6c, 0x2c, 0x81, 0xbe,
    0x70, 0x45, 0x4b, 0xbe, 0xd0, 0x9d, 0x8e, 0xbe, 0x00, 0x6a, 0x31, 0x3b,
    0xd8, 0xcb, 0xaf, 0xbe, 0xee, 0xf8, 0xff, 0xff, 0x04, 0x00, 0x00, 0x00,
    0x00, 0x01, 0x00, 0x00, 0x6f, 0x51, 0x10, 0xbf, 0xb1, 0xd6, 0xde, 0xbd,
    0xc1, 0x29, 0xa0, 0x3d, 0xbd, 0xf6, 0x34, 0xbe, 0x8e, 0xba, 0xf4, 0x3d,
    0x0a, 0xd9, 0x10, 0xbd, 0x18, 0x8b, 0x95, 0x3e, 0xb7, 0x93, 0x13, 0x3f,
    0x8d, 0x3f, 0x8f, 0xbd, 0xe9, 0xcc, 0x3d, 0xbf, 0x21, 0xc6, 0xc1, 0x3e,
    0x90, 0xb5, 0xcd, 0xbe, 0xb5, 0xb4, 0x59, 0x3e, 0x66, 0x9b, 0xc3, 0xbd,
    0xdf, 0x14, 0xcb, 0x3e, 0x1d, 0x04, 0xfd, 0xbe, 0x81, 0x45, 0xf2, 0xbd,
    0x90, 0xe9, 0x34, 0x3d, 0x3a, 0x0a, 0x74, 0xbc, 0x6e, 0x6d, 0x80, 0x3e,
    0x78, 0xb9, 0xfb, 0xbe, 0x9b, 0x03, 0x0c, 0xbf, 0xd0, 0x61, 0x3c, 0x3e,
    0x97, 0x63, 0x8a, 0x3d, 0xf5, 0x2a, 0x0a, 0xbd, 0xee, 0x4c, 0x48, 0xbf,
    0xed, 0x73, 0x9c, 0xbe, 0x5b, 0x44, 0x97, 0xbe, 0x56, 0x99, 0xaf, 0x3e,
    0x77, 0x14, 0xe5, 0x3e, 0x07, 0x02, 0x53, 0x3e, 0x38, 0x90, 0x93, 0x3d,
    0xee, 0x50, 0x5b, 0xbe, 0x5d, 0x02, 0x18, 0xbe, 0x2c, 0x8a, 0xaf, 0x3e,
    0x31, 0xa8, 0x8f, 0x3e, 0x23, 0xcb, 0xa3, 0xbe, 0xe4, 0x97, 0xd1, 0x3e,
    0x39, 0xac, 0x04, 0x3e, 0x27, 0xad, 0xb9, 0xbe, 0x71, 0x21, 0x5d, 0xbe,
    0xc1, 0x34, 0xb4, 0x3e, 0xd7, 0xec, 0x85, 0xbe, 0x70, 0x25, 0x0b, 0xbd,
    0x5a, 0x05, 0x2c, 0x3e, 0x5b, 0xdd, 0xa8, 0x3e, 0x62, 0x6f, 0x1b, 0xbf,
    0x80, 0x4b, 0x53, 0x3c, 0xab, 0x21, 0x91, 0x3d, 0xb1, 0x75, 0xc4, 0x3e,
    0x74, 0x64, 0xa6, 0x3e, 0xa7, 0xd6, 0x15, 0x3e, 0x08, 0xbb, 0x33, 0xbe,
    0x60, 0xa2, 0x00, 0xbf, 0x28, 0x4a, 0x0d, 0xbd, 0x4f, 0x02, 0xd4, 0xbe,
    0x18, 0xf0, 0xa1, 0x3d, 0xf9, 0x59, 0xeb, 0x3e, 0x52, 0xde, 0xc4, 0x3e,
    0x3e, 0x0a, 0xa0, 0xbc, 0x5a, 0x6c, 0x8c, 0xbe, 0xfc, 0xa7, 0x5d, 0xbe,
    0x16, 0xf0, 0x21, 0x3e, 0xb5, 0x9a, 0x87, 0xbe, 0xfa, 0xf9, 0xff, 0xff,
    0x04, 0x00, 0x00, 0x00, 0x80, 0x01, 0x00, 0x00, 0x9f, 0x93, 0x80, 0x3e,
    0xb7, 0x69, 0x79, 0x3c, 0x6c, 0x9e, 0x79, 0x3e, 0xeb, 0x4a, 0xa1, 0x39,
    0x70, 0xe6, 0x5f, 0x3e, 0xe3, 0x75, 0xec, 0xbc, 0x03, 0xe1, 0x7c, 0x3e,
    0x7f, 0x33, 0x1e, 0x3f, 0x60, 0x3c, 0x76, 0x3e, 0xd7, 0xf8, 0xbd, 0x3d,
    0x8c, 0xde, 0x9a, 0xbd, 0xde, 0x10, 0xe1, 0x3e, 0x0e, 0x88, 0x52, 0xbe,
    0x16, 0xf9, 0x93, 0xbd, 0x37, 0x60, 0x6e, 0xbc, 0x01, 0xc1, 0x3c, 0x3e,
    0x51, 0xb4, 0xab, 0x3e, 0xa8, 0xbd, 0xb8, 0xbe, 0xb4, 0xa6, 0xa1, 0xbe,
    0xa7, 0xa1, 0xd4, 0xbd, 0x25, 0x22, 0xa1, 0xbe, 0x5d, 0x42, 0x24, 0xbc,
    0x02, 0x5e, 0x14, 0x3e, 0x28, 0xfe, 0xea, 0x3e, 0xdd, 0x3a, 0xfb, 0x3d,
    0xae, 0x51, 0x13, 0xbf, 0xb9, 0xd2, 0xc0, 0x3e, 0x2e, 0xb0, 0x8e, 0xbd,
    0x70, 0x5b, 0xd9, 0x3e, 0x18, 0xeb, 0xa4, 0xbd, 0x20, 0xb7, 0x05, 0x3d,
    0x9b, 0xd5, 0x35, 0xbd, 0x40, 0x32, 0xed, 0x3d, 0x61, 0xfb, 0x48, 0xbf,
    0x44, 0x4a, 0xd4, 0x3d, 0x7a, 0xe9, 0x5d, 0x3e, 0x6a, 0xe8, 0x11, 0xbf,
    0x72, 0x40, 0x86, 0x3f, 0x08, 0xad, 0xea, 0x3b, 0xa6, 0xc1, 0x63, 0x3f,
    0xc0, 0xf2, 0x2e, 0xbf, 0x41, 0xe1, 0x2e, 0x3f, 0x64, 0x65, 0xcd, 0xbd,
    0x58, 0x9d, 0x27, 0xbb, 0xd4, 0x5e, 0x81, 0xbf, 0x1b, 0xc5, 0x0e, 0x3f,
    0x67, 0x62, 0xdd, 0xbb, 0x96, 0xfd, 0xab, 0xbe, 0x9f, 0xa9, 0x7d, 0xbe,
    0x8a, 0x60, 0x2f, 0x3e, 0xe7, 0x0d, 0xf3, 0x3c, 0x5b, 0x1f, 0x19, 0x3f,
    0x95, 0x29, 0x3a, 0xbf, 0xf3, 0xe0, 0x24, 0x3f, 0x8e, 0x7b, 0x35, 0xbe,
    0x5c, 0x63, 0x2d, 0x3f, 0xfc, 0x07, 0x3c, 0xbf, 0xda, 0x7c, 0x63, 0x3f,
    0xf0, 0x6a, 0x82, 0x3e, 0x4b, 0x72, 0xe7, 0x3c, 0xed, 0xa0, 0x25, 0x3f,
    0xf4, 0x0c, 0x5e, 0xbf, 0xcf, 0x41, 0xf8, 0x3b, 0xa6, 0x98, 0x12, 0x3d,
    0xae, 0x2a, 0xcf, 0x3e, 0x79, 0xee, 0xe4, 0xbe, 0xf6, 0x04, 0xd8, 0xba,
    0x92, 0xf1, 0xa0, 0x3e, 0x87, 0xd7, 0x86, 0x3f, 0x96, 0xea, 0x18, 0xbf,
    0x4e, 0xd8, 0x89, 0xbb, 0xb2, 0x14, 0xb6, 0xbd, 0x3d, 0x7b, 0xd7, 0x3e,
    0x66, 0xf9, 0x78, 0xbe, 0x4a, 0x22, 0x7f, 0xbe, 0x5d, 0x7a, 0xa4, 0xbd,
    0xb4, 0xfb, 0xf9, 0xbd, 0x9c, 0x96, 0x9a, 0xbd, 0x7e, 0xd9, 0x2b, 0x3e,
    0x7f, 0xd8, 0x86, 0xbe, 0x71, 0xba, 0x8a, 0xbd, 0xaf, 0xf3, 0x70, 0xbc,
    0x29, 0x65, 0x2d, 0xbe, 0x0b, 0xa9, 0x4c, 0x3b, 0xf9, 0xa8, 0xe3, 0xbd,
    0x2b, 0xe4, 0x94, 0x3e, 0x1c, 0x87, 0x8f, 0x3e, 0xa3, 0x86, 0x44, 0x3d,
    0x2b, 0x2f, 0x08, 0xbf, 0x63, 0x44, 0x5e, 0x3f, 0x7e, 0x9d, 0x8a, 0xbd,
    0xf0, 0x14, 0x22, 0x3f, 0x02, 0x2b, 0x0b, 0xbe, 0xc8, 0x59, 0x76, 0x3e,
    0x69, 0x30, 0xfc, 0x3d, 0x37, 0x6c, 0x1d, 0x3f, 0x86, 0xfb, 0xff, 0xff,
    0x04, 0x00, 0x00, 0x00, 0x00, 0x03, 0x00, 0x00, 0xdc, 0x4f, 0x1e, 0x3e,
    0x6b, 0x1d, 0x8e, 0xbe, 0x52, 0x00, 0x8b, 0xbd, 0xb0, 0x46, 0xf3, 0x3d,
    0x53, 0xa8, 0xce, 0x3d, 0xa2, 0xb6, 0x3e, 0x3e, 0xb3, 0xdf, 0x5f, 0xbd,
    0xc8, 0xe6, 0x25, 0xbe, 0xd2, 0x01, 0x4a, 0x3e, 0xba, 0x33, 0x94, 0x3e,
    0xee, 0xa0, 0x48, 0x3e, 0x4c, 0x0a, 0xbd, 0xbd, 0x3f, 0x9f, 0xab, 0xbe,
    0xb8, 0x03, 0x5f, 0x3e, 0x29, 0xf0, 0x50, 0x3e, 0x14, 0x3b, 0x04, 0x3e,
    0x86, 0x41, 0x97, 0xbd, 0x42, 0x8d, 0xd6, 0xbe, 0x7d, 0x90, 0x3b, 0xbe,
    0xa8, 0xd4, 0x8a, 0x3e, 0x4b, 0xd6, 0x3a, 0x3e, 0x82, 0x8a, 0x35, 0x3d,
    0xac, 0x99, 0x9c, 0x3e, 0xeb, 0x64, 0x19, 0xbd, 0xd7, 0x4c, 0xdb, 0xbd,
    0x94, 0xdf, 0x36, 0xbd, 0x88, 0x82, 0x50, 0xbe, 0xb3, 0x60, 0x1e, 0xbe,
    0xa2, 0x4e, 0x1b, 0x3e, 0xdc, 0x21, 0x07, 0x3f, 0x60, 0xab, 0xf9, 0xbc,
    0xe7, 0x32, 0x1f, 0x3e, 0x16, 0xe3, 0xa2, 0xbc, 0x0f, 0xf3, 0x97, 0x3e,
    0xae, 0x11, 0xac, 0x3e, 0x10, 0xf2, 0x5e, 0xbe, 0x9a, 0xb3, 0x57, 0x3e,
    0x9a, 0xd3, 0xba, 0x3d, 0x3d, 0x6d, 0x9a, 0xbd, 0x6b, 0xdf, 0x63, 0xbe,
    0x12, 0xeb, 0x8e, 0x3e, 0x57, 0xce, 0xd9, 0xbd, 0x4c, 0xf6, 0xa8, 0x3e,
    0xbb, 0x8d, 0xe6, 0x3d, 0x09, 0x34, 0x3d, 0xbe, 0x63, 0x92, 0x9f, 0x3d,
    0x72, 0x38, 0x89, 0x3e, 0xe1, 0x61, 0x5e, 0xbe, 0x61, 0xfa, 0x8f, 0x3e,
    0x2a, 0xe7, 0x5d, 0x3e, 0x10, 0x86, 0x64, 0x3e, 0x8a, 0x1c, 0x66, 0xbd,
    0x92, 0xf2, 0x1f, 0xbe, 0x25, 0x62, 0x01, 0xbf, 0xb5, 0x27, 0x49, 0xbe,
    0x24, 0xd5, 0xe7, 0x3d, 0xa8, 0x6d, 0x63, 0x3c, 0x07, 0x94, 0x18, 0xbe,
    0xa8, 0x5c, 0x95, 0xbe, 0x0f, 0x32, 0x42, 0x3e, 0x89, 0x59, 0xc3, 0x3e,
    0x9a, 0x42, 0x40, 0x3c, 0xbb, 0xed, 0x51, 0x3e, 0xb3, 0xa0, 0x0a, 0x3e,
    0x44, 0x59, 0xb3, 0xbd, 0xba, 0x75, 0x6c, 0xbe, 0x7d, 0x92, 0x97, 0xbe,
    0xd3, 0x0b, 0x7d, 0x3e, 0x98, 0xb2, 0x7f, 0x3e, 0x4c, 0xc0, 0xbb, 0x3d,
    0x8a, 0x22, 0x66, 0x3d, 0x53, 0x44, 0x8d, 0x3e, 0x84, 0x7d, 0x28, 0xbe,
    0x43, 0x81, 0x5c, 0x3e, 0xf2, 0xf9, 0x9e, 0x3d, 0x44, 0xf6, 0xc9, 0x3e,
    0x44, 0x11, 0xbc, 0x3e, 0xab, 0x23, 0xa6, 0xbe, 0x93, 0xea, 0x45, 0xbe,
    0xb6, 0xe0, 0x12, 0x3c, 0x87, 0x86, 0xd4, 0x3d, 0x1f, 0x9a, 0x50, 0xbe,
    0xf0, 0xeb, 0x02, 0x3e, 0xef, 0xa9, 0xce, 0x3e, 0x85, 0xe9, 0xa4, 0x3e,
    0x05, 0x35, 0x35, 0x3c, 0x6a, 0x4c, 0xcc, 0x3c, 0x2b, 0x34, 0x2d, 0x3e,
    0x5c, 0xb1, 0x1c, 0x3e, 0xfa, 0xff, 0x25, 0xbe, 0xd0, 0xf7, 0x22, 0xbe,
    0x88, 0x79, 0xed, 0x3e, 0x7c, 0x76, 0x79, 0x3d, 0x41, 0x2f, 0x03, 0xbe,
    0x31, 0x4c, 0x38, 0xbe, 0x73, 0x4a, 0x5d, 0x3e, 0x55, 0xbb, 0x37, 0xbc,
    0xa3, 0x21, 0x1f, 0x3e, 0x3f, 0x8a, 0x1d, 0xbe, 0xa9, 0x8f, 0xb9, 0xbe,
    0x38, 0x31, 0x81, 0xbd, 0xea, 0x1e, 0x0b, 0x3e, 0xac, 0xf8, 0xdc, 0x3e,
    0xfa, 0xcf, 0x9a, 0xbe, 0x9e, 0xcd, 0x5b, 0x3e, 0x4d, 0xf4, 0x91, 0x3d,
    0xdf, 0x20, 0x9d, 0xbe, 0x42, 0x5c, 0xb4, 0xbe, 0xde, 0x0d, 0x29, 0xbe,
    0x8f, 0x3b, 0x36, 0x3f, 0x46, 0x52, 0x87, 0xbe, 0x46, 0x1d, 0xd0, 0xbe,
    0x67, 0x86, 0xc5, 0x3d, 0x2b, 0xb3, 0x49, 0xbe, 0x05, 0x59, 0x09, 0x3e,
    0x06, 0x6a, 0x23, 0x3e, 0x89, 0x25, 0x7d, 0xbe, 0xcb, 0xd7, 0xce, 0x3e,
    0x3b, 0x5e, 0x39, 0xbc, 0xae, 0x24, 0xd0, 0x3d, 0x0b, 0x12, 0xbb, 0x3e,
    0x98, 0xb4, 0x40, 0xbe, 0x9f, 0xbc, 0x88, 0x3d, 0x0e, 0xd4, 0xc7, 0x3e,
    0xa8, 0xb5, 0xa8, 0x3e, 0xdb, 0x8f, 0xd1, 0x3c, 0x14, 0x7a, 0xac, 0xbe,
    0x59, 0xcd, 0xd0, 0x3e, 0x61, 0x47, 0xa7, 0xbe, 0x48, 0x37, 0x0c, 0x3e,
    0xf1, 0xab, 0xfc, 0x3d, 0x79, 0xd8, 0x06, 0x3e, 0x1d, 0xee, 0x9b, 0x3e,
    0x29, 0x71, 0x1e, 0xbe, 0x48, 0x9a, 0x90, 0x3e, 0x1c, 0xf0, 0xa4, 0xbe,
    0x8f, 0xd6, 0x37, 0xbc, 0xe5, 0x89, 0x9e, 0x3e, 0xd8, 0xa5, 0xfd, 0xbd,
    0x88, 0xdc, 0xe6, 0x3c, 0xc1, 0x4f, 0x95, 0xbe, 0xbb, 0xe4, 0x97, 0x3d,
    0x7f, 0x51, 0x81, 0xbe, 0xa4, 0xff, 0x96, 0xbe, 0x0d, 0x0e, 0x6e, 0x3e,
    0x01, 0xb5, 0x42, 0xbd, 0x72, 0xf1, 0xc4, 0x3d, 0xbb, 0x33, 0x34, 0xbe,
    0x0b, 0x45, 0xe5, 0xbd, 0x85, 0xd5, 0x02, 0x3e, 0x17, 0x0f, 0xcc, 0xbe,
    0x94, 0xc6, 0xc9, 0xbd, 0x29, 0xd9, 0x41, 0xbe, 0x9e, 0x2f, 0x51, 0xbe,
    0xdf, 0xfa, 0x8e, 0x3e, 0x42, 0xdb, 0x16, 0x3d, 0x8c, 0x86, 0x9c, 0xbe,
    0xc6, 0x2c, 0x52, 0xbe, 0x17, 0x32, 0x77, 0x3e, 0xdd, 0x98, 0x34, 0xbe,
    0xf0, 0xcb, 0x55, 0x3e, 0xf8, 0xd0, 0xad, 0xbe, 0x31, 0xe0, 0x46, 0xbe,
    0x98, 0x16, 0x39, 0x3e, 0x8b, 0x69, 0xb7, 0xbe, 0x08, 0x11, 0x9a, 0xbe,
    0x04, 0x8a, 0xcf, 0xbd, 0x2a, 0x74, 0x11, 0x3e, 0x8e, 0x09, 0x68, 0x3e,
    0xb1, 0xa6, 0x4f, 0xbe, 0x63, 0xeb, 0x23, 0x3d, 0x3e, 0xf5, 0xc8, 0xbe,
    0x33, 0x95, 0x9f, 0x3d, 0x19, 0x27, 0xb9, 0x3e, 0x4b, 0x8f, 0x55, 0xbc,
    0x2a, 0xe5, 0x43, 0xbd, 0x3a, 0x6e, 0x45, 0xbe, 0x74, 0xc0, 0xd7, 0xbe,
    0x1e, 0x8c, 0x76, 0x3e, 0x33, 0x87, 0x04, 0xbd, 0x74, 0x94, 0x18, 0x3e,
    0xc3, 0x57, 0xdf, 0x3e, 0x67, 0xcf, 0xa8, 0x3d, 0x1e, 0x92, 0x7b, 0xbd,
    0x77, 0x66, 0xa6, 0x3c, 0x6f, 0x3a, 0xce, 0x3d, 0xea, 0xf7, 0x39, 0xbe,
    0x16, 0x23, 0x58, 0xbe, 0x8a, 0x6b, 0xaa, 0xbd, 0x9d, 0x25, 0xe0, 0x3e,
    0x43, 0x78, 0x5c, 0xbe, 0xf9, 0xfb, 0x57, 0x3e, 0x92, 0xfe, 0xff, 0xff,
    0x04, 0x00, 0x00, 0x00, 0x0c, 0x00, 0x00, 0x00, 0x01, 0x00, 0x00, 0x00,
    0x06, 0x00, 0x00, 0x00, 0x08, 0x00, 0x00, 0x00, 0xaa, 0xfe, 0xff, 0xff,
    0x04, 0x00, 0x00, 0x00, 0x10, 0x00, 0x00, 0x00, 0x31, 0x11, 0xe5, 0x3d,
    0xe4, 0xfb, 0x19, 0x3e, 0x3d, 0xa1, 0x06, 0xbe, 0x88, 0x08, 0x7b, 0xbe,
    0xc6, 0xfe, 0xff, 0xff, 0x04, 0x00, 0x00, 0x00, 0x20, 0x00, 0x00, 0x00,
    0x68, 0x42, 0x7c, 0x3c, 0x13, 0xb9, 0xb0, 0xbd, 0x66, 0x79, 0x19, 0x3c,
    0xa5, 0x9b, 0xc7, 0x3e, 0x9f, 0x3f, 0x09, 0x3f, 0xbd, 0x32, 0x06, 0xbd,
    0x4c, 0x19, 0x81, 0xbe, 0x4b, 0x35, 0xcf, 0x3e, 0xf2, 0xfe, 0xff, 0xff,
    0x04, 0x00, 0x00, 0x00, 0x20, 0x00, 0x00, 0x00, 0x26, 0x13, 0x7a, 0x3c,
    0x0e, 0xeb, 0xcb, 0x3b, 0x74, 0xeb, 0xb0, 0x3e, 0xfb, 0xd1, 0x9f, 0x3e,
    0x6e, 0x12, 0x44, 0xbc, 0x51, 0x7c, 0x16, 0x3e, 0x59, 0x48, 0x4e, 0xbd,
    0x9b, 0x77, 0xaf, 0xbd, 0x1e, 0xff, 0xff, 0xff, 0x04, 0x00, 0x00, 0x00,
    0x40, 0x00, 0x00, 0x00, 0x26, 0x61, 0x8a, 0x3d, 0x9a, 0x2c, 0xa9, 0xbe,
    0xa4, 0xa0, 0x00, 0xbe, 0x21, 0x6f, 0x15, 0x3e, 0x30, 0x12, 0x26, 0xbd,
    0x70, 0xdd, 0xb9, 0x3c, 0xaf, 0x9e, 0x40, 0x3e, 0x9c, 0x90, 0x47, 0x3e,
    0x3b, 0x8f, 0x21, 0xbe, 0xf1, 0x78, 0x7f, 0x3c, 0xc4, 0xb7, 0x87, 0xbd,
    0x03, 0x14, 0x4f, 0x3d, 0x29, 0x6e, 0xd5, 0xbd, 0x2c, 0x4d, 0xe8, 0x3b,
    0xb8, 0xae, 0x7d, 0x3d, 0x00, 0x00, 0x00, 0x00, 0xb0, 0xf5, 0xff, 0xff,
    0xb4, 0xf5, 0xff, 0xff, 0x0f, 0x00, 0x00, 0x00, 0x4d, 0x4c, 0x49, 0x52,
    0x20, 0x43, 0x6f, 0x6e, 0x76, 0x65, 0x72, 0x74, 0x65, 0x64, 0x2e, 0x00,
    0x01, 0x00, 0x00, 0x00, 0x14, 0x00, 0x00, 0x00, 0x00, 0x00, 0x0e, 0x00,
    0x18, 0x00, 0x14, 0x00, 0x10, 0x00, 0x0c, 0x00, 0x08, 0x00, 0x04, 0x00,
    0x0e, 0x00, 0x00, 0x00, 0x14, 0x00, 0x00, 0x00, 0x1c, 0x00, 0x00, 0x00,
    0x18, 0x02, 0x00, 0x00, 0x1c, 0x02, 0x00, 0x00, 0x20, 0x02, 0x00, 0x00,
    0x04, 0x00, 0x00, 0x00, 0x6d, 0x61, 0x69, 0x6e, 0x00, 0x00, 0x00, 0x00,
    0x08, 0x00, 0x00, 0x00, 0xdc, 0x01, 0x00, 0x00, 0x7c, 0x01, 0x00, 0x00,
    0x24, 0x01, 0x00, 0x00, 0x00, 0x01, 0x00, 0x00, 0xcc, 0x00, 0x00, 0x00,
    0x88, 0x00, 0x00, 0x00, 0x40, 0x00, 0x00, 0x00, 0x04, 0x00, 0x00, 0x00,
    0x92, 0xff, 0xff, 0xff, 0x1c, 0x00, 0x00, 0x00, 0x00, 0x00, 0x00, 0x09,
    0x1c, 0x00, 0x00, 0x00, 0x20, 0x00, 0x00, 0x00, 0x04, 0x00, 0x00, 0x00,
    0x00, 0x00, 0x06, 0x00, 0x08, 0x00, 0x04, 0x00, 0x06, 0x00, 0x00, 0x00,
    0x00, 0x00, 0x80, 0x3f, 0x01, 0x00, 0x00, 0x00, 0x13, 0x00, 0x00, 0x00,
    0x01, 0x00, 0x00, 0x00, 0x12, 0x00, 0x00, 0x00, 0xe6, 0xfe, 0xff, 0xff,
    0x14, 0x00, 0x00, 0x00, 0x00, 0x00, 0x00, 0x08, 0x10, 0x00, 0x00, 0x00,
    0x14, 0x00, 0x00, 0x00, 0x03, 0x00, 0x00, 0x00, 0x7c, 0xf6, 0xff, 0xff,
    0x01, 0x00, 0x00, 0x00, 0x12, 0x00, 0x00, 0x00, 0x03, 0x00, 0x00, 0x00,
    0x11, 0x00, 0x00, 0x00, 0x08, 0x00, 0x00, 0x00, 0x04, 0x00, 0x00, 0x00,
    0x00, 0x00, 0x0e, 0x00, 0x1a, 0x00, 0x14, 0x00, 0x10, 0x00, 0x0c, 0x00,
    0x0b, 0x00, 0x04, 0x00, 0x0e, 0x00, 0x00, 0x00, 0x1c, 0x00, 0x00, 0x00,
    0x00, 0x00, 0x00, 0x08, 0x1c, 0x00, 0x00, 0x00, 0x20, 0x00, 0x00, 0x00,
    0x03, 0x00, 0x00, 0x00, 0x00, 0x00, 0x06, 0x00, 0x08, 0x00, 0x07, 0x00,
    0x06, 0x00, 0x00, 0x00, 0x00, 0x00, 0x00, 0x01, 0x01, 0x00, 0x00, 0x00,
    0x11, 0x00, 0x00, 0x00, 0x03, 0x00, 0x00, 0x00, 0x10, 0x00, 0x00, 0x00,
    0x09, 0x00, 0x00, 0x00, 0x01, 0x00, 0x00, 0x00, 0x6a, 0xff, 0xff, 0xff,
    0x14, 0x00, 0x00, 0x00, 0x00, 0x00, 0x00, 0x1b, 0x10, 0x00, 0x00, 0x00,
    0x14, 0x00, 0x00, 0x00, 0x02, 0x00, 0x00, 0x00, 0x00, 0xf7, 0xff, 0xff,
    0x01, 0x00, 0x00, 0x00, 0x10, 0x00, 0x00, 0x00, 0x02, 0x00, 0x00, 0x00,
    0x0f, 0x00, 0x00, 0x00, 0x0a, 0x00, 0x00, 0x00, 0x3a, 0xff, 0xff, 0xff,
    0x08, 0x00, 0x00, 0x00, 0x0c, 0x00, 0x00, 0x00, 0x01, 0x00, 0x00, 0x00,
    0x0f, 0x00, 0x00, 0x00, 0x02, 0x00, 0x00, 0x00, 0x0e, 0x00, 0x00, 0x00,
    0x05, 0x00, 0x00, 0x00, 0xba, 0xff, 0xff, 0xff, 0x14, 0x00, 0x00, 0x00,
    0x00, 0x00, 0x00, 0x01, 0x20, 0x00, 0x00, 0x00, 0x24, 0x00, 0x00, 0x00,
    0x01, 0x00, 0x00, 0x00, 0xac, 0xff, 0xff, 0xff, 0x00, 0x00, 0x00, 0x01,
    0x01, 0x00, 0x00, 0x00, 0x01, 0x00, 0x00, 0x00, 0x00, 0x00, 0x00, 0x01,
    0x01, 0x00, 0x00, 0x00, 0x0e, 0x00, 0x00, 0x00, 0x03, 0x00, 0x00, 0x00,
    0x0d, 0x00, 0x00, 0x00, 0x06, 0x00, 0x00, 0x00, 0x02, 0x00, 0x00, 0x00,
    0x00, 0x00, 0x0e, 0x00, 0x18, 0x00, 0x14, 0x00, 0x10, 0x00, 0x0c, 0x00,
    0x0b, 0x00, 0x04, 0x00, 0x0e, 0x00, 0x00, 0x00, 0x20, 0x00, 0x00, 0x00,
    0x00, 0x00, 0x00, 0x01, 0x2c, 0x00, 0x00, 0x00, 0x30, 0x00, 0x00, 0x00,
    0x01, 0x00, 0x00, 0x00, 0x0c, 0x00, 0x14, 0x00, 0x13, 0x00, 0x0c, 0x00,
    0x08, 0x00, 0x07, 0x00, 0x0c, 0x00, 0x00, 0x00, 0x00, 0x00, 0x00, 0x01,
    0x01, 0x00, 0x00, 0x00, 0x01, 0x00, 0x00, 0x00, 0x00, 0x00, 0x00, 0x01,
    0x01, 0x00, 0x00, 0x00, 0x0d, 0x00, 0x00, 0x00, 0x03, 0x00, 0x00, 0x00,
    0x0c, 0x00, 0x00, 0x00, 0x07, 0x00, 0x00, 0x00, 0x03, 0x00, 0x00, 0x00,
    0x00, 0x00, 0x0a, 0x00, 0x0c, 0x00, 0x00, 0x00, 0x08, 0x00, 0x04, 0x00,
    0x0a, 0x00, 0x00, 0x00, 0x08, 0x00, 0x00, 0x00, 0x0c, 0x00, 0x00, 0x00,
    0x01, 0x00, 0x00, 0x00, 0x0c, 0x00, 0x00, 0x00, 0x02, 0x00, 0x00, 0x00,
    0x00, 0x00, 0x00, 0x00, 0x0b, 0x00, 0x00, 0x00, 0x01, 0x00, 0x00, 0x00,
    0x13, 0x00, 0x00, 0x00, 0x01, 0x00, 0x00, 0x00, 0x00, 0x00, 0x00, 0x00,
    0x14, 0x00, 0x00, 0x00, 0xcc, 0x07, 0x00, 0x00, 0x78, 0x07, 0x00, 0x00,
    0x3c, 0x07, 0x00, 0x00, 0x00, 0x07, 0x00, 0x00, 0xc4, 0x06, 0x00, 0x00,
    0x84, 0x06, 0x00, 0x00, 0x24, 0x06, 0x00, 0x00, 0xdc, 0x05, 0x00, 0x00,
    0x9c, 0x05, 0x00, 0x00, 0x5c, 0x05, 0x00, 0x00, 0x20, 0x05, 0x00, 0x00,
    0xbc, 0x04, 0x00, 0x00, 0x50, 0x04, 0x00, 0x00, 0x60, 0x03, 0x00, 0x00,
    0x70, 0x02, 0x00, 0x00, 0xa8, 0x01, 0x00, 0x00, 0x44, 0x01, 0x00, 0x00,
    0xb4, 0x00, 0x00, 0x00, 0x40, 0x00, 0x00, 0x00, 0x04, 0x00, 0x00, 0x00,
    0x9a, 0xf8, 0xff, 0xff, 0x00, 0x00, 0x00, 0x01, 0x10, 0x00, 0x00, 0x00,
    0x10, 0x00, 0x00, 0x00, 0x14, 0x00, 0x00, 0x00, 0x18, 0x00, 0x00, 0x00,
    0x84, 0xf8, 0xff, 0xff, 0x08, 0x00, 0x00, 0x00, 0x49, 0x64, 0x65, 0x6e,
    0x74, 0x69, 0x74, 0x79, 0x00, 0x00, 0x00, 0x00, 0x02, 0x00, 0x00, 0x00,
    0x01, 0x00, 0x00, 0x00, 0x04, 0x00, 0x00, 0x00, 0xd2, 0xf8, 0xff, 0xff,
    0x00, 0x00, 0x00, 0x01, 0x10, 0x00, 0x00, 0x00, 0x10, 0x00, 0x00, 0x00,
    0x13, 0x00, 0x00, 0x00, 0x50, 0x00, 0x00, 0x00, 0xbc, 0xf8, 0xff, 0xff,
    0x40, 0x00, 0x00, 0x00, 0x73, 0x65, 0x71, 0x75, 0x65, 0x6e, 0x74, 0x69,
    0x61, 0x6c, 0x5f, 0x31, 0x5f, 0x31, 0x2f, 0x64, 0x65, 0x6e, 0x73, 0x65,
    0x5f, 0x33, 0x5f, 0x31, 0x2f, 0x4d, 0x61, 0x74, 0x4d, 0x75, 0x6c, 0x3b,
    0x73, 0x65, 0x71, 0x75, 0x65, 0x6e, 0x74, 0x69, 0x61, 0x6c, 0x5f, 0x31,
    0x5f, 0x31, 0x2f, 0x64, 0x65, 0x6e, 0x73, 0x65, 0x5f, 0x33, 0x5f, 0x31,
    0x2f, 0x42, 0x69, 0x61, 0x73, 0x41, 0x64, 0x64, 0x00, 0x00, 0x00, 0x00,
    0x02, 0x00, 0x00, 0x00, 0x01, 0x00, 0x00, 0x00, 0x04, 0x00, 0x00, 0x00,
    0x42, 0xf9, 0xff, 0xff, 0x00, 0x00, 0x00, 0x01, 0x10, 0x00, 0x00, 0x00,
    0x10, 0x00, 0x00, 0x00, 0x12, 0x00, 0x00, 0x00, 0x6c, 0x00, 0x00, 0x00,
    0x2c, 0xf9, 0xff, 0xff, 0x5e, 0x00, 0x00, 0x00, 0x73, 0x65, 0x71, 0x75,
    0x65, 0x6e, 0x74, 0x69, 0x61, 0x6c, 0x5f, 0x31, 0x5f, 0x31, 0x2f, 0x64,
    0x65, 0x6e, 0x73, 0x65, 0x5f, 0x32, 0x5f, 0x31, 0x2f, 0x4d, 0x61, 0x74,
    0x4d, 0x75, 0x6c, 0x3b, 0x73, 0x65, 0x71, 0x75, 0x65, 0x6e, 0x74, 0x69,
    0x61, 0x6c, 0x5f, 0x31, 0x5f, 0x31, 0x2f, 0x64, 0x65, 0x6e, 0x73, 0x65,
    0x5f, 0x32, 0x5f, 0x31, 0x2f, 0x52, 0x65, 0x6c, 0x75, 0x3b, 0x73, 0x65,
    0x71, 0x75, 0x65, 0x6e, 0x74, 0x69, 0x61, 0x6c, 0x5f, 0x31, 0x5f, 0x31,
    0x2f, 0x64, 0x65, 0x6e, 0x73, 0x65, 0x5f, 0x32, 0x5f, 0x31, 0x2f, 0x42,
    0x69, 0x61, 0x73, 0x41, 0x64, 0x64, 0x00, 0x00, 0x02, 0x00, 0x00, 0x00,
    0x01, 0x00, 0x00, 0x00, 0x10, 0x00, 0x00, 0x00, 0xce, 0xf9, 0xff, 0xff,
    0x00, 0x00, 0x00, 0x01, 0x10, 0x00, 0x00, 0x00, 0x10, 0x00, 0x00, 0x00,
    0x11, 0x00, 0x00, 0x00, 0x40, 0x00, 0x00, 0x00, 0xb8, 0xf9, 0xff, 0xff,
    0x30, 0x00, 0x00, 0x00, 0x73, 0x65, 0x71, 0x75, 0x65, 0x6e, 0x74, 0x69,
    0x61, 0x6c, 0x5f, 0x31, 0x5f, 0x31, 0x2f, 0x67, 0x6c, 0x6f, 0x62, 0x61,
    0x6c, 0x5f, 0x61, 0x76, 0x65, 0x72, 0x61, 0x67, 0x65, 0x5f, 0x70, 0x6f,
    0x6f, 0x6c, 0x69, 0x6e, 0x67, 0x31, 0x64, 0x5f, 0x31, 0x5f, 0x31, 0x2f,
    0x4d, 0x65, 0x61, 0x6e, 0x00, 0x00, 0x00, 0x00, 0x02, 0x00, 0x00, 0x00,
    0x01, 0x00, 0x00, 0x00, 0x08, 0x00, 0x00, 0x00, 0x2e, 0xfa, 0xff, 0xff,
    0x00, 0x00, 0x00, 0x01, 0x10, 0x00, 0x00, 0x00, 0x10, 0x00, 0x00, 0x00,
    0x10, 0x00, 0x00, 0x00, 0xa0, 0x00, 0x00, 0x00, 0x18, 0xfa, 0xff, 0xff,
    0x90, 0x00, 0x00, 0x00, 0x73, 0x65, 0x71, 0x75, 0x65, 0x6e, 0x74, 0x69,
    0x61, 0x6c, 0x5f, 0x31, 0x5f, 0x31, 0x2f, 0x63, 0x6f, 0x6e, 0x76, 0x31,
    0x64, 0x5f, 0x33, 0x5f, 0x31, 0x2f, 0x52, 0x65, 0x6c, 0x75, 0x3b, 0x73,
    0x65, 0x71, 0x75, 0x65, 0x6e, 0x74, 0x69, 0x61, 0x6c, 0x5f, 0x31, 0x5f,
    0x31, 0x2f, 0x63, 0x6f, 0x6e, 0x76, 0x31, 0x64, 0x5f, 0x33, 0x5f, 0x31,
    0x2f, 0x42, 0x69, 0x61, 0x73, 0x41, 0x64, 0x64, 0x3b, 0x73, 0x65, 0x71,
    0x75, 0x65, 0x6e, 0x74, 0x69, 0x61, 0x6c, 0x5f, 0x31, 0x5f, 0x31, 0x2f,
    0x63, 0x6f, 0x6e, 0x76, 0x31, 0x64, 0x5f, 0x33, 0x5f, 0x31, 0x2f, 0x63,
    0x6f, 0x6e, 0x76, 0x6f, 0x6c, 0x75, 0x74, 0x69, 0x6f, 0x6e, 0x2f, 0x53,
    0x71, 0x75, 0x65, 0x65, 0x7a, 0x65, 0x3b, 0x73, 0x65, 0x71, 0x75, 0x65,
    0x6e, 0x74, 0x69, 0x61, 0x6c, 0x5f, 0x31, 0x5f, 0x31, 0x2f, 0x63, 0x6f,
    0x6e, 0x76, 0x31, 0x64, 0x5f, 0x33, 0x5f, 0x31, 0x2f, 0x53, 0x71, 0x75,
    0x65, 0x65, 0x7a, 0x65, 0x00, 0x00, 0x00, 0x00, 0x03, 0x00, 0x00, 0x00,
    0x01, 0x00, 0x00, 0x00, 0x06, 0x00, 0x00, 0x00, 0x08, 0x00, 0x00, 0x00,
    0xf2, 0xfa, 0xff, 0xff, 0x00, 0x00, 0x00, 0x01, 0x10, 0x00, 0x00, 0x00,
    0x10, 0x00, 0x00, 0x00, 0x0f, 0x00, 0x00, 0x00, 0xc4, 0x00, 0x00, 0x00,
    0xdc, 0xfa, 0xff, 0xff, 0xb6, 0x00, 0x00, 0x00, 0x73, 0x65, 0x71, 0x75,
    0x65, 0x6e, 0x74, 0x69, 0x61, 0x6c, 0x5f, 0x31, 0x5f, 0x31, 0x2f, 0x63,
    0x6f, 0x6e, 0x76, 0x31, 0x64, 0x5f, 0x33, 0x5f, 0x31, 0x2f, 0x52, 0x65,
    0x6c, 0x75, 0x3b, 0x73, 0x65, 0x71, 0x75, 0x65, 0x6e, 0x74, 0x69, 0x61,
    0x6c, 0x5f, 0x31, 0x5f, 0x31, 0x2f, 0x63, 0x6f, 0x6e, 0x76, 0x31, 0x64,
    0x5f, 0x33, 0x5f, 0x31, 0x2f, 0x42, 0x69, 0x61, 0x73, 0x41, 0x64, 0x64,
    0x3b, 0x73, 0x65, 0x71, 0x75, 0x65, 0x6e, 0x74, 0x69, 0x61, 0x6c, 0x5f,
    0x31, 0x5f, 0x31, 0x2f, 0x63, 0x6f, 0x6e, 0x76, 0x31, 0x64, 0x5f, 0x33,
    0x5f, 0x31, 0x2f, 0x63, 0x6f, 0x6e, 0x76, 0x6f, 0x6c, 0x75, 0x74, 0x69,
    0x6f, 0x6e, 0x2f, 0x53, 0x71, 0x75, 0x65, 0x65, 0x7a, 0x65, 0x3b, 0x73,
    0x65, 0x71, 0x75, 0x65, 0x6e, 0x74, 0x69, 0x61, 0x6c, 0x5f, 0x31, 0x5f,
    0x31, 0x2f, 0x63, 0x6f, 0x6e, 0x76, 0x31, 0x64, 0x5f, 0x33, 0x5f, 0x31,
    0x2f, 0x53, 0x71, 0x75, 0x65, 0x65, 0x7a, 0x65, 0x3b, 0x73, 0x65, 0x71,
    0x75, 0x65, 0x6e, 0x74, 0x69, 0x61, 0x6c, 0x5f, 0x31, 0x5f, 0x31, 0x2f,
    0x63, 0x6f, 0x6e, 0x76, 0x31, 0x64, 0x5f, 0x33, 0x5f, 0x31, 0x2f, 0x63,
    0x6f, 0x6e, 0x76, 0x6f, 0x6c, 0x75, 0x74, 0x69, 0x6f, 0x6e, 0x00, 0x00,
    0x04, 0x00, 0x00, 0x00, 0x01, 0x00, 0x00, 0x00, 0x01, 0x00, 0x00, 0x00,
    0x06, 0x00, 0x00, 0x00, 0x08, 0x00, 0x00, 0x00, 0xde, 0xfb, 0xff, 0xff,
    0x00, 0x00, 0x00, 0x01, 0x10, 0x00, 0x00, 0x00, 0x10, 0x00, 0x00, 0x00,
    0x0e, 0x00, 0x00, 0x00, 0xc4, 0x00, 0x00, 0x00, 0xc8, 0xfb, 0xff, 0xff,
    0xb6, 0x00, 0x00, 0x00, 0x73, 0x65, 0x71, 0x75, 0x65, 0x6e, 0x74, 0x69,
    0x61, 0x6c, 0x5f, 0x31, 0x5f, 0x31, 0x2f, 0x63, 0x6f, 0x6e, 0x76, 0x31,
    0x64, 0x5f, 0x32, 0x5f, 0x31, 0x2f, 0x52, 0x65, 0x6c, 0x75, 0x3b, 0x73,
    0x65, 0x71, 0x75, 0x65, 0x6e, 0x74, 0x69, 0x61, 0x6c, 0x5f, 0x31, 0x5f,
    0x31, 0x2f, 0x63, 0x6f, 0x6e, 0x76, 0x31, 0x64, 0x5f, 0x32, 0x5f, 0x31,
    0x2f, 0x42, 0x69, 0x61, 0x73, 0x41, 0x64, 0x64, 0x3b, 0x73, 0x65, 0x71,
    0x75, 0x65, 0x6e, 0x74, 0x69, 0x61, 0x6c, 0x5f, 0x31, 0x5f, 0x31, 0x2f,
    0x63, 0x6f, 0x6e, 0x76, 0x31, 0x64, 0x5f, 0x32, 0x5f, 0x31, 0x2f, 0x63,
    0x6f, 0x6e, 0x76, 0x6f, 0x6c, 0x75, 0x74, 0x69, 0x6f, 0x6e, 0x2f, 0x53,
    0x71, 0x75, 0x65, 0x65, 0x7a, 0x65, 0x3b, 0x73, 0x65, 0x71, 0x75, 0x65,
    0x6e, 0x74, 0x69, 0x61, 0x6c, 0x5f, 0x31, 0x5f, 0x31, 0x2f, 0x63, 0x6f,
    0x6e, 0x76, 0x31, 0x64, 0x5f, 0x32, 0x5f, 0x31, 0x2f, 0x53, 0x71, 0x75,
    0x65, 0x65, 0x7a, 0x65, 0x3b, 0x73, 0x65, 0x71, 0x75, 0x65, 0x6e, 0x74,
    0x69, 0x61, 0x6c, 0x5f, 0x31, 0x5f, 0x31, 0x2f, 0x63, 0x6f, 0x6e, 0x76,
    0x31, 0x64, 0x5f, 0x32, 0x5f, 0x31, 0x2f, 0x63, 0x6f, 0x6e, 0x76, 0x6f,
    0x6c, 0x75, 0x74, 0x69, 0x6f, 0x6e, 0x00, 0x00, 0x04, 0x00, 0x00, 0x00,
    0x01, 0x00, 0x00, 0x00, 0x01, 0x00, 0x00, 0x00, 0x08, 0x00, 0x00, 0x00,
    0x08, 0x00, 0x00, 0x00, 0xca, 0xfc, 0xff, 0xff, 0x00, 0x00, 0x00, 0x01,
    0x10, 0x00, 0x00, 0x00, 0x10, 0x00, 0x00, 0x00, 0x0d, 0x00, 0x00, 0x00,
    0x40, 0x00, 0x00, 0x00, 0xb4, 0xfc, 0xff, 0xff, 0x31, 0x00, 0x00, 0x00,
    0x73, 0x65, 0x71, 0x75, 0x65, 0x6e, 0x74, 0x69, 0x61, 0x6c, 0x5f, 0x31,
    0x5f, 0x31, 0x2f, 0x63, 0x6f, 0x6e, 0x76, 0x31, 0x64, 0x5f, 0x32, 0x5f,
    0x31, 0x2f, 0x63, 0x6f, 0x6e, 0x76, 0x6f, 0x6c, 0x75, 0x74, 0x69, 0x6f,
    0x6e, 0x2f, 0x45, 0x78, 0x70, 0x61, 0x6e, 0x64, 0x44, 0x69, 0x6d, 0x73,
    0x31, 0x00, 0x00, 0x00, 0x04, 0x00, 0x00, 0x00, 0x01, 0x00, 0x00, 0x00,
    0x01, 0x00, 0x00, 0x00, 0x0a, 0x00, 0x00, 0x00, 0x04, 0x00, 0x00, 0x00,
    0x66, 0xfe, 0xff, 0xff, 0x00, 0x00, 0x00, 0x01, 0x14, 0x00, 0x00, 0x00,
    0x14, 0x00, 0x00, 0x00, 0x0c, 0x00, 0x00, 0x00, 0x00, 0x00, 0x00, 0x02,
    0x40, 0x00, 0x00, 0x00, 0x20, 0xfd, 0xff, 0xff, 0x30, 0x00, 0x00, 0x00,
    0x73, 0x65, 0x71, 0x75, 0x65, 0x6e, 0x74, 0x69, 0x61, 0x6c, 0x5f, 0x31,
    0x5f, 0x31, 0x2f, 0x63, 0x6f, 0x6e, 0x76, 0x31, 0x64, 0x5f, 0x32, 0x5f,
    0x31, 0x2f, 0x63, 0x6f, 0x6e, 0x76, 0x6f, 0x6c, 0x75, 0x74, 0x69, 0x6f,
    0x6e, 0x2f, 0x45, 0x78, 0x70, 0x61, 0x6e, 0x64, 0x44, 0x69, 0x6d, 0x73,
    0x00, 0x00, 0x00, 0x00, 0x01, 0x00, 0x00, 0x00, 0x04, 0x00, 0x00, 0x00,
    0xc6, 0xfe, 0xff, 0xff, 0x00, 0x00, 0x00, 0x01, 0x14, 0x00, 0x00, 0x00,
    0x14, 0x00, 0x00, 0x00, 0x0b, 0x00, 0x00, 0x00, 0x00, 0x00, 0x00, 0x02,
    0x1c, 0x00, 0x00, 0x00, 0x80, 0xfd, 0xff, 0xff, 0x0f, 0x00, 0x00, 0x00,
    0x61, 0x72, 0x69, 0x74, 0x68, 0x2e, 0x63, 0x6f, 0x6e, 0x73, 0x74, 0x61,
    0x6e, 0x74, 0x39, 0x00, 0x00, 0x00, 0x00, 0x00, 0xca, 0xfd, 0xff, 0xff,
    0x00, 0x00, 0x00, 0x01, 0x10, 0x00, 0x00, 0x00, 0x10, 0x00, 0x00, 0x00,
    0x0a, 0x00, 0x00, 0x00, 0x1c, 0x00, 0x00, 0x00, 0xb4, 0xfd, 0xff, 0xff,
    0x0f, 0x00, 0x00, 0x00, 0x61, 0x72, 0x69, 0x74, 0x68, 0x2e, 0x63, 0x6f,
    0x6e, 0x73, 0x74, 0x61, 0x6e, 0x74, 0x38, 0x00, 0x02, 0x00, 0x00, 0x00,
    0x10, 0x00, 0x00, 0x00, 0x08, 0x00, 0x00, 0x00, 0x06, 0xfe, 0xff, 0xff,
    0x00, 0x00, 0x00, 0x01, 0x10, 0x00, 0x00, 0x00, 0x10, 0x00, 0x00, 0x00,
    0x09, 0x00, 0x00, 0x00, 0x1c, 0x00, 0x00, 0x00, 0xf0, 0xfd, 0xff, 0xff,
    0x0f, 0x00, 0x00, 0x00, 0x61, 0x72, 0x69, 0x74, 0x68, 0x2e, 0x63, 0x6f,
    0x6e, 0x73, 0x74, 0x61, 0x6e, 0x74, 0x37, 0x00, 0x02, 0x00, 0x00, 0x00,
    0x04, 0x00, 0x00, 0x00, 0x10, 0x00, 0x00, 0x00, 0x42, 0xfe, 0xff, 0xff,
    0x00, 0x00, 0x00, 0x01, 0x10, 0x00, 0x00, 0x00, 0x10, 0x00, 0x00, 0x00,
    0x08, 0x00, 0x00, 0x00, 0x1c, 0x00, 0x00, 0x00, 0x2c, 0xfe, 0xff, 0xff,
    0x0f, 0x00, 0x00, 0x00, 0x61, 0x72, 0x69, 0x74, 0x68, 0x2e, 0x63, 0x6f,
    0x6e, 0x73, 0x74, 0x61, 0x6e, 0x74, 0x36, 0x00, 0x04, 0x00, 0x00, 0x00,
    0x08, 0x00, 0x00, 0x00, 0x01, 0x00, 0x00, 0x00, 0x03, 0x00, 0x00, 0x00,
    0x04, 0x00, 0x00, 0x00, 0x86, 0xfe, 0xff, 0xff, 0x00, 0x00, 0x00, 0x01,
    0x10, 0x00, 0x00, 0x00, 0x10, 0x00, 0x00, 0x00, 0x07, 0x00, 0x00, 0x00,
    0x1c, 0x00, 0x00, 0x00, 0x70, 0xfe, 0xff, 0xff, 0x0f, 0x00, 0x00, 0x00,
    0x61, 0x72, 0x69, 0x74, 0x68, 0x2e, 0x63, 0x6f, 0x6e, 0x73, 0x74, 0x61,
    0x6e, 0x74, 0x35, 0x00, 0x04, 0x00, 0x00, 0x00, 0x08, 0x00, 0x00, 0x00,
    0x01, 0x00, 0x00, 0x00, 0x03, 0x00, 0x00, 0x00, 0x08, 0x00, 0x00, 0x00,
    0x00, 0x00, 0x16, 0x00, 0x1c, 0x00, 0x18, 0x00, 0x17, 0x00, 0x10, 0x00,
    0x0c, 0x00, 0x08, 0x00, 0x00, 0x00, 0x00, 0x00, 0x00, 0x00, 0x07, 0x00,
    0x16, 0x00, 0x00, 0x00, 0x00, 0x00, 0x00, 0x01, 0x14, 0x00, 0x00, 0x00,
    0x14, 0x00, 0x00, 0x00, 0x06, 0x00, 0x00, 0x00, 0x00, 0x00, 0x00, 0x02,
    0x1c, 0x00, 0x00, 0x00, 0xd0, 0xfe, 0xff, 0xff, 0x0f, 0x00, 0x00, 0x00,
    0x61, 0x72, 0x69, 0x74, 0x68, 0x2e, 0x63, 0x6f, 0x6e, 0x73, 0x74, 0x61,
    0x6e, 0x74, 0x34, 0x00, 0x01, 0x00, 0x00, 0x00, 0x03, 0x00, 0x00, 0x00,
    0x1e, 0xff, 0xff, 0xff, 0x00, 0x00, 0x00, 0x01, 0x10, 0x00, 0x00, 0x00,
    0x10, 0x00, 0x00, 0x00, 0x05, 0x00, 0x00, 0x00, 0x1c, 0x00, 0x00, 0x00,
    0x08, 0xff, 0xff, 0xff, 0x0f, 0x00, 0x00, 0x00, 0x61, 0x72, 0x69, 0x74,
    0x68, 0x2e, 0x63, 0x6f, 0x6e, 0x73, 0x74, 0x61, 0x6e, 0x74, 0x33, 0x00,
    0x01, 0x00, 0x00, 0x00, 0x04, 0x00, 0x00, 0x00, 0x56, 0xff, 0xff, 0xff,
    0x00, 0x00, 0x00, 0x01, 0x10, 0x00, 0x00, 0x00, 0x10, 0x00, 0x00, 0x00,
    0x04, 0x00, 0x00, 0x00, 0x1c, 0x00, 0x00, 0x00, 0x40, 0xff, 0xff, 0xff,
    0x0f, 0x00, 0x00, 0x00, 0x61, 0x72, 0x69, 0x74, 0x68, 0x2e, 0x63, 0x6f,
    0x6e, 0x73, 0x74, 0x61, 0x6e, 0x74, 0x32, 0x00, 0x01, 0x00, 0x00, 0x00,
    0x08, 0x00, 0x00, 0x00, 0x8e, 0xff, 0xff, 0xff, 0x00, 0x00, 0x00, 0x01,
    0x10, 0x00, 0x00, 0x00, 0x10, 0x00, 0x00, 0x00, 0x03, 0x00, 0x00, 0x00,
    0x1c, 0x00, 0x00, 0x00, 0x78, 0xff, 0xff, 0xff, 0x0f, 0x00, 0x00, 0x00,
    0x61, 0x72, 0x69, 0x74, 0x68, 0x2e, 0x63, 0x6f, 0x6e, 0x73, 0x74, 0x61,
    0x6e, 0x74, 0x31, 0x00, 0x01, 0x00, 0x00, 0x00, 0x08, 0x00, 0x00, 0x00,
    0xc6, 0xff, 0xff, 0xff, 0x00, 0x00, 0x00, 0x01, 0x10, 0x00, 0x00, 0x00,
    0x10, 0x00, 0x00, 0x00, 0x02, 0x00, 0x00, 0x00, 0x1c, 0x00, 0x00, 0x00,
    0xb0, 0xff, 0xff, 0xff, 0x0e, 0x00, 0x00, 0x00, 0x61, 0x72, 0x69, 0x74,
    0x68, 0x2e, 0x63, 0x6f, 0x6e, 0x73, 0x74, 0x61, 0x6e, 0x74, 0x00, 0x00,
    0x01, 0x00, 0x00, 0x00, 0x10, 0x00, 0x00, 0x00, 0x00, 0x00, 0x16, 0x00,
    0x18, 0x00, 0x14, 0x00, 0x00, 0x00, 0x10, 0x00, 0x0c, 0x00, 0x08, 0x00,
    0x00, 0x00, 0x00, 0x00, 0x00, 0x00, 0x07, 0x00, 0x16, 0x00, 0x00, 0x00,
    0x00, 0x00, 0x00, 0x01, 0x14, 0x00, 0x00, 0x00, 0x14, 0x00, 0x00, 0x00,
    0x01, 0x00, 0x00, 0x00, 0x14, 0x00, 0x00, 0x00, 0x04, 0x00, 0x04, 0x00,
    0x04, 0x00, 0x00, 0x00, 0x01, 0x00, 0x00, 0x00, 0x78, 0x00, 0x00, 0x00,
    0x03, 0x00, 0x00, 0x00, 0x01, 0x00, 0x00, 0x00, 0x0a, 0x00, 0x00, 0x00,
    0x04, 0x00, 0x00, 0x00, 0x05, 0x00, 0x00, 0x00, 0x50, 0x00, 0x00, 0x00,
    0x34, 0x00, 0x00, 0x00, 0x24, 0x00, 0x00, 0x00, 0x14, 0x00, 0x00, 0x00,
    0x04, 0x00, 0x00, 0x00, 0xd0, 0xff, 0xff, 0xff, 0x19, 0x00, 0x00, 0x00,
    0x00, 0x00, 0x00, 0x19, 0xdc, 0xff, 0xff, 0xff, 0x09, 0x00, 0x00, 0x00,
    0x00, 0x00, 0x00, 0x09, 0xe8, 0xff, 0xff, 0xff, 0x28, 0x00, 0x00, 0x00,
    0x00, 0x00, 0x00, 0x28, 0xf4, 0xff, 0xff, 0xff, 0x03, 0x00, 0x00, 0x00,
    0x00, 0x00, 0x00, 0x03, 0x0c, 0x00, 0x0c, 0x00, 0x0b, 0x00, 0x00, 0x00,
    0x00, 0x00, 0x04, 0x00, 0x0c, 0x00, 0x00, 0x00, 0x16, 0x00, 0x00, 0x00,
    0x00, 0x00, 0x00, 0x16
};

const unsigned int g_model_len = sizeof(g_model);

#endif /* MODEL_H */
