const unsigned char model[] = {
  0x1c, 0x00, 0x00, 0x00, 0x54, 0x46, 0x4c, 0x33, 0x14, 0x00, 0x20, 0x00,
  0x1c, 0x00, 0x18, 0x00, 0x14, 0x00, 0x10, 0x00, 0x0c, 0x00, 0x00, 0x00,
  0x08, 0x00, 0x04, 0x00, 0x14, 0x00, 0x00, 0x00, 0x1c, 0x00, 0x00, 0x00,
  0x98, 0x00, 0x00, 0x00, 0xf0, 0x00, 0x00, 0x00, 0xa0, 0x08, 0x00, 0x00,
  0xb0, 0x08, 0x00, 0x00, 0x74, 0x0e, 0x00, 0x00, 0x03, 0x00, 0x00, 0x00,
  0x01, 0x00, 0x00, 0x00, 0x10, 0x00, 0x00, 0x00, 0x00, 0x00, 0x0a, 0x00,
  0x10, 0x00, 0x0c, 0x00, 0x08, 0x00, 0x04, 0x00, 0x0a, 0x00, 0x00, 0x00,
  0x0c, 0x00, 0x00, 0x00, 0x1c, 0x00, 0x00, 0x00, 0x3c, 0x00, 0x00, 0x00,
  0x0f, 0x00, 0x00, 0x00, 0x73, 0x65, 0x72, 0x76, 0x69, 0x6e, 0x67, 0x5f,
  0x64, 0x65, 0x66, 0x61, 0x75, 0x6c, 0x74, 0x00, 0x01, 0x00, 0x00, 0x00,
  0x04, 0x00, 0x00, 0x00, 0x90, 0xff, 0xff, 0xff, 0x0a, 0x00, 0x00, 0x00,
  0x04, 0x00, 0x00, 0x00, 0x08, 0x00, 0x00, 0x00, 0x6f, 0x75, 0x74, 0x70,
  0x75, 0x74, 0x5f, 0x30, 0x00, 0x00, 0x00, 0x00, 0x01, 0x00, 0x00, 0x00,
  0x04, 0x00, 0x00, 0x00, 0x46, 0xf7, 0xff, 0xff, 0x04, 0x00, 0x00, 0x00,
  0x0f, 0x00, 0x00, 0x00, 0x6b, 0x65, 0x72, 0x61, 0x73, 0x5f, 0x74, 0x65,
  0x6e, 0x73, 0x6f, 0x72, 0x5f, 0x31, 0x36, 0x00, 0x02, 0x00, 0x00, 0x00,
  0x34, 0x00, 0x00, 0x00, 0x04, 0x00, 0x00, 0x00, 0xdc, 0xff, 0xff, 0xff,
  0x0d, 0x00, 0x00, 0x00, 0x04, 0x00, 0x00, 0x00, 0x13, 0x00, 0x00, 0x00,
  0x43, 0x4f, 0x4e, 0x56, 0x45, 0x52, 0x53, 0x49, 0x4f, 0x4e, 0x5f, 0x4d,
  0x45, 0x54, 0x41, 0x44, 0x41, 0x54, 0x41, 0x00, 0x08, 0x00, 0x0c, 0x00,
  0x08, 0x00, 0x04, 0x00, 0x08, 0x00, 0x00, 0x00, 0x0c, 0x00, 0x00, 0x00,
  0x04, 0x00, 0x00, 0x00, 0x13, 0x00, 0x00, 0x00, 0x6d, 0x69, 0x6e, 0x5f,
  0x72, 0x75, 0x6e, 0x74, 0x69, 0x6d, 0x65, 0x5f, 0x76, 0x65, 0x72, 0x73,
  0x69, 0x6f, 0x6e, 0x00, 0x0e, 0x00, 0x00, 0x00, 0xac, 0x07, 0x00, 0x00,
  0xa4, 0x07, 0x00, 0x00, 0x94, 0x06, 0x00, 0x00, 0x84, 0x02, 0x00, 0x00,
  0x64, 0x02, 0x00, 0x00, 0x14, 0x02, 0x00, 0x00, 0xc4, 0x01, 0x00, 0x00,
  0xb4, 0x00, 0x00, 0x00, 0xac, 0x00, 0x00, 0x00, 0xa4, 0x00, 0x00, 0x00,
  0x9c, 0x00, 0x00, 0x00, 0x94, 0x00, 0x00, 0x00, 0x74, 0x00, 0x00, 0x00,
  0x04, 0x00, 0x00, 0x00, 0xfa, 0xf7, 0xff, 0xff, 0x04, 0x00, 0x00, 0x00,
  0x60, 0x00, 0x00, 0x00, 0x0c, 0x00, 0x00, 0x00, 0x08, 0x00, 0x0e, 0x00,
  0x08, 0x00, 0x04, 0x00, 0x08, 0x00, 0x00, 0x00, 0x10, 0x00, 0x00, 0x00,
  0x28, 0x00, 0x00, 0x00, 0x00, 0x00, 0x06, 0x00, 0x08, 0x00, 0x04, 0x00,
  0x06, 0x00, 0x00, 0x00, 0x04, 0x00, 0x00, 0x00, 0x01, 0x00, 0x00, 0x00,
  0xea, 0x03, 0x00, 0x00, 0x0c, 0x00, 0x18, 0x00, 0x14, 0x00, 0x10, 0x00,
  0x0c, 0x00, 0x04, 0x00, 0x0c, 0x00, 0x00, 0x00, 0x4a, 0xb4, 0x1e, 0x53,
  0x71, 0x8a, 0xf6, 0xf7, 0x02, 0x00, 0x00, 0x00, 0x02, 0x00, 0x00, 0x00,
  0x04, 0x00, 0x00, 0x00, 0x06, 0x00, 0x00, 0x00, 0x32, 0x2e, 0x31, 0x39,
  0x2e, 0x30, 0x00, 0x00, 0x66, 0xf8, 0xff, 0xff, 0x04, 0x00, 0x00, 0x00,
  0x10, 0x00, 0x00, 0x00, 0x31, 0x2e, 0x35, 0x2e, 0x30, 0x00, 0x00, 0x00,
  0x00, 0x00, 0x00, 0x00, 0x00, 0x00, 0x00, 0x00, 0x70, 0xf3, 0xff, 0xff,
  0x74, 0xf3, 0xff, 0xff, 0x78, 0xf3, 0xff, 0xff, 0x7c, 0xf3, 0xff, 0xff,
  0x92, 0xf8, 0xff, 0xff, 0x04, 0x00, 0x00, 0x00, 0x00, 0x01, 0x00, 0x00,
  0x56, 0xf4, 0x34, 0x3f, 0xe8, 0xef, 0x56, 0x3f, 0xed, 0xed, 0x4c, 0x3f,
  0x49, 0x28, 0x8f, 0x3e, 0x09, 0xe7, 0xf8, 0x3b, 0xba, 0xb6, 0x42, 0xbf,
  0x2d, 0x5a, 0xf3, 0xbc, 0xbe, 0x38, 0xf9, 0x3b, 0xef, 0xbd, 0x1a, 0xbe,
  0xc2, 0x66, 0x80, 0xbf, 0x28, 0x15, 0x33, 0xbf, 0x52, 0x8a, 0x94, 0x3e,
  0x1b, 0xf5, 0x40, 0x3f, 0x41, 0xf4, 0x3d, 0xbf, 0x73, 0x6d, 0x33, 0x3f,
  0x5b, 0x0c, 0x81, 0x3e, 0x0a, 0x35, 0xeb, 0xbe, 0xff, 0x67, 0xbd, 0x3f,
  0xec, 0xe9, 0xa7, 0xbe, 0x83, 0xce, 0xf8, 0xbe, 0x0c, 0x69, 0x21, 0x3f,
  0xf6, 0xc2, 0xff, 0xbc, 0x1c, 0xcd, 0x23, 0x3f, 0x4f, 0x9e, 0xfb, 0x3d,
  0xa8, 0xc9, 0x46, 0x3f, 0x0c, 0xd0, 0x2e, 0xbd, 0xb6, 0x3d, 0x4d, 0x3f,
  0xcf, 0x74, 0x42, 0x3e, 0x35, 0xde, 0x54, 0x3e, 0x37, 0xd0, 0x4d, 0x3f,
  0x0f, 0x61, 0x94, 0x3e, 0x43, 0x83, 0xce, 0xbd, 0x19, 0x29, 0xd1, 0x3b,
  0x48, 0xdf, 0x7d, 0xbf, 0xcd, 0x0f, 0x8f, 0xbd, 0xea, 0xf6, 0x10, 0x3e,
  0x5f, 0xaa, 0x47, 0xbe, 0xa9, 0x43, 0x96, 0x3f, 0x32, 0x12, 0x0c, 0xbe,
  0xfb, 0x93, 0x4b, 0x3c, 0x4f, 0xb7, 0x14, 0xbe, 0x1d, 0xf9, 0x83, 0xbf,
  0x84, 0x03, 0x78, 0xbe, 0x40, 0x24, 0x24, 0xbd, 0xae, 0xcf, 0x95, 0xbe,
  0x70, 0x93, 0x82, 0xbf, 0x18, 0x55, 0x09, 0xbf, 0x02, 0x6e, 0xe9, 0xbd,
  0xc4, 0xf8, 0x41, 0x3f, 0xf2, 0xc0, 0xc8, 0xbe, 0x02, 0x5a, 0x40, 0x3f,
  0x61, 0x4e, 0x28, 0xbd, 0x84, 0xce, 0x96, 0xbe, 0x80, 0x5b, 0xc9, 0xbf,
  0x84, 0x06, 0x4c, 0xbf, 0x90, 0xda, 0xab, 0x3e, 0x73, 0xcd, 0x67, 0xbe,
  0xb1, 0x55, 0xa9, 0x3f, 0x6c, 0x45, 0x9d, 0xbe, 0x70, 0x06, 0xa0, 0xbc,
  0xd4, 0xaf, 0xb0, 0x3e, 0x06, 0x8a, 0xb6, 0xbf, 0x93, 0xb4, 0x49, 0x3e,
  0x51, 0xbd, 0xf4, 0x3d, 0x9e, 0xf9, 0xff, 0xff, 0x04, 0x00, 0x00, 0x00,
  0x40, 0x00, 0x00, 0x00, 0xd8, 0xe0, 0x6f, 0xbd, 0x2e, 0x50, 0x04, 0x3f,
  0xd9, 0xa0, 0x67, 0xbe, 0xd8, 0xd7, 0x4e, 0x3d, 0x55, 0x54, 0xbd, 0x3d,
  0xa1, 0x7e, 0xd6, 0xbd, 0x21, 0x5d, 0xeb, 0xbd, 0x49, 0x31, 0x6f, 0x3e,
  0x24, 0x62, 0x29, 0x3f, 0x38, 0x85, 0x30, 0xbf, 0x38, 0x09, 0x0b, 0x3f,
  0x47, 0xe2, 0xc3, 0x3e, 0xde, 0x00, 0x35, 0xbe, 0x87, 0x97, 0x9f, 0xbe,
  0xa6, 0xd9, 0x86, 0xbe, 0xb0, 0xeb, 0xfc, 0x3d, 0xea, 0xf9, 0xff, 0xff,
  0x04, 0x00, 0x00, 0x00, 0x40, 0x00, 0x00, 0x00, 0xc9, 0x37, 0xdf, 0x3e,
  0xc5, 0x86, 0xa3, 0xbe, 0xc2, 0xc4, 0x77, 0xbe, 0x4c, 0xfe, 0x50, 0xbb,
  0x74, 0x6a, 0x3c, 0xbe, 0x43, 0x87, 0x10, 0x3e, 0xbd, 0x73, 0x80, 0xbe,
  0xd0, 0x48, 0x96, 0xbe, 0x61, 0xb3, 0x86, 0x3c, 0x7a, 0x24, 0x81, 0x3f,
  0x56, 0xd0, 0x07, 0xbf, 0x8f, 0xb6, 0x81, 0x3d, 0x6e, 0x1f, 0x51, 0x3d,
  0x18, 0x46, 0x10, 0x3c, 0xcc, 0x5e, 0x14, 0xbe, 0xfb, 0xdd, 0x53, 0x3f,
  0x36, 0xfa, 0xff, 0xff, 0x04, 0x00, 0x00, 0x00, 0x10, 0x00, 0x00, 0x00,
  0xcd, 0x00, 0x07, 0xc0, 0xb0, 0xc7, 0xd0, 0xbe, 0xa5, 0xa6, 0x00, 0x40,
  0x96, 0x8d, 0x43, 0xbf, 0x52, 0xfa, 0xff, 0xff, 0x04, 0x00, 0x00, 0x00,
  0x00, 0x04, 0x00, 0x00, 0x93, 0x8c, 0x98, 0xbf, 0x73, 0x3f, 0xcf, 0x3e,
  0x6d, 0x07, 0x1b, 0x3e, 0x25, 0x59, 0x4d, 0xbf, 0xcb, 0xc4, 0xe1, 0xbc,
  0x4d, 0x16, 0x83, 0xbf, 0x5c, 0x86, 0x96, 0xbf, 0x7c, 0x8f, 0x32, 0xbe,
  0x0a, 0x5c, 0xd7, 0x3e, 0x55, 0x6d, 0x53, 0xbf, 0xcf, 0x80, 0xaf, 0x3e,
  0x41, 0x5d, 0xec, 0x3e, 0xb7, 0x37, 0x28, 0xbf, 0xca, 0xc0, 0x52, 0x3b,
  0xbd, 0x6a, 0xf8, 0xbb, 0x71, 0x13, 0x93, 0xbd, 0x1c, 0x2a, 0xa7, 0xbf,
  0xe0, 0x75, 0xf2, 0x3d, 0xf8, 0x23, 0x2c, 0x3f, 0xb2, 0x9d, 0x18, 0x3e,
  0x43, 0xb7, 0x2c, 0xbf, 0x71, 0x20, 0x00, 0xbf, 0x9c, 0x3f, 0x1c, 0xbf,
  0xed, 0xdb, 0xa3, 0xbf, 0xc3, 0xad, 0x11, 0x3e, 0x53, 0x5a, 0x34, 0xbf,
  0x1b, 0x88, 0xa5, 0x3e, 0xb3, 0x9b, 0x9c, 0x3e, 0xaa, 0xb5, 0x13, 0xbe,
  0x8f, 0xbb, 0x2f, 0x3f, 0x3e, 0x34, 0x5b, 0xbf, 0xf2, 0x65, 0xbe, 0x3e,
  0x3d, 0x44, 0xbf, 0x3f, 0x7b, 0x97, 0xba, 0xbd, 0x51, 0x2d, 0x1e, 0xbf,
  0x56, 0xea, 0x2f, 0x3f, 0x74, 0xce, 0xa4, 0x3e, 0x7e, 0x00, 0xc4, 0x3f,
  0x9e, 0xf0, 0x9b, 0x3f, 0x89, 0x3c, 0xac, 0xbd, 0xcf, 0x1a, 0x44, 0xbe,
  0x35, 0x15, 0xa6, 0x3f, 0xc8, 0x54, 0x30, 0xbe, 0x12, 0xd4, 0x32, 0xbe,
  0x3f, 0x6c, 0x50, 0x3f, 0xba, 0x72, 0x46, 0xbe, 0x1d, 0xab, 0xcd, 0xbe,
  0x4a, 0x50, 0x64, 0x3d, 0xa5, 0x25, 0xf0, 0xbd, 0x3c, 0x08, 0x91, 0x3f,
  0xdb, 0x11, 0xb4, 0x3f, 0x6f, 0xcb, 0xd1, 0x3e, 0x7c, 0xe6, 0x1f, 0xbc,
  0x8a, 0xfb, 0x8e, 0x3e, 0xda, 0x37, 0x49, 0x3e, 0x64, 0x78, 0x05, 0xbc,
  0x61, 0xa3, 0xc6, 0x3f, 0x77, 0x44, 0x0e, 0xbf, 0x2d, 0xc4, 0xa2, 0x3f,
  0x73, 0x0e, 0x4f, 0x3f, 0xd1, 0x91, 0x17, 0x3e, 0x63, 0x3a, 0xce, 0x3f,
  0xd1, 0x19, 0x1f, 0xbd, 0x6c, 0x58, 0x9c, 0x3f, 0x89, 0xee, 0x4d, 0x3f,
  0x64, 0xea, 0x76, 0xbf, 0x0a, 0x7e, 0xd4, 0xbc, 0x81, 0x77, 0x5b, 0x3d,
  0xc7, 0xc7, 0x7e, 0x3e, 0xd5, 0xda, 0xd3, 0xbe, 0x52, 0x48, 0xa4, 0xbe,
  0xa5, 0xe4, 0x16, 0xbd, 0x6c, 0x56, 0xcc, 0xbf, 0x4a, 0x90, 0x88, 0x3f,
  0x22, 0xc9, 0x8c, 0xbf, 0x45, 0x8e, 0x6d, 0xbf, 0x05, 0xe5, 0x5d, 0xbe,
  0x6b, 0x44, 0x15, 0xbf, 0x2c, 0x8c, 0xce, 0x3e, 0xec, 0x6f, 0xf2, 0x3d,
  0x62, 0x83, 0x35, 0x3f, 0xd6, 0x10, 0x6d, 0xbf, 0x99, 0x0d, 0x80, 0x3e,
  0xc2, 0x44, 0xb7, 0xbe, 0x05, 0xf3, 0xc7, 0x3d, 0xcb, 0x01, 0xd9, 0x3d,
  0xb2, 0x6b, 0x40, 0xbe, 0xf9, 0x68, 0x6b, 0x3e, 0x2e, 0x6d, 0xd0, 0xbf,
  0x21, 0x40, 0x90, 0x3f, 0x02, 0x90, 0x8b, 0xbf, 0x58, 0x6c, 0x67, 0xbf,
  0x62, 0x78, 0x28, 0xbf, 0x93, 0xed, 0xa7, 0xbe, 0xef, 0x14, 0x33, 0x3e,
  0xcc, 0x0a, 0x14, 0xbf, 0xaa, 0x7e, 0xc6, 0x3f, 0x01, 0xdb, 0x39, 0xbf,
  0x80, 0x12, 0x9b, 0xbe, 0x0f, 0xe4, 0x1a, 0x3f, 0x92, 0xa0, 0xa0, 0x3e,
  0xdf, 0xa1, 0x3b, 0x3f, 0x6b, 0xb1, 0x9d, 0x3f, 0x0f, 0xa8, 0xd0, 0xbc,
  0xaf, 0x4f, 0xdc, 0xbe, 0xd6, 0xaf, 0x9f, 0x3f, 0x38, 0x06, 0xd8, 0xbe,
  0x28, 0x2b, 0x37, 0xbf, 0x1e, 0xad, 0x94, 0x3f, 0xef, 0xa9, 0xeb, 0xbe,
  0x51, 0xa1, 0x00, 0x3f, 0xdb, 0x03, 0x52, 0x3e, 0xe3, 0xae, 0x36, 0x3f,
  0x40, 0x9a, 0x7f, 0x3d, 0x30, 0x07, 0x98, 0x3e, 0xcd, 0x19, 0x6f, 0x3f,
  0xc5, 0x04, 0xd5, 0xbd, 0xdb, 0x60, 0x49, 0x3f, 0xfb, 0xfe, 0x4d, 0x3f,
  0xa5, 0xd1, 0x9d, 0xbd, 0xb3, 0x11, 0x29, 0x3e, 0xca, 0x49, 0xc3, 0x3e,
  0x40, 0x9b, 0x8a, 0xbd, 0x31, 0x3d, 0x1e, 0x3c, 0x50, 0xfd, 0x8f, 0x3f,
  0x0d, 0x87, 0xf4, 0x3e, 0xc8, 0x0d, 0x45, 0x3f, 0x15, 0xf2, 0x99, 0x3f,
  0xd2, 0x48, 0x28, 0xbe, 0x4f, 0x6e, 0x79, 0x3f, 0x50, 0xe3, 0x49, 0x3f,
  0x43, 0x43, 0x4d, 0x3f, 0x88, 0x47, 0x66, 0xbc, 0x53, 0xcf, 0x40, 0x3e,
  0x17, 0x8c, 0xf3, 0x3e, 0x64, 0xfe, 0xca, 0xbc, 0xe1, 0x92, 0xb3, 0x3f,
  0x9a, 0xbd, 0x03, 0xbf, 0x49, 0xf3, 0x9c, 0x3f, 0x9e, 0x61, 0x87, 0x3f,
  0x02, 0x16, 0x1e, 0x3f, 0xf7, 0xbe, 0x44, 0x3f, 0xd6, 0xaa, 0x37, 0xbd,
  0xd7, 0xef, 0x6c, 0x3f, 0x27, 0x4a, 0x45, 0xbe, 0x50, 0x57, 0xd5, 0xbe,
  0x0c, 0x22, 0x31, 0xbe, 0xa4, 0x3b, 0x5c, 0xbf, 0x1c, 0x31, 0xb4, 0x3f,
  0x03, 0x15, 0xcf, 0xbe, 0x65, 0xc0, 0x98, 0xbe, 0xb2, 0xbb, 0x60, 0x3f,
  0xa7, 0xd2, 0xa8, 0xbe, 0x91, 0xfe, 0x07, 0x3f, 0x37, 0x15, 0x08, 0x3d,
  0x54, 0x3b, 0xc5, 0x3d, 0xd4, 0xe0, 0x19, 0xbf, 0x29, 0x99, 0x25, 0xbf,
  0x52, 0x46, 0xab, 0x3f, 0xd1, 0x05, 0x78, 0xbf, 0x0a, 0xc9, 0x90, 0xbf,
  0x9b, 0x0e, 0xc8, 0x3c, 0x21, 0x93, 0x37, 0x3f, 0xf3, 0x32, 0xb6, 0x3d,
  0x5c, 0xf0, 0x2f, 0xbf, 0x0c, 0x40, 0x4f, 0xbf, 0x6e, 0x7c, 0xa8, 0xbe,
  0x4d, 0xea, 0x97, 0xbf, 0x87, 0xef, 0xdd, 0x3d, 0x8f, 0x54, 0xd9, 0xbe,
  0x2a, 0xd9, 0xdf, 0x3e, 0xdc, 0xe6, 0xdc, 0x3e, 0x78, 0x67, 0x15, 0x3e,
  0x9e, 0x0e, 0x2a, 0x3f, 0x52, 0x7d, 0x50, 0xbf, 0xf5, 0x93, 0xd4, 0x3e,
  0x32, 0xb4, 0x8b, 0x3f, 0xbc, 0x56, 0x8c, 0x3e, 0x52, 0x0d, 0x52, 0xbf,
  0xbb, 0x05, 0xcb, 0x3e, 0x8f, 0x57, 0x61, 0xbf, 0x06, 0x0f, 0x54, 0x3f,
  0x53, 0x6a, 0x33, 0x3f, 0xeb, 0x4a, 0x12, 0x3f, 0x0f, 0xe4, 0xef, 0x3d,
  0x0b, 0x4b, 0x12, 0xbd, 0xfd, 0xc1, 0x3f, 0xbe, 0xca, 0x49, 0xb7, 0xbe,
  0x1f, 0xd5, 0xea, 0x3e, 0x1a, 0xbd, 0x78, 0xbf, 0x07, 0xce, 0xc3, 0xbf,
  0x84, 0x3d, 0xcf, 0x3d, 0x41, 0x6e, 0x33, 0x3f, 0x10, 0x4a, 0x80, 0xbe,
  0xe7, 0x0c, 0x1d, 0xbf, 0xf4, 0xf9, 0x8f, 0x3e, 0x04, 0xd5, 0x26, 0xbf,
  0x19, 0x13, 0x90, 0x3f, 0x0e, 0x62, 0x8f, 0x3f, 0x43, 0x07, 0x17, 0x3f,
  0xd8, 0xc5, 0x2a, 0x3d, 0x5a, 0x60, 0xca, 0xbe, 0xd7, 0x03, 0x6a, 0x3c,
  0xc6, 0x64, 0x11, 0xbe, 0xae, 0xa9, 0xfb, 0x3e, 0x73, 0xc8, 0xd6, 0xbe,
  0xe7, 0xe8, 0x8d, 0xbe, 0x32, 0x17, 0x4e, 0xbd, 0x15, 0x5b, 0x37, 0xbf,
  0xc0, 0xbd, 0x30, 0x3f, 0x82, 0xcd, 0x9c, 0x3f, 0xdb, 0xe6, 0xe8, 0xbd,
  0x9d, 0xb1, 0xa6, 0x3b, 0xa5, 0x56, 0x4e, 0xbf, 0x0d, 0x1a, 0x8f, 0xbf,
  0x83, 0xcd, 0x08, 0x3c, 0xc1, 0xef, 0xba, 0x3e, 0xc7, 0x94, 0xb9, 0xbe,
  0xb1, 0x01, 0x13, 0x3f, 0x73, 0x14, 0x3e, 0x3f, 0x21, 0x5b, 0xc0, 0xbe,
  0xab, 0x05, 0xc6, 0x3f, 0x98, 0xe3, 0xa7, 0xbc, 0xb5, 0xba, 0xc6, 0xbe,
  0x39, 0x9c, 0x10, 0x3f, 0x10, 0xda, 0x9d, 0xbf, 0x3a, 0xdf, 0xa1, 0xbe,
  0x75, 0x2d, 0x70, 0x3d, 0xd9, 0x2b, 0x0e, 0xbe, 0x4d, 0xac, 0x54, 0xbe,
  0x28, 0x63, 0x68, 0xbe, 0xc2, 0x2a, 0xe9, 0x3e, 0x84, 0xcc, 0xb6, 0xbf,
  0x4e, 0xe1, 0xb2, 0x3f, 0x58, 0xa9, 0x58, 0xbf, 0xc1, 0xb3, 0x4c, 0xbf,
  0xc7, 0xa7, 0x6e, 0x3c, 0x62, 0x57, 0x18, 0xbe, 0xf5, 0x7b, 0x02, 0x3f,
  0xb7, 0x8e, 0x21, 0xbf, 0x29, 0xd1, 0xb6, 0xbe, 0xd9, 0x35, 0x89, 0xbe,
  0x3a, 0xfb, 0xbc, 0xbd, 0x3a, 0xe7, 0x4a, 0xbf, 0xb1, 0x39, 0xa7, 0x3f,
  0x10, 0x75, 0x05, 0xbf, 0x25, 0x79, 0xbd, 0xbe, 0x00, 0x34, 0x8c, 0x3f,
  0x0a, 0x06, 0x10, 0xbe, 0x09, 0x66, 0x4b, 0x3f, 0xa1, 0xe3, 0x75, 0xbe,
  0x95, 0xfb, 0xa0, 0xbd, 0x45, 0x21, 0xad, 0xbe, 0xb5, 0x2c, 0x58, 0xbe,
  0x9e, 0xc6, 0xaf, 0x3f, 0xfa, 0xcb, 0x18, 0xbf, 0x5e, 0xfe, 0xff, 0xff,
  0x04, 0x00, 0x00, 0x00, 0x00, 0x01, 0x00, 0x00, 0x08, 0x34, 0x81, 0x3e,
  0x19, 0x4c, 0xaf, 0x3f, 0xed, 0x87, 0x00, 0xbf, 0x58, 0xe8, 0x22, 0x3f,
  0x84, 0xed, 0x3c, 0xbf, 0xbd, 0x8f, 0x6b, 0xbf, 0x2a, 0x77, 0x75, 0xbf,
  0x84, 0x3f, 0x12, 0x3f, 0x20, 0xa4, 0xd2, 0x3e, 0x7c, 0xa7, 0x97, 0xbf,
  0x1a, 0x86, 0xb8, 0x3f, 0x45, 0x74, 0xff, 0xbe, 0x65, 0x71, 0xa5, 0xbf,
  0x80, 0xdb, 0x1e, 0x3f, 0xb6, 0x79, 0x36, 0xbf, 0x33, 0xa8, 0xf7, 0xbf,
  0x06, 0x2f, 0x8f, 0xbf, 0x5c, 0xed, 0xbf, 0xbe, 0x6a, 0xfe, 0x59, 0x3f,
  0x07, 0xb5, 0xeb, 0xbf, 0x9d, 0x74, 0xcd, 0x3f, 0x29, 0xdc, 0xc1, 0x3f,
  0x61, 0x79, 0x55, 0x3f, 0x62, 0xd1, 0x90, 0x3e, 0x57, 0x84, 0x07, 0xc0,
  0x05, 0xea, 0x61, 0x3f, 0xba, 0x5c, 0x46, 0x3e, 0x89, 0xd5, 0x16, 0x3e,
  0x54, 0xb2, 0x9a, 0x3d, 0xca, 0x9e, 0x06, 0xc0, 0xdd, 0xd7, 0xc6, 0x3f,
  0x20, 0x12, 0x42, 0x3f, 0xcb, 0xe0, 0xd5, 0x3e, 0x6f, 0x33, 0xac, 0xbf,
  0xf4, 0x19, 0xa4, 0xbf, 0x15, 0x6d, 0xbb, 0x3e, 0x7e, 0xe1, 0xa2, 0xbf,
  0x68, 0x2b, 0xc4, 0xbf, 0x16, 0x1a, 0x6a, 0xbf, 0x49, 0xf1, 0x09, 0xc0,
  0x8c, 0x9b, 0x15, 0x3e, 0x31, 0x3a, 0x4e, 0x3f, 0xab, 0xa8, 0x9b, 0xbf,
  0xec, 0x92, 0x9f, 0xbf, 0xcc, 0x08, 0xa3, 0xbf, 0x24, 0x03, 0x67, 0x3e,
  0xa2, 0xd5, 0xa7, 0xbf, 0x95, 0xea, 0x2a, 0x3f, 0xc7, 0x07, 0x9b, 0xbf,
  0x6f, 0x4d, 0xde, 0xbe, 0x87, 0x5a, 0x93, 0x3f, 0xcb, 0x6d, 0xfc, 0x3e,
  0xac, 0x38, 0x85, 0xbf, 0x14, 0x5b, 0xa8, 0xbf, 0xc1, 0x4d, 0x2a, 0x3f,
  0x55, 0x2c, 0x32, 0x3f, 0xe3, 0x93, 0x8e, 0x3e, 0xa3, 0x24, 0x84, 0xbf,
  0xf4, 0x9f, 0x70, 0xbe, 0xfa, 0xf5, 0x6f, 0x3f, 0x7f, 0x91, 0x65, 0x3f,
  0x3a, 0xf9, 0x19, 0xbf, 0x11, 0x7b, 0x28, 0xbf, 0x36, 0xf8, 0x69, 0xbf,
  0x58, 0xfa, 0xff, 0xff, 0x5c, 0xfa, 0xff, 0xff, 0x0f, 0x00, 0x00, 0x00,
  0x4d, 0x4c, 0x49, 0x52, 0x20, 0x43, 0x6f, 0x6e, 0x76, 0x65, 0x72, 0x74,
  0x65, 0x64, 0x2e, 0x00, 0x01, 0x00, 0x00, 0x00, 0x14, 0x00, 0x00, 0x00,
  0x00, 0x00, 0x0e, 0x00, 0x18, 0x00, 0x14, 0x00, 0x10, 0x00, 0x0c, 0x00,
  0x08, 0x00, 0x04, 0x00, 0x0e, 0x00, 0x00, 0x00, 0x14, 0x00, 0x00, 0x00,
  0x1c, 0x00, 0x00, 0x00, 0x34, 0x01, 0x00, 0x00, 0x38, 0x01, 0x00, 0x00,
  0x3c, 0x01, 0x00, 0x00, 0x04, 0x00, 0x00, 0x00, 0x6d, 0x61, 0x69, 0x6e,
  0x00, 0x00, 0x00, 0x00, 0x04, 0x00, 0x00, 0x00, 0xdc, 0x00, 0x00, 0x00,
  0x94, 0x00, 0x00, 0x00, 0x50, 0x00, 0x00, 0x00, 0x14, 0x00, 0x00, 0x00,
  0x00, 0x00, 0x0e, 0x00, 0x1a, 0x00, 0x14, 0x00, 0x10, 0x00, 0x0c, 0x00,
  0x0b, 0x00, 0x04, 0x00, 0x0e, 0x00, 0x00, 0x00, 0x1c, 0x00, 0x00, 0x00,
  0x00, 0x00, 0x00, 0x09, 0x1c, 0x00, 0x00, 0x00, 0x20, 0x00, 0x00, 0x00,
  0x01, 0x00, 0x00, 0x00, 0x00, 0x00, 0x06, 0x00, 0x08, 0x00, 0x04, 0x00,
  0x06, 0x00, 0x00, 0x00, 0x00, 0x00, 0x80, 0x3f, 0x01, 0x00, 0x00, 0x00,
  0x0a, 0x00, 0x00, 0x00, 0x01, 0x00, 0x00, 0x00, 0x09, 0x00, 0x00, 0x00,
  0xce, 0xff, 0xff, 0xff, 0x10, 0x00, 0x00, 0x00, 0x00, 0x00, 0x00, 0x08,
  0x0c, 0x00, 0x00, 0x00, 0x10, 0x00, 0x00, 0x00, 0x20, 0xfb, 0xff, 0xff,
  0x01, 0x00, 0x00, 0x00, 0x09, 0x00, 0x00, 0x00, 0x03, 0x00, 0x00, 0x00,
  0x08, 0x00, 0x00, 0x00, 0x01, 0x00, 0x00, 0x00, 0x03, 0x00, 0x00, 0x00,
  0x00, 0x00, 0x0e, 0x00, 0x14, 0x00, 0x00, 0x00, 0x10, 0x00, 0x0c, 0x00,
  0x0b, 0x00, 0x04, 0x00, 0x0e, 0x00, 0x00, 0x00, 0x10, 0x00, 0x00, 0x00,
  0x00, 0x00, 0x00, 0x08, 0x10, 0x00, 0x00, 0x00, 0x14, 0x00, 0x00, 0x00,
  0xba, 0xff, 0xff, 0xff, 0x00, 0x00, 0x00, 0x01, 0x01, 0x00, 0x00, 0x00,
  0x08, 0x00, 0x00, 0x00, 0x03, 0x00, 0x00, 0x00, 0x07, 0x00, 0x00, 0x00,
  0x02, 0x00, 0x00, 0x00, 0x04, 0x00, 0x00, 0x00, 0x00, 0x00, 0x0e, 0x00,
  0x16, 0x00, 0x00, 0x00, 0x10, 0x00, 0x0c, 0x00, 0x0b, 0x00, 0x04, 0x00,
  0x0e, 0x00, 0x00, 0x00, 0x18, 0x00, 0x00, 0x00, 0x00, 0x00, 0x00, 0x08,
  0x18, 0x00, 0x00, 0x00, 0x1c, 0x00, 0x00, 0x00, 0x00, 0x00, 0x06, 0x00,
  0x08, 0x00, 0x07, 0x00, 0x06, 0x00, 0x00, 0x00, 0x00, 0x00, 0x00, 0x01,
  0x01, 0x00, 0x00, 0x00, 0x07, 0x00, 0x00, 0x00, 0x03, 0x00, 0x00, 0x00,
  0x00, 0x00, 0x00, 0x00, 0x06, 0x00, 0x00, 0x00, 0x05, 0x00, 0x00, 0x00,
  0x01, 0x00, 0x00, 0x00, 0x0a, 0x00, 0x00, 0x00, 0x01, 0x00, 0x00, 0x00,
  0x00, 0x00, 0x00, 0x00, 0x0b, 0x00, 0x00, 0x00, 0xf8, 0x03, 0x00, 0x00,
  0xa0, 0x03, 0x00, 0x00, 0x48, 0x03, 0x00, 0x00, 0x0c, 0x03, 0x00, 0x00,
  0xd0, 0x02, 0x00, 0x00, 0x74, 0x02, 0x00, 0x00, 0x24, 0x02, 0x00, 0x00,
  0x84, 0x01, 0x00, 0x00, 0xe4, 0x00, 0x00, 0x00, 0x60, 0x00, 0x00, 0x00,
  0x04, 0x00, 0x00, 0x00, 0x4a, 0xfc, 0xff, 0xff, 0x00, 0x00, 0x00, 0x01,
  0x14, 0x00, 0x00, 0x00, 0x1c, 0x00, 0x00, 0x00, 0x1c, 0x00, 0x00, 0x00,
  0x0b, 0x00, 0x00, 0x00, 0x34, 0x00, 0x00, 0x00, 0x02, 0x00, 0x00, 0x00,
  0xff, 0xff, 0xff, 0xff, 0x04, 0x00, 0x00, 0x00, 0x34, 0xfc, 0xff, 0xff,
  0x1b, 0x00, 0x00, 0x00, 0x53, 0x74, 0x61, 0x74, 0x65, 0x66, 0x75, 0x6c,
  0x50, 0x61, 0x72, 0x74, 0x69, 0x74, 0x69, 0x6f, 0x6e, 0x65, 0x64, 0x43,
  0x61, 0x6c, 0x6c, 0x5f, 0x31, 0x3a, 0x30, 0x00, 0x02, 0x00, 0x00, 0x00,
  0x01, 0x00, 0x00, 0x00, 0x04, 0x00, 0x00, 0x00, 0xa2, 0xfc, 0xff, 0xff,
  0x00, 0x00, 0x00, 0x01, 0x14, 0x00, 0x00, 0x00, 0x1c, 0x00, 0x00, 0x00,
  0x1c, 0x00, 0x00, 0x00, 0x0a, 0x00, 0x00, 0x00, 0x5c, 0x00, 0x00, 0x00,
  0x02, 0x00, 0x00, 0x00, 0xff, 0xff, 0xff, 0xff, 0x04, 0x00, 0x00, 0x00,
  0x8c, 0xfc, 0xff, 0xff, 0x40, 0x00, 0x00, 0x00, 0x73, 0x65, 0x71, 0x75,
  0x65, 0x6e, 0x74, 0x69, 0x61, 0x6c, 0x5f, 0x31, 0x5f, 0x31, 0x2f, 0x64,
  0x65, 0x6e, 0x73, 0x65, 0x5f, 0x35, 0x5f, 0x31, 0x2f, 0x4d, 0x61, 0x74,
  0x4d, 0x75, 0x6c, 0x3b, 0x73, 0x65, 0x71, 0x75, 0x65, 0x6e, 0x74, 0x69,
  0x61, 0x6c, 0x5f, 0x31, 0x5f, 0x31, 0x2f, 0x64, 0x65, 0x6e, 0x73, 0x65,
  0x5f, 0x35, 0x5f, 0x31, 0x2f, 0x42, 0x69, 0x61, 0x73, 0x41, 0x64, 0x64,
  0x00, 0x00, 0x00, 0x00, 0x02, 0x00, 0x00, 0x00, 0x01, 0x00, 0x00, 0x00,
  0x04, 0x00, 0x00, 0x00, 0x22, 0xfd, 0xff, 0xff, 0x00, 0x00, 0x00, 0x01,
  0x14, 0x00, 0x00, 0x00, 0x1c, 0x00, 0x00, 0x00, 0x1c, 0x00, 0x00, 0x00,
  0x09, 0x00, 0x00, 0x00, 0x78, 0x00, 0x00, 0x00, 0x02, 0x00, 0x00, 0x00,
  0xff, 0xff, 0xff, 0xff, 0x10, 0x00, 0x00, 0x00, 0x0c, 0xfd, 0xff, 0xff,
  0x5e, 0x00, 0x00, 0x00, 0x73, 0x65, 0x71, 0x75, 0x65, 0x6e, 0x74, 0x69,
  0x61, 0x6c, 0x5f, 0x31, 0x5f, 0x31, 0x2f, 0x64, 0x65, 0x6e, 0x73, 0x65,
  0x5f, 0x34, 0x5f, 0x31, 0x2f, 0x4d, 0x61, 0x74, 0x4d, 0x75, 0x6c, 0x3b,
  0x73, 0x65, 0x71, 0x75, 0x65, 0x6e, 0x74, 0x69, 0x61, 0x6c, 0x5f, 0x31,
  0x5f, 0x31, 0x2f, 0x64, 0x65, 0x6e, 0x73, 0x65, 0x5f, 0x34, 0x5f, 0x31,
  0x2f, 0x52, 0x65, 0x6c, 0x75, 0x3b, 0x73, 0x65, 0x71, 0x75, 0x65, 0x6e,
  0x74, 0x69, 0x61, 0x6c, 0x5f, 0x31, 0x5f, 0x31, 0x2f, 0x64, 0x65, 0x6e,
  0x73, 0x65, 0x5f, 0x34, 0x5f, 0x31, 0x2f, 0x42, 0x69, 0x61, 0x73, 0x41,
  0x64, 0x64, 0x00, 0x00, 0x02, 0x00, 0x00, 0x00, 0x01, 0x00, 0x00, 0x00,
  0x10, 0x00, 0x00, 0x00, 0xbe, 0xfd, 0xff, 0xff, 0x00, 0x00, 0x00, 0x01,
  0x14, 0x00, 0x00, 0x00, 0x1c, 0x00, 0x00, 0x00, 0x1c, 0x00, 0x00, 0x00,
  0x08, 0x00, 0x00, 0x00, 0x78, 0x00, 0x00, 0x00, 0x02, 0x00, 0x00, 0x00,
  0xff, 0xff, 0xff, 0xff, 0x10, 0x00, 0x00, 0x00, 0xa8, 0xfd, 0xff, 0xff,
  0x5e, 0x00, 0x00, 0x00, 0x73, 0x65, 0x71, 0x75, 0x65, 0x6e, 0x74, 0x69,
  0x61, 0x6c, 0x5f, 0x31, 0x5f, 0x31, 0x2f, 0x64, 0x65, 0x6e, 0x73, 0x65,
  0x5f, 0x33, 0x5f, 0x31, 0x2f, 0x4d, 0x61, 0x74, 0x4d, 0x75, 0x6c, 0x3b,
  0x73, 0x65, 0x71, 0x75, 0x65, 0x6e, 0x74, 0x69, 0x61, 0x6c, 0x5f, 0x31,
  0x5f, 0x31, 0x2f, 0x64, 0x65, 0x6e, 0x73, 0x65, 0x5f, 0x33, 0x5f, 0x31,
  0x2f, 0x52, 0x65, 0x6c, 0x75, 0x3b, 0x73, 0x65, 0x71, 0x75, 0x65, 0x6e,
  0x74, 0x69, 0x61, 0x6c, 0x5f, 0x31, 0x5f, 0x31, 0x2f, 0x64, 0x65, 0x6e,
  0x73, 0x65, 0x5f, 0x33, 0x5f, 0x31, 0x2f, 0x42, 0x69, 0x61, 0x73, 0x41,
  0x64, 0x64, 0x00, 0x00, 0x02, 0x00, 0x00, 0x00, 0x01, 0x00, 0x00, 0x00,
  0x10, 0x00, 0x00, 0x00, 0xae, 0xfe, 0xff, 0xff, 0x00, 0x00, 0x00, 0x01,
  0x10, 0x00, 0x00, 0x00, 0x10, 0x00, 0x00, 0x00, 0x07, 0x00, 0x00, 0x00,
  0x2c, 0x00, 0x00, 0x00, 0x34, 0xfe, 0xff, 0xff, 0x1f, 0x00, 0x00, 0x00,
  0x73, 0x65, 0x71, 0x75, 0x65, 0x6e, 0x74, 0x69, 0x61, 0x6c, 0x5f, 0x31,
  0x5f, 0x31, 0x2f, 0x64, 0x65, 0x6e, 0x73, 0x65, 0x5f, 0x33, 0x5f, 0x31,
  0x2f, 0x4d, 0x61, 0x74, 0x4d, 0x75, 0x6c, 0x00, 0x02, 0x00, 0x00, 0x00,
  0x10, 0x00, 0x00, 0x00, 0x04, 0x00, 0x00, 0x00, 0xfa, 0xfe, 0xff, 0xff,
  0x00, 0x00, 0x00, 0x01, 0x10, 0x00, 0x00, 0x00, 0x10, 0x00, 0x00, 0x00,
  0x06, 0x00, 0x00, 0x00, 0x3c, 0x00, 0x00, 0x00, 0x80, 0xfe, 0xff, 0xff,
  0x2f, 0x00, 0x00, 0x00, 0x73, 0x65, 0x71, 0x75, 0x65, 0x6e, 0x74, 0x69,
  0x61, 0x6c, 0x5f, 0x31, 0x5f, 0x31, 0x2f, 0x64, 0x65, 0x6e, 0x73, 0x65,
  0x5f, 0x33, 0x5f, 0x31, 0x2f, 0x42, 0x69, 0x61, 0x73, 0x41, 0x64, 0x64,
  0x2f, 0x52, 0x65, 0x61, 0x64, 0x56, 0x61, 0x72, 0x69, 0x61, 0x62, 0x6c,
  0x65, 0x4f, 0x70, 0x00, 0x01, 0x00, 0x00, 0x00, 0x10, 0x00, 0x00, 0x00,
  0x52, 0xff, 0xff, 0xff, 0x00, 0x00, 0x00, 0x01, 0x10, 0x00, 0x00, 0x00,
  0x10, 0x00, 0x00, 0x00, 0x05, 0x00, 0x00, 0x00, 0x1c, 0x00, 0x00, 0x00,
  0xd8, 0xfe, 0xff, 0xff, 0x0f, 0x00, 0x00, 0x00, 0x61, 0x72, 0x69, 0x74,
  0x68, 0x2e, 0x63, 0x6f, 0x6e, 0x73, 0x74, 0x61, 0x6e, 0x74, 0x33, 0x00,
  0x01, 0x00, 0x00, 0x00, 0x10, 0x00, 0x00, 0x00, 0x8a, 0xff, 0xff, 0xff,
  0x00, 0x00, 0x00, 0x01, 0x10, 0x00, 0x00, 0x00, 0x10, 0x00, 0x00, 0x00,
  0x04, 0x00, 0x00, 0x00, 0x1c, 0x00, 0x00, 0x00, 0x10, 0xff, 0xff, 0xff,
  0x0f, 0x00, 0x00, 0x00, 0x61, 0x72, 0x69, 0x74, 0x68, 0x2e, 0x63, 0x6f,
  0x6e, 0x73, 0x74, 0x61, 0x6e, 0x74, 0x32, 0x00, 0x01, 0x00, 0x00, 0x00,
  0x04, 0x00, 0x00, 0x00, 0xc2, 0xff, 0xff, 0xff, 0x00, 0x00, 0x00, 0x01,
  0x10, 0x00, 0x00, 0x00, 0x10, 0x00, 0x00, 0x00, 0x03, 0x00, 0x00, 0x00,
  0x1c, 0x00, 0x00, 0x00, 0x48, 0xff, 0xff, 0xff, 0x0f, 0x00, 0x00, 0x00,
  0x61, 0x72, 0x69, 0x74, 0x68, 0x2e, 0x63, 0x6f, 0x6e, 0x73, 0x74, 0x61,
  0x6e, 0x74, 0x31, 0x00, 0x02, 0x00, 0x00, 0x00, 0x10, 0x00, 0x00, 0x00,
  0x10, 0x00, 0x00, 0x00, 0x00, 0x00, 0x16, 0x00, 0x18, 0x00, 0x14, 0x00,
  0x00, 0x00, 0x10, 0x00, 0x0c, 0x00, 0x08, 0x00, 0x00, 0x00, 0x00, 0x00,
  0x00, 0x00, 0x07, 0x00, 0x16, 0x00, 0x00, 0x00, 0x00, 0x00, 0x00, 0x01,
  0x10, 0x00, 0x00, 0x00, 0x10, 0x00, 0x00, 0x00, 0x02, 0x00, 0x00, 0x00,
  0x1c, 0x00, 0x00, 0x00, 0x9c, 0xff, 0xff, 0xff, 0x0e, 0x00, 0x00, 0x00,
  0x61, 0x72, 0x69, 0x74, 0x68, 0x2e, 0x63, 0x6f, 0x6e, 0x73, 0x74, 0x61,
  0x6e, 0x74, 0x00, 0x00, 0x02, 0x00, 0x00, 0x00, 0x04, 0x00, 0x00, 0x00,
  0x10, 0x00, 0x00, 0x00, 0x00, 0x00, 0x16, 0x00, 0x1c, 0x00, 0x18, 0x00,
  0x00, 0x00, 0x14, 0x00, 0x10, 0x00, 0x0c, 0x00, 0x00, 0x00, 0x00, 0x00,
  0x08, 0x00, 0x07, 0x00, 0x16, 0x00, 0x00, 0x00, 0x00, 0x00, 0x00, 0x01,
  0x14, 0x00, 0x00, 0x00, 0x20, 0x00, 0x00, 0x00, 0x20, 0x00, 0x00, 0x00,
  0x01, 0x00, 0x00, 0x00, 0x40, 0x00, 0x00, 0x00, 0x02, 0x00, 0x00, 0x00,
  0xff, 0xff, 0xff, 0xff, 0x04, 0x00, 0x00, 0x00, 0x04, 0x00, 0x04, 0x00,
  0x04, 0x00, 0x00, 0x00, 0x21, 0x00, 0x00, 0x00, 0x73, 0x65, 0x72, 0x76,
  0x69, 0x6e, 0x67, 0x5f, 0x64, 0x65, 0x66, 0x61, 0x75, 0x6c, 0x74, 0x5f,
  0x6b, 0x65, 0x72, 0x61, 0x73, 0x5f, 0x74, 0x65, 0x6e, 0x73, 0x6f, 0x72,
  0x5f, 0x31, 0x36, 0x3a, 0x30, 0x00, 0x00, 0x00, 0x02, 0x00, 0x00, 0x00,
  0x01, 0x00, 0x00, 0x00, 0x04, 0x00, 0x00, 0x00, 0x02, 0x00, 0x00, 0x00,
  0x20, 0x00, 0x00, 0x00, 0x04, 0x00, 0x00, 0x00, 0xf4, 0xff, 0xff, 0xff,
  0x19, 0x00, 0x00, 0x00, 0x00, 0x00, 0x00, 0x19, 0x0c, 0x00, 0x0c, 0x00,
  0x0b, 0x00, 0x00, 0x00, 0x00, 0x00, 0x04, 0x00, 0x0c, 0x00, 0x00, 0x00,
  0x09, 0x00, 0x00, 0x00, 0x00, 0x00, 0x00, 0x09
};
