/**
 * TFLite / LiteRT model byte array.
 *
 * Auto-generated by model_to_tflite.py
 * Timestamp  : 2026-02-27 22:12 UTC
 * Source     : model.tflite
 * Model size : 34,200 bytes
 * Quantized  : no (float32)
 *
 * Usage (Arduino / TFLite Micro):
 *
 *   #include "model.h"
 *   const tflite::Model* model = tflite::GetModel(g_model);
 */

#ifndef MODEL_H
#define MODEL_H

/* 8-byte alignment required by TFLite Micro */
alignas(8) const unsigned char g_model[] = {
    0x1c, 0x00, 0x00, 0x00, 0x54, 0x46, 0x4c, 0x33, 0x14, 0x00, 0x20, 0x00,
    0x1c, 0x00, 0x18, 0x00, 0x14, 0x00, 0x10, 0x00, 0x0c, 0x00, 0x00, 0x00,
    0x08, 0x00, 0x04, 0x00, 0x14, 0x00, 0x00, 0x00, 0x1c, 0x00, 0x00, 0x00,
    0x1c, 0x00, 0x00, 0x00, 0x74, 0x00, 0x00, 0x00, 0xf0, 0x21, 0x00, 0x00,
    0x00, 0x22, 0x00, 0x00, 0xc8, 0x84, 0x00, 0x00, 0x03, 0x00, 0x00, 0x00,
    0x00, 0x00, 0x00, 0x00, 0x02, 0x00, 0x00, 0x00, 0x34, 0x00, 0x00, 0x00,
    0x04, 0x00, 0x00, 0x00, 0xdc, 0xff, 0xff, 0xff, 0xc8, 0x00, 0x00, 0x00,
    0x04, 0x00, 0x00, 0x00, 0x13, 0x00, 0x00, 0x00, 0x43, 0x4f, 0x4e, 0x56,
    0x45, 0x52, 0x53, 0x49, 0x4f, 0x4e, 0x5f, 0x4d, 0x45, 0x54, 0x41, 0x44,
    0x41, 0x54, 0x41, 0x00, 0x08, 0x00, 0x0c, 0x00, 0x08, 0x00, 0x04, 0x00,
    0x08, 0x00, 0x00, 0x00, 0xc7, 0x00, 0x00, 0x00, 0x04, 0x00, 0x00, 0x00,
    0x13, 0x00, 0x00, 0x00, 0x6d, 0x69, 0x6e, 0x5f, 0x72, 0x75, 0x6e, 0x74,
    0x69, 0x6d, 0x65, 0x5f, 0x76, 0x65, 0x72, 0x73, 0x69, 0x6f, 0x6e, 0x00,
    0xc9, 0x00, 0x00, 0x00, 0x78, 0x21, 0x00, 0x00, 0x70, 0x21, 0x00, 0x00,
    0x20, 0x21, 0x00, 0x00, 0x00, 0x21, 0x00, 0x00, 0xec, 0x20, 0x00, 0x00,
    0xdc, 0x1f, 0x00, 0x00, 0xcc, 0x1b, 0x00, 0x00, 0xbc, 0x0b, 0x00, 0x00,
    0xac, 0x07, 0x00, 0x00, 0x98, 0x07, 0x00, 0x00, 0x88, 0x06, 0x00, 0x00,
    0x6c, 0x06, 0x00, 0x00, 0x64, 0x06, 0x00, 0x00, 0x5c, 0x06, 0x00, 0x00,
    0x54, 0x06, 0x00, 0x00, 0x4c, 0x06, 0x00, 0x00, 0x44, 0x06, 0x00, 0x00,
    0x3c, 0x06, 0x00, 0x00, 0x34, 0x06, 0x00, 0x00, 0x2c, 0x06, 0x00, 0x00,
    0x24, 0x06, 0x00, 0x00, 0x1c, 0x06, 0x00, 0x00, 0x14, 0x06, 0x00, 0x00,
    0x0c, 0x06, 0x00, 0x00, 0x04, 0x06, 0x00, 0x00, 0xfc, 0x05, 0x00, 0x00,
    0xf4, 0x05, 0x00, 0x00, 0xec, 0x05, 0x00, 0x00, 0xe4, 0x05, 0x00, 0x00,
    0xdc, 0x05, 0x00, 0x00, 0xd4, 0x05, 0x00, 0x00, 0xcc, 0x05, 0x00, 0x00,
    0xc4, 0x05, 0x00, 0x00, 0xbc, 0x05, 0x00, 0x00, 0xb4, 0x05, 0x00, 0x00,
    0xac, 0x05, 0x00, 0x00, 0xa4, 0x05, 0x00, 0x00, 0x9c, 0x05, 0x00, 0x00,
    0x94, 0x05, 0x00, 0x00, 0x8c, 0x05, 0x00, 0x00, 0x84, 0x05, 0x00, 0x00,
    0x7c, 0x05, 0x00, 0x00, 0x74, 0x05, 0x00, 0x00, 0x6c, 0x05, 0x00, 0x00,
    0x64, 0x05, 0x00, 0x00, 0x5c, 0x05, 0x00, 0x00, 0x54, 0x05, 0x00, 0x00,
    0x4c, 0x05, 0x00, 0x00, 0x44, 0x05, 0x00, 0x00, 0x3c, 0x05, 0x00, 0x00,
    0x34, 0x05, 0x00, 0x00, 0x2c, 0x05, 0x00, 0x00, 0x24, 0x05, 0x00, 0x00,
    0x1c, 0x05, 0x00, 0x00, 0x14, 0x05, 0x00, 0x00, 0x0c, 0x05, 0x00, 0x00,
    0x04, 0x05, 0x00, 0x00, 0xfc, 0x04, 0x00, 0x00, 0xf4, 0x04, 0x00, 0x00,
    0xec, 0x04, 0x00, 0x00, 0xe4, 0x04, 0x00, 0x00, 0xdc, 0x04, 0x00, 0x00,
    0xd4, 0x04, 0x00, 0x00, 0xcc, 0x04, 0x00, 0x00, 0xc4, 0x04, 0x00, 0x00,
    0xbc, 0x04, 0x00, 0x00, 0xb4, 0x04, 0x00, 0x00, 0xac, 0x04, 0x00, 0x00,
    0xa4, 0x04, 0x00, 0x00, 0x9c, 0x04, 0x00, 0x00, 0x94, 0x04, 0x00, 0x00,
    0x8c, 0x04, 0x00, 0x00, 0x84, 0x04, 0x00, 0x00, 0x7c, 0x04, 0x00, 0x00,
    0x74, 0x04, 0x00, 0x00, 0x6c, 0x04, 0x00, 0x00, 0x64, 0x04, 0x00, 0x00,
    0x5c, 0x04, 0x00, 0x00, 0x54, 0x04, 0x00, 0x00, 0x4c, 0x04, 0x00, 0x00,
    0x44, 0x04, 0x00, 0x00, 0x3c, 0x04, 0x00, 0x00, 0x34, 0x04, 0x00, 0x00,
    0x2c, 0x04, 0x00, 0x00, 0x24, 0x04, 0x00, 0x00, 0x1c, 0x04, 0x00, 0x00,
    0x14, 0x04, 0x00, 0x00, 0x0c, 0x04, 0x00, 0x00, 0x04, 0x04, 0x00, 0x00,
    0xfc, 0x03, 0x00, 0x00, 0xf4, 0x03, 0x00, 0x00, 0xec, 0x03, 0x00, 0x00,
    0xe4, 0x03, 0x00, 0x00, 0xdc, 0x03, 0x00, 0x00, 0xd4, 0x03, 0x00, 0x00,
    0xcc, 0x03, 0x00, 0x00, 0xc4, 0x03, 0x00, 0x00, 0xbc, 0x03, 0x00, 0x00,
    0xb4, 0x03, 0x00, 0x00, 0xac, 0x03, 0x00, 0x00, 0xa4, 0x03, 0x00, 0x00,
    0x9c, 0x03, 0x00, 0x00, 0x94, 0x03, 0x00, 0x00, 0x8c, 0x03, 0x00, 0x00,
    0x84, 0x03, 0x00, 0x00, 0x7c, 0x03, 0x00, 0x00, 0x74, 0x03, 0x00, 0x00,
    0x6c, 0x03, 0x00, 0x00, 0x64, 0x03, 0x00, 0x00, 0x5c, 0x03, 0x00, 0x00,
    0x54, 0x03, 0x00, 0x00, 0x4c, 0x03, 0x00, 0x00, 0x44, 0x03, 0x00, 0x00,
    0x3c, 0x03, 0x00, 0x00, 0x34, 0x03, 0x00, 0x00, 0x2c, 0x03, 0x00, 0x00,
    0x24, 0x03, 0x00, 0x00, 0x1c, 0x03, 0x00, 0x00, 0x14, 0x03, 0x00, 0x00,
    0x0c, 0x03, 0x00, 0x00, 0x04, 0x03, 0x00, 0x00, 0xfc, 0x02, 0x00, 0x00,
    0xf4, 0x02, 0x00, 0x00, 0xec, 0x02, 0x00, 0x00, 0xe4, 0x02, 0x00, 0x00,
    0xdc, 0x02, 0x00, 0x00, 0xd4, 0x02, 0x00, 0x00, 0xcc, 0x02, 0x00, 0x00,
    0xc4, 0x02, 0x00, 0x00, 0xbc, 0x02, 0x00, 0x00, 0xb4, 0x02, 0x00, 0x00,
    0xac, 0x02, 0x00, 0x00, 0xa4, 0x02, 0x00, 0x00, 0x9c, 0x02, 0x00, 0x00,
    0x94, 0x02, 0x00, 0x00, 0x8c, 0x02, 0x00, 0x00, 0x84, 0x02, 0x00, 0x00,
    0x7c, 0x02, 0x00, 0x00, 0x74, 0x02, 0x00, 0x00, 0x6c, 0x02, 0x00, 0x00,
    0x64, 0x02, 0x00, 0x00, 0x5c, 0x02, 0x00, 0x00, 0x54, 0x02, 0x00, 0x00,
    0x4c, 0x02, 0x00, 0x00, 0x44, 0x02, 0x00, 0x00, 0x3c, 0x02, 0x00, 0x00,
    0x34, 0x02, 0x00, 0x00, 0x2c, 0x02, 0x00, 0x00, 0x24, 0x02, 0x00, 0x00,
    0x1c, 0x02, 0x00, 0x00, 0x14, 0x02, 0x00, 0x00, 0x0c, 0x02, 0x00, 0x00,
    0x04, 0x02, 0x00, 0x00, 0xfc, 0x01, 0x00, 0x00, 0xf4, 0x01, 0x00, 0x00,
    0xec, 0x01, 0x00, 0x00, 0xe4, 0x01, 0x00, 0x00, 0xdc, 0x01, 0x00, 0x00,
    0xd4, 0x01, 0x00, 0x00, 0xcc, 0x01, 0x00, 0x00, 0xc4, 0x01, 0x00, 0x00,
    0xbc, 0x01, 0x00, 0x00, 0xb4, 0x01, 0x00, 0x00, 0xac, 0x01, 0x00, 0x00,
    0xa4, 0x01, 0x00, 0x00, 0x9c, 0x01, 0x00, 0x00, 0x94, 0x01, 0x00, 0x00,
    0x8c, 0x01, 0x00, 0x00, 0x84, 0x01, 0x00, 0x00, 0x7c, 0x01, 0x00, 0x00,
    0x74, 0x01, 0x00, 0x00, 0x6c, 0x01, 0x00, 0x00, 0x64, 0x01, 0x00, 0x00,
    0x5c, 0x01, 0x00, 0x00, 0x54, 0x01, 0x00, 0x00, 0x4c, 0x01, 0x00, 0x00,
    0x44, 0x01, 0x00, 0x00, 0x3c, 0x01, 0x00, 0x00, 0x34, 0x01, 0x00, 0x00,
    0x2c, 0x01, 0x00, 0x00, 0x24, 0x01, 0x00, 0x00, 0x1c, 0x01, 0x00, 0x00,
    0x14, 0x01, 0x00, 0x00, 0x0c, 0x01, 0x00, 0x00, 0x04, 0x01, 0x00, 0x00,
    0xfc, 0x00, 0x00, 0x00, 0xf4, 0x00, 0x00, 0x00, 0xec, 0x00, 0x00, 0x00,
    0xe4, 0x00, 0x00, 0x00, 0xdc, 0x00, 0x00, 0x00, 0xd4, 0x00, 0x00, 0x00,
    0xcc, 0x00, 0x00, 0x00, 0xc4, 0x00, 0x00, 0x00, 0xbc, 0x00, 0x00, 0x00,
    0xb4, 0x00, 0x00, 0x00, 0xac, 0x00, 0x00, 0x00, 0xa4, 0x00, 0x00, 0x00,
    0x9c, 0x00, 0x00, 0x00, 0x94, 0x00, 0x00, 0x00, 0x74, 0x00, 0x00, 0x00,
    0x04, 0x00, 0x00, 0x00, 0xfe, 0xc5, 0xff, 0xff, 0x04, 0x00, 0x00, 0x00,
    0x60, 0x00, 0x00, 0x00, 0x10, 0x00, 0x00, 0x00, 0x00, 0x00, 0x00, 0x00,
    0x08, 0x00, 0x0e, 0x00, 0x08, 0x00, 0x04, 0x00, 0x08, 0x00, 0x00, 0x00,
    0x10, 0x00, 0x00, 0x00, 0x24, 0x00, 0x00, 0x00, 0x00, 0x00, 0x06, 0x00,
    0x08, 0x00, 0x04, 0x00, 0x06, 0x00, 0x00, 0x00, 0x04, 0x00, 0x00, 0x00,
    0x00, 0x00, 0x00, 0x00, 0x0c, 0x00, 0x18, 0x00, 0x14, 0x00, 0x10, 0x00,
    0x0c, 0x00, 0x04, 0x00, 0x0c, 0x00, 0x00, 0x00, 0xa4, 0xb5, 0x5c, 0x55,
    0xea, 0x8f, 0x64, 0xf6, 0x03, 0x00, 0x00, 0x00, 0x02, 0x00, 0x00, 0x00,
    0x04, 0x00, 0x00, 0x00, 0x06, 0x00, 0x00, 0x00, 0x32, 0x2e, 0x32, 0x30,
    0x2e, 0x30, 0x00, 0x00, 0x6a, 0xc6, 0xff, 0xff, 0x04, 0x00, 0x00, 0x00,
    0x10, 0x00, 0x00, 0x00, 0x31, 0x2e, 0x31, 0x34, 0x2e, 0x30, 0x00, 0x00,
    0x00, 0x00, 0x00, 0x00, 0x00, 0x00, 0x00, 0x00, 0x1c, 0x7f, 0xff, 0xff,
    0x20, 0x7f, 0xff, 0xff, 0x24, 0x7f, 0xff, 0xff, 0x28, 0x7f, 0xff, 0xff,
    0x2c, 0x7f, 0xff, 0xff, 0x30, 0x7f, 0xff, 0xff, 0x34, 0x7f, 0xff, 0xff,
    0x38, 0x7f, 0xff, 0xff, 0x3c, 0x7f, 0xff, 0xff, 0x40, 0x7f, 0xff, 0xff,
    0x44, 0x7f, 0xff, 0xff, 0x48, 0x7f, 0xff, 0xff, 0x4c, 0x7f, 0xff, 0xff,
    0x50, 0x7f, 0xff, 0xff, 0x54, 0x7f, 0xff, 0xff, 0x58, 0x7f, 0xff, 0xff,
    0x5c, 0x7f, 0xff, 0xff, 0x60, 0x7f, 0xff, 0xff, 0x64, 0x7f, 0xff, 0xff,
    0x68, 0x7f, 0xff, 0xff, 0x6c, 0x7f, 0xff, 0xff, 0x70, 0x7f, 0xff, 0xff,
    0x74, 0x7f, 0xff, 0xff, 0x78, 0x7f, 0xff, 0xff, 0x7c, 0x7f, 0xff, 0xff,
    0x80, 0x7f, 0xff, 0xff, 0x84, 0x7f, 0xff, 0xff, 0x88, 0x7f, 0xff, 0xff,
    0x8c, 0x7f, 0xff, 0xff, 0x90, 0x7f, 0xff, 0xff, 0x94, 0x7f, 0xff, 0xff,
    0x98, 0x7f, 0xff, 0xff, 0x9c, 0x7f, 0xff, 0xff, 0xa0, 0x7f, 0xff, 0xff,
    0xa4, 0x7f, 0xff, 0xff, 0xa8, 0x7f, 0xff, 0xff, 0xac, 0x7f, 0xff, 0xff,
    0xb0, 0x7f, 0xff, 0xff, 0xb4, 0x7f, 0xff, 0xff, 0xb8, 0x7f, 0xff, 0xff,
    0xbc, 0x7f, 0xff, 0xff, 0xc0, 0x7f, 0xff, 0xff, 0xc4, 0x7f, 0xff, 0xff,
    0xc8, 0x7f, 0xff, 0xff, 0xcc, 0x7f, 0xff, 0xff, 0xd0, 0x7f, 0xff, 0xff,
    0xd4, 0x7f, 0xff, 0xff, 0xd8, 0x7f, 0xff, 0xff, 0xdc, 0x7f, 0xff, 0xff,
    0xe0, 0x7f, 0xff, 0xff, 0xe4, 0x7f, 0xff, 0xff, 0xe8, 0x7f, 0xff, 0xff,
    0xec, 0x7f, 0xff, 0xff, 0xf0, 0x7f, 0xff, 0xff, 0xf4, 0x7f, 0xff, 0xff,
    0xf8, 0x7f, 0xff, 0xff, 0xfc, 0x7f, 0xff, 0xff, 0x00, 0x80, 0xff, 0xff,
    0x04, 0x80, 0xff, 0xff, 0x08, 0x80, 0xff, 0xff, 0x0c, 0x80, 0xff, 0xff,
    0x10, 0x80, 0xff, 0xff, 0x14, 0x80, 0xff, 0xff, 0x18, 0x80, 0xff, 0xff,
    0x1c, 0x80, 0xff, 0xff, 0x20, 0x80, 0xff, 0xff, 0x24, 0x80, 0xff, 0xff,
    0x28, 0x80, 0xff, 0xff, 0x2c, 0x80, 0xff, 0xff, 0x30, 0x80, 0xff, 0xff,
    0x34, 0x80, 0xff, 0xff, 0x38, 0x80, 0xff, 0xff, 0x3c, 0x80, 0xff, 0xff,
    0x40, 0x80, 0xff, 0xff, 0x44, 0x80, 0xff, 0xff, 0x48, 0x80, 0xff, 0xff,
    0x4c, 0x80, 0xff, 0xff, 0x50, 0x80, 0xff, 0xff, 0x54, 0x80, 0xff, 0xff,
    0x58, 0x80, 0xff, 0xff, 0x5c, 0x80, 0xff, 0xff, 0x60, 0x80, 0xff, 0xff,
    0x64, 0x80, 0xff, 0xff, 0x68, 0x80, 0xff, 0xff, 0x6c, 0x80, 0xff, 0xff,
    0x70, 0x80, 0xff, 0xff, 0x74, 0x80, 0xff, 0xff, 0x78, 0x80, 0xff, 0xff,
    0x7c, 0x80, 0xff, 0xff, 0x80, 0x80, 0xff, 0xff, 0x84, 0x80, 0xff, 0xff,
    0x88, 0x80, 0xff, 0xff, 0x8c, 0x80, 0xff, 0xff, 0x90, 0x80, 0xff, 0xff,
    0x94, 0x80, 0xff, 0xff, 0x98, 0x80, 0xff, 0xff, 0x9c, 0x80, 0xff, 0xff,
    0xa0, 0x80, 0xff, 0xff, 0xa4, 0x80, 0xff, 0xff, 0xa8, 0x80, 0xff, 0xff,
    0xac, 0x80, 0xff, 0xff, 0xb0, 0x80, 0xff, 0xff, 0xb4, 0x80, 0xff, 0xff,
    0xb8, 0x80, 0xff, 0xff, 0xbc, 0x80, 0xff, 0xff, 0xc0, 0x80, 0xff, 0xff,
    0xc4, 0x80, 0xff, 0xff, 0xc8, 0x80, 0xff, 0xff, 0xcc, 0x80, 0xff, 0xff,
    0xd0, 0x80, 0xff, 0xff, 0xd4, 0x80, 0xff, 0xff, 0xd8, 0x80, 0xff, 0xff,
    0xdc, 0x80, 0xff, 0xff, 0xe0, 0x80, 0xff, 0xff, 0xe4, 0x80, 0xff, 0xff,
    0xe8, 0x80, 0xff, 0xff, 0xec, 0x80, 0xff, 0xff, 0xf0, 0x80, 0xff, 0xff,
    0xf4, 0x80, 0xff, 0xff, 0xf8, 0x80, 0xff, 0xff, 0xfc, 0x80, 0xff, 0xff,
    0x00, 0x81, 0xff, 0xff, 0x04, 0x81, 0xff, 0xff, 0x08, 0x81, 0xff, 0xff,
    0x0c, 0x81, 0xff, 0xff, 0x10, 0x81, 0xff, 0xff, 0x14, 0x81, 0xff, 0xff,
    0x18, 0x81, 0xff, 0xff, 0x1c, 0x81, 0xff, 0xff, 0x20, 0x81, 0xff, 0xff,
    0x24, 0x81, 0xff, 0xff, 0x28, 0x81, 0xff, 0xff, 0x2c, 0x81, 0xff, 0xff,
    0x30, 0x81, 0xff, 0xff, 0x34, 0x81, 0xff, 0xff, 0x38, 0x81, 0xff, 0xff,
    0x3c, 0x81, 0xff, 0xff, 0x40, 0x81, 0xff, 0xff, 0x44, 0x81, 0xff, 0xff,
    0x48, 0x81, 0xff, 0xff, 0x4c, 0x81, 0xff, 0xff, 0x50, 0x81, 0xff, 0xff,
    0x54, 0x81, 0xff, 0xff, 0x58, 0x81, 0xff, 0xff, 0x5c, 0x81, 0xff, 0xff,
    0x60, 0x81, 0xff, 0xff, 0x64, 0x81, 0xff, 0xff, 0x68, 0x81, 0xff, 0xff,
    0x6c, 0x81, 0xff, 0xff, 0x70, 0x81, 0xff, 0xff, 0x74, 0x81, 0xff, 0xff,
    0x78, 0x81, 0xff, 0xff, 0x7c, 0x81, 0xff, 0xff, 0x80, 0x81, 0xff, 0xff,
    0x84, 0x81, 0xff, 0xff, 0x88, 0x81, 0xff, 0xff, 0x8c, 0x81, 0xff, 0xff,
    0x90, 0x81, 0xff, 0xff, 0x94, 0x81, 0xff, 0xff, 0x98, 0x81, 0xff, 0xff,
    0x9c, 0x81, 0xff, 0xff, 0xa0, 0x81, 0xff, 0xff, 0xa4, 0x81, 0xff, 0xff,
    0xa8, 0x81, 0xff, 0xff, 0xac, 0x81, 0xff, 0xff, 0xb0, 0x81, 0xff, 0xff,
    0xb4, 0x81, 0xff, 0xff, 0xb8, 0x81, 0xff, 0xff, 0xbc, 0x81, 0xff, 0xff,
    0xc0, 0x81, 0xff, 0xff, 0xc4, 0x81, 0xff, 0xff, 0xc8, 0x81, 0xff, 0xff,
    0xcc, 0x81, 0xff, 0xff, 0xd0, 0x81, 0xff, 0xff, 0xd4, 0x81, 0xff, 0xff,
    0xd8, 0x81, 0xff, 0xff, 0xdc, 0x81, 0xff, 0xff, 0xe0, 0x81, 0xff, 0xff,
    0xe4, 0x81, 0xff, 0xff, 0xe8, 0x81, 0xff, 0xff, 0xec, 0x81, 0xff, 0xff,
    0xf0, 0x81, 0xff, 0xff, 0xf4, 0x81, 0xff, 0xff, 0xf8, 0x81, 0xff, 0xff,
    0xfc, 0x81, 0xff, 0xff, 0x00, 0x82, 0xff, 0xff, 0x04, 0x82, 0xff, 0xff,
    0x72, 0xc9, 0xff, 0xff, 0x04, 0x00, 0x00, 0x00, 0x0c, 0x00, 0x00, 0x00,
    0x0a, 0x00, 0x00, 0x00, 0x01, 0x00, 0x00, 0x00, 0x04, 0x00, 0x00, 0x00,
    0x8a, 0xc9, 0xff, 0xff, 0x04, 0x00, 0x00, 0x00, 0x00, 0x01, 0x00, 0x00,
    0xf7, 0xcb, 0xaf, 0x3e, 0xe0, 0x2e, 0xb6, 0x3d, 0x68, 0x38, 0x45, 0x3e,
    0x66, 0x14, 0xff, 0x3d, 0x1c, 0x6b, 0x94, 0x3e, 0xc9, 0x51, 0xb1, 0x3e,
    0xe3, 0x17, 0x6d, 0x3e, 0xc8, 0xc6, 0x6b, 0x3e, 0xc1, 0xab, 0x74, 0x3d,
    0x97, 0x4c, 0xb1, 0x3e, 0x45, 0x9c, 0x8f, 0x3e, 0x01, 0x0d, 0xe7, 0x3d,
    0x9f, 0x63, 0x0c, 0x3e, 0xb3, 0x8f, 0x98, 0x3e, 0x7c, 0xc6, 0x54, 0x3d,
    0x89, 0x9c, 0x79, 0x3e, 0xd9, 0xd4, 0xa1, 0x3f, 0xb6, 0x4b, 0x7b, 0x3f,
    0x1c, 0x1b, 0x94, 0x3f, 0x93, 0x01, 0x88, 0x3f, 0x1a, 0xe2, 0x9b, 0x3f,
    0x23, 0xc5, 0xa6, 0x3f, 0xba, 0xb4, 0x95, 0x3f, 0x63, 0x9a, 0x9c, 0x3f,
    0x82, 0xf2, 0x82, 0x3f, 0x46, 0xd4, 0xa6, 0x3f, 0x5a, 0xf2, 0x9a, 0x3f,
    0x62, 0xdc, 0x84, 0x3f, 0x98, 0x7e, 0x89, 0x3f, 0xac, 0x8f, 0x9e, 0x3f,
    0xca, 0x8c, 0x75, 0x3f, 0x57, 0xfb, 0x99, 0x3f, 0xac, 0x21, 0x1f, 0x3e,
    0xd6, 0x6a, 0x09, 0x3e, 0x72, 0xf5, 0x03, 0x3e, 0x75, 0x60, 0x90, 0xbd,
    0xa9, 0x23, 0xd8, 0x3d, 0xd1, 0xba, 0x01, 0xbe, 0xe7, 0x6b, 0xb3, 0xbd,
    0x1f, 0xc1, 0xeb, 0x3d, 0x7b, 0x2f, 0xc7, 0x3d, 0x1f, 0x54, 0xf0, 0x3d,
    0xfb, 0x93, 0xb9, 0xbc, 0x6b, 0x92, 0x42, 0x3c, 0x89, 0x2c, 0x32, 0xbd,
    0x1e, 0x67, 0x61, 0x3e, 0xe9, 0x74, 0x68, 0xbd, 0x55, 0xa8, 0x77, 0xbd,
    0x20, 0xf9, 0xc0, 0x3e, 0xf1, 0xc5, 0x41, 0x3e, 0x09, 0x7c, 0x69, 0x3e,
    0x0f, 0x68, 0xfc, 0x3d, 0x98, 0x44, 0xa0, 0x3e, 0x1c, 0x19, 0xd3, 0x3e,
    0x8b, 0xa3, 0x7f, 0x3e, 0x56, 0x5a, 0x9d, 0x3e, 0xf5, 0xea, 0xa0, 0x3d,
    0xa5, 0xc4, 0xab, 0x3e, 0x28, 0xd4, 0xa6, 0x3e, 0xe9, 0x6b, 0x2d, 0x3e,
    0xae, 0xc4, 0x52, 0x3e, 0x2b, 0x91, 0x6f, 0x3e, 0x5d, 0xc8, 0x80, 0x3d,
    0x58, 0xae, 0x93, 0x3e, 0x96, 0xca, 0xff, 0xff, 0x04, 0x00, 0x00, 0x00,
    0x04, 0x00, 0x00, 0x00, 0x01, 0x00, 0x00, 0x00, 0xa6, 0xca, 0xff, 0xff,
    0x04, 0x00, 0x00, 0x00, 0x00, 0x04, 0x00, 0x00, 0xc8, 0x32, 0xfa, 0x3c,
    0xee, 0x6a, 0xf2, 0x3d, 0xea, 0xbe, 0x08, 0x3c, 0xd0, 0x15, 0x46, 0x3e,
    0x88, 0x0d, 0xe3, 0xbd, 0x2d, 0x7a, 0x74, 0xbb, 0x8a, 0x2c, 0x8e, 0xbe,
    0x7a, 0x9c, 0xb9, 0x3d, 0xe2, 0xa1, 0x18, 0xbc, 0x17, 0x54, 0x85, 0x3e,
    0xe2, 0x3e, 0xad, 0xbc, 0xcc, 0x6d, 0x2d, 0xbe, 0x2e, 0xa8, 0x54, 0x3e,
    0x25, 0x27, 0x28, 0x3e, 0x7b, 0x92, 0xc3, 0x3c, 0x6d, 0xc1, 0xa3, 0xbd,
    0xa5, 0x55, 0x7f, 0x3e, 0x06, 0xb8, 0x8c, 0x3e, 0xdf, 0x44, 0xb1, 0xbe,
    0xca, 0x7b, 0xb0, 0xbe, 0x5d, 0xfc, 0x3d, 0x3e, 0xd2, 0xb0, 0xd6, 0xbe,
    0xf4, 0x2e, 0xd7, 0x3c, 0xd2, 0xe0, 0xa0, 0x3d, 0x31, 0xa9, 0x09, 0x3e,
    0xc4, 0x38, 0x39, 0xbe, 0x05, 0x3b, 0x23, 0x3e, 0xc9, 0x56, 0x83, 0x3e,
    0xbf, 0x9a, 0x8e, 0xbe, 0x61, 0x33, 0xbc, 0x3e, 0xa9, 0x18, 0xa1, 0x3e,
    0xd7, 0x00, 0x8f, 0x3e, 0x3a, 0xf3, 0x88, 0x3d, 0x06, 0xca, 0x9c, 0xbe,
    0x29, 0x43, 0xd4, 0x3e, 0xd7, 0x1d, 0xca, 0x3d, 0xf8, 0xd0, 0x96, 0x3d,
    0xa9, 0x45, 0x59, 0x3e, 0x17, 0x74, 0x7c, 0xbe, 0x3c, 0xfd, 0x70, 0x3e,
    0xa4, 0xbd, 0x60, 0x3e, 0x96, 0xea, 0x01, 0x3f, 0x27, 0x9f, 0x17, 0x3e,
    0x98, 0xb6, 0xd1, 0xbe, 0xaf, 0x68, 0x40, 0xbe, 0x84, 0xfa, 0x1b, 0xbd,
    0xa8, 0x7c, 0x0b, 0x3d, 0x4c, 0xd1, 0xbe, 0xbe, 0x43, 0xaa, 0x31, 0x3e,
    0x5f, 0xb5, 0x44, 0x3e, 0x22, 0xd7, 0x2e, 0x3e, 0x9f, 0x68, 0x4b, 0x3b,
    0xe7, 0x31, 0x37, 0x3e, 0xc9, 0x19, 0xf0, 0x3d, 0xc1, 0x44, 0x2c, 0xbd,
    0x23, 0xa2, 0x11, 0x3e, 0x79, 0x1a, 0x70, 0xbc, 0x11, 0x8f, 0x0b, 0x3e,
    0x2b, 0x63, 0x81, 0xbc, 0x10, 0x3d, 0xac, 0xbe, 0x59, 0x04, 0x83, 0xbe,
    0xd8, 0x3c, 0x2d, 0xbd, 0xac, 0xd9, 0xc3, 0xbe, 0x1f, 0x4c, 0xf9, 0xbd,
    0xaf, 0xeb, 0xcc, 0x3d, 0x29, 0xe3, 0x3a, 0x3e, 0x77, 0x7c, 0xc4, 0xbe,
    0xe1, 0x9e, 0x65, 0xbe, 0x2b, 0x3c, 0xa9, 0x3d, 0xa2, 0xc2, 0x30, 0xbd,
    0xa9, 0x64, 0x42, 0xbe, 0xd1, 0xb7, 0xae, 0xbe, 0x68, 0x74, 0x3c, 0xbe,
    0x3e, 0x8a, 0xf4, 0x3d, 0x20, 0x12, 0x22, 0xbe, 0xb9, 0xd9, 0xa6, 0x3e,
    0xb4, 0x5b, 0xfa, 0x3d, 0xe4, 0x47, 0x15, 0x3e, 0xa8, 0x83, 0xa8, 0xbd,
    0x30, 0xf2, 0x4a, 0x3e, 0x09, 0x4d, 0x9c, 0x3e, 0x8a, 0xe4, 0x9a, 0x3e,
    0xb6, 0xbe, 0x8e, 0xbe, 0x4f, 0xf0, 0x7d, 0x3e, 0x89, 0xad, 0x7b, 0x3e,
    0x36, 0x63, 0xe9, 0xbe, 0xbf, 0x85, 0xf3, 0x3e, 0x8d, 0xc2, 0x0f, 0x3e,
    0x4e, 0xeb, 0x14, 0xbd, 0x1c, 0x65, 0xaa, 0xbe, 0x2b, 0x21, 0x9b, 0xbe,
    0x63, 0xfc, 0x2a, 0x3e, 0x0f, 0x3b, 0x79, 0xbe, 0xb5, 0x80, 0xbd, 0x3c,
    0xe6, 0xf2, 0x49, 0x3e, 0x37, 0x6a, 0x81, 0x3e, 0x63, 0xcb, 0x3c, 0x3e,
    0x47, 0x05, 0x99, 0x3d, 0x0f, 0x02, 0x3b, 0x3d, 0x42, 0x82, 0x3e, 0xbe,
    0x8c, 0x14, 0xe0, 0x3c, 0x1a, 0x7b, 0xd8, 0x3e, 0xb2, 0x0b, 0x81, 0x3d,
    0xd8, 0x55, 0xb5, 0x3e, 0xc9, 0x22, 0x12, 0xbe, 0x1d, 0xe3, 0x9f, 0x3e,
    0x2b, 0x34, 0xf0, 0xbd, 0xfc, 0xcc, 0xfb, 0xbe, 0xe9, 0x22, 0x86, 0x3e,
    0x3d, 0xc9, 0xef, 0x3c, 0x43, 0x02, 0xeb, 0x3e, 0x87, 0xa3, 0x15, 0xbd,
    0xa1, 0x26, 0x10, 0xbe, 0x97, 0xc9, 0x1b, 0xbe, 0x84, 0xb2, 0xec, 0xbd,
    0x9b, 0xd1, 0x67, 0xbe, 0xfd, 0x0a, 0x46, 0xbc, 0x41, 0x97, 0x91, 0x3e,
    0xf3, 0xe4, 0xaf, 0xbe, 0x5d, 0xfa, 0x61, 0x3d, 0xa3, 0x0a, 0x05, 0x3d,
    0x05, 0x0a, 0x9d, 0xbe, 0x13, 0x1c, 0x25, 0xbe, 0x93, 0x95, 0xcf, 0xbe,
    0x7e, 0x82, 0x51, 0x3e, 0x98, 0xed, 0xf2, 0x3d, 0x67, 0xf1, 0xc7, 0xbe,
    0x5f, 0x93, 0x53, 0x3e, 0xfb, 0x38, 0x16, 0xbe, 0x3e, 0xec, 0x63, 0x3e,
    0xf8, 0x56, 0x2f, 0xbe, 0x9d, 0xcd, 0xc9, 0xbd, 0x76, 0xb6, 0x81, 0x3e,
    0x3c, 0x7c, 0x08, 0xbe, 0x06, 0x3d, 0xe9, 0x3d, 0x11, 0x4b, 0xb2, 0xbd,
    0xce, 0xbf, 0xd8, 0x3d, 0x9c, 0x82, 0x0d, 0xbe, 0xde, 0x6c, 0xed, 0x3d,
    0xd1, 0x71, 0x82, 0xbe, 0xfd, 0xa1, 0x7b, 0x3d, 0x74, 0x52, 0x0b, 0xbe,
    0x58, 0x7e, 0xd9, 0x3d, 0x26, 0x62, 0x10, 0x3e, 0x7b, 0xc9, 0x91, 0xbc,
    0xbb, 0x9f, 0x9d, 0x3d, 0x38, 0x74, 0xa4, 0xbe, 0xf0, 0xb7, 0x1d, 0xbe,
    0x8b, 0xe3, 0x0b, 0x3e, 0xd6, 0x7d, 0x9d, 0x3e, 0x46, 0xbe, 0x75, 0x3e,
    0x8f, 0xdf, 0xb4, 0x3d, 0xc8, 0x0a, 0x4f, 0xbc, 0xba, 0xea, 0x60, 0x3e,
    0xed, 0xe4, 0x19, 0x3d, 0xf8, 0x5c, 0x0d, 0xbf, 0x1f, 0x99, 0x60, 0x3e,
    0x0a, 0x54, 0xe6, 0x3d, 0xe4, 0xe8, 0x88, 0x3e, 0x2d, 0xda, 0x82, 0xbd,
    0xa6, 0x30, 0x22, 0x3d, 0x33, 0x5a, 0x52, 0xbe, 0xb9, 0xae, 0x2d, 0xbe,
    0xa5, 0x9f, 0x04, 0x3e, 0x6e, 0xb4, 0x35, 0x3e, 0xc0, 0xc6, 0x8d, 0xbd,
    0xe5, 0x0f, 0x6e, 0x3e, 0x86, 0xa6, 0x4c, 0xbc, 0xa2, 0x18, 0xb8, 0x3e,
    0xfe, 0xea, 0xc7, 0xbd, 0xe2, 0x2c, 0x96, 0x3e, 0x98, 0xdc, 0x31, 0xbd,
    0x29, 0xbd, 0x15, 0xbd, 0x10, 0x36, 0x80, 0xbe, 0x98, 0x3c, 0xd2, 0xbd,
    0x17, 0xab, 0x72, 0x3d, 0x5a, 0x3f, 0x68, 0x3e, 0x24, 0xc1, 0xc5, 0x3d,
    0xb3, 0x01, 0x88, 0xbd, 0x62, 0x97, 0xfa, 0xbd, 0xa6, 0x83, 0x94, 0x3d,
    0x17, 0x20, 0xbe, 0x3e, 0xec, 0x53, 0x4b, 0xbe, 0x7a, 0xf3, 0x4b, 0x3e,
    0xbd, 0xaa, 0x53, 0xbe, 0x6e, 0xe2, 0x08, 0x3d, 0x4a, 0xfb, 0x8c, 0x3d,
    0x22, 0xeb, 0x8e, 0x3d, 0x24, 0x47, 0x6a, 0xbe, 0xb7, 0xd5, 0xa6, 0x3e,
    0x0e, 0xe4, 0x69, 0xbe, 0x2d, 0x7e, 0x93, 0x3e, 0x79, 0x56, 0x7d, 0xbe,
    0x0e, 0x2f, 0xc7, 0x3e, 0xa9, 0xad, 0x7b, 0xbc, 0x24, 0xdc, 0x7c, 0x3e,
    0x2d, 0x07, 0xa9, 0x3e, 0xe8, 0x38, 0xa7, 0x3e, 0xe9, 0x08, 0x87, 0x3d,
    0x8a, 0x98, 0xbe, 0xbc, 0x92, 0x1e, 0x1d, 0x3e, 0x6a, 0x58, 0x64, 0x3e,
    0x6c, 0x2e, 0x0c, 0xbe, 0x12, 0x5b, 0x89, 0xbd, 0x22, 0x15, 0x91, 0xbd,
    0xa1, 0x3d, 0xea, 0x3d, 0x7c, 0x92, 0x98, 0x3d, 0x21, 0x98, 0x5b, 0x3e,
    0xb8, 0x98, 0xbc, 0x3e, 0x0b, 0xd4, 0xd4, 0x3e, 0x5e, 0x4b, 0x02, 0xbe,
    0x94, 0x41, 0x93, 0xbe, 0xdf, 0xc8, 0x0f, 0xbe, 0xf7, 0xa3, 0x33, 0xbe,
    0x45, 0xea, 0xb2, 0x3e, 0x09, 0x55, 0x33, 0x3e, 0x01, 0xc8, 0x28, 0x3c,
    0xa5, 0x99, 0x8e, 0xbd, 0x2f, 0xf9, 0xcb, 0xbe, 0x9f, 0x69, 0x40, 0x3e,
    0x81, 0x3d, 0xde, 0xbc, 0x05, 0xed, 0x08, 0x3d, 0x07, 0x4d, 0xb9, 0x3e,
    0x6f, 0x35, 0x65, 0x3e, 0xe2, 0x17, 0x53, 0xbe, 0x16, 0xcd, 0x21, 0xbe,
    0x70, 0x28, 0xb1, 0x3d, 0xee, 0x71, 0xc8, 0xbe, 0x1f, 0x9b, 0x52, 0xbe,
    0xea, 0xb0, 0x8b, 0x3e, 0x4c, 0xe1, 0x69, 0xbe, 0xd7, 0x82, 0xba, 0x3e,
    0xdb, 0xd8, 0xc8, 0x3d, 0x33, 0x18, 0x8e, 0x3e, 0xe6, 0xc6, 0xa8, 0x3e,
    0xf2, 0x7e, 0x8f, 0xbe, 0x00, 0x47, 0x8b, 0x3e, 0x63, 0x15, 0xa7, 0x3e,
    0xcb, 0x70, 0xf1, 0x3e, 0x8d, 0xb0, 0xc7, 0xbd, 0xba, 0x06, 0xf1, 0xbb,
    0x70, 0x09, 0x86, 0x3e, 0xac, 0xd4, 0x66, 0xbd, 0xd6, 0x0a, 0xb7, 0xbd,
    0xd7, 0x98, 0x99, 0x3d, 0x5e, 0xc7, 0x47, 0x3e, 0x67, 0x66, 0xce, 0xbe,
    0x80, 0x58, 0x94, 0x3e, 0x40, 0x30, 0x2d, 0xbe, 0x04, 0xdb, 0xa6, 0xbd,
    0x54, 0xde, 0xbb, 0x3e, 0x3b, 0x9a, 0xd1, 0xbe, 0xca, 0x7a, 0x13, 0x3e,
    0xb4, 0xd8, 0xea, 0x3d, 0x12, 0x59, 0xe7, 0xbd, 0xf6, 0xa3, 0x07, 0x3e,
    0xb2, 0xce, 0xff, 0xff, 0x04, 0x00, 0x00, 0x00, 0x00, 0x10, 0x00, 0x00,
    0xbe, 0x58, 0xeb, 0x3e, 0x42, 0x94, 0xbe, 0x3c, 0xa1, 0x12, 0x0d, 0x3d,
    0x16, 0x0d, 0x81, 0xbe, 0x1d, 0x53, 0xf8, 0x3e, 0x27, 0x4c, 0xaa, 0xbd,
    0xd3, 0x14, 0x62, 0xbe, 0x75, 0x90, 0x3e, 0x3d, 0xae, 0x3f, 0x7a, 0xbe,
    0xf9, 0x38, 0x60, 0xbc, 0x58, 0xe8, 0xb4, 0xbd, 0xdc, 0xfc, 0x6f, 0xbe,
    0x38, 0x4e, 0x0e, 0xbe, 0x54, 0x79, 0x95, 0x3e, 0xb1, 0x7c, 0xda, 0xbd,
    0xa4, 0xad, 0x08, 0x3e, 0x47, 0x80, 0x0f, 0x3f, 0xc1, 0xbb, 0x9b, 0x3e,
    0x0b, 0xb3, 0x15, 0x3d, 0xd9, 0xdb, 0x13, 0xbd, 0xfd, 0xeb, 0x1b, 0x3f,
    0x20, 0x0f, 0x35, 0xbe, 0xbf, 0x3e, 0x33, 0x3d, 0x43, 0x79, 0x51, 0x3b,
    0x8e, 0x98, 0x08, 0xbe, 0x82, 0x53, 0x31, 0x3d, 0x63, 0x4a, 0x60, 0xbe,
    0x11, 0xba, 0xb6, 0x3d, 0x51, 0xe4, 0xf2, 0xbc, 0xe8, 0xc8, 0x97, 0x3e,
    0xb1, 0x09, 0xd6, 0xbd, 0xbc, 0x2e, 0xe5, 0x3d, 0x42, 0x82, 0x38, 0x3e,
    0x14, 0x9c, 0xd4, 0x3d, 0xea, 0xb5, 0x31, 0xbe, 0xdc, 0x09, 0x18, 0x3e,
    0x8b, 0xd8, 0x85, 0x3e, 0xbd, 0x86, 0x86, 0xbe, 0x40, 0xc2, 0x82, 0xbc,
    0x6a, 0x10, 0x48, 0xbd, 0xf7, 0x58, 0x93, 0xba, 0xfa, 0x97, 0x3b, 0xbe,
    0xad, 0x20, 0x1c, 0xbe, 0x59, 0x1e, 0xd0, 0x3d, 0xe9, 0xcf, 0x82, 0xbd,
    0x30, 0x1b, 0xd0, 0x3d, 0x29, 0x25, 0xa9, 0xbd, 0x08, 0xe5, 0x93, 0x3e,
    0xda, 0x78, 0x9d, 0x3e, 0x08, 0x43, 0x97, 0x3d, 0xcc, 0x9f, 0x31, 0xbe,
    0x9e, 0x7b, 0xf5, 0xbd, 0xf2, 0x98, 0x29, 0x3e, 0x93, 0xd7, 0x7e, 0x3d,
    0x48, 0x32, 0x22, 0xbd, 0x87, 0x6e, 0x3c, 0xbc, 0x5d, 0xb1, 0x4c, 0xbd,
    0x66, 0x91, 0x0a, 0xbe, 0xe2, 0x85, 0x1a, 0xbe, 0x82, 0x5e, 0x6a, 0xbb,
    0x01, 0x5f, 0x1c, 0xbe, 0x3f, 0x55, 0x74, 0x3e, 0x53, 0xb3, 0x14, 0x3d,
    0x76, 0xf4, 0x80, 0x3e, 0x3e, 0xb3, 0x0f, 0x3f, 0x00, 0xc5, 0x82, 0x3e,
    0x3e, 0xe0, 0xd9, 0x3e, 0xad, 0x3b, 0xbf, 0xbe, 0x7b, 0x5b, 0x9b, 0x3e,
    0xef, 0xfb, 0x11, 0x3e, 0x9f, 0x4a, 0x38, 0xbe, 0xd1, 0xaf, 0xf5, 0x3e,
    0x33, 0x2c, 0x89, 0xbe, 0xbe, 0xbd, 0x9d, 0x3e, 0xa4, 0xba, 0xe2, 0x3d,
    0x8f, 0x94, 0xd8, 0xbe, 0x2b, 0xee, 0x25, 0x3e, 0xd4, 0xad, 0x7e, 0x3b,
    0x63, 0x3b, 0x3a, 0x3e, 0x46, 0xa7, 0x61, 0x3d, 0x38, 0xf3, 0x9b, 0xbd,
    0xed, 0x78, 0x86, 0x3e, 0xa9, 0x6e, 0x4f, 0x3e, 0xb9, 0x19, 0x9a, 0xbd,
    0xef, 0x18, 0x61, 0xbe, 0xa9, 0x56, 0xe2, 0xbe, 0x68, 0xb4, 0x71, 0x3d,
    0x19, 0xfc, 0xd7, 0x3d, 0xb4, 0x46, 0x4f, 0xbd, 0x34, 0x56, 0xb0, 0xbc,
    0xc4, 0x13, 0xfe, 0x3e, 0xf7, 0x16, 0x80, 0xbe, 0xd7, 0xd4, 0x1f, 0x3e,
    0x39, 0x47, 0xb2, 0xbd, 0x73, 0x89, 0x0a, 0x3e, 0x61, 0x02, 0x94, 0xbe,
    0x1e, 0x30, 0xfe, 0x3d, 0x03, 0xad, 0x9b, 0x3e, 0x8a, 0x27, 0xdf, 0xbc,
    0x9b, 0x12, 0x1d, 0x3b, 0x0b, 0x9e, 0x5a, 0xbe, 0x6f, 0x42, 0xc2, 0xbe,
    0xf4, 0x0f, 0xab, 0xbe, 0x9e, 0x19, 0x2b, 0x3d, 0xcc, 0xd8, 0xc1, 0x3e,
    0xcb, 0xda, 0x1d, 0xbe, 0x9d, 0x8a, 0x6f, 0xbd, 0x7f, 0x61, 0x05, 0xbe,
    0x62, 0x0f, 0x49, 0xbd, 0x22, 0xcd, 0xa1, 0x3d, 0x1f, 0xf5, 0xdc, 0xbd,
    0x1f, 0xf9, 0x64, 0xbe, 0x65, 0x3e, 0xa4, 0x3e, 0x1f, 0x9a, 0xc8, 0x3d,
    0x76, 0x4b, 0xe1, 0x3d, 0xf5, 0xc4, 0x99, 0xbe, 0x37, 0x00, 0x09, 0xbd,
    0x7b, 0x6c, 0xc7, 0xbd, 0x62, 0x54, 0x7a, 0xbe, 0xa5, 0xd5, 0x7d, 0x3e,
    0x1f, 0x2a, 0x8b, 0xbe, 0xc5, 0x45, 0xd6, 0xbe, 0xd4, 0xa4, 0xa1, 0xbc,
    0x6f, 0x6e, 0x8f, 0xbd, 0xd1, 0x0e, 0x87, 0xbe, 0xc9, 0xcf, 0x98, 0x3e,
    0x30, 0x7f, 0x30, 0x3c, 0xb3, 0x88, 0xa9, 0x3e, 0x92, 0xf2, 0xb7, 0xbb,
    0x6b, 0x26, 0x79, 0xbd, 0x47, 0xf2, 0x5b, 0x3e, 0x8a, 0x67, 0x39, 0xbd,
    0x4b, 0xc2, 0x85, 0x3c, 0x9d, 0xb1, 0x96, 0xbe, 0x3a, 0x10, 0xf4, 0x3c,
    0xa2, 0x04, 0xbc, 0x3e, 0x86, 0x5f, 0x10, 0xbd, 0xaf, 0xe6, 0x53, 0x3e,
    0x80, 0xec, 0x80, 0x3e, 0xa7, 0xb3, 0x06, 0xbd, 0x75, 0xc5, 0x91, 0x3c,
    0x71, 0x4e, 0xa9, 0xbe, 0xea, 0x2b, 0x35, 0xbc, 0xf8, 0xe1, 0x8d, 0xbe,
    0x6c, 0x8d, 0x4f, 0x3e, 0xd2, 0x4c, 0x92, 0x3e, 0x62, 0xea, 0x36, 0xbd,
    0x0b, 0x7e, 0x08, 0x3d, 0xb1, 0xb3, 0x3c, 0x3e, 0x7a, 0x81, 0xb8, 0xbd,
    0xcb, 0xc5, 0x09, 0xbe, 0x8a, 0x29, 0xe2, 0x3c, 0x3c, 0x06, 0x13, 0xbd,
    0x92, 0x9d, 0xc4, 0xbd, 0x34, 0x85, 0xbd, 0xbd, 0x78, 0x26, 0x4b, 0x3c,
    0x85, 0xb6, 0x20, 0xbf, 0x30, 0x89, 0x64, 0x3e, 0x28, 0xf7, 0x02, 0xbd,
    0xef, 0x07, 0xd5, 0x3e, 0x55, 0xcc, 0xad, 0x3e, 0xbb, 0xbc, 0x33, 0x3e,
    0x96, 0x08, 0xd0, 0x3d, 0x34, 0x87, 0xb1, 0xbe, 0xa7, 0x91, 0xae, 0x3e,
    0x05, 0x0e, 0xe9, 0x3e, 0x87, 0x0c, 0x91, 0x3e, 0x58, 0x24, 0x7a, 0x3e,
    0xe6, 0x28, 0x10, 0xbf, 0x72, 0x7d, 0xe1, 0x3c, 0xad, 0x04, 0x5f, 0x3e,
    0xbb, 0x42, 0x93, 0xbe, 0x9d, 0xcc, 0xef, 0x3e, 0x2f, 0xab, 0x0a, 0x3e,
    0x70, 0x8c, 0xc3, 0x3d, 0x4f, 0x13, 0x6e, 0xbd, 0xae, 0x0e, 0x2c, 0x3e,
    0x3d, 0x7a, 0x91, 0x3e, 0xa3, 0xe3, 0xd5, 0x3e, 0x82, 0xe3, 0xf8, 0xbe,
    0x0f, 0x26, 0x17, 0x3e, 0x6e, 0x62, 0x1b, 0x3f, 0x24, 0xb6, 0x23, 0x3f,
    0xf0, 0xb6, 0xd5, 0x3e, 0xf1, 0x0a, 0x62, 0xbe, 0x35, 0x14, 0x98, 0x3e,
    0x0b, 0xfe, 0x8f, 0x3e, 0x2c, 0xcc, 0x82, 0x3d, 0xbf, 0x1c, 0xa4, 0x3e,
    0x41, 0x87, 0x8b, 0x3e, 0xdf, 0x51, 0xc4, 0xbd, 0xb1, 0x80, 0x36, 0xbd,
    0x31, 0xed, 0x03, 0x3d, 0x63, 0xb0, 0xb6, 0xbc, 0x5d, 0x71, 0x37, 0x3d,
    0xc7, 0x4e, 0xc5, 0xbd, 0x09, 0x8e, 0xba, 0x3e, 0x71, 0x53, 0x1b, 0x3e,
    0x65, 0x50, 0xd0, 0xbe, 0xc3, 0xdc, 0x20, 0xbe, 0x67, 0xdc, 0x71, 0xbe,
    0xb0, 0x34, 0xec, 0x3c, 0xdf, 0x60, 0xa8, 0x3e, 0x9d, 0xd5, 0xb0, 0xbe,
    0x5a, 0x5d, 0xea, 0xbd, 0x21, 0x49, 0x88, 0x3e, 0x72, 0xb2, 0xc1, 0x3d,
    0x85, 0x1a, 0x24, 0x3e, 0xbd, 0x5f, 0x8d, 0x3e, 0x94, 0xe6, 0xc9, 0x3e,
    0xd3, 0xdd, 0xe7, 0x3b, 0xeb, 0xcc, 0xde, 0xbe, 0xa8, 0x1c, 0xcc, 0x3e,
    0x2c, 0x58, 0xfa, 0xbe, 0xab, 0x24, 0xc3, 0xbe, 0x13, 0x53, 0x89, 0xbd,
    0x2e, 0xc1, 0x7e, 0x3e, 0x1e, 0x20, 0x32, 0x3e, 0xda, 0x43, 0x42, 0xbe,
    0xa3, 0x9b, 0x1e, 0xbd, 0x30, 0x65, 0x06, 0xbd, 0x0d, 0x97, 0x3c, 0x3e,
    0xbe, 0x66, 0x4f, 0xbe, 0x78, 0x1e, 0xa1, 0xbd, 0x60, 0xbc, 0x98, 0x3d,
    0x1d, 0x61, 0x05, 0x3e, 0x03, 0xef, 0x03, 0x3e, 0x01, 0x4c, 0xdf, 0x3c,
    0x34, 0x96, 0x9f, 0x3e, 0x10, 0xbc, 0x80, 0x3d, 0x20, 0xcb, 0x9e, 0x3d,
    0xaa, 0x9e, 0x91, 0xbe, 0x48, 0xc6, 0x22, 0x3e, 0x57, 0x42, 0x0c, 0xbe,
    0x4f, 0x5c, 0x99, 0xbd, 0x62, 0x31, 0xc0, 0x3c, 0x5d, 0x26, 0xa0, 0xbd,
    0x1a, 0x26, 0x74, 0x3d, 0x6f, 0xaa, 0x88, 0xbe, 0xe1, 0xea, 0xb8, 0xbe,
    0xc7, 0xaf, 0x01, 0x3e, 0x47, 0xbb, 0x29, 0x3c, 0xd9, 0x2b, 0x06, 0x3e,
    0xf1, 0xf0, 0x68, 0x3d, 0x70, 0xec, 0xb4, 0x3e, 0x4a, 0x1c, 0xa8, 0xbe,
    0xcf, 0x71, 0xd5, 0xbd, 0x8c, 0x4d, 0x0e, 0xbd, 0x2c, 0xe8, 0x8f, 0xbd,
    0x65, 0xd4, 0x0d, 0xbd, 0x28, 0x0c, 0xaf, 0x3d, 0xca, 0x70, 0xb8, 0xbe,
    0x06, 0xd6, 0xbf, 0x3d, 0x03, 0x55, 0x4d, 0xbd, 0x36, 0xaa, 0x81, 0xbe,
    0x27, 0x1c, 0x17, 0x3d, 0x8b, 0x11, 0x12, 0x3f, 0x64, 0x90, 0x1d, 0x3b,
    0x63, 0x98, 0x4a, 0x3e, 0xfc, 0x62, 0x0d, 0xbe, 0x71, 0x70, 0x81, 0x3e,
    0x02, 0xc6, 0x45, 0x3d, 0xba, 0x2d, 0xe6, 0xbe, 0x6e, 0xbe, 0xad, 0xbe,
    0x8b, 0x8c, 0x9b, 0xbe, 0x39, 0x0e, 0x85, 0x3c, 0x05, 0xce, 0x8a, 0xbd,
    0x62, 0x75, 0x95, 0xbd, 0x61, 0xbf, 0x06, 0xbe, 0x17, 0xdd, 0x02, 0x3f,
    0x29, 0xa9, 0x34, 0x3e, 0x8a, 0x6c, 0x91, 0x3e, 0xd2, 0x89, 0xa3, 0x3e,
    0x2a, 0xf1, 0x92, 0xbd, 0x42, 0xc0, 0xe7, 0xbd, 0xbe, 0x4c, 0x40, 0x3e,
    0x18, 0x02, 0xcb, 0x3e, 0x5b, 0x4d, 0x7d, 0xbc, 0x8e, 0x28, 0xbb, 0x3d,
    0x6b, 0x05, 0x0c, 0xbd, 0xf6, 0xb4, 0x85, 0x3e, 0xc4, 0x15, 0x9d, 0x3c,
    0xe1, 0x80, 0x42, 0xbc, 0xc5, 0xfc, 0xf5, 0x3d, 0x68, 0xa1, 0xba, 0x3d,
    0x7e, 0x5f, 0x0a, 0x3e, 0x80, 0x32, 0xca, 0xbd, 0xf7, 0xf5, 0xd8, 0xbd,
    0x5b, 0x36, 0x2f, 0x3e, 0xf8, 0x85, 0x16, 0x3e, 0xca, 0x88, 0xa3, 0x3d,
    0xb2, 0xe0, 0x12, 0x3e, 0xb3, 0x38, 0x72, 0xbd, 0x7a, 0x41, 0x91, 0xbe,
    0x22, 0x20, 0xce, 0xbd, 0x2a, 0xc4, 0xf7, 0x3c, 0xbe, 0xb5, 0x1a, 0x3e,
    0x0f, 0x6b, 0x03, 0xbe, 0xe2, 0x6a, 0x58, 0x3e, 0x93, 0xcf, 0x09, 0x3d,
    0x58, 0xe6, 0x5e, 0x3d, 0x09, 0x59, 0x08, 0x3e, 0x66, 0x0d, 0x50, 0xbe,
    0x4e, 0x32, 0xe7, 0x3d, 0x47, 0xe3, 0x3f, 0x3e, 0xd5, 0x21, 0x81, 0xbd,
    0x50, 0x85, 0xf2, 0x3d, 0xeb, 0xce, 0x95, 0xbd, 0x81, 0xa4, 0x19, 0x3e,
    0xaf, 0x0d, 0x5f, 0x3e, 0x13, 0xbb, 0x03, 0x3e, 0x82, 0x80, 0x27, 0x3d,
    0xeb, 0x91, 0x61, 0xbc, 0xdf, 0x3d, 0xd2, 0xbd, 0x05, 0x46, 0xd4, 0x3c,
    0xef, 0x39, 0x5d, 0xbc, 0xcf, 0x18, 0x22, 0xbe, 0xc4, 0x91, 0x34, 0x3e,
    0x8a, 0xc6, 0x7f, 0xbe, 0x45, 0xad, 0x8f, 0x3d, 0xb8, 0xa9, 0x01, 0x3f,
    0x46, 0x02, 0x53, 0x3e, 0x1d, 0xb1, 0x81, 0xbd, 0xdb, 0xc5, 0xd1, 0xbe,
    0x7d, 0x3c, 0x86, 0x3e, 0x7f, 0x88, 0x19, 0x3e, 0xbf, 0x18, 0x82, 0xbd,
    0xc0, 0xcc, 0xd2, 0xbd, 0x57, 0xff, 0xb4, 0xbe, 0xc0, 0xc4, 0x53, 0x3e,
    0xa1, 0x1c, 0xda, 0x3d, 0x96, 0x80, 0x91, 0xbe, 0xfd, 0x95, 0x33, 0x3e,
    0xde, 0x5a, 0xcf, 0x3e, 0x28, 0xb8, 0x4b, 0xbd, 0xb5, 0xbf, 0xd3, 0x3d,
    0xe1, 0xea, 0xad, 0xbc, 0xe3, 0xd5, 0x12, 0x3e, 0x44, 0x24, 0x81, 0x3e,
    0xf5, 0x14, 0xab, 0x3d, 0x0e, 0xcd, 0x8d, 0xbe, 0x39, 0xbc, 0x1a, 0xbf,
    0xa5, 0xdb, 0x61, 0xbe, 0xb7, 0x35, 0xbb, 0x3d, 0x21, 0xd3, 0x34, 0xbd,
    0xc7, 0x1a, 0x7a, 0xbc, 0xf2, 0xdd, 0x16, 0x3e, 0x21, 0xdd, 0xb0, 0xbd,
    0xdb, 0x2b, 0x33, 0x3d, 0xef, 0x80, 0x05, 0xbe, 0x78, 0x7f, 0xa3, 0xbe,
    0xa3, 0x69, 0x3e, 0xbe, 0x8a, 0x9b, 0x57, 0xbd, 0x65, 0x51, 0x8c, 0x3e,
    0xd1, 0xb4, 0xc5, 0xbd, 0x55, 0x25, 0x9c, 0x3d, 0x53, 0xac, 0x0f, 0xbe,
    0x81, 0xe9, 0xf6, 0xbe, 0x98, 0xea, 0x62, 0xbe, 0x36, 0xd5, 0x4a, 0xbe,
    0x25, 0xe6, 0x97, 0x3e, 0xe0, 0x54, 0x5c, 0x3b, 0x3b, 0x1e, 0x7d, 0xbd,
    0x76, 0x61, 0xee, 0x3e, 0x24, 0x5b, 0x7b, 0xbd, 0xb4, 0xd8, 0x2a, 0xbe,
    0xd9, 0xd7, 0x71, 0xbd, 0x88, 0x61, 0x22, 0xbe, 0xed, 0x84, 0x99, 0x3d,
    0x8a, 0x9c, 0xf0, 0xbd, 0x11, 0x23, 0xa8, 0x3d, 0xbf, 0xf5, 0xf0, 0xbc,
    0xa4, 0xfd, 0x01, 0xbc, 0x65, 0xe2, 0xab, 0x3c, 0xf8, 0xd8, 0x52, 0x3e,
    0xd2, 0xa8, 0x5d, 0x3d, 0x6e, 0xf0, 0x82, 0xbe, 0x1a, 0x94, 0xa3, 0xbe,
    0x35, 0x3a, 0xe8, 0x3c, 0xe1, 0x06, 0x9e, 0xbc, 0xed, 0x5f, 0x82, 0xbe,
    0xa2, 0x33, 0x90, 0x3e, 0x2f, 0xde, 0x3f, 0x3e, 0xff, 0x45, 0xb5, 0x3e,
    0x37, 0x2a, 0x07, 0xbe, 0x11, 0xb5, 0xfa, 0x3d, 0x22, 0xda, 0x7e, 0x3d,
    0xcb, 0x40, 0x2f, 0xbd, 0x82, 0xce, 0xb2, 0xbe, 0xe0, 0xc3, 0x8e, 0xbe,
    0xea, 0x17, 0xe3, 0xbe, 0xcc, 0x60, 0xf4, 0x3b, 0xd8, 0x7c, 0x1c, 0xbe,
    0xbc, 0x2b, 0x20, 0x3e, 0x97, 0x39, 0x57, 0x3e, 0xab, 0x97, 0x34, 0xbe,
    0x51, 0x19, 0xea, 0x3d, 0xd7, 0x96, 0xdb, 0xbe, 0x88, 0xe9, 0xae, 0xbb,
    0xd1, 0xf5, 0x76, 0xbd, 0xa1, 0xd4, 0x93, 0x3d, 0xd3, 0x1b, 0x61, 0x3e,
    0xa8, 0x63, 0x8c, 0xbd, 0xf8, 0x83, 0xd3, 0x3d, 0x4e, 0x45, 0xee, 0x3e,
    0x8a, 0xc3, 0xe5, 0xbd, 0x72, 0xaf, 0x13, 0xbe, 0x27, 0x16, 0x3d, 0xbe,
    0xdc, 0x49, 0x11, 0xbe, 0xc6, 0x0b, 0x72, 0xbe, 0x78, 0x07, 0x55, 0x3e,
    0xed, 0x47, 0x32, 0xbd, 0xd3, 0xf4, 0x86, 0xbe, 0xb8, 0x0b, 0xb2, 0x3e,
    0x66, 0xad, 0x23, 0xbe, 0x1a, 0x28, 0xaa, 0x3e, 0xab, 0x99, 0x86, 0x3e,
    0x3c, 0x1a, 0xa6, 0x3e, 0x69, 0x0d, 0x3b, 0x3e, 0x49, 0x92, 0x59, 0xbd,
    0x37, 0xec, 0x2e, 0x3e, 0x5f, 0xde, 0xf1, 0x3e, 0x84, 0xae, 0x11, 0x3f,
    0xfa, 0x35, 0x43, 0x3e, 0x6a, 0x65, 0xfa, 0xbe, 0x0c, 0x06, 0xc5, 0x3d,
    0x98, 0x43, 0x64, 0x3e, 0xc3, 0x24, 0xe3, 0xbe, 0xaa, 0xd7, 0x6d, 0x3e,
    0x87, 0x92, 0xa9, 0x3e, 0x27, 0x40, 0x08, 0xbe, 0x61, 0x77, 0x01, 0x3e,
    0xb3, 0x38, 0xed, 0xbd, 0xd2, 0x60, 0xda, 0xbc, 0x9a, 0xf8, 0x30, 0xbd,
    0x49, 0xec, 0xb0, 0xbe, 0x0a, 0x95, 0x85, 0xbe, 0x90, 0xed, 0x8a, 0x3e,
    0xf9, 0xdf, 0xea, 0x3e, 0x4a, 0x86, 0x68, 0x3d, 0x51, 0x79, 0x76, 0xbe,
    0xff, 0xba, 0x9b, 0x3e, 0x2f, 0x7f, 0x1e, 0x3f, 0x72, 0x46, 0x35, 0x3d,
    0x56, 0x4f, 0x82, 0x3d, 0x30, 0x2f, 0x4e, 0x3e, 0x73, 0xc6, 0xe6, 0xbd,
    0x22, 0x40, 0x3a, 0xbe, 0x62, 0x0c, 0xa8, 0x3c, 0x1d, 0x9a, 0x2c, 0x3e,
    0xa9, 0xbc, 0xc5, 0xbd, 0x17, 0x0a, 0x09, 0xbe, 0x9a, 0x42, 0x8a, 0xbd,
    0x91, 0xb1, 0x57, 0x3e, 0x05, 0xa9, 0x04, 0xbe, 0x8c, 0x2a, 0xd4, 0xbd,
    0xa1, 0xe6, 0x86, 0xbe, 0x71, 0x84, 0x68, 0x3c, 0x67, 0xed, 0x09, 0xbc,
    0x45, 0x5e, 0x2e, 0xbe, 0x6f, 0xf6, 0x28, 0xbd, 0x0e, 0x5d, 0xa3, 0xb9,
    0x2a, 0x8d, 0x7a, 0xbe, 0x83, 0x65, 0xc2, 0xbd, 0xe7, 0xac, 0xb9, 0x3e,
    0xa9, 0xc3, 0x66, 0x3e, 0x6e, 0xed, 0x60, 0xbd, 0x0c, 0xf9, 0x89, 0xbd,
    0xad, 0x9f, 0xbd, 0x3e, 0x4d, 0x69, 0xcf, 0xbd, 0xe7, 0x59, 0xf0, 0xbe,
    0xc0, 0x01, 0x80, 0xbb, 0xa2, 0xc6, 0x50, 0x3e, 0xd5, 0xae, 0xf9, 0x3d,
    0x13, 0xf2, 0x42, 0x3e, 0x8f, 0x01, 0xd0, 0xbc, 0x18, 0x90, 0x78, 0x3c,
    0xb3, 0x5e, 0xba, 0xbd, 0x65, 0x73, 0xaf, 0xbe, 0x4c, 0x57, 0xde, 0xbd,
    0x96, 0xf0, 0x83, 0xbc, 0x2f, 0xaf, 0xfd, 0x3d, 0xe9, 0xa1, 0x7b, 0x3e,
    0xc0, 0x37, 0xae, 0x3c, 0xdd, 0x3b, 0x8e, 0x3d, 0x0e, 0x99, 0x55, 0xbe,
    0x42, 0xb3, 0xcd, 0x3c, 0x7f, 0x59, 0xef, 0xbd, 0x48, 0x80, 0x54, 0xb9,
    0x93, 0x03, 0x87, 0x3d, 0xe3, 0x63, 0xb9, 0xbd, 0xa5, 0x9d, 0xf0, 0xbd,
    0x22, 0xe7, 0x3c, 0x3e, 0x23, 0x97, 0x14, 0x3e, 0xf6, 0xee, 0x45, 0xbc,
    0x96, 0xe3, 0x36, 0xbe, 0xe4, 0x33, 0xaa, 0xbd, 0xa9, 0xbe, 0xdd, 0x3d,
    0xaf, 0x7f, 0x32, 0x3e, 0xb8, 0xcb, 0x2f, 0x3e, 0x64, 0xb2, 0x80, 0xbd,
    0x8e, 0x7d, 0x49, 0xbd, 0x76, 0x25, 0x9f, 0xbe, 0xc8, 0x46, 0xad, 0xbc,
    0xbb, 0xf4, 0xb1, 0xbc, 0x8e, 0x16, 0xf9, 0xbe, 0x75, 0x1e, 0x60, 0x3d,
    0xfa, 0x6e, 0xa7, 0x3d, 0x17, 0x81, 0x89, 0xbd, 0x57, 0xff, 0x07, 0xbc,
    0xab, 0x3b, 0x49, 0x3e, 0xf7, 0xdb, 0x01, 0xbe, 0x8f, 0x7c, 0x3e, 0x3e,
    0xe5, 0x35, 0x69, 0xbd, 0x61, 0x16, 0xc5, 0xbc, 0xea, 0x22, 0x83, 0x3d,
    0x94, 0x5e, 0x7d, 0x3e, 0xfb, 0x92, 0x9a, 0xbe, 0x73, 0x5f, 0x9b, 0xbd,
    0xd2, 0x03, 0x2e, 0xbe, 0x4e, 0x01, 0x88, 0x3d, 0xf7, 0xfb, 0x4c, 0xbe,
    0xe3, 0x44, 0xa1, 0xbe, 0xab, 0x03, 0x38, 0x3e, 0x55, 0x5f, 0xc4, 0xbd,
    0xe6, 0xb0, 0x43, 0x3e, 0x08, 0x36, 0x5c, 0x3d, 0x19, 0xa6, 0xcd, 0x3e,
    0x13, 0x84, 0xb2, 0xbc, 0x5b, 0x9b, 0x9d, 0x3d, 0x99, 0x42, 0x6f, 0x3e,
    0x7f, 0x10, 0xa3, 0xbe, 0xd4, 0x11, 0x9b, 0x3e, 0x6f, 0xab, 0x06, 0x3d,
    0x2c, 0x26, 0x3d, 0xbd, 0xec, 0x91, 0x6f, 0x3d, 0x31, 0xa8, 0x10, 0xbc,
    0x16, 0xc2, 0x5b, 0x3e, 0x31, 0xa8, 0x3e, 0xbe, 0x92, 0x5b, 0xb1, 0x3d,
    0xaa, 0x3a, 0x3a, 0xbd, 0x38, 0xfa, 0xdd, 0x3d, 0xbc, 0x2f, 0x48, 0x3b,
    0xf7, 0xaf, 0xfc, 0xbd, 0x94, 0x23, 0x2b, 0x3d, 0xb3, 0x86, 0x12, 0x3d,
    0x08, 0xa7, 0x69, 0xbd, 0x15, 0x3e, 0x44, 0xbe, 0x80, 0xa2, 0x2d, 0xbe,
    0xf4, 0x63, 0x91, 0x3d, 0x01, 0xd4, 0xec, 0xbd, 0x5b, 0x70, 0x08, 0x3f,
    0xc9, 0x51, 0x53, 0x3c, 0x3e, 0x20, 0xeb, 0x3e, 0x69, 0x50, 0x0c, 0x3e,
    0xbe, 0x1a, 0x67, 0xbe, 0x1f, 0xb5, 0x38, 0xbd, 0x6c, 0x74, 0x8e, 0x3d,
    0x4b, 0x01, 0x31, 0xbc, 0x69, 0x84, 0x8d, 0xbe, 0x43, 0xaf, 0x02, 0xbd,
    0x35, 0xaf, 0x25, 0xbe, 0x23, 0x95, 0xca, 0xbe, 0x67, 0x69, 0xfb, 0xbd,
    0x75, 0x2d, 0x6b, 0xbd, 0x29, 0xc5, 0xc2, 0x3e, 0xb0, 0xd3, 0x16, 0x3d,
    0x0b, 0xb4, 0x9f, 0xbe, 0xff, 0xa0, 0xe6, 0x3d, 0x55, 0x68, 0xf1, 0xbe,
    0x3d, 0x2a, 0x8a, 0xbd, 0x06, 0x7d, 0xc2, 0x3d, 0x14, 0x78, 0xb1, 0xbd,
    0xd0, 0x88, 0xeb, 0x3d, 0x73, 0x95, 0xcf, 0x3d, 0x63, 0x96, 0xb6, 0x3e,
    0x0f, 0xf7, 0x12, 0x3d, 0xdb, 0x3f, 0x7d, 0x3d, 0x9e, 0x28, 0xa0, 0x3d,
    0x9a, 0xd1, 0x08, 0xbe, 0xaf, 0x4f, 0x43, 0x3e, 0x83, 0x57, 0xf1, 0x3c,
    0x20, 0x73, 0x91, 0x3e, 0x8e, 0x23, 0x0a, 0xbe, 0x2b, 0xd4, 0x50, 0xbd,
    0x2e, 0x84, 0x8d, 0x3d, 0xfa, 0xbe, 0xa1, 0xbe, 0xaa, 0x2b, 0xc0, 0x3d,
    0x2c, 0xac, 0x64, 0xbe, 0xb2, 0xce, 0x77, 0x3e, 0xe9, 0xda, 0xdc, 0x3d,
    0x59, 0x5b, 0x81, 0x3e, 0x50, 0x38, 0x64, 0xbe, 0x54, 0x47, 0xb4, 0x3c,
    0x43, 0x41, 0xa3, 0x3d, 0x03, 0x4b, 0xbb, 0x3d, 0x95, 0xc8, 0xa5, 0x3c,
    0xc5, 0xf7, 0x94, 0x3e, 0xcd, 0x7e, 0x7d, 0x3e, 0x81, 0x8a, 0x00, 0x3e,
    0x65, 0x81, 0x82, 0xbe, 0xeb, 0x64, 0x3f, 0x3e, 0x34, 0xb9, 0x8e, 0x3e,
    0xea, 0xb7, 0x1f, 0xbe, 0xdd, 0xc6, 0x1f, 0x3e, 0x5d, 0x48, 0xe5, 0x3d,
    0xec, 0x85, 0xf1, 0x3d, 0xaf, 0x17, 0xd7, 0xbe, 0x1a, 0x31, 0xf7, 0xbc,
    0xec, 0xd2, 0xea, 0x3d, 0xfb, 0xe3, 0xb8, 0x3e, 0xec, 0x51, 0x5c, 0xbe,
    0x28, 0x15, 0x0e, 0x3e, 0x6c, 0x0e, 0x8f, 0xba, 0xf9, 0x5e, 0xb4, 0x3e,
    0xf3, 0x4d, 0xab, 0x3e, 0xda, 0x73, 0x2e, 0xbe, 0x0d, 0x4d, 0xcb, 0x3d,
    0xc6, 0x7c, 0xcb, 0x3e, 0xd9, 0x3c, 0xad, 0x3e, 0x3d, 0x37, 0x8b, 0x3e,
    0x15, 0xfb, 0x6a, 0xbe, 0x17, 0xda, 0x80, 0xbe, 0xd2, 0x0b, 0xb8, 0xbe,
    0x70, 0x02, 0xa8, 0x3d, 0xd4, 0xc8, 0x17, 0xbd, 0xb4, 0xf0, 0x6a, 0x3e,
    0xb1, 0x59, 0x76, 0xbd, 0xa9, 0xce, 0x1a, 0xbe, 0x4a, 0x16, 0x0d, 0xbe,
    0x51, 0x35, 0x83, 0xbe, 0xc1, 0x28, 0xba, 0x3e, 0x2b, 0x56, 0x80, 0x3e,
    0xc5, 0x49, 0x2a, 0x3f, 0x64, 0x7e, 0x6a, 0x3e, 0xdd, 0x1f, 0x3f, 0x3e,
    0x73, 0x1e, 0xc6, 0x3d, 0x73, 0x3c, 0x7e, 0x3d, 0xe7, 0x1a, 0xb9, 0xbe,
    0x5c, 0x37, 0x55, 0xbe, 0x0f, 0x8a, 0x43, 0x3e, 0xeb, 0x08, 0x1e, 0xbe,
    0xf2, 0xd1, 0x5f, 0xbd, 0xa3, 0x01, 0xc3, 0xbd, 0x07, 0x16, 0xb4, 0x3d,
    0xfa, 0xf8, 0xaa, 0xbe, 0xd3, 0xa4, 0xa5, 0x3d, 0x00, 0x5a, 0x22, 0xba,
    0x3a, 0x5a, 0x87, 0x3e, 0x31, 0x25, 0xaf, 0xbb, 0x5b, 0xc9, 0xae, 0xbe,
    0xa8, 0xeb, 0x66, 0x3e, 0xdd, 0x79, 0x01, 0xbe, 0x24, 0xd8, 0x51, 0x3e,
    0xe2, 0xe7, 0xc1, 0xbd, 0x4d, 0x4a, 0x05, 0x3e, 0xd2, 0x0d, 0xc5, 0x3e,
    0x31, 0x7a, 0xbf, 0x3c, 0x53, 0x2e, 0x71, 0x3e, 0x50, 0xa6, 0x63, 0xbe,
    0x9d, 0x43, 0xd5, 0xbd, 0x35, 0x36, 0xa5, 0x3b, 0x5d, 0xb8, 0x18, 0x3b,
    0x10, 0x00, 0x8f, 0x3e, 0x5a, 0xf3, 0x2b, 0x3e, 0xb9, 0x57, 0x9d, 0x3e,
    0x1f, 0x6a, 0x38, 0x3e, 0x15, 0x1b, 0xa2, 0xbe, 0x05, 0xb3, 0xc7, 0xbd,
    0x55, 0x14, 0x96, 0xbd, 0x93, 0x8b, 0x43, 0xbc, 0xdb, 0x5b, 0xc7, 0xbe,
    0x95, 0x75, 0x47, 0xbe, 0x31, 0x5f, 0x1a, 0xbe, 0xdc, 0x50, 0x7a, 0xbe,
    0x92, 0x00, 0xa6, 0x3e, 0xb5, 0xb7, 0x71, 0xbe, 0x81, 0x9b, 0xd4, 0x3e,
    0xfc, 0x9f, 0x2a, 0xbe, 0x4e, 0xb7, 0x01, 0x3e, 0xa9, 0xcb, 0xbd, 0xbe,
    0xab, 0xc3, 0xac, 0x3e, 0x15, 0x33, 0x40, 0x3e, 0x03, 0x22, 0xd8, 0xbd,
    0x0c, 0x6f, 0xa0, 0xbd, 0x78, 0x96, 0x1c, 0x3d, 0x90, 0x2a, 0x91, 0xbd,
    0x7b, 0xd6, 0x41, 0xbe, 0x72, 0x3c, 0x71, 0x3e, 0x1f, 0x06, 0x54, 0xbe,
    0xd5, 0x40, 0x80, 0x3e, 0x57, 0x7e, 0x6a, 0xbe, 0x23, 0xaf, 0xc6, 0x3e,
    0xed, 0x96, 0xbd, 0xbe, 0x10, 0xa9, 0x87, 0x3e, 0x6b, 0x73, 0xe8, 0xbc,
    0xf6, 0x8a, 0xc8, 0x3d, 0x5d, 0xb3, 0x4a, 0xbd, 0xae, 0xa1, 0x81, 0xbe,
    0x5f, 0xdd, 0x01, 0x3e, 0xbb, 0x43, 0x38, 0xbe, 0xaf, 0xe2, 0x20, 0x3d,
    0xc2, 0x84, 0xb1, 0xbb, 0xeb, 0x01, 0x0d, 0x3e, 0xe1, 0x9f, 0xb7, 0xbe,
    0x8e, 0x82, 0xee, 0xbb, 0x93, 0x2b, 0xd3, 0x3d, 0x94, 0xd5, 0xb6, 0x3d,
    0xae, 0x52, 0xa4, 0xbe, 0x3e, 0x5f, 0x10, 0xbd, 0x3f, 0x83, 0x14, 0xbb,
    0xe8, 0xb2, 0xaa, 0x3d, 0x93, 0x8f, 0x31, 0xbe, 0x0a, 0x39, 0x0e, 0x3e,
    0x2c, 0xe8, 0xb0, 0x3e, 0x3c, 0xd9, 0x6d, 0xbe, 0x22, 0xde, 0x05, 0x3e,
    0x71, 0xfc, 0x17, 0xbd, 0x61, 0x43, 0x93, 0xbc, 0x12, 0xa9, 0x0a, 0xbf,
    0x04, 0xec, 0x1a, 0x3f, 0x63, 0xcf, 0x88, 0xbd, 0xc6, 0x64, 0x59, 0xbe,
    0x28, 0xf6, 0xca, 0xbd, 0x85, 0x54, 0xbd, 0x3e, 0xca, 0xbf, 0xa1, 0xbd,
    0x8a, 0x7d, 0x3e, 0x3c, 0x86, 0x83, 0xeb, 0xbd, 0xf2, 0x02, 0x96, 0x3c,
    0xa4, 0xba, 0x1d, 0xbe, 0xdd, 0x03, 0x23, 0xbe, 0xae, 0x95, 0xd2, 0xbd,
    0x61, 0x38, 0xaf, 0xbe, 0x7c, 0x8d, 0x5d, 0x3e, 0xb3, 0x31, 0x85, 0x3e,
    0xe2, 0x11, 0x07, 0x3e, 0xc4, 0x91, 0x37, 0xbe, 0x99, 0x06, 0xb6, 0xbd,
    0x1b, 0x24, 0x82, 0xbd, 0x03, 0xf6, 0x2b, 0xbd, 0xec, 0xc4, 0x66, 0xbe,
    0x42, 0x8d, 0x9b, 0x3e, 0xe3, 0xc0, 0x15, 0xbe, 0x6a, 0xf0, 0x55, 0xbe,
    0x0c, 0xf2, 0xd8, 0x3c, 0x48, 0x3e, 0x62, 0xbe, 0x48, 0xf7, 0x19, 0x3d,
    0x31, 0xb3, 0x31, 0xbe, 0x79, 0x05, 0x42, 0x3e, 0x98, 0xb5, 0x98, 0xbc,
    0x49, 0x56, 0x12, 0x3e, 0x06, 0xc1, 0x20, 0x3d, 0xbe, 0x92, 0x77, 0x3e,
    0x73, 0x8f, 0x12, 0xbd, 0xbf, 0xa4, 0x31, 0xbd, 0x2c, 0x37, 0xbd, 0xbd,
    0x7c, 0xe9, 0x52, 0x3e, 0x83, 0x37, 0x57, 0xbd, 0xa5, 0xc4, 0x15, 0x3d,
    0x41, 0x31, 0x86, 0xbe, 0x43, 0x45, 0x81, 0xbe, 0xc1, 0x85, 0x99, 0xbe,
    0x3f, 0xba, 0xc7, 0xbe, 0x63, 0x61, 0x65, 0x3e, 0x6b, 0xa6, 0x2d, 0xbc,
    0xcb, 0xee, 0x99, 0x3d, 0xdc, 0x54, 0x12, 0xbc, 0x9c, 0x64, 0xba, 0xbc,
    0x33, 0x43, 0xe9, 0x3e, 0x39, 0x55, 0x19, 0x3e, 0x4f, 0x9a, 0x1e, 0x3e,
    0x2a, 0x6f, 0x3d, 0xbe, 0x10, 0xe7, 0x99, 0x3e, 0x2e, 0xd5, 0x43, 0xbe,
    0x3c, 0xf9, 0xc5, 0xbe, 0xf8, 0x7f, 0x3a, 0x3e, 0xef, 0xe8, 0xc4, 0xbd,
    0x8f, 0x8c, 0x16, 0xbc, 0x90, 0xc6, 0x9c, 0xbd, 0xb6, 0xab, 0xd9, 0x3d,
    0x72, 0x85, 0xd2, 0xbd, 0xea, 0x3e, 0x09, 0x3f, 0xf4, 0x58, 0x88, 0xbd,
    0xf4, 0xae, 0x9b, 0x3d, 0x72, 0xaa, 0xc0, 0x3e, 0x5e, 0xa4, 0xf8, 0x3e,
    0xbd, 0x43, 0x36, 0xbd, 0xbb, 0x60, 0x01, 0xbe, 0x5f, 0x2a, 0xcf, 0x3e,
    0xdc, 0x23, 0x80, 0xbe, 0x79, 0x67, 0x40, 0xbe, 0xda, 0xd1, 0x8a, 0x3d,
    0xaf, 0xe7, 0x34, 0x3e, 0x2c, 0x2b, 0x9d, 0x3e, 0x76, 0xc2, 0x96, 0x3c,
    0xf6, 0x5a, 0xcc, 0x3e, 0x47, 0x03, 0xcd, 0xbd, 0x00, 0x92, 0x0b, 0x3f,
    0x1f, 0x00, 0xc3, 0xbe, 0xce, 0x53, 0x41, 0x3d, 0x41, 0x7e, 0x5f, 0x3e,
    0x49, 0xf2, 0x35, 0x3d, 0xa2, 0xe9, 0x5c, 0xbe, 0x70, 0x6c, 0xb0, 0x3e,
    0x13, 0x37, 0x73, 0x3e, 0xfd, 0xd3, 0xc8, 0xbe, 0xe2, 0xc4, 0x74, 0xbe,
    0xb9, 0x1e, 0x60, 0xbe, 0x0d, 0x47, 0xb6, 0xbd, 0x5d, 0xb1, 0xd8, 0xbe,
    0xbe, 0x6f, 0xbd, 0xbc, 0x8b, 0x2b, 0x7b, 0xbe, 0x07, 0xeb, 0x96, 0xbd,
    0x6b, 0x7f, 0xe9, 0x3e, 0x02, 0x1c, 0x3e, 0xbd, 0xdd, 0x55, 0x85, 0x3e,
    0xb8, 0x7a, 0x8e, 0x3e, 0x1f, 0xfb, 0xc9, 0x3d, 0x9a, 0xfc, 0x4b, 0xbe,
    0xbb, 0x51, 0xf7, 0xbd, 0xcc, 0xd5, 0xb6, 0x3e, 0x96, 0xdf, 0x2c, 0x3c,
    0x09, 0xa0, 0xd8, 0x3d, 0x62, 0x35, 0x4a, 0xbe, 0x7a, 0xc9, 0x56, 0x3e,
    0xb5, 0x91, 0x97, 0xbd, 0x49, 0xa9, 0xaf, 0xbe, 0xc1, 0x78, 0xe1, 0x3c,
    0x3e, 0x0f, 0xae, 0x3d, 0xc6, 0x4f, 0xaa, 0x3e, 0xdb, 0x5e, 0x32, 0x3e,
    0x75, 0xd1, 0x5d, 0x3e, 0x4e, 0xac, 0x23, 0x3f, 0x00, 0xd4, 0xb0, 0x3e,
    0x8f, 0x37, 0xfa, 0x3e, 0xaa, 0x28, 0xd0, 0xbe, 0x33, 0x7c, 0xa0, 0x3e,
    0x57, 0x99, 0x20, 0x3e, 0x9e, 0x9e, 0x6f, 0xbd, 0xe5, 0x3e, 0x8b, 0x3e,
    0x2e, 0x09, 0x11, 0xbe, 0x03, 0x4a, 0x2f, 0x3f, 0x3c, 0xab, 0xfb, 0x3d,
    0xfb, 0x5f, 0xbf, 0xbe, 0xa6, 0x7c, 0xf2, 0xbc, 0xa6, 0x37, 0x2f, 0x3e,
    0x86, 0x85, 0x82, 0x3d, 0x42, 0xce, 0x6b, 0xbe, 0x6e, 0xea, 0x0d, 0xbe,
    0x82, 0xf3, 0xa8, 0x3e, 0x56, 0x5d, 0x11, 0xbe, 0xc5, 0x72, 0xf8, 0xbd,
    0x48, 0x7d, 0x2e, 0xbe, 0xdf, 0xb8, 0x9d, 0xbe, 0x1e, 0xb3, 0x3d, 0xbe,
    0x53, 0x09, 0xcb, 0x3e, 0xe5, 0x12, 0x13, 0xbe, 0x7c, 0xff, 0x83, 0xbe,
    0xc7, 0x9c, 0xf5, 0x3e, 0xba, 0x65, 0x81, 0xbe, 0xce, 0xb5, 0x25, 0x3e,
    0x4f, 0x5b, 0x94, 0x3c, 0xfb, 0x03, 0x9a, 0xbe, 0x65, 0x3c, 0x0d, 0xbe,
    0x0b, 0xcf, 0xa0, 0xbc, 0x64, 0x7a, 0x8d, 0x3e, 0x45, 0x09, 0xb8, 0xbd,
    0xa7, 0xcd, 0x80, 0x3e, 0x59, 0x6b, 0xf4, 0x3d, 0xf9, 0xb2, 0x14, 0xbf,
    0x20, 0xfc, 0xf7, 0xbe, 0xaa, 0xd7, 0x05, 0xbd, 0x10, 0x1a, 0xd1, 0x3e,
    0xeb, 0x95, 0xb1, 0xbc, 0x02, 0x88, 0x27, 0xbd, 0x22, 0x05, 0x8b, 0x3c,
    0xa3, 0x90, 0xa1, 0xbd, 0x31, 0x64, 0x80, 0xbd, 0x4f, 0x5a, 0x21, 0xbd,
    0xbb, 0xfc, 0x2e, 0xbe, 0x14, 0x79, 0xd8, 0x3e, 0x99, 0x73, 0xc2, 0xbd,
    0x8b, 0x6a, 0xbc, 0xbd, 0xb2, 0x0e, 0x46, 0x3e, 0xbf, 0xc8, 0x71, 0xbd,
    0x3e, 0x68, 0x93, 0xbe, 0x9d, 0x32, 0x0c, 0x3d, 0x36, 0xe8, 0x9d, 0xbb,
    0x08, 0x3d, 0x96, 0x3d, 0xb5, 0x15, 0x39, 0xbe, 0x80, 0xd9, 0x8b, 0xbd,
    0x3c, 0x1f, 0xba, 0xbc, 0xb6, 0x55, 0xa1, 0xbd, 0xb7, 0x32, 0xa7, 0x3e,
    0x99, 0x64, 0x24, 0x3e, 0x95, 0x73, 0xb9, 0x3e, 0x01, 0x25, 0x72, 0xbe,
    0x5c, 0x80, 0xc6, 0x3d, 0x8f, 0x0e, 0x9f, 0x3e, 0x21, 0x98, 0xd8, 0x3b,
    0xb6, 0xbd, 0x6d, 0xbe, 0x63, 0xad, 0x61, 0x3e, 0xa1, 0x8f, 0xa1, 0x3c,
    0xad, 0x3c, 0x6a, 0x3e, 0x1e, 0x8e, 0xe5, 0xbd, 0x6f, 0x95, 0xc2, 0x3e,
    0x6a, 0xb4, 0xc6, 0x3d, 0x8d, 0xcc, 0x14, 0xbe, 0xb9, 0xaa, 0x9e, 0x3d,
    0x1b, 0x3d, 0xce, 0xbe, 0xcb, 0x07, 0x36, 0xbd, 0xfc, 0x39, 0xc1, 0xbe,
    0x77, 0x8c, 0x97, 0x3e, 0x17, 0x43, 0x7d, 0x3e, 0xbe, 0x6a, 0x2d, 0xbe,
    0xfe, 0x73, 0xe4, 0xbd, 0xca, 0x6b, 0x63, 0x3e, 0xd4, 0x9a, 0x48, 0xbe,
    0x31, 0xf3, 0x3a, 0xbe, 0x72, 0x3b, 0x16, 0xbe, 0xb2, 0xbb, 0x6e, 0xbd,
    0x89, 0x98, 0x59, 0xbe, 0xc1, 0xe5, 0x53, 0x3e, 0x80, 0xa7, 0x0c, 0x3d,
    0x3b, 0xd9, 0x40, 0xbe, 0xb9, 0x90, 0xf9, 0x3e, 0x3e, 0x9f, 0x46, 0xbe,
    0xfd, 0xd0, 0xae, 0x3e, 0xf1, 0xf9, 0x78, 0x3e, 0x26, 0x45, 0x18, 0x3f,
    0xe0, 0x18, 0x9e, 0x3e, 0xcf, 0xfb, 0x86, 0xbe, 0xf9, 0x72, 0x06, 0x3e,
    0x1d, 0x32, 0xa9, 0x3e, 0xc5, 0x7c, 0xec, 0x3e, 0xb9, 0xe5, 0x64, 0x3e,
    0x09, 0x46, 0xad, 0xbe, 0x22, 0xa9, 0xeb, 0x3d, 0xe2, 0xbc, 0xc1, 0x3e,
    0x50, 0xe7, 0xf8, 0xbe, 0x80, 0x56, 0x1a, 0x3e, 0xba, 0xc7, 0x9d, 0x3e,
    0x7a, 0x7e, 0x75, 0x3d, 0x44, 0xd0, 0x81, 0xbc, 0xd5, 0xb2, 0x6b, 0xbd,
    0x4d, 0xe7, 0x35, 0x3e, 0x6a, 0x45, 0xd3, 0x3e, 0xcb, 0x96, 0xc3, 0xbe,
    0xcf, 0x2a, 0xa0, 0xbe, 0x25, 0xc9, 0x00, 0x3f, 0xa1, 0x25, 0xfa, 0x3e,
    0x70, 0x8c, 0x19, 0x3e, 0x76, 0xd3, 0xc0, 0xbd, 0x58, 0x02, 0x78, 0x3e,
    0x51, 0x6b, 0xa9, 0x3d, 0x07, 0x5f, 0x8d, 0xbe, 0x05, 0xc7, 0x9e, 0x3e,
    0xbf, 0x9d, 0x54, 0x3e, 0xc4, 0x02, 0x8a, 0xbe, 0x17, 0x94, 0x32, 0x3d,
    0x4e, 0x96, 0x81, 0x3e, 0xb1, 0xe8, 0x3c, 0x3e, 0x6c, 0xe7, 0xca, 0xbd,
    0xe4, 0x0e, 0x00, 0x3e, 0x3b, 0xef, 0xb9, 0xbc, 0x89, 0xfb, 0x18, 0x3e,
    0xf8, 0x80, 0x37, 0xbd, 0x14, 0xd1, 0x86, 0x3d, 0xbf, 0x98, 0xf5, 0xbd,
    0xce, 0x96, 0xb1, 0xbe, 0xdd, 0xd1, 0xb6, 0x3e, 0x41, 0x89, 0x5c, 0xbe,
    0xa0, 0x2c, 0xeb, 0x3d, 0xae, 0xc9, 0xc1, 0x3d, 0x1b, 0x36, 0x90, 0xbc,
    0x90, 0x66, 0xa5, 0x3e, 0x7f, 0x04, 0x29, 0x3f, 0xe0, 0xd4, 0x9c, 0x3e,
    0x5d, 0x4e, 0xeb, 0x3d, 0x42, 0xa4, 0x70, 0xbe, 0x58, 0x9f, 0xa7, 0x3e,
    0x0e, 0x4f, 0x86, 0xbe, 0x35, 0xc4, 0x00, 0xbf, 0xc8, 0x72, 0x84, 0xbd,
    0xf8, 0xbb, 0xa2, 0x3d, 0xb6, 0x3b, 0x26, 0x3c, 0x61, 0x23, 0x33, 0xbe,
    0x27, 0xc5, 0x92, 0xbd, 0xd8, 0x3a, 0x99, 0xbe, 0xe3, 0xa2, 0x32, 0x3e,
    0xc9, 0xcc, 0x53, 0xbe, 0x2d, 0x3c, 0x63, 0x3e, 0x01, 0x1f, 0x28, 0x3e,
    0xdb, 0xcd, 0x0c, 0xbd, 0xe8, 0x63, 0x8f, 0x3e, 0xea, 0xa8, 0x7e, 0xbe,
    0x3b, 0x33, 0x4a, 0x3e, 0x2a, 0xe1, 0xc8, 0xb9, 0xc1, 0x84, 0xad, 0x3e,
    0x59, 0x31, 0xa9, 0xbd, 0x20, 0x9b, 0xc4, 0xbd, 0x69, 0xd6, 0xc2, 0x3e,
    0xa1, 0x24, 0x83, 0x3e, 0x0d, 0xcb, 0x41, 0xbd, 0x2f, 0x5e, 0x43, 0x3e,
    0x46, 0x56, 0x6b, 0x3d, 0x6e, 0xd3, 0x48, 0x3c, 0x79, 0x21, 0x08, 0xbd,
    0xd2, 0xf8, 0xa5, 0x3e, 0x92, 0x7e, 0xcc, 0x3e, 0x14, 0xe4, 0xf6, 0xbd,
    0xe8, 0xbc, 0x45, 0x3e, 0xc1, 0x66, 0xdc, 0x3e, 0x24, 0x76, 0xfd, 0xbc,
    0xac, 0xe9, 0xd9, 0xbe, 0x47, 0x31, 0xa0, 0xbe, 0x06, 0x8a, 0x35, 0xbe,
    0x29, 0x41, 0x5e, 0xbe, 0x14, 0xff, 0xf4, 0x3d, 0xbe, 0x45, 0x59, 0x3e,
    0x2d, 0xbf, 0x93, 0x3d, 0x96, 0x2f, 0x14, 0x3e, 0x08, 0xb2, 0xd7, 0xbd,
    0x1d, 0x42, 0x9d, 0x3e, 0xbe, 0xde, 0xff, 0xff, 0x04, 0x00, 0x00, 0x00,
    0x00, 0x04, 0x00, 0x00, 0xbc, 0x09, 0xd6, 0x3e, 0x0b, 0x75, 0xca, 0x3e,
    0xe8, 0x8d, 0x2c, 0x3e, 0x4b, 0x87, 0xcd, 0xbd, 0xc1, 0x69, 0xf0, 0x3d,
    0x94, 0x77, 0x32, 0x3e, 0xca, 0x02, 0x3f, 0xbb, 0xeb, 0xf9, 0xa9, 0x3e,
    0x8d, 0x70, 0x2c, 0x3e, 0xfb, 0xd0, 0xfe, 0x3e, 0xda, 0x3c, 0x60, 0x3d,
    0x49, 0x0d, 0x01, 0x3f, 0xe3, 0xb5, 0x56, 0xbe, 0x22, 0x37, 0x7d, 0x3e,
    0x50, 0xcf, 0x62, 0xbe, 0xb6, 0x53, 0x70, 0x3e, 0x7e, 0xa2, 0x18, 0x3f,
    0x81, 0xc7, 0x8f, 0x3d, 0xf0, 0x58, 0x12, 0xbf, 0xb3, 0xf4, 0x82, 0xbd,
    0x55, 0xff, 0x8a, 0x3e, 0xca, 0xf4, 0xf9, 0xbc, 0xce, 0xec, 0xc4, 0xbe,
    0xa9, 0x87, 0xda, 0x3d, 0x14, 0x5f, 0x3a, 0x3e, 0x11, 0x02, 0x03, 0xbf,
    0x7e, 0xc6, 0x27, 0xbe, 0x6b, 0x7f, 0x22, 0xbe, 0x41, 0xb6, 0xe5, 0xbe,
    0x94, 0xde, 0x2c, 0x3f, 0x18, 0x6a, 0x76, 0x3e, 0x49, 0x2a, 0x3b, 0x3e,
    0xf7, 0x72, 0x12, 0x3e, 0x33, 0x92, 0x91, 0x3b, 0xc0, 0x88, 0xa6, 0x3d,
    0xa8, 0xe9, 0x02, 0x3f, 0x01, 0x90, 0x3b, 0xbe, 0x6b, 0x0d, 0x9f, 0xbe,
    0x77, 0xcf, 0xb6, 0xbe, 0x7e, 0xf9, 0x02, 0xbf, 0x30, 0x7d, 0x81, 0xbe,
    0x32, 0x11, 0x05, 0xbf, 0x6f, 0x5e, 0xcd, 0xbe, 0x48, 0x1b, 0xa4, 0xbd,
    0x4c, 0x0f, 0x1d, 0xbf, 0x22, 0xc7, 0xdf, 0x3e, 0x90, 0x92, 0xac, 0x3e,
    0x96, 0x56, 0xe1, 0x3e, 0xb3, 0xc3, 0x9f, 0xbe, 0x79, 0xac, 0x80, 0x3c,
    0x2d, 0xf6, 0xb7, 0x3e, 0xc9, 0xdf, 0x13, 0x3e, 0x4f, 0xec, 0x6e, 0x3d,
    0x98, 0x43, 0x35, 0x3e, 0x56, 0x17, 0x6f, 0xbe, 0xda, 0xed, 0x9b, 0x3e,
    0xcf, 0xe9, 0x72, 0x3e, 0x2c, 0x23, 0xe1, 0x3e, 0x09, 0x9d, 0x0b, 0x3f,
    0xe3, 0x75, 0x10, 0xbf, 0xc0, 0x29, 0xe1, 0x3e, 0x82, 0x81, 0x7e, 0xbe,
    0xcd, 0x2a, 0x80, 0x3e, 0x7e, 0xe3, 0xba, 0xbe, 0xae, 0x72, 0xf7, 0xbe,
    0x9c, 0xc5, 0xb2, 0xbe, 0x50, 0x60, 0xc2, 0xbd, 0xc9, 0xa6, 0x6a, 0xbe,
    0x0f, 0xe0, 0x5c, 0xbe, 0xe5, 0x80, 0xc8, 0x3e, 0x27, 0x45, 0xd5, 0x3e,
    0x1e, 0x82, 0x88, 0x3d, 0x2a, 0x99, 0x18, 0xbd, 0x32, 0x83, 0x0f, 0xbd,
    0x6c, 0xa4, 0x98, 0x3e, 0xa4, 0xe4, 0x0b, 0xbf, 0xeb, 0xcf, 0xe3, 0x3d,
    0x33, 0x5d, 0x5a, 0x3e, 0x43, 0x7a, 0x2b, 0xbe, 0x1b, 0x66, 0xf2, 0x3d,
    0x61, 0x7e, 0x07, 0xbe, 0xb4, 0x0c, 0xd8, 0xbc, 0xfb, 0xab, 0x05, 0x3d,
    0xf2, 0xb3, 0x17, 0xbe, 0xb7, 0xba, 0xc0, 0x3d, 0x11, 0x35, 0xcb, 0xbe,
    0xc9, 0xbf, 0x5d, 0xbe, 0x34, 0x20, 0x1e, 0x3f, 0x0b, 0x56, 0x61, 0xbe,
    0x59, 0x5f, 0x31, 0x3f, 0x32, 0x9b, 0x35, 0xbe, 0xf2, 0x3a, 0xdc, 0xbd,
    0xd7, 0x91, 0x24, 0x3e, 0xa8, 0xea, 0x6e, 0x3e, 0x93, 0xab, 0x9b, 0x3e,
    0x9f, 0xc0, 0xec, 0xbe, 0xc7, 0x64, 0xbf, 0xbd, 0x29, 0x31, 0x63, 0x3e,
    0x31, 0x00, 0x8f, 0x3e, 0x9b, 0x15, 0x46, 0x3d, 0x9c, 0x42, 0x2c, 0x3f,
    0x85, 0x4d, 0xe3, 0xbd, 0x08, 0x57, 0xad, 0x3e, 0xaf, 0x8b, 0x9a, 0x3e,
    0x6b, 0xe8, 0x8d, 0x3d, 0x8c, 0x8b, 0x11, 0x3f, 0xc3, 0x75, 0xa0, 0xbe,
    0x54, 0x82, 0x92, 0x3e, 0x8e, 0xe9, 0x94, 0x3e, 0xb7, 0x98, 0xdd, 0x3e,
    0x0d, 0xaa, 0xc9, 0xbe, 0x2c, 0xc6, 0xe2, 0xbd, 0xb2, 0x12, 0xa1, 0xbd,
    0xc7, 0x59, 0x47, 0x3e, 0x29, 0xbe, 0x1d, 0xbd, 0x66, 0x71, 0xa2, 0x39,
    0x50, 0x01, 0x04, 0xbe, 0x65, 0x29, 0x2b, 0x3f, 0xb4, 0x88, 0x93, 0xbe,
    0xb5, 0xd9, 0x2e, 0xbe, 0xe1, 0xbf, 0xd7, 0xbe, 0x95, 0xf0, 0xbf, 0x3e,
    0xb7, 0x0f, 0x14, 0x3f, 0x4c, 0x41, 0xf3, 0xbd, 0xfc, 0x87, 0x9e, 0x3e,
    0xd6, 0x5b, 0xb5, 0xbe, 0xe6, 0x4f, 0x42, 0xbd, 0x56, 0x66, 0x03, 0x3d,
    0x7e, 0x18, 0x05, 0xbe, 0x18, 0xa5, 0xc8, 0x3e, 0xbd, 0x03, 0xad, 0x3e,
    0xc5, 0x1c, 0xec, 0xbd, 0xe6, 0x72, 0x93, 0xbe, 0xa1, 0xab, 0x2f, 0x3e,
    0x10, 0x30, 0xc2, 0x3d, 0xb9, 0x8e, 0xaf, 0x3e, 0x1e, 0x20, 0x10, 0x3d,
    0xee, 0xc5, 0xec, 0x3e, 0xd2, 0xb0, 0xb9, 0xbe, 0xdb, 0xc1, 0x50, 0x3e,
    0xad, 0xbf, 0x8e, 0xbe, 0x2a, 0xd5, 0xa7, 0xbe, 0x63, 0xc2, 0x30, 0x3e,
    0x3a, 0xa0, 0x78, 0x3e, 0xbb, 0x82, 0x2a, 0x3f, 0xca, 0x2a, 0x96, 0xbe,
    0x6c, 0x33, 0xae, 0xbe, 0xd6, 0x56, 0x3a, 0x3e, 0x5e, 0x33, 0xf3, 0x3e,
    0x88, 0x4a, 0x95, 0xbe, 0x98, 0x4e, 0x02, 0x3e, 0x22, 0xf3, 0xc5, 0x3b,
    0xc3, 0xd6, 0x17, 0x3e, 0xf6, 0x85, 0x02, 0x3c, 0x4e, 0xc5, 0x13, 0xbe,
    0x20, 0x19, 0xff, 0x3e, 0x07, 0xdf, 0xac, 0xbe, 0x22, 0x5c, 0xd1, 0x3e,
    0x1a, 0xca, 0x63, 0x3e, 0x74, 0xdc, 0xc9, 0x3e, 0x89, 0x07, 0x09, 0x3f,
    0x34, 0xe1, 0x1c, 0xbf, 0xe1, 0x85, 0x21, 0xbf, 0x2e, 0x08, 0x40, 0x3e,
    0x82, 0x06, 0x06, 0x3d, 0x1d, 0x44, 0xb4, 0xbe, 0xec, 0xec, 0xa0, 0xbe,
    0x64, 0xf6, 0x14, 0xbf, 0xef, 0xa7, 0x51, 0x3c, 0xeb, 0x64, 0x7c, 0xbe,
    0xde, 0x6f, 0xe6, 0xbd, 0x27, 0x4b, 0x8c, 0xbe, 0x53, 0x73, 0xcf, 0x3d,
    0xd1, 0x01, 0xd9, 0xbd, 0x5e, 0x6f, 0xfc, 0x3d, 0x3f, 0x49, 0x2a, 0x3f,
    0xd7, 0xf8, 0x81, 0xbe, 0xe2, 0x9b, 0x88, 0xbe, 0x9a, 0x14, 0xb1, 0x3d,
    0x95, 0x47, 0xa4, 0xbe, 0xa7, 0x12, 0xb9, 0xbe, 0x63, 0x22, 0x34, 0x3f,
    0xda, 0x37, 0x87, 0x3d, 0x7c, 0xeb, 0x93, 0x3e, 0x43, 0x8c, 0xc2, 0xbe,
    0x10, 0x12, 0xa0, 0x3e, 0x5d, 0xf0, 0xb2, 0x3e, 0x7a, 0x3d, 0x01, 0xbf,
    0x42, 0xe0, 0x0d, 0x3e, 0x40, 0x8a, 0xbc, 0x3d, 0x02, 0x95, 0x89, 0xbe,
    0x89, 0x27, 0xa5, 0xbd, 0x72, 0x6b, 0x27, 0x3e, 0x68, 0x63, 0x0b, 0x3f,
    0x89, 0x91, 0x57, 0x3e, 0x23, 0x87, 0x1d, 0xbf, 0xb6, 0xe8, 0x1f, 0xbd,
    0xfe, 0x48, 0xb0, 0xbc, 0x41, 0x2c, 0x48, 0xbe, 0x03, 0x11, 0x0b, 0x3e,
    0xeb, 0x68, 0x06, 0x3e, 0x5c, 0xf6, 0x1c, 0x3f, 0x4a, 0x65, 0x14, 0x3f,
    0x83, 0x6a, 0xc6, 0xbe, 0x7b, 0x68, 0x75, 0xbd, 0x78, 0xca, 0xa4, 0x3d,
    0x61, 0x81, 0x30, 0xbf, 0xeb, 0xa6, 0x62, 0xbe, 0x7a, 0x77, 0xd3, 0x3e,
    0x36, 0x72, 0x03, 0x3f, 0x80, 0x29, 0xa4, 0x3d, 0xd7, 0x6e, 0xf8, 0xbe,
    0xf8, 0x4e, 0x0c, 0x3f, 0x33, 0x5d, 0x28, 0x3d, 0xe1, 0x24, 0xc6, 0x3e,
    0x39, 0x6c, 0xc7, 0x3d, 0x7c, 0x12, 0x76, 0xbd, 0x8a, 0x56, 0x27, 0x3e,
    0xe2, 0xb6, 0xf7, 0xbb, 0x5e, 0xac, 0x71, 0x3e, 0x6b, 0xef, 0xf7, 0xbd,
    0xfc, 0xe1, 0x4e, 0x3e, 0x94, 0x28, 0x0f, 0xbf, 0x62, 0x1a, 0x40, 0xbe,
    0xa6, 0x35, 0x21, 0x3e, 0x8e, 0x81, 0xe5, 0xbe, 0x36, 0xa1, 0xd4, 0xbe,
    0x82, 0x92, 0x2b, 0x3e, 0xaa, 0xdf, 0xa4, 0x3d, 0x30, 0x05, 0x9b, 0xbe,
    0x91, 0x82, 0xf6, 0x3d, 0xf0, 0xb4, 0x80, 0xbe, 0xec, 0xf9, 0xd8, 0xbd,
    0xe7, 0x5c, 0xb6, 0xbe, 0x1d, 0x6a, 0xd6, 0x3d, 0xca, 0x51, 0xec, 0xbd,
    0x84, 0xa1, 0xd8, 0xbe, 0x44, 0x11, 0x61, 0x3e, 0xaa, 0xdb, 0x88, 0x3e,
    0x61, 0xee, 0x83, 0xbd, 0x80, 0xf0, 0x0a, 0xbf, 0x4e, 0x71, 0x02, 0x3f,
    0xa7, 0xdc, 0x7d, 0x3e, 0x06, 0xc7, 0x97, 0xbc, 0x6e, 0x7f, 0x8c, 0x3d,
    0x6d, 0x9f, 0x69, 0x3e, 0x43, 0x40, 0x96, 0xbd, 0xd2, 0x48, 0x6a, 0xbe,
    0x1c, 0x9e, 0xb3, 0x3d, 0x33, 0xc0, 0x1c, 0xbd, 0x2b, 0xe8, 0x0e, 0x3f,
    0x64, 0x88, 0x16, 0xbf, 0x5e, 0x94, 0xef, 0x3e, 0xe8, 0xd4, 0x73, 0xbe,
    0x98, 0xa5, 0x98, 0x3d, 0xa3, 0x21, 0xea, 0xbe, 0xca, 0xe2, 0xff, 0xff,
    0x04, 0x00, 0x00, 0x00, 0x00, 0x01, 0x00, 0x00, 0x48, 0x06, 0xc9, 0xbe,
    0x9d, 0x73, 0x1a, 0x3f, 0xc4, 0xbe, 0x3f, 0x3f, 0x1d, 0xf3, 0xeb, 0x3d,
    0x7d, 0x40, 0x0a, 0xbf, 0x83, 0x92, 0x50, 0xbf, 0x6b, 0x50, 0x1e, 0xbf,
    0x16, 0x1d, 0x9c, 0xbd, 0x71, 0x02, 0x8a, 0xbe, 0xb0, 0x79, 0x38, 0x3f,
    0x24, 0xad, 0xd5, 0x3e, 0x88, 0x41, 0x12, 0xbf, 0x7c, 0x83, 0x4a, 0xbf,
    0x71, 0xb6, 0x40, 0xbf, 0x0e, 0xf3, 0x8e, 0x3d, 0x45, 0x0e, 0xaf, 0x3d,
    0xf9, 0x26, 0x81, 0xbe, 0x40, 0xb9, 0x40, 0xbf, 0xbe, 0x63, 0xcf, 0xbd,
    0x91, 0x84, 0x12, 0x3f, 0x2c, 0xac, 0x72, 0xbe, 0x9e, 0x68, 0x23, 0x3d,
    0x34, 0xbe, 0xb1, 0x3e, 0xde, 0xdb, 0xb7, 0x3e, 0x27, 0xa6, 0xed, 0x3d,
    0x12, 0xec, 0x5b, 0xbf, 0x7e, 0xd8, 0x3d, 0xbf, 0xa7, 0x43, 0xd1, 0x3e,
    0x0e, 0x3e, 0xc0, 0x3e, 0x83, 0xd3, 0xa8, 0x3e, 0xf1, 0xbc, 0x6d, 0x3e,
    0x0e, 0x1a, 0x0d, 0x3f, 0xfc, 0x94, 0x07, 0x3f, 0x55, 0x62, 0x38, 0x3e,
    0x9e, 0x91, 0x9a, 0x3d, 0x98, 0x7e, 0x0c, 0xbf, 0xda, 0x92, 0x23, 0xbf,
    0xb1, 0x1d, 0xc8, 0x3d, 0xd4, 0x10, 0x12, 0x3f, 0x02, 0xbd, 0x50, 0xbf,
    0x5b, 0x86, 0xc6, 0x3e, 0x34, 0x1f, 0xf0, 0x3e, 0xa0, 0xae, 0x92, 0xbe,
    0xa0, 0x58, 0x2b, 0xbf, 0xbc, 0x85, 0x7b, 0x3e, 0x38, 0x8d, 0x08, 0x3f,
    0x2b, 0xed, 0x5c, 0xbf, 0x76, 0x76, 0xc2, 0xbe, 0xa8, 0xdf, 0x15, 0xbf,
    0x7c, 0x9b, 0xe3, 0xbe, 0xa6, 0xc4, 0xd7, 0xbe, 0xff, 0x4b, 0x0f, 0x3f,
    0xda, 0x4b, 0x00, 0xbe, 0xe4, 0xb6, 0x6d, 0x3e, 0x4c, 0x1a, 0xbb, 0xbe,
    0xb4, 0xec, 0xdf, 0x3e, 0x3f, 0x0f, 0xd4, 0x3e, 0x0c, 0x65, 0xc6, 0xbc,
    0xbd, 0xe3, 0xc8, 0xbe, 0x09, 0x03, 0xe7, 0x3e, 0xa1, 0x41, 0x8e, 0x3e,
    0xa3, 0xea, 0x44, 0xbf, 0xfd, 0xd0, 0xde, 0xbe, 0x6b, 0x39, 0x07, 0x3f,
    0xd6, 0xe3, 0xff, 0xff, 0x04, 0x00, 0x00, 0x00, 0x04, 0x00, 0x00, 0x00,
    0x40, 0x00, 0x00, 0x00, 0xe6, 0xe3, 0xff, 0xff, 0x04, 0x00, 0x00, 0x00,
    0x10, 0x00, 0x00, 0x00, 0xae, 0xf3, 0x8e, 0xbc, 0xb0, 0x7c, 0xa8, 0xbd,
    0xbd, 0x6f, 0x93, 0x3d, 0x79, 0x22, 0x44, 0x3c, 0x02, 0xe4, 0xff, 0xff,
    0x04, 0x00, 0x00, 0x00, 0x40, 0x00, 0x00, 0x00, 0x1c, 0xd4, 0x7a, 0xbd,
    0x90, 0x74, 0x51, 0x3e, 0x24, 0xf3, 0xf0, 0x3d, 0x4d, 0xf4, 0x01, 0x3c,
    0x2f, 0x30, 0x85, 0xbc, 0x79, 0x6e, 0x5e, 0x3e, 0x07, 0xa3, 0x2e, 0x3e,
    0x2f, 0x2a, 0xeb, 0x3d, 0x6a, 0xd8, 0x0f, 0x3e, 0xb4, 0xf9, 0x77, 0x3e,
    0x53, 0x3c, 0x40, 0x3e, 0x96, 0x67, 0xc0, 0x3c, 0x84, 0xd8, 0x84, 0x3e,
    0xbe, 0x1e, 0x57, 0x3d, 0x54, 0xed, 0xb1, 0xbd, 0x84, 0x68, 0xbe, 0x3d,
    0xe4, 0x9c, 0xff, 0xff, 0xe8, 0x9c, 0xff, 0xff, 0x0f, 0x00, 0x00, 0x00,
    0x4d, 0x4c, 0x49, 0x52, 0x20, 0x43, 0x6f, 0x6e, 0x76, 0x65, 0x72, 0x74,
    0x65, 0x64, 0x2e, 0x00, 0x01, 0x00, 0x00, 0x00, 0x14, 0x00, 0x00, 0x00,
    0x00, 0x00, 0x0e, 0x00, 0x18, 0x00, 0x14, 0x00, 0x10, 0x00, 0x0c, 0x00,
    0x08, 0x00, 0x04, 0x00, 0x0e, 0x00, 0x00, 0x00, 0x14, 0x00, 0x00, 0x00,
    0x1c, 0x00, 0x00, 0x00, 0xe0, 0x1b, 0x00, 0x00, 0xe4, 0x1b, 0x00, 0x00,
    0xe8, 0x1b, 0x00, 0x00, 0x04, 0x00, 0x00, 0x00, 0x6d, 0x61, 0x69, 0x6e,
    0x00, 0x00, 0x00, 0x00, 0x94, 0x00, 0x00, 0x00, 0xa4, 0x1b, 0x00, 0x00,
    0x38, 0x1b, 0x00, 0x00, 0xf0, 0x1a, 0x00, 0x00, 0x9c, 0x1a, 0x00, 0x00,
    0x78, 0x1a, 0x00, 0x00, 0x48, 0x1a, 0x00, 0x00, 0x24, 0x1a, 0x00, 0x00,
    0xf0, 0x19, 0x00, 0x00, 0xcc, 0x19, 0x00, 0x00, 0x98, 0x19, 0x00, 0x00,
    0x60, 0x19, 0x00, 0x00, 0x3c, 0x19, 0x00, 0x00, 0x04, 0x19, 0x00, 0x00,
    0xcc, 0x18, 0x00, 0x00, 0x94, 0x18, 0x00, 0x00, 0x5c, 0x18, 0x00, 0x00,
    0x24, 0x18, 0x00, 0x00, 0xec, 0x17, 0x00, 0x00, 0xb8, 0x17, 0x00, 0x00,
    0x84, 0x17, 0x00, 0x00, 0x40, 0x17, 0x00, 0x00, 0x1c, 0x17, 0x00, 0x00,
    0xf8, 0x16, 0x00, 0x00, 0xc4, 0x16, 0x00, 0x00, 0xa0, 0x16, 0x00, 0x00,
    0x7c, 0x16, 0x00, 0x00, 0x48, 0x16, 0x00, 0x00, 0x14, 0x16, 0x00, 0x00,
    0xf0, 0x15, 0x00, 0x00, 0xbc, 0x15, 0x00, 0x00, 0x84, 0x15, 0x00, 0x00,
    0x60, 0x15, 0x00, 0x00, 0x28, 0x15, 0x00, 0x00, 0xf4, 0x14, 0x00, 0x00,
    0xc0, 0x14, 0x00, 0x00, 0x7c, 0x14, 0x00, 0x00, 0x58, 0x14, 0x00, 0x00,
    0x34, 0x14, 0x00, 0x00, 0x00, 0x14, 0x00, 0x00, 0xdc, 0x13, 0x00, 0x00,
    0xb8, 0x13, 0x00, 0x00, 0x84, 0x13, 0x00, 0x00, 0x50, 0x13, 0x00, 0x00,
    0x2c, 0x13, 0x00, 0x00, 0xf8, 0x12, 0x00, 0x00, 0xc0, 0x12, 0x00, 0x00,
    0x9c, 0x12, 0x00, 0x00, 0x64, 0x12, 0x00, 0x00, 0x30, 0x12, 0x00, 0x00,
    0xfc, 0x11, 0x00, 0x00, 0xb8, 0x11, 0x00, 0x00, 0x94, 0x11, 0x00, 0x00,
    0x70, 0x11, 0x00, 0x00, 0x3c, 0x11, 0x00, 0x00, 0x18, 0x11, 0x00, 0x00,
    0xf4, 0x10, 0x00, 0x00, 0xc0, 0x10, 0x00, 0x00, 0x8c, 0x10, 0x00, 0x00,
    0x68, 0x10, 0x00, 0x00, 0x34, 0x10, 0x00, 0x00, 0xfc, 0x0f, 0x00, 0x00,
    0xd8, 0x0f, 0x00, 0x00, 0xa0, 0x0f, 0x00, 0x00, 0x6c, 0x0f, 0x00, 0x00,
    0x38, 0x0f, 0x00, 0x00, 0xf4, 0x0e, 0x00, 0x00, 0xd0, 0x0e, 0x00, 0x00,
    0xac, 0x0e, 0x00, 0x00, 0x78, 0x0e, 0x00, 0x00, 0x54, 0x0e, 0x00, 0x00,
    0x30, 0x0e, 0x00, 0x00, 0xfc, 0x0d, 0x00, 0x00, 0xc8, 0x0d, 0x00, 0x00,
    0xa4, 0x0d, 0x00, 0x00, 0x70, 0x0d, 0x00, 0x00, 0x38, 0x0d, 0x00, 0x00,
    0x14, 0x0d, 0x00, 0x00, 0xe0, 0x0c, 0x00, 0x00, 0xac, 0x0c, 0x00, 0x00,
    0x68, 0x0c, 0x00, 0x00, 0x44, 0x0c, 0x00, 0x00, 0x20, 0x0c, 0x00, 0x00,
    0xec, 0x0b, 0x00, 0x00, 0xc8, 0x0b, 0x00, 0x00, 0xa4, 0x0b, 0x00, 0x00,
    0x70, 0x0b, 0x00, 0x00, 0x3c, 0x0b, 0x00, 0x00, 0x18, 0x0b, 0x00, 0x00,
    0xe4, 0x0a, 0x00, 0x00, 0xac, 0x0a, 0x00, 0x00, 0x88, 0x0a, 0x00, 0x00,
    0x54, 0x0a, 0x00, 0x00, 0x20, 0x0a, 0x00, 0x00, 0xdc, 0x09, 0x00, 0x00,
    0xb8, 0x09, 0x00, 0x00, 0x94, 0x09, 0x00, 0x00, 0x60, 0x09, 0x00, 0x00,
    0x3c, 0x09, 0x00, 0x00, 0x18, 0x09, 0x00, 0x00, 0xe4, 0x08, 0x00, 0x00,
    0xb0, 0x08, 0x00, 0x00, 0x8c, 0x08, 0x00, 0x00, 0x58, 0x08, 0x00, 0x00,
    0x20, 0x08, 0x00, 0x00, 0xfc, 0x07, 0x00, 0x00, 0xc8, 0x07, 0x00, 0x00,
    0x94, 0x07, 0x00, 0x00, 0x50, 0x07, 0x00, 0x00, 0x2c, 0x07, 0x00, 0x00,
    0x08, 0x07, 0x00, 0x00, 0xd4, 0x06, 0x00, 0x00, 0xb0, 0x06, 0x00, 0x00,
    0x8c, 0x06, 0x00, 0x00, 0x58, 0x06, 0x00, 0x00, 0x24, 0x06, 0x00, 0x00,
    0x00, 0x06, 0x00, 0x00, 0xcc, 0x05, 0x00, 0x00, 0x94, 0x05, 0x00, 0x00,
    0x70, 0x05, 0x00, 0x00, 0x3c, 0x05, 0x00, 0x00, 0x08, 0x05, 0x00, 0x00,
    0xc4, 0x04, 0x00, 0x00, 0xa0, 0x04, 0x00, 0x00, 0x7c, 0x04, 0x00, 0x00,
    0x48, 0x04, 0x00, 0x00, 0x24, 0x04, 0x00, 0x00, 0x00, 0x04, 0x00, 0x00,
    0xcc, 0x03, 0x00, 0x00, 0x98, 0x03, 0x00, 0x00, 0x74, 0x03, 0x00, 0x00,
    0x40, 0x03, 0x00, 0x00, 0x08, 0x03, 0x00, 0x00, 0xe4, 0x02, 0x00, 0x00,
    0xb0, 0x02, 0x00, 0x00, 0x7c, 0x02, 0x00, 0x00, 0x38, 0x02, 0x00, 0x00,
    0x14, 0x02, 0x00, 0x00, 0xf0, 0x01, 0x00, 0x00, 0xbc, 0x01, 0x00, 0x00,
    0x98, 0x01, 0x00, 0x00, 0x74, 0x01, 0x00, 0x00, 0x40, 0x01, 0x00, 0x00,
    0x0c, 0x01, 0x00, 0x00, 0xe8, 0x00, 0x00, 0x00, 0xb4, 0x00, 0x00, 0x00,
    0x70, 0x00, 0x00, 0x00, 0x38, 0x00, 0x00, 0x00, 0x04, 0x00, 0x00, 0x00,
    0x66, 0xe7, 0xff, 0xff, 0x14, 0x00, 0x00, 0x00, 0x00, 0x00, 0x00, 0x09,
    0x14, 0x00, 0x00, 0x00, 0x18, 0x00, 0x00, 0x00, 0x08, 0x00, 0x00, 0x00,
    0x12, 0xe7, 0xff, 0xff, 0x00, 0x00, 0x80, 0x3f, 0x01, 0x00, 0x00, 0x00,
    0xc5, 0x00, 0x00, 0x00, 0x01, 0x00, 0x00, 0x00, 0xc4, 0x00, 0x00, 0x00,
    0x96, 0xe7, 0xff, 0xff, 0x14, 0x00, 0x00, 0x00, 0x00, 0x00, 0x00, 0x08,
    0x10, 0x00, 0x00, 0x00, 0x14, 0x00, 0x00, 0x00, 0x02, 0x00, 0x00, 0x00,
    0xd8, 0x9f, 0xff, 0xff, 0x01, 0x00, 0x00, 0x00, 0xc4, 0x00, 0x00, 0x00,
    0x03, 0x00, 0x00, 0x00, 0xc3, 0x00, 0x00, 0x00, 0x04, 0x00, 0x00, 0x00,
    0x02, 0x00, 0x00, 0x00, 0x86, 0xe7, 0xff, 0xff, 0x1c, 0x00, 0x00, 0x00,
    0x00, 0x00, 0x00, 0x08, 0x1c, 0x00, 0x00, 0x00, 0x20, 0x00, 0x00, 0x00,
    0x02, 0x00, 0x00, 0x00, 0x00, 0x00, 0x06, 0x00, 0x08, 0x00, 0x07, 0x00,
    0x06, 0x00, 0x00, 0x00, 0x00, 0x00, 0x00, 0x01, 0x01, 0x00, 0x00, 0x00,
    0xc3, 0x00, 0x00, 0x00, 0x03, 0x00, 0x00, 0x00, 0xc2, 0x00, 0x00, 0x00,
    0x05, 0x00, 0x00, 0x00, 0x01, 0x00, 0x00, 0x00, 0x0a, 0xe8, 0xff, 0xff,
    0x14, 0x00, 0x00, 0x00, 0x00, 0x00, 0x00, 0x15, 0x10, 0x00, 0x00, 0x00,
    0x14, 0x00, 0x00, 0x00, 0x06, 0x00, 0x00, 0x00, 0x4c, 0xa0, 0xff, 0xff,
    0x01, 0x00, 0x00, 0x00, 0xc2, 0x00, 0x00, 0x00, 0x02, 0x00, 0x00, 0x00,
    0xbd, 0x00, 0x00, 0x00, 0xc1, 0x00, 0x00, 0x00, 0xa6, 0xe8, 0xff, 0xff,
    0x0c, 0x00, 0x00, 0x00, 0x10, 0x00, 0x00, 0x00, 0x05, 0x00, 0x00, 0x00,
    0x01, 0x00, 0x00, 0x00, 0xc1, 0x00, 0x00, 0x00, 0x01, 0x00, 0x00, 0x00,
    0xc0, 0x00, 0x00, 0x00, 0x5a, 0xe8, 0xff, 0xff, 0x14, 0x00, 0x00, 0x00,
    0x00, 0x00, 0x00, 0x0b, 0x10, 0x00, 0x00, 0x00, 0x14, 0x00, 0x00, 0x00,
    0x07, 0x00, 0x00, 0x00, 0x9c, 0xa0, 0xff, 0xff, 0x01, 0x00, 0x00, 0x00,
    0xc0, 0x00, 0x00, 0x00, 0x02, 0x00, 0x00, 0x00, 0xbc, 0x00, 0x00, 0x00,
    0xbf, 0x00, 0x00, 0x00, 0x8a, 0xe8, 0xff, 0xff, 0x14, 0x00, 0x00, 0x00,
    0x00, 0x00, 0x00, 0x15, 0x10, 0x00, 0x00, 0x00, 0x14, 0x00, 0x00, 0x00,
    0x06, 0x00, 0x00, 0x00, 0xcc, 0xa0, 0xff, 0xff, 0x01, 0x00, 0x00, 0x00,
    0xbf, 0x00, 0x00, 0x00, 0x02, 0x00, 0x00, 0x00, 0xba, 0x00, 0x00, 0x00,
    0xbe, 0x00, 0x00, 0x00, 0x26, 0xe9, 0xff, 0xff, 0x0c, 0x00, 0x00, 0x00,
    0x10, 0x00, 0x00, 0x00, 0x05, 0x00, 0x00, 0x00, 0x01, 0x00, 0x00, 0x00,
    0xbe, 0x00, 0x00, 0x00, 0x01, 0x00, 0x00, 0x00, 0xb8, 0x00, 0x00, 0x00,
    0x46, 0xe9, 0xff, 0xff, 0x0c, 0x00, 0x00, 0x00, 0x10, 0x00, 0x00, 0x00,
    0x04, 0x00, 0x00, 0x00, 0x01, 0x00, 0x00, 0x00, 0xbd, 0x00, 0x00, 0x00,
    0x01, 0x00, 0x00, 0x00, 0xb9, 0x00, 0x00, 0x00, 0xfa, 0xe8, 0xff, 0xff,
    0x14, 0x00, 0x00, 0x00, 0x00, 0x00, 0x00, 0x15, 0x10, 0x00, 0x00, 0x00,
    0x14, 0x00, 0x00, 0x00, 0x06, 0x00, 0x00, 0x00, 0x3c, 0xa1, 0xff, 0xff,
    0x01, 0x00, 0x00, 0x00, 0xbc, 0x00, 0x00, 0x00, 0x02, 0x00, 0x00, 0x00,
    0xbb, 0x00, 0x00, 0x00, 0xaf, 0x00, 0x00, 0x00, 0x96, 0xe9, 0xff, 0xff,
    0x0c, 0x00, 0x00, 0x00, 0x10, 0x00, 0x00, 0x00, 0x04, 0x00, 0x00, 0x00,
    0x01, 0x00, 0x00, 0x00, 0xbb, 0x00, 0x00, 0x00, 0x01, 0x00, 0x00, 0x00,
    0xb7, 0x00, 0x00, 0x00, 0xb6, 0xe9, 0xff, 0xff, 0x0c, 0x00, 0x00, 0x00,
    0x10, 0x00, 0x00, 0x00, 0x04, 0x00, 0x00, 0x00, 0x01, 0x00, 0x00, 0x00,
    0xba, 0x00, 0x00, 0x00, 0x01, 0x00, 0x00, 0x00, 0xb6, 0x00, 0x00, 0x00,
    0x6a, 0xe9, 0xff, 0xff, 0x14, 0x00, 0x00, 0x00, 0x00, 0x00, 0x00, 0x23,
    0x14, 0x00, 0x00, 0x00, 0x24, 0x00, 0x00, 0x00, 0x03, 0x00, 0x00, 0x00,
    0x16, 0xe9, 0xff, 0xff, 0x04, 0x00, 0x00, 0x00, 0x04, 0x00, 0x00, 0x00,
    0xb6, 0x00, 0x00, 0x00, 0xb7, 0x00, 0x00, 0x00, 0xb8, 0x00, 0x00, 0x00,
    0xb9, 0x00, 0x00, 0x00, 0x02, 0x00, 0x00, 0x00, 0x08, 0x00, 0x00, 0x00,
    0xb5, 0x00, 0x00, 0x00, 0xaa, 0xe9, 0xff, 0xff, 0x14, 0x00, 0x00, 0x00,
    0x00, 0x00, 0x00, 0x0b, 0x10, 0x00, 0x00, 0x00, 0x14, 0x00, 0x00, 0x00,
    0x07, 0x00, 0x00, 0x00, 0xec, 0xa1, 0xff, 0xff, 0x01, 0x00, 0x00, 0x00,
    0xb5, 0x00, 0x00, 0x00, 0x02, 0x00, 0x00, 0x00, 0xb4, 0x00, 0x00, 0x00,
    0x09, 0x00, 0x00, 0x00, 0xda, 0xe9, 0xff, 0xff, 0x14, 0x00, 0x00, 0x00,
    0x00, 0x00, 0x00, 0x0b, 0x10, 0x00, 0x00, 0x00, 0x14, 0x00, 0x00, 0x00,
    0x07, 0x00, 0x00, 0x00, 0x1c, 0xa2, 0xff, 0xff, 0x01, 0x00, 0x00, 0x00,
    0xb4, 0x00, 0x00, 0x00, 0x02, 0x00, 0x00, 0x00, 0x27, 0x00, 0x00, 0x00,
    0xb3, 0x00, 0x00, 0x00, 0x5a, 0xe9, 0xff, 0xff, 0x08, 0x00, 0x00, 0x00,
    0x0c, 0x00, 0x00, 0x00, 0x01, 0x00, 0x00, 0x00, 0xb3, 0x00, 0x00, 0x00,
    0x02, 0x00, 0x00, 0x00, 0xb2, 0x00, 0x00, 0x00, 0x03, 0x00, 0x00, 0x00,
    0x2a, 0xea, 0xff, 0xff, 0x14, 0x00, 0x00, 0x00, 0x00, 0x00, 0x00, 0x08,
    0x10, 0x00, 0x00, 0x00, 0x14, 0x00, 0x00, 0x00, 0x02, 0x00, 0x00, 0x00,
    0x6c, 0xa2, 0xff, 0xff, 0x01, 0x00, 0x00, 0x00, 0xb2, 0x00, 0x00, 0x00,
    0x03, 0x00, 0x00, 0x00, 0xb1, 0x00, 0x00, 0x00, 0x06, 0x00, 0x00, 0x00,
    0xff, 0xff, 0xff, 0xff, 0x5e, 0xea, 0xff, 0xff, 0x14, 0x00, 0x00, 0x00,
    0x00, 0x00, 0x00, 0x15, 0x10, 0x00, 0x00, 0x00, 0x14, 0x00, 0x00, 0x00,
    0x06, 0x00, 0x00, 0x00, 0xa0, 0xa2, 0xff, 0xff, 0x01, 0x00, 0x00, 0x00,
    0xb1, 0x00, 0x00, 0x00, 0x02, 0x00, 0x00, 0x00, 0xac, 0x00, 0x00, 0x00,
    0xb0, 0x00, 0x00, 0x00, 0xfa, 0xea, 0xff, 0xff, 0x0c, 0x00, 0x00, 0x00,
    0x10, 0x00, 0x00, 0x00, 0x05, 0x00, 0x00, 0x00, 0x01, 0x00, 0x00, 0x00,
    0xb0, 0x00, 0x00, 0x00, 0x01, 0x00, 0x00, 0x00, 0xaf, 0x00, 0x00, 0x00,
    0xae, 0xea, 0xff, 0xff, 0x14, 0x00, 0x00, 0x00, 0x00, 0x00, 0x00, 0x0b,
    0x10, 0x00, 0x00, 0x00, 0x14, 0x00, 0x00, 0x00, 0x07, 0x00, 0x00, 0x00,
    0xf0, 0xa2, 0xff, 0xff, 0x01, 0x00, 0x00, 0x00, 0xaf, 0x00, 0x00, 0x00,
    0x02, 0x00, 0x00, 0x00, 0xab, 0x00, 0x00, 0x00, 0xae, 0x00, 0x00, 0x00,
    0xde, 0xea, 0xff, 0xff, 0x14, 0x00, 0x00, 0x00, 0x00, 0x00, 0x00, 0x15,
    0x10, 0x00, 0x00, 0x00, 0x14, 0x00, 0x00, 0x00, 0x06, 0x00, 0x00, 0x00,
    0x20, 0xa3, 0xff, 0xff, 0x01, 0x00, 0x00, 0x00, 0xae, 0x00, 0x00, 0x00,
    0x02, 0x00, 0x00, 0x00, 0xa9, 0x00, 0x00, 0x00, 0xad, 0x00, 0x00, 0x00,
    0x7a, 0xeb, 0xff, 0xff, 0x0c, 0x00, 0x00, 0x00, 0x10, 0x00, 0x00, 0x00,
    0x05, 0x00, 0x00, 0x00, 0x01, 0x00, 0x00, 0x00, 0xad, 0x00, 0x00, 0x00,
    0x01, 0x00, 0x00, 0x00, 0xa7, 0x00, 0x00, 0x00, 0x9a, 0xeb, 0xff, 0xff,
    0x0c, 0x00, 0x00, 0x00, 0x10, 0x00, 0x00, 0x00, 0x04, 0x00, 0x00, 0x00,
    0x01, 0x00, 0x00, 0x00, 0xac, 0x00, 0x00, 0x00, 0x01, 0x00, 0x00, 0x00,
    0xa8, 0x00, 0x00, 0x00, 0x4e, 0xeb, 0xff, 0xff, 0x14, 0x00, 0x00, 0x00,
    0x00, 0x00, 0x00, 0x15, 0x10, 0x00, 0x00, 0x00, 0x14, 0x00, 0x00, 0x00,
    0x06, 0x00, 0x00, 0x00, 0x90, 0xa3, 0xff, 0xff, 0x01, 0x00, 0x00, 0x00,
    0xab, 0x00, 0x00, 0x00, 0x02, 0x00, 0x00, 0x00, 0xaa, 0x00, 0x00, 0x00,
    0x9e, 0x00, 0x00, 0x00, 0xea, 0xeb, 0xff, 0xff, 0x0c, 0x00, 0x00, 0x00,
    0x10, 0x00, 0x00, 0x00, 0x04, 0x00, 0x00, 0x00, 0x01, 0x00, 0x00, 0x00,
    0xaa, 0x00, 0x00, 0x00, 0x01, 0x00, 0x00, 0x00, 0xa6, 0x00, 0x00, 0x00,
    0x0a, 0xec, 0xff, 0xff, 0x0c, 0x00, 0x00, 0x00, 0x10, 0x00, 0x00, 0x00,
    0x04, 0x00, 0x00, 0x00, 0x01, 0x00, 0x00, 0x00, 0xa9, 0x00, 0x00, 0x00,
    0x01, 0x00, 0x00, 0x00, 0xa5, 0x00, 0x00, 0x00, 0xbe, 0xeb, 0xff, 0xff,
    0x14, 0x00, 0x00, 0x00, 0x00, 0x00, 0x00, 0x23, 0x14, 0x00, 0x00, 0x00,
    0x24, 0x00, 0x00, 0x00, 0x03, 0x00, 0x00, 0x00, 0x6a, 0xeb, 0xff, 0xff,
    0x04, 0x00, 0x00, 0x00, 0x04, 0x00, 0x00, 0x00, 0xa5, 0x00, 0x00, 0x00,
    0xa6, 0x00, 0x00, 0x00, 0xa7, 0x00, 0x00, 0x00, 0xa8, 0x00, 0x00, 0x00,
    0x02, 0x00, 0x00, 0x00, 0x08, 0x00, 0x00, 0x00, 0xa4, 0x00, 0x00, 0x00,
    0xfe, 0xeb, 0xff, 0xff, 0x14, 0x00, 0x00, 0x00, 0x00, 0x00, 0x00, 0x0b,
    0x10, 0x00, 0x00, 0x00, 0x14, 0x00, 0x00, 0x00, 0x07, 0x00, 0x00, 0x00,
    0x40, 0xa4, 0xff, 0xff, 0x01, 0x00, 0x00, 0x00, 0xa4, 0x00, 0x00, 0x00,
    0x02, 0x00, 0x00, 0x00, 0xa3, 0x00, 0x00, 0x00, 0x09, 0x00, 0x00, 0x00,
    0x2e, 0xec, 0xff, 0xff, 0x14, 0x00, 0x00, 0x00, 0x00, 0x00, 0x00, 0x0b,
    0x10, 0x00, 0x00, 0x00, 0x14, 0x00, 0x00, 0x00, 0x07, 0x00, 0x00, 0x00,
    0x70, 0xa4, 0xff, 0xff, 0x01, 0x00, 0x00, 0x00, 0xa3, 0x00, 0x00, 0x00,
    0x02, 0x00, 0x00, 0x00, 0x26, 0x00, 0x00, 0x00, 0xa2, 0x00, 0x00, 0x00,
    0xae, 0xeb, 0xff, 0xff, 0x08, 0x00, 0x00, 0x00, 0x0c, 0x00, 0x00, 0x00,
    0x01, 0x00, 0x00, 0x00, 0xa2, 0x00, 0x00, 0x00, 0x02, 0x00, 0x00, 0x00,
    0xa1, 0x00, 0x00, 0x00, 0x03, 0x00, 0x00, 0x00, 0x7e, 0xec, 0xff, 0xff,
    0x14, 0x00, 0x00, 0x00, 0x00, 0x00, 0x00, 0x08, 0x10, 0x00, 0x00, 0x00,
    0x14, 0x00, 0x00, 0x00, 0x02, 0x00, 0x00, 0x00, 0xc0, 0xa4, 0xff, 0xff,
    0x01, 0x00, 0x00, 0x00, 0xa1, 0x00, 0x00, 0x00, 0x03, 0x00, 0x00, 0x00,
    0xa0, 0x00, 0x00, 0x00, 0x06, 0x00, 0x00, 0x00, 0xff, 0xff, 0xff, 0xff,
    0xb2, 0xec, 0xff, 0xff, 0x14, 0x00, 0x00, 0x00, 0x00, 0x00, 0x00, 0x15,
    0x10, 0x00, 0x00, 0x00, 0x14, 0x00, 0x00, 0x00, 0x06, 0x00, 0x00, 0x00,
    0xf4, 0xa4, 0xff, 0xff, 0x01, 0x00, 0x00, 0x00, 0xa0, 0x00, 0x00, 0x00,
    0x02, 0x00, 0x00, 0x00, 0x9b, 0x00, 0x00, 0x00, 0x9f, 0x00, 0x00, 0x00,
    0x4e, 0xed, 0xff, 0xff, 0x0c, 0x00, 0x00, 0x00, 0x10, 0x00, 0x00, 0x00,
    0x05, 0x00, 0x00, 0x00, 0x01, 0x00, 0x00, 0x00, 0x9f, 0x00, 0x00, 0x00,
    0x01, 0x00, 0x00, 0x00, 0x9e, 0x00, 0x00, 0x00, 0x02, 0xed, 0xff, 0xff,
    0x14, 0x00, 0x00, 0x00, 0x00, 0x00, 0x00, 0x0b, 0x10, 0x00, 0x00, 0x00,
    0x14, 0x00, 0x00, 0x00, 0x07, 0x00, 0x00, 0x00, 0x44, 0xa5, 0xff, 0xff,
    0x01, 0x00, 0x00, 0x00, 0x9e, 0x00, 0x00, 0x00, 0x02, 0x00, 0x00, 0x00,
    0x9a, 0x00, 0x00, 0x00, 0x9d, 0x00, 0x00, 0x00, 0x32, 0xed, 0xff, 0xff,
    0x14, 0x00, 0x00, 0x00, 0x00, 0x00, 0x00, 0x15, 0x10, 0x00, 0x00, 0x00,
    0x14, 0x00, 0x00, 0x00, 0x06, 0x00, 0x00, 0x00, 0x74, 0xa5, 0xff, 0xff,
    0x01, 0x00, 0x00, 0x00, 0x9d, 0x00, 0x00, 0x00, 0x02, 0x00, 0x00, 0x00,
    0x98, 0x00, 0x00, 0x00, 0x9c, 0x00, 0x00, 0x00, 0xce, 0xed, 0xff, 0xff,
    0x0c, 0x00, 0x00, 0x00, 0x10, 0x00, 0x00, 0x00, 0x05, 0x00, 0x00, 0x00,
    0x01, 0x00, 0x00, 0x00, 0x9c, 0x00, 0x00, 0x00, 0x01, 0x00, 0x00, 0x00,
    0x96, 0x00, 0x00, 0x00, 0xee, 0xed, 0xff, 0xff, 0x0c, 0x00, 0x00, 0x00,
    0x10, 0x00, 0x00, 0x00, 0x04, 0x00, 0x00, 0x00, 0x01, 0x00, 0x00, 0x00,
    0x9b, 0x00, 0x00, 0x00, 0x01, 0x00, 0x00, 0x00, 0x97, 0x00, 0x00, 0x00,
    0xa2, 0xed, 0xff, 0xff, 0x14, 0x00, 0x00, 0x00, 0x00, 0x00, 0x00, 0x15,
    0x10, 0x00, 0x00, 0x00, 0x14, 0x00, 0x00, 0x00, 0x06, 0x00, 0x00, 0x00,
    0xe4, 0xa5, 0xff, 0xff, 0x01, 0x00, 0x00, 0x00, 0x9a, 0x00, 0x00, 0x00,
    0x02, 0x00, 0x00, 0x00, 0x99, 0x00, 0x00, 0x00, 0x8d, 0x00, 0x00, 0x00,
    0x3e, 0xee, 0xff, 0xff, 0x0c, 0x00, 0x00, 0x00, 0x10, 0x00, 0x00, 0x00,
    0x04, 0x00, 0x00, 0x00, 0x01, 0x00, 0x00, 0x00, 0x99, 0x00, 0x00, 0x00,
    0x01, 0x00, 0x00, 0x00, 0x95, 0x00, 0x00, 0x00, 0x5e, 0xee, 0xff, 0xff,
    0x0c, 0x00, 0x00, 0x00, 0x10, 0x00, 0x00, 0x00, 0x04, 0x00, 0x00, 0x00,
    0x01, 0x00, 0x00, 0x00, 0x98, 0x00, 0x00, 0x00, 0x01, 0x00, 0x00, 0x00,
    0x94, 0x00, 0x00, 0x00, 0x12, 0xee, 0xff, 0xff, 0x14, 0x00, 0x00, 0x00,
    0x00, 0x00, 0x00, 0x23, 0x14, 0x00, 0x00, 0x00, 0x24, 0x00, 0x00, 0x00,
    0x03, 0x00, 0x00, 0x00, 0xbe, 0xed, 0xff, 0xff, 0x04, 0x00, 0x00, 0x00,
    0x04, 0x00, 0x00, 0x00, 0x94, 0x00, 0x00, 0x00, 0x95, 0x00, 0x00, 0x00,
    0x96, 0x00, 0x00, 0x00, 0x97, 0x00, 0x00, 0x00, 0x02, 0x00, 0x00, 0x00,
    0x08, 0x00, 0x00, 0x00, 0x93, 0x00, 0x00, 0x00, 0x52, 0xee, 0xff, 0xff,
    0x14, 0x00, 0x00, 0x00, 0x00, 0x00, 0x00, 0x0b, 0x10, 0x00, 0x00, 0x00,
    0x14, 0x00, 0x00, 0x00, 0x07, 0x00, 0x00, 0x00, 0x94, 0xa6, 0xff, 0xff,
    0x01, 0x00, 0x00, 0x00, 0x93, 0x00, 0x00, 0x00, 0x02, 0x00, 0x00, 0x00,
    0x92, 0x00, 0x00, 0x00, 0x09, 0x00, 0x00, 0x00, 0x82, 0xee, 0xff, 0xff,
    0x14, 0x00, 0x00, 0x00, 0x00, 0x00, 0x00, 0x0b, 0x10, 0x00, 0x00, 0x00,
    0x14, 0x00, 0x00, 0x00, 0x07, 0x00, 0x00, 0x00, 0xc4, 0xa6, 0xff, 0xff,
    0x01, 0x00, 0x00, 0x00, 0x92, 0x00, 0x00, 0x00, 0x02, 0x00, 0x00, 0x00,
    0x25, 0x00, 0x00, 0x00, 0x91, 0x00, 0x00, 0x00, 0x02, 0xee, 0xff, 0xff,
    0x08, 0x00, 0x00, 0x00, 0x0c, 0x00, 0x00, 0x00, 0x01, 0x00, 0x00, 0x00,
    0x91, 0x00, 0x00, 0x00, 0x02, 0x00, 0x00, 0x00, 0x90, 0x00, 0x00, 0x00,
    0x03, 0x00, 0x00, 0x00, 0xd2, 0xee, 0xff, 0xff, 0x14, 0x00, 0x00, 0x00,
    0x00, 0x00, 0x00, 0x08, 0x10, 0x00, 0x00, 0x00, 0x14, 0x00, 0x00, 0x00,
    0x02, 0x00, 0x00, 0x00, 0x14, 0xa7, 0xff, 0xff, 0x01, 0x00, 0x00, 0x00,
    0x90, 0x00, 0x00, 0x00, 0x03, 0x00, 0x00, 0x00, 0x8f, 0x00, 0x00, 0x00,
    0x06, 0x00, 0x00, 0x00, 0xff, 0xff, 0xff, 0xff, 0x06, 0xef, 0xff, 0xff,
    0x14, 0x00, 0x00, 0x00, 0x00, 0x00, 0x00, 0x15, 0x10, 0x00, 0x00, 0x00,
    0x14, 0x00, 0x00, 0x00, 0x06, 0x00, 0x00, 0x00, 0x48, 0xa7, 0xff, 0xff,
    0x01, 0x00, 0x00, 0x00, 0x8f, 0x00, 0x00, 0x00, 0x02, 0x00, 0x00, 0x00,
    0x8a, 0x00, 0x00, 0x00, 0x8e, 0x00, 0x00, 0x00, 0xa2, 0xef, 0xff, 0xff,
    0x0c, 0x00, 0x00, 0x00, 0x10, 0x00, 0x00, 0x00, 0x05, 0x00, 0x00, 0x00,
    0x01, 0x00, 0x00, 0x00, 0x8e, 0x00, 0x00, 0x00, 0x01, 0x00, 0x00, 0x00,
    0x8d, 0x00, 0x00, 0x00, 0x56, 0xef, 0xff, 0xff, 0x14, 0x00, 0x00, 0x00,
    0x00, 0x00, 0x00, 0x0b, 0x10, 0x00, 0x00, 0x00, 0x14, 0x00, 0x00, 0x00,
    0x07, 0x00, 0x00, 0x00, 0x98, 0xa7, 0xff, 0xff, 0x01, 0x00, 0x00, 0x00,
    0x8d, 0x00, 0x00, 0x00, 0x02, 0x00, 0x00, 0x00, 0x89, 0x00, 0x00, 0x00,
    0x8c, 0x00, 0x00, 0x00, 0x86, 0xef, 0xff, 0xff, 0x14, 0x00, 0x00, 0x00,
    0x00, 0x00, 0x00, 0x15, 0x10, 0x00, 0x00, 0x00, 0x14, 0x00, 0x00, 0x00,
    0x06, 0x00, 0x00, 0x00, 0xc8, 0xa7, 0xff, 0xff, 0x01, 0x00, 0x00, 0x00,
    0x8c, 0x00, 0x00, 0x00, 0x02, 0x00, 0x00, 0x00, 0x87, 0x00, 0x00, 0x00,
    0x8b, 0x00, 0x00, 0x00, 0x22, 0xf0, 0xff, 0xff, 0x0c, 0x00, 0x00, 0x00,
    0x10, 0x00, 0x00, 0x00, 0x05, 0x00, 0x00, 0x00, 0x01, 0x00, 0x00, 0x00,
    0x8b, 0x00, 0x00, 0x00, 0x01, 0x00, 0x00, 0x00, 0x85, 0x00, 0x00, 0x00,
    0x42, 0xf0, 0xff, 0xff, 0x0c, 0x00, 0x00, 0x00, 0x10, 0x00, 0x00, 0x00,
    0x04, 0x00, 0x00, 0x00, 0x01, 0x00, 0x00, 0x00, 0x8a, 0x00, 0x00, 0x00,
    0x01, 0x00, 0x00, 0x00, 0x86, 0x00, 0x00, 0x00, 0xf6, 0xef, 0xff, 0xff,
    0x14, 0x00, 0x00, 0x00, 0x00, 0x00, 0x00, 0x15, 0x10, 0x00, 0x00, 0x00,
    0x14, 0x00, 0x00, 0x00, 0x06, 0x00, 0x00, 0x00, 0x38, 0xa8, 0xff, 0xff,
    0x01, 0x00, 0x00, 0x00, 0x89, 0x00, 0x00, 0x00, 0x02, 0x00, 0x00, 0x00,
    0x88, 0x00, 0x00, 0x00, 0x7c, 0x00, 0x00, 0x00, 0x92, 0xf0, 0xff, 0xff,
    0x0c, 0x00, 0x00, 0x00, 0x10, 0x00, 0x00, 0x00, 0x04, 0x00, 0x00, 0x00,
    0x01, 0x00, 0x00, 0x00, 0x88, 0x00, 0x00, 0x00, 0x01, 0x00, 0x00, 0x00,
    0x84, 0x00, 0x00, 0x00, 0xb2, 0xf0, 0xff, 0xff, 0x0c, 0x00, 0x00, 0x00,
    0x10, 0x00, 0x00, 0x00, 0x04, 0x00, 0x00, 0x00, 0x01, 0x00, 0x00, 0x00,
    0x87, 0x00, 0x00, 0x00, 0x01, 0x00, 0x00, 0x00, 0x83, 0x00, 0x00, 0x00,
    0x66, 0xf0, 0xff, 0xff, 0x14, 0x00, 0x00, 0x00, 0x00, 0x00, 0x00, 0x23,
    0x14, 0x00, 0x00, 0x00, 0x24, 0x00, 0x00, 0x00, 0x03, 0x00, 0x00, 0x00,
    0x12, 0xf0, 0xff, 0xff, 0x04, 0x00, 0x00, 0x00, 0x04, 0x00, 0x00, 0x00,
    0x83, 0x00, 0x00, 0x00, 0x84, 0x00, 0x00, 0x00, 0x85, 0x00, 0x00, 0x00,
    0x86, 0x00, 0x00, 0x00, 0x02, 0x00, 0x00, 0x00, 0x08, 0x00, 0x00, 0x00,
    0x82, 0x00, 0x00, 0x00, 0xa6, 0xf0, 0xff, 0xff, 0x14, 0x00, 0x00, 0x00,
    0x00, 0x00, 0x00, 0x0b, 0x10, 0x00, 0x00, 0x00, 0x14, 0x00, 0x00, 0x00,
    0x07, 0x00, 0x00, 0x00, 0xe8, 0xa8, 0xff, 0xff, 0x01, 0x00, 0x00, 0x00,
    0x82, 0x00, 0x00, 0x00, 0x02, 0x00, 0x00, 0x00, 0x81, 0x00, 0x00, 0x00,
    0x09, 0x00, 0x00, 0x00, 0xd6, 0xf0, 0xff, 0xff, 0x14, 0x00, 0x00, 0x00,
    0x00, 0x00, 0x00, 0x0b, 0x10, 0x00, 0x00, 0x00, 0x14, 0x00, 0x00, 0x00,
    0x07, 0x00, 0x00, 0x00, 0x18, 0xa9, 0xff, 0xff, 0x01, 0x00, 0x00, 0x00,
    0x81, 0x00, 0x00, 0x00, 0x02, 0x00, 0x00, 0x00, 0x24, 0x00, 0x00, 0x00,
    0x80, 0x00, 0x00, 0x00, 0x56, 0xf0, 0xff, 0xff, 0x08, 0x00, 0x00, 0x00,
    0x0c, 0x00, 0x00, 0x00, 0x01, 0x00, 0x00, 0x00, 0x80, 0x00, 0x00, 0x00,
    0x02, 0x00, 0x00, 0x00, 0x7f, 0x00, 0x00, 0x00, 0x03, 0x00, 0x00, 0x00,
    0x26, 0xf1, 0xff, 0xff, 0x14, 0x00, 0x00, 0x00, 0x00, 0x00, 0x00, 0x08,
    0x10, 0x00, 0x00, 0x00, 0x14, 0x00, 0x00, 0x00, 0x02, 0x00, 0x00, 0x00,
    0x68, 0xa9, 0xff, 0xff, 0x01, 0x00, 0x00, 0x00, 0x7f, 0x00, 0x00, 0x00,
    0x03, 0x00, 0x00, 0x00, 0x7e, 0x00, 0x00, 0x00, 0x06, 0x00, 0x00, 0x00,
    0xff, 0xff, 0xff, 0xff, 0x5a, 0xf1, 0xff, 0xff, 0x14, 0x00, 0x00, 0x00,
    0x00, 0x00, 0x00, 0x15, 0x10, 0x00, 0x00, 0x00, 0x14, 0x00, 0x00, 0x00,
    0x06, 0x00, 0x00, 0x00, 0x9c, 0xa9, 0xff, 0xff, 0x01, 0x00, 0x00, 0x00,
    0x7e, 0x00, 0x00, 0x00, 0x02, 0x00, 0x00, 0x00, 0x79, 0x00, 0x00, 0x00,
    0x7d, 0x00, 0x00, 0x00, 0xf6, 0xf1, 0xff, 0xff, 0x0c, 0x00, 0x00, 0x00,
    0x10, 0x00, 0x00, 0x00, 0x05, 0x00, 0x00, 0x00, 0x01, 0x00, 0x00, 0x00,
    0x7d, 0x00, 0x00, 0x00, 0x01, 0x00, 0x00, 0x00, 0x7c, 0x00, 0x00, 0x00,
    0xaa, 0xf1, 0xff, 0xff, 0x14, 0x00, 0x00, 0x00, 0x00, 0x00, 0x00, 0x0b,
    0x10, 0x00, 0x00, 0x00, 0x14, 0x00, 0x00, 0x00, 0x07, 0x00, 0x00, 0x00,
    0xec, 0xa9, 0xff, 0xff, 0x01, 0x00, 0x00, 0x00, 0x7c, 0x00, 0x00, 0x00,
    0x02, 0x00, 0x00, 0x00, 0x78, 0x00, 0x00, 0x00, 0x7b, 0x00, 0x00, 0x00,
    0xda, 0xf1, 0xff, 0xff, 0x14, 0x00, 0x00, 0x00, 0x00, 0x00, 0x00, 0x15,
    0x10, 0x00, 0x00, 0x00, 0x14, 0x00, 0x00, 0x00, 0x06, 0x00, 0x00, 0x00,
    0x1c, 0xaa, 0xff, 0xff, 0x01, 0x00, 0x00, 0x00, 0x7b, 0x00, 0x00, 0x00,
    0x02, 0x00, 0x00, 0x00, 0x76, 0x00, 0x00, 0x00, 0x7a, 0x00, 0x00, 0x00,
    0x76, 0xf2, 0xff, 0xff, 0x0c, 0x00, 0x00, 0x00, 0x10, 0x00, 0x00, 0x00,
    0x05, 0x00, 0x00, 0x00, 0x01, 0x00, 0x00, 0x00, 0x7a, 0x00, 0x00, 0x00,
    0x01, 0x00, 0x00, 0x00, 0x74, 0x00, 0x00, 0x00, 0x96, 0xf2, 0xff, 0xff,
    0x0c, 0x00, 0x00, 0x00, 0x10, 0x00, 0x00, 0x00, 0x04, 0x00, 0x00, 0x00,
    0x01, 0x00, 0x00, 0x00, 0x79, 0x00, 0x00, 0x00, 0x01, 0x00, 0x00, 0x00,
    0x75, 0x00, 0x00, 0x00, 0x4a, 0xf2, 0xff, 0xff, 0x14, 0x00, 0x00, 0x00,
    0x00, 0x00, 0x00, 0x15, 0x10, 0x00, 0x00, 0x00, 0x14, 0x00, 0x00, 0x00,
    0x06, 0x00, 0x00, 0x00, 0x8c, 0xaa, 0xff, 0xff, 0x01, 0x00, 0x00, 0x00,
    0x78, 0x00, 0x00, 0x00, 0x02, 0x00, 0x00, 0x00, 0x77, 0x00, 0x00, 0x00,
    0x6b, 0x00, 0x00, 0x00, 0xe6, 0xf2, 0xff, 0xff, 0x0c, 0x00, 0x00, 0x00,
    0x10, 0x00, 0x00, 0x00, 0x04, 0x00, 0x00, 0x00, 0x01, 0x00, 0x00, 0x00,
    0x77, 0x00, 0x00, 0x00, 0x01, 0x00, 0x00, 0x00, 0x73, 0x00, 0x00, 0x00,
    0x06, 0xf3, 0xff, 0xff, 0x0c, 0x00, 0x00, 0x00, 0x10, 0x00, 0x00, 0x00,
    0x04, 0x00, 0x00, 0x00, 0x01, 0x00, 0x00, 0x00, 0x76, 0x00, 0x00, 0x00,
    0x01, 0x00, 0x00, 0x00, 0x72, 0x00, 0x00, 0x00, 0xba, 0xf2, 0xff, 0xff,
    0x14, 0x00, 0x00, 0x00, 0x00, 0x00, 0x00, 0x23, 0x14, 0x00, 0x00, 0x00,
    0x24, 0x00, 0x00, 0x00, 0x03, 0x00, 0x00, 0x00, 0x66, 0xf2, 0xff, 0xff,
    0x04, 0x00, 0x00, 0x00, 0x04, 0x00, 0x00, 0x00, 0x72, 0x00, 0x00, 0x00,
    0x73, 0x00, 0x00, 0x00, 0x74, 0x00, 0x00, 0x00, 0x75, 0x00, 0x00, 0x00,
    0x02, 0x00, 0x00, 0x00, 0x08, 0x00, 0x00, 0x00, 0x71, 0x00, 0x00, 0x00,
    0xfa, 0xf2, 0xff, 0xff, 0x14, 0x00, 0x00, 0x00, 0x00, 0x00, 0x00, 0x0b,
    0x10, 0x00, 0x00, 0x00, 0x14, 0x00, 0x00, 0x00, 0x07, 0x00, 0x00, 0x00,
    0x3c, 0xab, 0xff, 0xff, 0x01, 0x00, 0x00, 0x00, 0x71, 0x00, 0x00, 0x00,
    0x02, 0x00, 0x00, 0x00, 0x70, 0x00, 0x00, 0x00, 0x09, 0x00, 0x00, 0x00,
    0x2a, 0xf3, 0xff, 0xff, 0x14, 0x00, 0x00, 0x00, 0x00, 0x00, 0x00, 0x0b,
    0x10, 0x00, 0x00, 0x00, 0x14, 0x00, 0x00, 0x00, 0x07, 0x00, 0x00, 0x00,
    0x6c, 0xab, 0xff, 0xff, 0x01, 0x00, 0x00, 0x00, 0x70, 0x00, 0x00, 0x00,
    0x02, 0x00, 0x00, 0x00, 0x23, 0x00, 0x00, 0x00, 0x6f, 0x00, 0x00, 0x00,
    0xaa, 0xf2, 0xff, 0xff, 0x08, 0x00, 0x00, 0x00, 0x0c, 0x00, 0x00, 0x00,
    0x01, 0x00, 0x00, 0x00, 0x6f, 0x00, 0x00, 0x00, 0x02, 0x00, 0x00, 0x00,
    0x6e, 0x00, 0x00, 0x00, 0x03, 0x00, 0x00, 0x00, 0x7a, 0xf3, 0xff, 0xff,
    0x14, 0x00, 0x00, 0x00, 0x00, 0x00, 0x00, 0x08, 0x10, 0x00, 0x00, 0x00,
    0x14, 0x00, 0x00, 0x00, 0x02, 0x00, 0x00, 0x00, 0xbc, 0xab, 0xff, 0xff,
    0x01, 0x00, 0x00, 0x00, 0x6e, 0x00, 0x00, 0x00, 0x03, 0x00, 0x00, 0x00,
    0x6d, 0x00, 0x00, 0x00, 0x06, 0x00, 0x00, 0x00, 0xff, 0xff, 0xff, 0xff,
    0xae, 0xf3, 0xff, 0xff, 0x14, 0x00, 0x00, 0x00, 0x00, 0x00, 0x00, 0x15,
    0x10, 0x00, 0x00, 0x00, 0x14, 0x00, 0x00, 0x00, 0x06, 0x00, 0x00, 0x00,
    0xf0, 0xab, 0xff, 0xff, 0x01, 0x00, 0x00, 0x00, 0x6d, 0x00, 0x00, 0x00,
    0x02, 0x00, 0x00, 0x00, 0x68, 0x00, 0x00, 0x00, 0x6c, 0x00, 0x00, 0x00,
    0x4a, 0xf4, 0xff, 0xff, 0x0c, 0x00, 0x00, 0x00, 0x10, 0x00, 0x00, 0x00,
    0x05, 0x00, 0x00, 0x00, 0x01, 0x00, 0x00, 0x00, 0x6c, 0x00, 0x00, 0x00,
    0x01, 0x00, 0x00, 0x00, 0x6b, 0x00, 0x00, 0x00, 0xfe, 0xf3, 0xff, 0xff,
    0x14, 0x00, 0x00, 0x00, 0x00, 0x00, 0x00, 0x0b, 0x10, 0x00, 0x00, 0x00,
    0x14, 0x00, 0x00, 0x00, 0x07, 0x00, 0x00, 0x00, 0x40, 0xac, 0xff, 0xff,
    0x01, 0x00, 0x00, 0x00, 0x6b, 0x00, 0x00, 0x00, 0x02, 0x00, 0x00, 0x00,
    0x67, 0x00, 0x00, 0x00, 0x6a, 0x00, 0x00, 0x00, 0x2e, 0xf4, 0xff, 0xff,
    0x14, 0x00, 0x00, 0x00, 0x00, 0x00, 0x00, 0x15, 0x10, 0x00, 0x00, 0x00,
    0x14, 0x00, 0x00, 0x00, 0x06, 0x00, 0x00, 0x00, 0x70, 0xac, 0xff, 0xff,
    0x01, 0x00, 0x00, 0x00, 0x6a, 0x00, 0x00, 0x00, 0x02, 0x00, 0x00, 0x00,
    0x65, 0x00, 0x00, 0x00, 0x69, 0x00, 0x00, 0x00, 0xca, 0xf4, 0xff, 0xff,
    0x0c, 0x00, 0x00, 0x00, 0x10, 0x00, 0x00, 0x00, 0x05, 0x00, 0x00, 0x00,
    0x01, 0x00, 0x00, 0x00, 0x69, 0x00, 0x00, 0x00, 0x01, 0x00, 0x00, 0x00,
    0x63, 0x00, 0x00, 0x00, 0xea, 0xf4, 0xff, 0xff, 0x0c, 0x00, 0x00, 0x00,
    0x10, 0x00, 0x00, 0x00, 0x04, 0x00, 0x00, 0x00, 0x01, 0x00, 0x00, 0x00,
    0x68, 0x00, 0x00, 0x00, 0x01, 0x00, 0x00, 0x00, 0x64, 0x00, 0x00, 0x00,
    0x9e, 0xf4, 0xff, 0xff, 0x14, 0x00, 0x00, 0x00, 0x00, 0x00, 0x00, 0x15,
    0x10, 0x00, 0x00, 0x00, 0x14, 0x00, 0x00, 0x00, 0x06, 0x00, 0x00, 0x00,
    0xe0, 0xac, 0xff, 0xff, 0x01, 0x00, 0x00, 0x00, 0x67, 0x00, 0x00, 0x00,
    0x02, 0x00, 0x00, 0x00, 0x66, 0x00, 0x00, 0x00, 0x59, 0x00, 0x00, 0x00,
    0x3a, 0xf5, 0xff, 0xff, 0x0c, 0x00, 0x00, 0x00, 0x10, 0x00, 0x00, 0x00,
    0x04, 0x00, 0x00, 0x00, 0x01, 0x00, 0x00, 0x00, 0x66, 0x00, 0x00, 0x00,
    0x01, 0x00, 0x00, 0x00, 0x62, 0x00, 0x00, 0x00, 0x5a, 0xf5, 0xff, 0xff,
    0x0c, 0x00, 0x00, 0x00, 0x10, 0x00, 0x00, 0x00, 0x04, 0x00, 0x00, 0x00,
    0x01, 0x00, 0x00, 0x00, 0x65, 0x00, 0x00, 0x00, 0x01, 0x00, 0x00, 0x00,
    0x61, 0x00, 0x00, 0x00, 0x0e, 0xf5, 0xff, 0xff, 0x14, 0x00, 0x00, 0x00,
    0x00, 0x00, 0x00, 0x23, 0x14, 0x00, 0x00, 0x00, 0x24, 0x00, 0x00, 0x00,
    0x03, 0x00, 0x00, 0x00, 0xba, 0xf4, 0xff, 0xff, 0x04, 0x00, 0x00, 0x00,
    0x04, 0x00, 0x00, 0x00, 0x61, 0x00, 0x00, 0x00, 0x62, 0x00, 0x00, 0x00,
    0x63, 0x00, 0x00, 0x00, 0x64, 0x00, 0x00, 0x00, 0x02, 0x00, 0x00, 0x00,
    0x08, 0x00, 0x00, 0x00, 0x60, 0x00, 0x00, 0x00, 0x4e, 0xf5, 0xff, 0xff,
    0x14, 0x00, 0x00, 0x00, 0x00, 0x00, 0x00, 0x0b, 0x10, 0x00, 0x00, 0x00,
    0x14, 0x00, 0x00, 0x00, 0x07, 0x00, 0x00, 0x00, 0x90, 0xad, 0xff, 0xff,
    0x01, 0x00, 0x00, 0x00, 0x60, 0x00, 0x00, 0x00, 0x02, 0x00, 0x00, 0x00,
    0x5f, 0x00, 0x00, 0x00, 0x09, 0x00, 0x00, 0x00, 0x7e, 0xf5, 0xff, 0xff,
    0x14, 0x00, 0x00, 0x00, 0x00, 0x00, 0x00, 0x0b, 0x10, 0x00, 0x00, 0x00,
    0x14, 0x00, 0x00, 0x00, 0x07, 0x00, 0x00, 0x00, 0xc0, 0xad, 0xff, 0xff,
    0x01, 0x00, 0x00, 0x00, 0x5f, 0x00, 0x00, 0x00, 0x02, 0x00, 0x00, 0x00,
    0x5e, 0x00, 0x00, 0x00, 0x5d, 0x00, 0x00, 0x00, 0xae, 0xf5, 0xff, 0xff,
    0x14, 0x00, 0x00, 0x00, 0x00, 0x00, 0x00, 0x08, 0x10, 0x00, 0x00, 0x00,
    0x14, 0x00, 0x00, 0x00, 0x02, 0x00, 0x00, 0x00, 0xf0, 0xad, 0xff, 0xff,
    0x01, 0x00, 0x00, 0x00, 0x5e, 0x00, 0x00, 0x00, 0x03, 0x00, 0x00, 0x00,
    0x10, 0x00, 0x00, 0x00, 0x07, 0x00, 0x00, 0x00, 0xff, 0xff, 0xff, 0xff,
    0x32, 0xf5, 0xff, 0xff, 0x08, 0x00, 0x00, 0x00, 0x0c, 0x00, 0x00, 0x00,
    0x01, 0x00, 0x00, 0x00, 0x5d, 0x00, 0x00, 0x00, 0x02, 0x00, 0x00, 0x00,
    0x5c, 0x00, 0x00, 0x00, 0x03, 0x00, 0x00, 0x00, 0x02, 0xf6, 0xff, 0xff,
    0x14, 0x00, 0x00, 0x00, 0x00, 0x00, 0x00, 0x08, 0x10, 0x00, 0x00, 0x00,
    0x14, 0x00, 0x00, 0x00, 0x02, 0x00, 0x00, 0x00, 0x44, 0xae, 0xff, 0xff,
    0x01, 0x00, 0x00, 0x00, 0x5c, 0x00, 0x00, 0x00, 0x03, 0x00, 0x00, 0x00,
    0x5b, 0x00, 0x00, 0x00, 0x06, 0x00, 0x00, 0x00, 0xff, 0xff, 0xff, 0xff,
    0x36, 0xf6, 0xff, 0xff, 0x14, 0x00, 0x00, 0x00, 0x00, 0x00, 0x00, 0x15,
    0x10, 0x00, 0x00, 0x00, 0x14, 0x00, 0x00, 0x00, 0x06, 0x00, 0x00, 0x00,
    0x78, 0xae, 0xff, 0xff, 0x01, 0x00, 0x00, 0x00, 0x5b, 0x00, 0x00, 0x00,
    0x02, 0x00, 0x00, 0x00, 0x56, 0x00, 0x00, 0x00, 0x5a, 0x00, 0x00, 0x00,
    0xd2, 0xf6, 0xff, 0xff, 0x0c, 0x00, 0x00, 0x00, 0x10, 0x00, 0x00, 0x00,
    0x05, 0x00, 0x00, 0x00, 0x01, 0x00, 0x00, 0x00, 0x5a, 0x00, 0x00, 0x00,
    0x01, 0x00, 0x00, 0x00, 0x59, 0x00, 0x00, 0x00, 0x86, 0xf6, 0xff, 0xff,
    0x14, 0x00, 0x00, 0x00, 0x00, 0x00, 0x00, 0x0b, 0x10, 0x00, 0x00, 0x00,
    0x14, 0x00, 0x00, 0x00, 0x07, 0x00, 0x00, 0x00, 0xc8, 0xae, 0xff, 0xff,
    0x01, 0x00, 0x00, 0x00, 0x59, 0x00, 0x00, 0x00, 0x02, 0x00, 0x00, 0x00,
    0x55, 0x00, 0x00, 0x00, 0x58, 0x00, 0x00, 0x00, 0xb6, 0xf6, 0xff, 0xff,
    0x14, 0x00, 0x00, 0x00, 0x00, 0x00, 0x00, 0x15, 0x10, 0x00, 0x00, 0x00,
    0x14, 0x00, 0x00, 0x00, 0x06, 0x00, 0x00, 0x00, 0xf8, 0xae, 0xff, 0xff,
    0x01, 0x00, 0x00, 0x00, 0x58, 0x00, 0x00, 0x00, 0x02, 0x00, 0x00, 0x00,
    0x53, 0x00, 0x00, 0x00, 0x57, 0x00, 0x00, 0x00, 0x52, 0xf7, 0xff, 0xff,
    0x0c, 0x00, 0x00, 0x00, 0x10, 0x00, 0x00, 0x00, 0x05, 0x00, 0x00, 0x00,
    0x01, 0x00, 0x00, 0x00, 0x57, 0x00, 0x00, 0x00, 0x01, 0x00, 0x00, 0x00,
    0x51, 0x00, 0x00, 0x00, 0x72, 0xf7, 0xff, 0xff, 0x0c, 0x00, 0x00, 0x00,
    0x10, 0x00, 0x00, 0x00, 0x04, 0x00, 0x00, 0x00, 0x01, 0x00, 0x00, 0x00,
    0x56, 0x00, 0x00, 0x00, 0x01, 0x00, 0x00, 0x00, 0x52, 0x00, 0x00, 0x00,
    0x26, 0xf7, 0xff, 0xff, 0x14, 0x00, 0x00, 0x00, 0x00, 0x00, 0x00, 0x15,
    0x10, 0x00, 0x00, 0x00, 0x14, 0x00, 0x00, 0x00, 0x06, 0x00, 0x00, 0x00,
    0x68, 0xaf, 0xff, 0xff, 0x01, 0x00, 0x00, 0x00, 0x55, 0x00, 0x00, 0x00,
    0x02, 0x00, 0x00, 0x00, 0x54, 0x00, 0x00, 0x00, 0x47, 0x00, 0x00, 0x00,
    0xc2, 0xf7, 0xff, 0xff, 0x0c, 0x00, 0x00, 0x00, 0x10, 0x00, 0x00, 0x00,
    0x04, 0x00, 0x00, 0x00, 0x01, 0x00, 0x00, 0x00, 0x54, 0x00, 0x00, 0x00,
    0x01, 0x00, 0x00, 0x00, 0x50, 0x00, 0x00, 0x00, 0xe2, 0xf7, 0xff, 0xff,
    0x0c, 0x00, 0x00, 0x00, 0x10, 0x00, 0x00, 0x00, 0x04, 0x00, 0x00, 0x00,
    0x01, 0x00, 0x00, 0x00, 0x53, 0x00, 0x00, 0x00, 0x01, 0x00, 0x00, 0x00,
    0x4f, 0x00, 0x00, 0x00, 0x96, 0xf7, 0xff, 0xff, 0x14, 0x00, 0x00, 0x00,
    0x00, 0x00, 0x00, 0x23, 0x14, 0x00, 0x00, 0x00, 0x24, 0x00, 0x00, 0x00,
    0x03, 0x00, 0x00, 0x00, 0x42, 0xf7, 0xff, 0xff, 0x04, 0x00, 0x00, 0x00,
    0x04, 0x00, 0x00, 0x00, 0x4f, 0x00, 0x00, 0x00, 0x50, 0x00, 0x00, 0x00,
    0x51, 0x00, 0x00, 0x00, 0x52, 0x00, 0x00, 0x00, 0x02, 0x00, 0x00, 0x00,
    0x08, 0x00, 0x00, 0x00, 0x4e, 0x00, 0x00, 0x00, 0xd6, 0xf7, 0xff, 0xff,
    0x14, 0x00, 0x00, 0x00, 0x00, 0x00, 0x00, 0x0b, 0x10, 0x00, 0x00, 0x00,
    0x14, 0x00, 0x00, 0x00, 0x07, 0x00, 0x00, 0x00, 0x18, 0xb0, 0xff, 0xff,
    0x01, 0x00, 0x00, 0x00, 0x4e, 0x00, 0x00, 0x00, 0x02, 0x00, 0x00, 0x00,
    0x4d, 0x00, 0x00, 0x00, 0x09, 0x00, 0x00, 0x00, 0x06, 0xf8, 0xff, 0xff,
    0x14, 0x00, 0x00, 0x00, 0x00, 0x00, 0x00, 0x0b, 0x10, 0x00, 0x00, 0x00,
    0x14, 0x00, 0x00, 0x00, 0x07, 0x00, 0x00, 0x00, 0x48, 0xb0, 0xff, 0xff,
    0x01, 0x00, 0x00, 0x00, 0x4d, 0x00, 0x00, 0x00, 0x02, 0x00, 0x00, 0x00,
    0x4c, 0x00, 0x00, 0x00, 0x4b, 0x00, 0x00, 0x00, 0x36, 0xf8, 0xff, 0xff,
    0x14, 0x00, 0x00, 0x00, 0x00, 0x00, 0x00, 0x08, 0x10, 0x00, 0x00, 0x00,
    0x14, 0x00, 0x00, 0x00, 0x02, 0x00, 0x00, 0x00, 0x78, 0xb0, 0xff, 0xff,
    0x01, 0x00, 0x00, 0x00, 0x4c, 0x00, 0x00, 0x00, 0x03, 0x00, 0x00, 0x00,
    0x0f, 0x00, 0x00, 0x00, 0x07, 0x00, 0x00, 0x00, 0xff, 0xff, 0xff, 0xff,
    0xba, 0xf7, 0xff, 0xff, 0x08, 0x00, 0x00, 0x00, 0x0c, 0x00, 0x00, 0x00,
    0x01, 0x00, 0x00, 0x00, 0x4b, 0x00, 0x00, 0x00, 0x02, 0x00, 0x00, 0x00,
    0x4a, 0x00, 0x00, 0x00, 0x03, 0x00, 0x00, 0x00, 0x8a, 0xf8, 0xff, 0xff,
    0x14, 0x00, 0x00, 0x00, 0x00, 0x00, 0x00, 0x08, 0x10, 0x00, 0x00, 0x00,
    0x14, 0x00, 0x00, 0x00, 0x02, 0x00, 0x00, 0x00, 0xcc, 0xb0, 0xff, 0xff,
    0x01, 0x00, 0x00, 0x00, 0x4a, 0x00, 0x00, 0x00, 0x03, 0x00, 0x00, 0x00,
    0x49, 0x00, 0x00, 0x00, 0x06, 0x00, 0x00, 0x00, 0xff, 0xff, 0xff, 0xff,
    0xbe, 0xf8, 0xff, 0xff, 0x14, 0x00, 0x00, 0x00, 0x00, 0x00, 0x00, 0x15,
    0x10, 0x00, 0x00, 0x00, 0x14, 0x00, 0x00, 0x00, 0x06, 0x00, 0x00, 0x00,
    0x00, 0xb1, 0xff, 0xff, 0x01, 0x00, 0x00, 0x00, 0x49, 0x00, 0x00, 0x00,
    0x02, 0x00, 0x00, 0x00, 0x44, 0x00, 0x00, 0x00, 0x48, 0x00, 0x00, 0x00,
    0x5a, 0xf9, 0xff, 0xff, 0x0c, 0x00, 0x00, 0x00, 0x10, 0x00, 0x00, 0x00,
    0x05, 0x00, 0x00, 0x00, 0x01, 0x00, 0x00, 0x00, 0x48, 0x00, 0x00, 0x00,
    0x01, 0x00, 0x00, 0x00, 0x47, 0x00, 0x00, 0x00, 0x0e, 0xf9, 0xff, 0xff,
    0x14, 0x00, 0x00, 0x00, 0x00, 0x00, 0x00, 0x0b, 0x10, 0x00, 0x00, 0x00,
    0x14, 0x00, 0x00, 0x00, 0x07, 0x00, 0x00, 0x00, 0x50, 0xb1, 0xff, 0xff,
    0x01, 0x00, 0x00, 0x00, 0x47, 0x00, 0x00, 0x00, 0x02, 0x00, 0x00, 0x00,
    0x43, 0x00, 0x00, 0x00, 0x46, 0x00, 0x00, 0x00, 0x3e, 0xf9, 0xff, 0xff,
    0x14, 0x00, 0x00, 0x00, 0x00, 0x00, 0x00, 0x15, 0x10, 0x00, 0x00, 0x00,
    0x14, 0x00, 0x00, 0x00, 0x06, 0x00, 0x00, 0x00, 0x80, 0xb1, 0xff, 0xff,
    0x01, 0x00, 0x00, 0x00, 0x46, 0x00, 0x00, 0x00, 0x02, 0x00, 0x00, 0x00,
    0x41, 0x00, 0x00, 0x00, 0x45, 0x00, 0x00, 0x00, 0xda, 0xf9, 0xff, 0xff,
    0x0c, 0x00, 0x00, 0x00, 0x10, 0x00, 0x00, 0x00, 0x05, 0x00, 0x00, 0x00,
    0x01, 0x00, 0x00, 0x00, 0x45, 0x00, 0x00, 0x00, 0x01, 0x00, 0x00, 0x00,
    0x3f, 0x00, 0x00, 0x00, 0xfa, 0xf9, 0xff, 0xff, 0x0c, 0x00, 0x00, 0x00,
    0x10, 0x00, 0x00, 0x00, 0x04, 0x00, 0x00, 0x00, 0x01, 0x00, 0x00, 0x00,
    0x44, 0x00, 0x00, 0x00, 0x01, 0x00, 0x00, 0x00, 0x40, 0x00, 0x00, 0x00,
    0xae, 0xf9, 0xff, 0xff, 0x14, 0x00, 0x00, 0x00, 0x00, 0x00, 0x00, 0x15,
    0x10, 0x00, 0x00, 0x00, 0x14, 0x00, 0x00, 0x00, 0x06, 0x00, 0x00, 0x00,
    0xf0, 0xb1, 0xff, 0xff, 0x01, 0x00, 0x00, 0x00, 0x43, 0x00, 0x00, 0x00,
    0x02, 0x00, 0x00, 0x00, 0x42, 0x00, 0x00, 0x00, 0x35, 0x00, 0x00, 0x00,
    0x4a, 0xfa, 0xff, 0xff, 0x0c, 0x00, 0x00, 0x00, 0x10, 0x00, 0x00, 0x00,
    0x04, 0x00, 0x00, 0x00, 0x01, 0x00, 0x00, 0x00, 0x42, 0x00, 0x00, 0x00,
    0x01, 0x00, 0x00, 0x00, 0x3e, 0x00, 0x00, 0x00, 0x6a, 0xfa, 0xff, 0xff,
    0x0c, 0x00, 0x00, 0x00, 0x10, 0x00, 0x00, 0x00, 0x04, 0x00, 0x00, 0x00,
    0x01, 0x00, 0x00, 0x00, 0x41, 0x00, 0x00, 0x00, 0x01, 0x00, 0x00, 0x00,
    0x3d, 0x00, 0x00, 0x00, 0x1e, 0xfa, 0xff, 0xff, 0x14, 0x00, 0x00, 0x00,
    0x00, 0x00, 0x00, 0x23, 0x14, 0x00, 0x00, 0x00, 0x24, 0x00, 0x00, 0x00,
    0x03, 0x00, 0x00, 0x00, 0xca, 0xf9, 0xff, 0xff, 0x04, 0x00, 0x00, 0x00,
    0x04, 0x00, 0x00, 0x00, 0x3d, 0x00, 0x00, 0x00, 0x3e, 0x00, 0x00, 0x00,
    0x3f, 0x00, 0x00, 0x00, 0x40, 0x00, 0x00, 0x00, 0x02, 0x00, 0x00, 0x00,
    0x08, 0x00, 0x00, 0x00, 0x3c, 0x00, 0x00, 0x00, 0x5e, 0xfa, 0xff, 0xff,
    0x14, 0x00, 0x00, 0x00, 0x00, 0x00, 0x00, 0x0b, 0x10, 0x00, 0x00, 0x00,
    0x14, 0x00, 0x00, 0x00, 0x07, 0x00, 0x00, 0x00, 0xa0, 0xb2, 0xff, 0xff,
    0x01, 0x00, 0x00, 0x00, 0x3c, 0x00, 0x00, 0x00, 0x02, 0x00, 0x00, 0x00,
    0x3b, 0x00, 0x00, 0x00, 0x09, 0x00, 0x00, 0x00, 0x8e, 0xfa, 0xff, 0xff,
    0x14, 0x00, 0x00, 0x00, 0x00, 0x00, 0x00, 0x0b, 0x10, 0x00, 0x00, 0x00,
    0x14, 0x00, 0x00, 0x00, 0x07, 0x00, 0x00, 0x00, 0xd0, 0xb2, 0xff, 0xff,
    0x01, 0x00, 0x00, 0x00, 0x3b, 0x00, 0x00, 0x00, 0x02, 0x00, 0x00, 0x00,
    0x3a, 0x00, 0x00, 0x00, 0x39, 0x00, 0x00, 0x00, 0xbe, 0xfa, 0xff, 0xff,
    0x14, 0x00, 0x00, 0x00, 0x00, 0x00, 0x00, 0x08, 0x10, 0x00, 0x00, 0x00,
    0x14, 0x00, 0x00, 0x00, 0x02, 0x00, 0x00, 0x00, 0x00, 0xb3, 0xff, 0xff,
    0x01, 0x00, 0x00, 0x00, 0x3a, 0x00, 0x00, 0x00, 0x03, 0x00, 0x00, 0x00,
    0x0e, 0x00, 0x00, 0x00, 0x07, 0x00, 0x00, 0x00, 0xff, 0xff, 0xff, 0xff,
    0x42, 0xfa, 0xff, 0xff, 0x08, 0x00, 0x00, 0x00, 0x0c, 0x00, 0x00, 0x00,
    0x01, 0x00, 0x00, 0x00, 0x39, 0x00, 0x00, 0x00, 0x02, 0x00, 0x00, 0x00,
    0x38, 0x00, 0x00, 0x00, 0x03, 0x00, 0x00, 0x00, 0x12, 0xfb, 0xff, 0xff,
    0x14, 0x00, 0x00, 0x00, 0x00, 0x00, 0x00, 0x08, 0x10, 0x00, 0x00, 0x00,
    0x14, 0x00, 0x00, 0x00, 0x02, 0x00, 0x00, 0x00, 0x54, 0xb3, 0xff, 0xff,
    0x01, 0x00, 0x00, 0x00, 0x38, 0x00, 0x00, 0x00, 0x03, 0x00, 0x00, 0x00,
    0x37, 0x00, 0x00, 0x00, 0x06, 0x00, 0x00, 0x00, 0xff, 0xff, 0xff, 0xff,
    0x46, 0xfb, 0xff, 0xff, 0x14, 0x00, 0x00, 0x00, 0x00, 0x00, 0x00, 0x15,
    0x10, 0x00, 0x00, 0x00, 0x14, 0x00, 0x00, 0x00, 0x06, 0x00, 0x00, 0x00,
    0x88, 0xb3, 0xff, 0xff, 0x01, 0x00, 0x00, 0x00, 0x37, 0x00, 0x00, 0x00,
    0x02, 0x00, 0x00, 0x00, 0x32, 0x00, 0x00, 0x00, 0x36, 0x00, 0x00, 0x00,
    0xe2, 0xfb, 0xff, 0xff, 0x0c, 0x00, 0x00, 0x00, 0x10, 0x00, 0x00, 0x00,
    0x05, 0x00, 0x00, 0x00, 0x01, 0x00, 0x00, 0x00, 0x36, 0x00, 0x00, 0x00,
    0x01, 0x00, 0x00, 0x00, 0x35, 0x00, 0x00, 0x00, 0x96, 0xfb, 0xff, 0xff,
    0x14, 0x00, 0x00, 0x00, 0x00, 0x00, 0x00, 0x0b, 0x10, 0x00, 0x00, 0x00,
    0x14, 0x00, 0x00, 0x00, 0x07, 0x00, 0x00, 0x00, 0xd8, 0xb3, 0xff, 0xff,
    0x01, 0x00, 0x00, 0x00, 0x35, 0x00, 0x00, 0x00, 0x02, 0x00, 0x00, 0x00,
    0x31, 0x00, 0x00, 0x00, 0x34, 0x00, 0x00, 0x00, 0xc6, 0xfb, 0xff, 0xff,
    0x14, 0x00, 0x00, 0x00, 0x00, 0x00, 0x00, 0x15, 0x10, 0x00, 0x00, 0x00,
    0x14, 0x00, 0x00, 0x00, 0x06, 0x00, 0x00, 0x00, 0x08, 0xb4, 0xff, 0xff,
    0x01, 0x00, 0x00, 0x00, 0x34, 0x00, 0x00, 0x00, 0x02, 0x00, 0x00, 0x00,
    0x2f, 0x00, 0x00, 0x00, 0x33, 0x00, 0x00, 0x00, 0x62, 0xfc, 0xff, 0xff,
    0x0c, 0x00, 0x00, 0x00, 0x10, 0x00, 0x00, 0x00, 0x05, 0x00, 0x00, 0x00,
    0x01, 0x00, 0x00, 0x00, 0x33, 0x00, 0x00, 0x00, 0x01, 0x00, 0x00, 0x00,
    0x2d, 0x00, 0x00, 0x00, 0x82, 0xfc, 0xff, 0xff, 0x0c, 0x00, 0x00, 0x00,
    0x10, 0x00, 0x00, 0x00, 0x04, 0x00, 0x00, 0x00, 0x01, 0x00, 0x00, 0x00,
    0x32, 0x00, 0x00, 0x00, 0x01, 0x00, 0x00, 0x00, 0x2e, 0x00, 0x00, 0x00,
    0x36, 0xfc, 0xff, 0xff, 0x14, 0x00, 0x00, 0x00, 0x00, 0x00, 0x00, 0x15,
    0x10, 0x00, 0x00, 0x00, 0x14, 0x00, 0x00, 0x00, 0x06, 0x00, 0x00, 0x00,
    0x78, 0xb4, 0xff, 0xff, 0x01, 0x00, 0x00, 0x00, 0x31, 0x00, 0x00, 0x00,
    0x02, 0x00, 0x00, 0x00, 0x30, 0x00, 0x00, 0x00, 0x1e, 0x00, 0x00, 0x00,
    0xd2, 0xfc, 0xff, 0xff, 0x0c, 0x00, 0x00, 0x00, 0x10, 0x00, 0x00, 0x00,
    0x04, 0x00, 0x00, 0x00, 0x01, 0x00, 0x00, 0x00, 0x30, 0x00, 0x00, 0x00,
    0x01, 0x00, 0x00, 0x00, 0x2c, 0x00, 0x00, 0x00, 0xf2, 0xfc, 0xff, 0xff,
    0x0c, 0x00, 0x00, 0x00, 0x10, 0x00, 0x00, 0x00, 0x04, 0x00, 0x00, 0x00,
    0x01, 0x00, 0x00, 0x00, 0x2f, 0x00, 0x00, 0x00, 0x01, 0x00, 0x00, 0x00,
    0x2b, 0x00, 0x00, 0x00, 0xa6, 0xfc, 0xff, 0xff, 0x14, 0x00, 0x00, 0x00,
    0x00, 0x00, 0x00, 0x23, 0x14, 0x00, 0x00, 0x00, 0x24, 0x00, 0x00, 0x00,
    0x03, 0x00, 0x00, 0x00, 0x52, 0xfc, 0xff, 0xff, 0x04, 0x00, 0x00, 0x00,
    0x04, 0x00, 0x00, 0x00, 0x2b, 0x00, 0x00, 0x00, 0x2c, 0x00, 0x00, 0x00,
    0x2d, 0x00, 0x00, 0x00, 0x2e, 0x00, 0x00, 0x00, 0x02, 0x00, 0x00, 0x00,
    0x08, 0x00, 0x00, 0x00, 0x2a, 0x00, 0x00, 0x00, 0xe6, 0xfc, 0xff, 0xff,
    0x14, 0x00, 0x00, 0x00, 0x00, 0x00, 0x00, 0x0b, 0x10, 0x00, 0x00, 0x00,
    0x14, 0x00, 0x00, 0x00, 0x07, 0x00, 0x00, 0x00, 0x28, 0xb5, 0xff, 0xff,
    0x01, 0x00, 0x00, 0x00, 0x2a, 0x00, 0x00, 0x00, 0x02, 0x00, 0x00, 0x00,
    0x29, 0x00, 0x00, 0x00, 0x09, 0x00, 0x00, 0x00, 0x16, 0xfd, 0xff, 0xff,
    0x14, 0x00, 0x00, 0x00, 0x00, 0x00, 0x00, 0x0b, 0x10, 0x00, 0x00, 0x00,
    0x14, 0x00, 0x00, 0x00, 0x07, 0x00, 0x00, 0x00, 0x58, 0xb5, 0xff, 0xff,
    0x01, 0x00, 0x00, 0x00, 0x29, 0x00, 0x00, 0x00, 0x02, 0x00, 0x00, 0x00,
    0x28, 0x00, 0x00, 0x00, 0x22, 0x00, 0x00, 0x00, 0x46, 0xfd, 0xff, 0xff,
    0x14, 0x00, 0x00, 0x00, 0x00, 0x00, 0x00, 0x08, 0x10, 0x00, 0x00, 0x00,
    0x14, 0x00, 0x00, 0x00, 0x02, 0x00, 0x00, 0x00, 0x88, 0xb5, 0xff, 0xff,
    0x01, 0x00, 0x00, 0x00, 0x28, 0x00, 0x00, 0x00, 0x03, 0x00, 0x00, 0x00,
    0x0d, 0x00, 0x00, 0x00, 0x07, 0x00, 0x00, 0x00, 0xff, 0xff, 0xff, 0xff,
    0x7a, 0xfd, 0xff, 0xff, 0x14, 0x00, 0x00, 0x00, 0x00, 0x00, 0x00, 0x08,
    0x10, 0x00, 0x00, 0x00, 0x14, 0x00, 0x00, 0x00, 0x02, 0x00, 0x00, 0x00,
    0xbc, 0xb5, 0xff, 0xff, 0x01, 0x00, 0x00, 0x00, 0x27, 0x00, 0x00, 0x00,
    0x03, 0x00, 0x00, 0x00, 0x15, 0x00, 0x00, 0x00, 0x07, 0x00, 0x00, 0x00,
    0xff, 0xff, 0xff, 0xff, 0xae, 0xfd, 0xff, 0xff, 0x14, 0x00, 0x00, 0x00,
    0x00, 0x00, 0x00, 0x08, 0x10, 0x00, 0x00, 0x00, 0x14, 0x00, 0x00, 0x00,
    0x02, 0x00, 0x00, 0x00, 0xf0, 0xb5, 0xff, 0xff, 0x01, 0x00, 0x00, 0x00,
    0x26, 0x00, 0x00, 0x00, 0x03, 0x00, 0x00, 0x00, 0x14, 0x00, 0x00, 0x00,
    0x07, 0x00, 0x00, 0x00, 0xff, 0xff, 0xff, 0xff, 0xe2, 0xfd, 0xff, 0xff,
    0x14, 0x00, 0x00, 0x00, 0x00, 0x00, 0x00, 0x08, 0x10, 0x00, 0x00, 0x00,
    0x14, 0x00, 0x00, 0x00, 0x02, 0x00, 0x00, 0x00, 0x24, 0xb6, 0xff, 0xff,
    0x01, 0x00, 0x00, 0x00, 0x25, 0x00, 0x00, 0x00, 0x03, 0x00, 0x00, 0x00,
    0x13, 0x00, 0x00, 0x00, 0x07, 0x00, 0x00, 0x00, 0xff, 0xff, 0xff, 0xff,
    0x16, 0xfe, 0xff, 0xff, 0x14, 0x00, 0x00, 0x00, 0x00, 0x00, 0x00, 0x08,
    0x10, 0x00, 0x00, 0x00, 0x14, 0x00, 0x00, 0x00, 0x02, 0x00, 0x00, 0x00,
    0x58, 0xb6, 0xff, 0xff, 0x01, 0x00, 0x00, 0x00, 0x24, 0x00, 0x00, 0x00,
    0x03, 0x00, 0x00, 0x00, 0x12, 0x00, 0x00, 0x00, 0x07, 0x00, 0x00, 0x00,
    0xff, 0xff, 0xff, 0xff, 0x4a, 0xfe, 0xff, 0xff, 0x14, 0x00, 0x00, 0x00,
    0x00, 0x00, 0x00, 0x08, 0x10, 0x00, 0x00, 0x00, 0x14, 0x00, 0x00, 0x00,
    0x02, 0x00, 0x00, 0x00, 0x8c, 0xb6, 0xff, 0xff, 0x01, 0x00, 0x00, 0x00,
    0x23, 0x00, 0x00, 0x00, 0x03, 0x00, 0x00, 0x00, 0x11, 0x00, 0x00, 0x00,
    0x07, 0x00, 0x00, 0x00, 0xff, 0xff, 0xff, 0xff, 0xce, 0xfd, 0xff, 0xff,
    0x08, 0x00, 0x00, 0x00, 0x0c, 0x00, 0x00, 0x00, 0x01, 0x00, 0x00, 0x00,
    0x22, 0x00, 0x00, 0x00, 0x02, 0x00, 0x00, 0x00, 0x21, 0x00, 0x00, 0x00,
    0x03, 0x00, 0x00, 0x00, 0x9e, 0xfe, 0xff, 0xff, 0x14, 0x00, 0x00, 0x00,
    0x00, 0x00, 0x00, 0x08, 0x10, 0x00, 0x00, 0x00, 0x14, 0x00, 0x00, 0x00,
    0x02, 0x00, 0x00, 0x00, 0xe0, 0xb6, 0xff, 0xff, 0x01, 0x00, 0x00, 0x00,
    0x21, 0x00, 0x00, 0x00, 0x03, 0x00, 0x00, 0x00, 0x20, 0x00, 0x00, 0x00,
    0x06, 0x00, 0x00, 0x00, 0xff, 0xff, 0xff, 0xff, 0xd2, 0xfe, 0xff, 0xff,
    0x14, 0x00, 0x00, 0x00, 0x00, 0x00, 0x00, 0x15, 0x10, 0x00, 0x00, 0x00,
    0x14, 0x00, 0x00, 0x00, 0x06, 0x00, 0x00, 0x00, 0x14, 0xb7, 0xff, 0xff,
    0x01, 0x00, 0x00, 0x00, 0x20, 0x00, 0x00, 0x00, 0x02, 0x00, 0x00, 0x00,
    0x1c, 0x00, 0x00, 0x00, 0x1f, 0x00, 0x00, 0x00, 0x6e, 0xff, 0xff, 0xff,
    0x0c, 0x00, 0x00, 0x00, 0x10, 0x00, 0x00, 0x00, 0x05, 0x00, 0x00, 0x00,
    0x01, 0x00, 0x00, 0x00, 0x1f, 0x00, 0x00, 0x00, 0x01, 0x00, 0x00, 0x00,
    0x1e, 0x00, 0x00, 0x00, 0x22, 0xff, 0xff, 0xff, 0x14, 0x00, 0x00, 0x00,
    0x00, 0x00, 0x00, 0x15, 0x10, 0x00, 0x00, 0x00, 0x14, 0x00, 0x00, 0x00,
    0x06, 0x00, 0x00, 0x00, 0x64, 0xb7, 0xff, 0xff, 0x01, 0x00, 0x00, 0x00,
    0x1e, 0x00, 0x00, 0x00, 0x02, 0x00, 0x00, 0x00, 0x1b, 0x00, 0x00, 0x00,
    0x1d, 0x00, 0x00, 0x00, 0xbe, 0xff, 0xff, 0xff, 0x0c, 0x00, 0x00, 0x00,
    0x10, 0x00, 0x00, 0x00, 0x05, 0x00, 0x00, 0x00, 0x01, 0x00, 0x00, 0x00,
    0x1d, 0x00, 0x00, 0x00, 0x01, 0x00, 0x00, 0x00, 0x19, 0x00, 0x00, 0x00,
    0xde, 0xff, 0xff, 0xff, 0x0c, 0x00, 0x00, 0x00, 0x10, 0x00, 0x00, 0x00,
    0x04, 0x00, 0x00, 0x00, 0x01, 0x00, 0x00, 0x00, 0x1c, 0x00, 0x00, 0x00,
    0x01, 0x00, 0x00, 0x00, 0x1a, 0x00, 0x00, 0x00, 0x00, 0x00, 0x0a, 0x00,
    0x10, 0x00, 0x0c, 0x00, 0x08, 0x00, 0x04, 0x00, 0x0a, 0x00, 0x00, 0x00,
    0x0c, 0x00, 0x00, 0x00, 0x10, 0x00, 0x00, 0x00, 0x04, 0x00, 0x00, 0x00,
    0x01, 0x00, 0x00, 0x00, 0x1b, 0x00, 0x00, 0x00, 0x01, 0x00, 0x00, 0x00,
    0x17, 0x00, 0x00, 0x00, 0xbe, 0xff, 0xff, 0xff, 0x14, 0x00, 0x00, 0x00,
    0x00, 0x00, 0x00, 0x23, 0x14, 0x00, 0x00, 0x00, 0x24, 0x00, 0x00, 0x00,
    0x03, 0x00, 0x00, 0x00, 0x6a, 0xff, 0xff, 0xff, 0x04, 0x00, 0x00, 0x00,
    0x04, 0x00, 0x00, 0x00, 0x17, 0x00, 0x00, 0x00, 0x18, 0x00, 0x00, 0x00,
    0x19, 0x00, 0x00, 0x00, 0x1a, 0x00, 0x00, 0x00, 0x02, 0x00, 0x00, 0x00,
    0x08, 0x00, 0x00, 0x00, 0x16, 0x00, 0x00, 0x00, 0x00, 0x00, 0x0e, 0x00,
