const unsigned char model[] = {
  0x1c, 0x00, 0x00, 0x00, 0x54, 0x46, 0x4c, 0x33, 0x14, 0x00, 0x20, 0x00,
  0x1c, 0x00, 0x18, 0x00, 0x14, 0x00, 0x10, 0x00, 0x0c, 0x00, 0x00, 0x00,
  0x08, 0x00, 0x04, 0x00, 0x14, 0x00, 0x00, 0x00, 0x1c, 0x00, 0x00, 0x00,
  0x98, 0x00, 0x00, 0x00, 0xf0, 0x00, 0x00, 0x00, 0x98, 0x08, 0x00, 0x00,
  0xa8, 0x08, 0x00, 0x00, 0x6c, 0x0e, 0x00, 0x00, 0x03, 0x00, 0x00, 0x00,
  0x01, 0x00, 0x00, 0x00, 0x10, 0x00, 0x00, 0x00, 0x00, 0x00, 0x0a, 0x00,
  0x10, 0x00, 0x0c, 0x00, 0x08, 0x00, 0x04, 0x00, 0x0a, 0x00, 0x00, 0x00,
  0x0c, 0x00, 0x00, 0x00, 0x1c, 0x00, 0x00, 0x00, 0x3c, 0x00, 0x00, 0x00,
  0x0f, 0x00, 0x00, 0x00, 0x73, 0x65, 0x72, 0x76, 0x69, 0x6e, 0x67, 0x5f,
  0x64, 0x65, 0x66, 0x61, 0x75, 0x6c, 0x74, 0x00, 0x01, 0x00, 0x00, 0x00,
  0x04, 0x00, 0x00, 0x00, 0x90, 0xff, 0xff, 0xff, 0x0a, 0x00, 0x00, 0x00,
  0x04, 0x00, 0x00, 0x00, 0x08, 0x00, 0x00, 0x00, 0x6f, 0x75, 0x74, 0x70,
  0x75, 0x74, 0x5f, 0x30, 0x00, 0x00, 0x00, 0x00, 0x01, 0x00, 0x00, 0x00,
  0x04, 0x00, 0x00, 0x00, 0x4e, 0xf7, 0xff, 0xff, 0x04, 0x00, 0x00, 0x00,
  0x0f, 0x00, 0x00, 0x00, 0x6b, 0x65, 0x72, 0x61, 0x73, 0x5f, 0x74, 0x65,
  0x6e, 0x73, 0x6f, 0x72, 0x5f, 0x31, 0x36, 0x00, 0x02, 0x00, 0x00, 0x00,
  0x34, 0x00, 0x00, 0x00, 0x04, 0x00, 0x00, 0x00, 0xdc, 0xff, 0xff, 0xff,
  0x0d, 0x00, 0x00, 0x00, 0x04, 0x00, 0x00, 0x00, 0x13, 0x00, 0x00, 0x00,
  0x43, 0x4f, 0x4e, 0x56, 0x45, 0x52, 0x53, 0x49, 0x4f, 0x4e, 0x5f, 0x4d,
  0x45, 0x54, 0x41, 0x44, 0x41, 0x54, 0x41, 0x00, 0x08, 0x00, 0x0c, 0x00,
  0x08, 0x00, 0x04, 0x00, 0x08, 0x00, 0x00, 0x00, 0x0c, 0x00, 0x00, 0x00,
  0x04, 0x00, 0x00, 0x00, 0x13, 0x00, 0x00, 0x00, 0x6d, 0x69, 0x6e, 0x5f,
  0x72, 0x75, 0x6e, 0x74, 0x69, 0x6d, 0x65, 0x5f, 0x76, 0x65, 0x72, 0x73,
  0x69, 0x6f, 0x6e, 0x00, 0x0e, 0x00, 0x00, 0x00, 0xa4, 0x07, 0x00, 0x00,
  0x9c, 0x07, 0x00, 0x00, 0x0c, 0x07, 0x00, 0x00, 0xfc, 0x02, 0x00, 0x00,
  0xe4, 0x02, 0x00, 0x00, 0x94, 0x02, 0x00, 0x00, 0x44, 0x02, 0x00, 0x00,
  0xb4, 0x00, 0x00, 0x00, 0xac, 0x00, 0x00, 0x00, 0xa4, 0x00, 0x00, 0x00,
  0x9c, 0x00, 0x00, 0x00, 0x94, 0x00, 0x00, 0x00, 0x74, 0x00, 0x00, 0x00,
  0x04, 0x00, 0x00, 0x00, 0x02, 0xf8, 0xff, 0xff, 0x04, 0x00, 0x00, 0x00,
  0x60, 0x00, 0x00, 0x00, 0x0c, 0x00, 0x00, 0x00, 0x08, 0x00, 0x0e, 0x00,
  0x08, 0x00, 0x04, 0x00, 0x08, 0x00, 0x00, 0x00, 0x10, 0x00, 0x00, 0x00,
  0x28, 0x00, 0x00, 0x00, 0x00, 0x00, 0x06, 0x00, 0x08, 0x00, 0x04, 0x00,
  0x06, 0x00, 0x00, 0x00, 0x04, 0x00, 0x00, 0x00, 0x01, 0x00, 0x00, 0x00,
  0xea, 0x03, 0x00, 0x00, 0x0c, 0x00, 0x18, 0x00, 0x14, 0x00, 0x10, 0x00,
  0x0c, 0x00, 0x04, 0x00, 0x0c, 0x00, 0x00, 0x00, 0x39, 0x13, 0x7a, 0xb1,
  0xb6, 0xb7, 0xab, 0x34, 0x02, 0x00, 0x00, 0x00, 0x02, 0x00, 0x00, 0x00,
  0x04, 0x00, 0x00, 0x00, 0x06, 0x00, 0x00, 0x00, 0x32, 0x2e, 0x31, 0x39,
  0x2e, 0x30, 0x00, 0x00, 0x6e, 0xf8, 0xff, 0xff, 0x04, 0x00, 0x00, 0x00,
  0x10, 0x00, 0x00, 0x00, 0x31, 0x2e, 0x35, 0x2e, 0x30, 0x00, 0x00, 0x00,
  0x00, 0x00, 0x00, 0x00, 0x00, 0x00, 0x00, 0x00, 0x78, 0xf3, 0xff, 0xff,
  0x7c, 0xf3, 0xff, 0xff, 0x80, 0xf3, 0xff, 0xff, 0x84, 0xf3, 0xff, 0xff,
  0x9a, 0xf8, 0xff, 0xff, 0x04, 0x00, 0x00, 0x00, 0x80, 0x01, 0x00, 0x00,
  0x4b, 0x45, 0xbc, 0xbc, 0xea, 0xd8, 0xa7, 0x3d, 0xdd, 0xbe, 0x6c, 0x3e,
  0x86, 0x3b, 0x27, 0x40, 0x48, 0x63, 0x87, 0x3f, 0xfc, 0xea, 0x14, 0xc0,
  0xa2, 0x64, 0x81, 0xbe, 0x58, 0xae, 0x45, 0xbd, 0xee, 0xd2, 0xd6, 0x3e,
  0x4e, 0x08, 0x4c, 0xbe, 0xbb, 0x61, 0xd5, 0xbe, 0x50, 0x5e, 0x02, 0x3e,
  0x9c, 0x90, 0x46, 0xbe, 0x96, 0x87, 0xc6, 0x3e, 0xd8, 0x82, 0x72, 0x3e,
  0x3e, 0x89, 0x72, 0x3e, 0xd3, 0xe0, 0x4e, 0x3c, 0x4e, 0x93, 0x00, 0x3e,
  0x7b, 0x41, 0xe9, 0x3c, 0xa6, 0xfb, 0x1e, 0xbd, 0xf3, 0x8d, 0x7f, 0x3c,
  0x78, 0xff, 0xe3, 0xbf, 0x23, 0x18, 0x5f, 0xbf, 0xb0, 0xa9, 0xaf, 0x3f,
  0xc8, 0xd6, 0x1a, 0x3e, 0xe2, 0xf2, 0xaa, 0xbe, 0x3c, 0x21, 0x0e, 0x3d,
  0x86, 0x91, 0x18, 0xbf, 0xb7, 0xfd, 0xac, 0xbe, 0xdd, 0x88, 0x4b, 0x3f,
  0xa6, 0x83, 0x27, 0xbe, 0xc8, 0x6c, 0xc4, 0x3d, 0x83, 0x36, 0xf0, 0xbe,
  0x00, 0x19, 0xc6, 0xbd, 0x88, 0x29, 0xb7, 0x3e, 0x00, 0x35, 0x26, 0x3c,
  0x59, 0x02, 0x92, 0x3e, 0xab, 0x2c, 0x1e, 0xbf, 0x9e, 0x19, 0x83, 0xbe,
  0xce, 0xd5, 0x10, 0x3f, 0xdd, 0x9e, 0x56, 0xbc, 0x0d, 0x38, 0x12, 0xbf,
  0x79, 0xdd, 0xed, 0x3c, 0xa0, 0xb9, 0x2d, 0xbd, 0x91, 0xdc, 0xe0, 0x3e,
  0x20, 0x20, 0x92, 0xbf, 0xa5, 0xce, 0x31, 0xbe, 0xa5, 0x00, 0xa1, 0x3f,
  0xb0, 0xf1, 0x1f, 0xbd, 0x90, 0x9a, 0x12, 0x3d, 0xa2, 0xa2, 0x01, 0xbe,
  0x2a, 0x91, 0xde, 0x3e, 0x00, 0x7f, 0x14, 0x3c, 0x10, 0x92, 0x8b, 0x3d,
  0xb6, 0xf8, 0x4e, 0xbd, 0xe8, 0x36, 0x2b, 0x3e, 0x0f, 0x51, 0xb1, 0xbe,
  0x2f, 0x2e, 0x6d, 0x3f, 0x9e, 0xca, 0x01, 0x3f, 0x89, 0x2e, 0x7f, 0xbe,
  0xcc, 0x15, 0x9a, 0xbd, 0xae, 0xd1, 0x0b, 0x3e, 0x23, 0x23, 0xf3, 0x3e,
  0x03, 0xbc, 0x93, 0x3e, 0xd2, 0xb6, 0xe5, 0xbe, 0x76, 0x93, 0x64, 0x3e,
  0xdd, 0x9b, 0x06, 0xbc, 0x42, 0xe0, 0x1e, 0x3d, 0x0d, 0x3d, 0x82, 0xbc,
  0x09, 0x93, 0x91, 0x3f, 0xde, 0x05, 0x25, 0x3e, 0x17, 0xb3, 0xdc, 0xbf,
  0x42, 0x4c, 0x00, 0xbf, 0x3e, 0xb5, 0x9b, 0x3e, 0xa8, 0xb9, 0xdc, 0x3d,
  0x06, 0xa3, 0xc9, 0x3e, 0x46, 0x8b, 0xda, 0x3e, 0xa4, 0x48, 0x44, 0x3e,
  0x10, 0x33, 0xf3, 0xbe, 0xc0, 0x78, 0x3b, 0x3e, 0x38, 0xf1, 0x3b, 0x3e,
  0xa3, 0x10, 0x05, 0x3f, 0xc0, 0xf7, 0x95, 0xbc, 0x20, 0xb0, 0xf0, 0x3c,
  0x20, 0xee, 0xa8, 0x3d, 0x52, 0x5a, 0x8f, 0xbe, 0x6a, 0xb4, 0x9c, 0x3e,
  0x28, 0x87, 0xad, 0xbe, 0x32, 0x56, 0xc6, 0x3e, 0xd8, 0xc7, 0x89, 0xbe,
  0x1e, 0xcb, 0x6a, 0xbe, 0x30, 0x3c, 0x6f, 0xbe, 0x85, 0xfa, 0x01, 0x3f,
  0x94, 0xe0, 0xd2, 0x3e, 0x56, 0x48, 0x91, 0xbe, 0x80, 0x59, 0xf4, 0x3e,
  0x26, 0xfa, 0xff, 0xff, 0x04, 0x00, 0x00, 0x00, 0x40, 0x00, 0x00, 0x00,
  0xa5, 0xa6, 0xc5, 0xbe, 0x00, 0x00, 0x00, 0x00, 0x1b, 0x3a, 0xee, 0xbd,
  0x65, 0xfc, 0x9d, 0xbd, 0xfa, 0xc7, 0xaa, 0xbe, 0x00, 0x00, 0x00, 0x00,
  0x8a, 0xf6, 0x5c, 0xbe, 0x17, 0x6b, 0xe6, 0xbe, 0x00, 0x00, 0x00, 0x00,
  0xe5, 0x00, 0xa9, 0xbe, 0x70, 0xbe, 0xc4, 0xbb, 0x1c, 0xe9, 0xef, 0xbe,
  0x00, 0x00, 0x00, 0x00, 0x00, 0x00, 0x00, 0x00, 0x00, 0x00, 0x00, 0x00,
  0x00, 0x00, 0x00, 0x00, 0x72, 0xfa, 0xff, 0xff, 0x04, 0x00, 0x00, 0x00,
  0x40, 0x00, 0x00, 0x00, 0xb5, 0x58, 0x97, 0x3e, 0x4a, 0x16, 0x3b, 0x3f,
  0x00, 0x03, 0x63, 0x3d, 0xca, 0xbf, 0x66, 0xbe, 0xc2, 0x0e, 0xbe, 0x3c,
  0x07, 0x8c, 0x03, 0xbd, 0x3d, 0x65, 0xb4, 0xbe, 0xc3, 0x91, 0x08, 0xbe,
  0xd5, 0xba, 0x5a, 0x3d, 0x4a, 0x79, 0xb4, 0x3b, 0x5d, 0x7c, 0x02, 0xbf,
  0xda, 0x6f, 0x6a, 0xbe, 0x09, 0x99, 0x13, 0xbf, 0xf6, 0xf1, 0x21, 0x3e,
  0x77, 0x81, 0x10, 0xbf, 0x2c, 0x39, 0x10, 0x3e, 0xbe, 0xfa, 0xff, 0xff,
  0x04, 0x00, 0x00, 0x00, 0x08, 0x00, 0x00, 0x00, 0x35, 0xaa, 0x88, 0x3e,
  0x36, 0xaa, 0x88, 0xbe, 0xd2, 0xfa, 0xff, 0xff, 0x04, 0x00, 0x00, 0x00,
  0x00, 0x04, 0x00, 0x00, 0xf0, 0xcb, 0x1a, 0xbd, 0xbc, 0x7f, 0xa1, 0x3d,
  0x8f, 0xeb, 0x17, 0x3d, 0xb9, 0x28, 0x0a, 0xbe, 0x17, 0x08, 0xd7, 0x3d,
  0x4d, 0x7d, 0xba, 0x3e, 0xbb, 0x4d, 0x84, 0x3c, 0x95, 0xcd, 0x3a, 0xbd,
  0x7b, 0x8c, 0xa8, 0x3e, 0x5a, 0x46, 0x27, 0xbe, 0xcf, 0xf8, 0x87, 0x3e,
  0x94, 0xf3, 0x1f, 0x3e, 0xec, 0xee, 0xce, 0x3d, 0xa9, 0x11, 0x9b, 0x3e,
  0xc6, 0x33, 0xda, 0xbe, 0x1e, 0xe6, 0x19, 0xbe, 0xfd, 0xc1, 0x9a, 0xbd,
  0xd4, 0x69, 0xad, 0xbe, 0x45, 0x9d, 0x30, 0x3e, 0x07, 0xb4, 0x4c, 0x3f,
  0xf0, 0x27, 0xba, 0xbe, 0xec, 0x8d, 0xa7, 0x3d, 0x69, 0xe1, 0x0d, 0x3e,
  0x5e, 0x4f, 0xc9, 0x3e, 0x0f, 0x15, 0xd3, 0x3e, 0x4f, 0x69, 0x0b, 0xbd,
  0xac, 0xf6, 0x34, 0x3d, 0xc2, 0x72, 0xb8, 0xbc, 0x35, 0x1b, 0xd1, 0x3e,
  0x4c, 0xc0, 0xc9, 0x3d, 0xda, 0x0c, 0x57, 0x3e, 0xa0, 0x9d, 0x34, 0x3d,
  0x12, 0x4d, 0xc1, 0x3e, 0xab, 0x53, 0xc0, 0x3e, 0x17, 0xb4, 0xec, 0xbd,
  0x11, 0xec, 0x64, 0xbe, 0x26, 0x13, 0xd7, 0x3d, 0x57, 0x84, 0x81, 0x3e,
  0xcd, 0xb7, 0x72, 0x3e, 0x06, 0xce, 0x84, 0xbe, 0xb8, 0x65, 0x09, 0x3d,
  0x19, 0xb0, 0x89, 0x3e, 0xde, 0x27, 0x6c, 0x3e, 0x3e, 0x8e, 0xc0, 0x3e,
  0x14, 0x9f, 0xfe, 0x3d, 0x34, 0x88, 0xf0, 0x3d, 0x8d, 0xec, 0xbe, 0x3e,
  0xc6, 0xa6, 0x53, 0x3e, 0xeb, 0x11, 0x47, 0x3e, 0x88, 0x82, 0xc1, 0xbe,
  0xa1, 0xd5, 0xc8, 0x3e, 0x80, 0x4e, 0x97, 0xbe, 0x32, 0x52, 0x31, 0xbd,
  0xc7, 0xf4, 0x7c, 0xbe, 0x97, 0x0f, 0xaa, 0x3e, 0x32, 0x68, 0x2f, 0x3e,
  0x78, 0x52, 0x3e, 0x3d, 0x79, 0x8a, 0xa5, 0x3d, 0x47, 0x89, 0xdd, 0x3e,
  0x2d, 0x26, 0xd5, 0xbd, 0x1a, 0x89, 0x96, 0xbe, 0xf5, 0x5c, 0xce, 0xbe,
  0xec, 0xb7, 0x3a, 0xbe, 0x1f, 0x03, 0x95, 0x3e, 0xfd, 0x34, 0x24, 0x3f,
  0x4c, 0x1d, 0xb4, 0xbd, 0x65, 0x3f, 0x86, 0x3e, 0x84, 0xc5, 0x99, 0xbe,
  0xb5, 0x0d, 0xec, 0xbe, 0xa3, 0x6c, 0x43, 0xbe, 0x97, 0x05, 0xaa, 0xbc,
  0xa7, 0xb9, 0x2a, 0x3e, 0xde, 0x9d, 0x4f, 0x3e, 0xe3, 0x37, 0x04, 0xbe,
  0x30, 0x56, 0xdf, 0xbd, 0x69, 0x1c, 0x94, 0xbe, 0xc8, 0xc7, 0x9e, 0xbe,
  0x82, 0xa3, 0x10, 0x3e, 0xb0, 0x2a, 0x08, 0xbe, 0xba, 0x4b, 0x05, 0xbe,
  0x53, 0xd0, 0xb0, 0x3e, 0x32, 0x21, 0x5f, 0x3e, 0x0d, 0x2e, 0xc2, 0x3d,
  0x18, 0xe2, 0x04, 0xbe, 0x42, 0xc1, 0x0d, 0x3e, 0xc7, 0x6a, 0xd7, 0xbe,
  0xd7, 0xef, 0x97, 0x3e, 0x52, 0x14, 0x90, 0x3d, 0x29, 0x8e, 0xa8, 0x3e,
  0x55, 0x04, 0x3c, 0x3d, 0x58, 0xb0, 0x92, 0xbd, 0xdc, 0xb5, 0x53, 0xbd,
  0x90, 0xc9, 0xf2, 0xbc, 0xf5, 0x84, 0x95, 0x3e, 0x00, 0x88, 0xea, 0x3a,
  0xe5, 0x75, 0xb7, 0x3e, 0x9a, 0xf8, 0xbf, 0xbe, 0xf2, 0x6a, 0x3b, 0x3e,
  0xcc, 0x20, 0xe1, 0x3e, 0x60, 0xf7, 0x9a, 0xb9, 0x2c, 0xcc, 0xc0, 0xbe,
  0x26, 0xef, 0x2e, 0x3e, 0x18, 0x0f, 0xba, 0x3d, 0x7a, 0x46, 0x10, 0x3e,
  0x00, 0xfa, 0x14, 0xbe, 0x23, 0xb5, 0x80, 0xbc, 0xa6, 0xa8, 0x1a, 0x3e,
  0xc7, 0x35, 0xac, 0x3e, 0x5f, 0x5b, 0xdb, 0x3e, 0xf8, 0x5d, 0x99, 0xbd,
  0xa6, 0xdd, 0x77, 0x3e, 0x4a, 0xc2, 0x02, 0xbe, 0x83, 0xa4, 0x10, 0x3e,
  0x7c, 0x3f, 0xb4, 0xbe, 0x2c, 0x2d, 0x92, 0x3c, 0x29, 0xf9, 0x9c, 0x3e,
  0x66, 0x09, 0xd9, 0xbd, 0x3c, 0x43, 0xad, 0x3d, 0x98, 0x2e, 0x93, 0x3e,
  0x88, 0x4a, 0xf1, 0xbe, 0x2c, 0xb8, 0xc0, 0x3d, 0xe9, 0x19, 0x91, 0xbe,
  0x47, 0x4a, 0x9e, 0x3d, 0x6e, 0x57, 0x7f, 0x3e, 0x95, 0x52, 0x81, 0x3e,
  0xc7, 0x1c, 0x8d, 0x3e, 0xc8, 0x19, 0x12, 0x3d, 0x23, 0xb9, 0xc4, 0x3e,
  0x28, 0x8f, 0xa2, 0xbd, 0x0a, 0x80, 0x40, 0x3e, 0x47, 0xfb, 0x1e, 0xbe,
  0xfe, 0x02, 0x08, 0x3e, 0x01, 0x03, 0x02, 0xbe, 0xb2, 0x63, 0x80, 0xbe,
  0x95, 0xe5, 0xb1, 0x3e, 0xfc, 0x2d, 0x77, 0x3e, 0xd7, 0x29, 0xcf, 0x3e,
  0x51, 0x3d, 0x1a, 0x3e, 0xc2, 0x27, 0x8d, 0x3e, 0x76, 0x9a, 0x9e, 0xbe,
  0xfe, 0x62, 0x80, 0xbe, 0x53, 0x78, 0xcd, 0xbe, 0x4d, 0x2b, 0xcd, 0x3e,
  0x85, 0x92, 0x86, 0x3e, 0x58, 0x50, 0x03, 0xbd, 0xcc, 0x43, 0x2c, 0xbe,
  0x9c, 0xe3, 0x5e, 0xbe, 0xaa, 0x80, 0xce, 0xbd, 0xca, 0x1b, 0x18, 0x3e,
  0x00, 0x0f, 0x10, 0x3b, 0xe4, 0xef, 0x03, 0xbe, 0x8a, 0xb6, 0x98, 0x3e,
  0x10, 0x67, 0x85, 0xbc, 0x98, 0x51, 0x34, 0x3e, 0x21, 0xb1, 0xb9, 0xbe,
  0x5e, 0xe2, 0x35, 0xbd, 0x84, 0x15, 0x83, 0x3d, 0x16, 0xb8, 0xb3, 0xbe,
  0x62, 0x58, 0x65, 0x3e, 0x80, 0xc1, 0x56, 0x3c, 0x46, 0x5b, 0x2e, 0xbc,
  0xca, 0x9e, 0x22, 0xbe, 0x78, 0x61, 0x5d, 0x3d, 0xbc, 0xce, 0x54, 0xbe,
  0xff, 0xee, 0xee, 0x3d, 0xe1, 0x8d, 0xca, 0x3e, 0xdd, 0xdf, 0x05, 0x3e,
  0x53, 0x9a, 0xb8, 0x3c, 0xea, 0xba, 0x18, 0x3e, 0x1c, 0xd8, 0x31, 0xbe,
  0x92, 0x97, 0x4c, 0x3e, 0x97, 0x34, 0x78, 0x3e, 0x80, 0x42, 0x6d, 0xbe,
  0xc8, 0xd6, 0x39, 0xbd, 0x2e, 0x7b, 0xbb, 0xbe, 0xd6, 0xf3, 0x6b, 0xbe,
  0xac, 0x50, 0xe9, 0x3d, 0x0d, 0xfa, 0xa3, 0x3e, 0x0c, 0xb6, 0xab, 0x3e,
  0x8c, 0xdd, 0x04, 0xbf, 0xed, 0xe7, 0xe7, 0xbe, 0xa7, 0x3a, 0x77, 0xbe,
  0xc4, 0x6f, 0xd9, 0x3d, 0xfb, 0x51, 0x11, 0x3e, 0xd6, 0x81, 0x14, 0xbe,
  0x6e, 0xcd, 0x7c, 0xbe, 0xd8, 0x7b, 0xb4, 0x3d, 0xc1, 0xe1, 0xbd, 0xbe,
  0x52, 0x0d, 0x56, 0x3e, 0xb8, 0xf6, 0x9b, 0xbe, 0x12, 0x0f, 0x09, 0xbe,
  0xd4, 0x33, 0xa9, 0xbe, 0x04, 0x4c, 0x3e, 0xbd, 0xb0, 0x64, 0xbc, 0xbd,
  0x7a, 0x5f, 0x6e, 0xbe, 0xd0, 0x0e, 0xd1, 0xbd, 0x75, 0x58, 0x43, 0xbe,
  0x56, 0x3a, 0x32, 0x3e, 0xd2, 0x5b, 0x81, 0xbe, 0x15, 0x93, 0xe9, 0x3d,
  0x40, 0xc4, 0x1b, 0xbd, 0x54, 0x1d, 0x4c, 0xbd, 0x7f, 0xed, 0xc3, 0x3e,
  0x63, 0x97, 0x15, 0xbf, 0xd1, 0x9b, 0xdc, 0xbe, 0xdd, 0x33, 0xba, 0x3e,
  0xb8, 0xa8, 0xb1, 0xbe, 0x2d, 0x26, 0xc5, 0x3e, 0xff, 0x5c, 0xc6, 0x3e,
  0xba, 0x5a, 0x56, 0x3e, 0xbc, 0x00, 0x7d, 0x3e, 0x02, 0x63, 0xdb, 0xbe,
  0xa1, 0xac, 0x99, 0xbe, 0x00, 0x78, 0xf1, 0x3b, 0x6c, 0x75, 0x1e, 0x3d,
  0xb9, 0x29, 0x09, 0x3e, 0xea, 0xdc, 0x89, 0xbe, 0x84, 0xa4, 0x27, 0x3e,
  0xfb, 0x8f, 0x3a, 0xbe, 0x8a, 0x74, 0xdd, 0x3e, 0xe3, 0x32, 0xd9, 0x3e,
  0xb8, 0xfe, 0x05, 0xbd, 0xe3, 0xe8, 0xcb, 0x3e, 0xb0, 0x66, 0x54, 0xbd,
  0xcc, 0xeb, 0xbc, 0xbc, 0x78, 0xe5, 0xc6, 0xbd, 0xf9, 0x4e, 0x9d, 0x3e,
  0xb6, 0x0f, 0xaf, 0xbe, 0x8b, 0x2c, 0x37, 0x3d, 0x50, 0xc9, 0x6b, 0x3d,
  0x84, 0x7a, 0x89, 0xbe, 0x90, 0x39, 0xa5, 0x3d, 0xcc, 0x64, 0xf3, 0x3d,
  0x18, 0x4e, 0x98, 0xbd, 0xdc, 0x42, 0xb6, 0x3e, 0x8b, 0x3d, 0x56, 0x3e,
  0x72, 0x4f, 0x5b, 0x3e, 0xe0, 0xea, 0x20, 0x3d, 0xd1, 0xb2, 0xb2, 0x3e,
  0x03, 0x22, 0xb6, 0x3e, 0xaf, 0x57, 0x02, 0xbd, 0xe8, 0x15, 0x89, 0xbe,
  0x54, 0xb5, 0xb6, 0x3e, 0x4a, 0xd7, 0x91, 0xbe, 0x5c, 0x9f, 0x60, 0xbe,
  0xd9, 0x04, 0x77, 0xbe, 0xa8, 0x77, 0x12, 0xbc, 0xc8, 0x84, 0xb5, 0xbe,
  0x2c, 0x50, 0xc7, 0xbe, 0xa8, 0x95, 0x6c, 0x3e, 0xad, 0x8a, 0x01, 0xbe,
  0xa7, 0x75, 0xa4, 0x3e, 0x02, 0x46, 0x00, 0x3e, 0xfb, 0x7e, 0x61, 0xbe,
  0x0f, 0x1e, 0xc9, 0x3e, 0x16, 0x68, 0x27, 0x3e, 0xde, 0xfe, 0xff, 0xff,
  0x04, 0x00, 0x00, 0x00, 0x80, 0x00, 0x00, 0x00, 0x60, 0xbf, 0x0e, 0xbf,
  0x61, 0x68, 0x73, 0x3c, 0x2b, 0x7c, 0x48, 0xbe, 0x18, 0xdd, 0xe3, 0x3d,
  0x6d, 0x8a, 0x2c, 0xbe, 0x21, 0xcf, 0xb5, 0x3e, 0xdc, 0x71, 0x11, 0xbd,
  0x5e, 0x24, 0x54, 0x3e, 0x0f, 0x74, 0x02, 0x3d, 0x70, 0xe6, 0x79, 0xbe,
  0x86, 0xe8, 0x19, 0xbe, 0xa9, 0x60, 0x4a, 0x3e, 0xcd, 0x25, 0x18, 0x3e,
  0x41, 0xf5, 0x86, 0x3c, 0xf0, 0xd1, 0xbf, 0x3e, 0x7e, 0x45, 0xb9, 0xbe,
  0xd1, 0x29, 0xd4, 0xbd, 0xd6, 0x28, 0x88, 0xbe, 0xbb, 0x11, 0x37, 0xbd,
  0x6b, 0x6b, 0xce, 0x3e, 0x25, 0xae, 0x3b, 0x3e, 0x65, 0xee, 0xcd, 0x3e,
  0x45, 0x6f, 0x15, 0x3e, 0xa4, 0xdc, 0x5c, 0x3e, 0x74, 0x5b, 0xcc, 0xbe,
  0x92, 0x71, 0x97, 0xbe, 0x9a, 0xa2, 0xd4, 0xbe, 0xc5, 0xb9, 0xa3, 0xbe,
  0x71, 0xc1, 0x98, 0x3e, 0xc2, 0xa7, 0x1f, 0x3e, 0x0c, 0x93, 0x3a, 0x3d,
  0xdf, 0xd6, 0xd5, 0xbd, 0x58, 0xfa, 0xff, 0xff, 0x5c, 0xfa, 0xff, 0xff,
  0x0f, 0x00, 0x00, 0x00, 0x4d, 0x4c, 0x49, 0x52, 0x20, 0x43, 0x6f, 0x6e,
  0x76, 0x65, 0x72, 0x74, 0x65, 0x64, 0x2e, 0x00, 0x01, 0x00, 0x00, 0x00,
  0x14, 0x00, 0x00, 0x00, 0x00, 0x00, 0x0e, 0x00, 0x18, 0x00, 0x14, 0x00,
  0x10, 0x00, 0x0c, 0x00, 0x08, 0x00, 0x04, 0x00, 0x0e, 0x00, 0x00, 0x00,
  0x14, 0x00, 0x00, 0x00, 0x1c, 0x00, 0x00, 0x00, 0x34, 0x01, 0x00, 0x00,
  0x38, 0x01, 0x00, 0x00, 0x3c, 0x01, 0x00, 0x00, 0x04, 0x00, 0x00, 0x00,
  0x6d, 0x61, 0x69, 0x6e, 0x00, 0x00, 0x00, 0x00, 0x04, 0x00, 0x00, 0x00,
  0xdc, 0x00, 0x00, 0x00, 0x94, 0x00, 0x00, 0x00, 0x50, 0x00, 0x00, 0x00,
  0x14, 0x00, 0x00, 0x00, 0x00, 0x00, 0x0e, 0x00, 0x1a, 0x00, 0x14, 0x00,
  0x10, 0x00, 0x0c, 0x00, 0x0b, 0x00, 0x04, 0x00, 0x0e, 0x00, 0x00, 0x00,
  0x1c, 0x00, 0x00, 0x00, 0x00, 0x00, 0x00, 0x09, 0x1c, 0x00, 0x00, 0x00,
  0x20, 0x00, 0x00, 0x00, 0x01, 0x00, 0x00, 0x00, 0x00, 0x00, 0x06, 0x00,
  0x08, 0x00, 0x04, 0x00, 0x06, 0x00, 0x00, 0x00, 0x00, 0x00, 0x80, 0x3f,
  0x01, 0x00, 0x00, 0x00, 0x0a, 0x00, 0x00, 0x00, 0x01, 0x00, 0x00, 0x00,
  0x09, 0x00, 0x00, 0x00, 0xce, 0xff, 0xff, 0xff, 0x10, 0x00, 0x00, 0x00,
  0x00, 0x00, 0x00, 0x08, 0x0c, 0x00, 0x00, 0x00, 0x10, 0x00, 0x00, 0x00,
  0x20, 0xfb, 0xff, 0xff, 0x01, 0x00, 0x00, 0x00, 0x09, 0x00, 0x00, 0x00,
  0x03, 0x00, 0x00, 0x00, 0x08, 0x00, 0x00, 0x00, 0x01, 0x00, 0x00, 0x00,
  0x03, 0x00, 0x00, 0x00, 0x00, 0x00, 0x0e, 0x00, 0x14, 0x00, 0x00, 0x00,
  0x10, 0x00, 0x0c, 0x00, 0x0b, 0x00, 0x04, 0x00, 0x0e, 0x00, 0x00, 0x00,
  0x10, 0x00, 0x00, 0x00, 0x00, 0x00, 0x00, 0x08, 0x10, 0x00, 0x00, 0x00,
  0x14, 0x00, 0x00, 0x00, 0xba, 0xff, 0xff, 0xff, 0x00, 0x00, 0x00, 0x01,
  0x01, 0x00, 0x00, 0x00, 0x08, 0x00, 0x00, 0x00, 0x03, 0x00, 0x00, 0x00,
  0x07, 0x00, 0x00, 0x00, 0x02, 0x00, 0x00, 0x00, 0x04, 0x00, 0x00, 0x00,
  0x00, 0x00, 0x0e, 0x00, 0x16, 0x00, 0x00, 0x00, 0x10, 0x00, 0x0c, 0x00,
  0x0b, 0x00, 0x04, 0x00, 0x0e, 0x00, 0x00, 0x00, 0x18, 0x00, 0x00, 0x00,
  0x00, 0x00, 0x00, 0x08, 0x18, 0x00, 0x00, 0x00, 0x1c, 0x00, 0x00, 0x00,
  0x00, 0x00, 0x06, 0x00, 0x08, 0x00, 0x07, 0x00, 0x06, 0x00, 0x00, 0x00,
  0x00, 0x00, 0x00, 0x01, 0x01, 0x00, 0x00, 0x00, 0x07, 0x00, 0x00, 0x00,
  0x03, 0x00, 0x00, 0x00, 0x00, 0x00, 0x00, 0x00, 0x06, 0x00, 0x00, 0x00,
  0x05, 0x00, 0x00, 0x00, 0x01, 0x00, 0x00, 0x00, 0x0a, 0x00, 0x00, 0x00,
  0x01, 0x00, 0x00, 0x00, 0x00, 0x00, 0x00, 0x00, 0x0b, 0x00, 0x00, 0x00,
  0xf8, 0x03, 0x00, 0x00, 0xa0, 0x03, 0x00, 0x00, 0x48, 0x03, 0x00, 0x00,
  0x0c, 0x03, 0x00, 0x00, 0xd0, 0x02, 0x00, 0x00, 0x74, 0x02, 0x00, 0x00,
  0x24, 0x02, 0x00, 0x00, 0x84, 0x01, 0x00, 0x00, 0xe4, 0x00, 0x00, 0x00,
  0x60, 0x00, 0x00, 0x00, 0x04, 0x00, 0x00, 0x00, 0x4a, 0xfc, 0xff, 0xff,
  0x00, 0x00, 0x00, 0x01, 0x14, 0x00, 0x00, 0x00, 0x1c, 0x00, 0x00, 0x00,
  0x1c, 0x00, 0x00, 0x00, 0x0b, 0x00, 0x00, 0x00, 0x34, 0x00, 0x00, 0x00,
  0x02, 0x00, 0x00, 0x00, 0xff, 0xff, 0xff, 0xff, 0x02, 0x00, 0x00, 0x00,
  0x34, 0xfc, 0xff, 0xff, 0x1b, 0x00, 0x00, 0x00, 0x53, 0x74, 0x61, 0x74,
  0x65, 0x66, 0x75, 0x6c, 0x50, 0x61, 0x72, 0x74, 0x69, 0x74, 0x69, 0x6f,
  0x6e, 0x65, 0x64, 0x43, 0x61, 0x6c, 0x6c, 0x5f, 0x31, 0x3a, 0x30, 0x00,
  0x02, 0x00, 0x00, 0x00, 0x01, 0x00, 0x00, 0x00, 0x02, 0x00, 0x00, 0x00,
  0xa2, 0xfc, 0xff, 0xff, 0x00, 0x00, 0x00, 0x01, 0x14, 0x00, 0x00, 0x00,
  0x1c, 0x00, 0x00, 0x00, 0x1c, 0x00, 0x00, 0x00, 0x0a, 0x00, 0x00, 0x00,
  0x5c, 0x00, 0x00, 0x00, 0x02, 0x00, 0x00, 0x00, 0xff, 0xff, 0xff, 0xff,
  0x02, 0x00, 0x00, 0x00, 0x8c, 0xfc, 0xff, 0xff, 0x40, 0x00, 0x00, 0x00,
  0x73, 0x65, 0x71, 0x75, 0x65, 0x6e, 0x74, 0x69, 0x61, 0x6c, 0x5f, 0x31,
  0x5f, 0x31, 0x2f, 0x64, 0x65, 0x6e, 0x73, 0x65, 0x5f, 0x35, 0x5f, 0x31,
  0x2f, 0x4d, 0x61, 0x74, 0x4d, 0x75, 0x6c, 0x3b, 0x73, 0x65, 0x71, 0x75,
  0x65, 0x6e, 0x74, 0x69, 0x61, 0x6c, 0x5f, 0x31, 0x5f, 0x31, 0x2f, 0x64,
  0x65, 0x6e, 0x73, 0x65, 0x5f, 0x35, 0x5f, 0x31, 0x2f, 0x42, 0x69, 0x61,
  0x73, 0x41, 0x64, 0x64, 0x00, 0x00, 0x00, 0x00, 0x02, 0x00, 0x00, 0x00,
  0x01, 0x00, 0x00, 0x00, 0x02, 0x00, 0x00, 0x00, 0x22, 0xfd, 0xff, 0xff,
  0x00, 0x00, 0x00, 0x01, 0x14, 0x00, 0x00, 0x00, 0x1c, 0x00, 0x00, 0x00,
  0x1c, 0x00, 0x00, 0x00, 0x09, 0x00, 0x00, 0x00, 0x78, 0x00, 0x00, 0x00,
  0x02, 0x00, 0x00, 0x00, 0xff, 0xff, 0xff, 0xff, 0x10, 0x00, 0x00, 0x00,
  0x0c, 0xfd, 0xff, 0xff, 0x5e, 0x00, 0x00, 0x00, 0x73, 0x65, 0x71, 0x75,
  0x65, 0x6e, 0x74, 0x69, 0x61, 0x6c, 0x5f, 0x31, 0x5f, 0x31, 0x2f, 0x64,
  0x65, 0x6e, 0x73, 0x65, 0x5f, 0x34, 0x5f, 0x31, 0x2f, 0x4d, 0x61, 0x74,
  0x4d, 0x75, 0x6c, 0x3b, 0x73, 0x65, 0x71, 0x75, 0x65, 0x6e, 0x74, 0x69,
  0x61, 0x6c, 0x5f, 0x31, 0x5f, 0x31, 0x2f, 0x64, 0x65, 0x6e, 0x73, 0x65,
  0x5f, 0x34, 0x5f, 0x31, 0x2f, 0x52, 0x65, 0x6c, 0x75, 0x3b, 0x73, 0x65,
  0x71, 0x75, 0x65, 0x6e, 0x74, 0x69, 0x61, 0x6c, 0x5f, 0x31, 0x5f, 0x31,
  0x2f, 0x64, 0x65, 0x6e, 0x73, 0x65, 0x5f, 0x34, 0x5f, 0x31, 0x2f, 0x42,
  0x69, 0x61, 0x73, 0x41, 0x64, 0x64, 0x00, 0x00, 0x02, 0x00, 0x00, 0x00,
  0x01, 0x00, 0x00, 0x00, 0x10, 0x00, 0x00, 0x00, 0xbe, 0xfd, 0xff, 0xff,
  0x00, 0x00, 0x00, 0x01, 0x14, 0x00, 0x00, 0x00, 0x1c, 0x00, 0x00, 0x00,
  0x1c, 0x00, 0x00, 0x00, 0x08, 0x00, 0x00, 0x00, 0x78, 0x00, 0x00, 0x00,
  0x02, 0x00, 0x00, 0x00, 0xff, 0xff, 0xff, 0xff, 0x10, 0x00, 0x00, 0x00,
  0xa8, 0xfd, 0xff, 0xff, 0x5e, 0x00, 0x00, 0x00, 0x73, 0x65, 0x71, 0x75,
  0x65, 0x6e, 0x74, 0x69, 0x61, 0x6c, 0x5f, 0x31, 0x5f, 0x31, 0x2f, 0x64,
  0x65, 0x6e, 0x73, 0x65, 0x5f, 0x33, 0x5f, 0x31, 0x2f, 0x4d, 0x61, 0x74,
  0x4d, 0x75, 0x6c, 0x3b, 0x73, 0x65, 0x71, 0x75, 0x65, 0x6e, 0x74, 0x69,
  0x61, 0x6c, 0x5f, 0x31, 0x5f, 0x31, 0x2f, 0x64, 0x65, 0x6e, 0x73, 0x65,
  0x5f, 0x33, 0x5f, 0x31, 0x2f, 0x52, 0x65, 0x6c, 0x75, 0x3b, 0x73, 0x65,
  0x71, 0x75, 0x65, 0x6e, 0x74, 0x69, 0x61, 0x6c, 0x5f, 0x31, 0x5f, 0x31,
  0x2f, 0x64, 0x65, 0x6e, 0x73, 0x65, 0x5f, 0x33, 0x5f, 0x31, 0x2f, 0x42,
  0x69, 0x61, 0x73, 0x41, 0x64, 0x64, 0x00, 0x00, 0x02, 0x00, 0x00, 0x00,
  0x01, 0x00, 0x00, 0x00, 0x10, 0x00, 0x00, 0x00, 0xae, 0xfe, 0xff, 0xff,
  0x00, 0x00, 0x00, 0x01, 0x10, 0x00, 0x00, 0x00, 0x10, 0x00, 0x00, 0x00,
  0x07, 0x00, 0x00, 0x00, 0x2c, 0x00, 0x00, 0x00, 0x34, 0xfe, 0xff, 0xff,
  0x1f, 0x00, 0x00, 0x00, 0x73, 0x65, 0x71, 0x75, 0x65, 0x6e, 0x74, 0x69,
  0x61, 0x6c, 0x5f, 0x31, 0x5f, 0x31, 0x2f, 0x64, 0x65, 0x6e, 0x73, 0x65,
  0x5f, 0x33, 0x5f, 0x31, 0x2f, 0x4d, 0x61, 0x74, 0x4d, 0x75, 0x6c, 0x00,
  0x02, 0x00, 0x00, 0x00, 0x10, 0x00, 0x00, 0x00, 0x06, 0x00, 0x00, 0x00,
  0xfa, 0xfe, 0xff, 0xff, 0x00, 0x00, 0x00, 0x01, 0x10, 0x00, 0x00, 0x00,
  0x10, 0x00, 0x00, 0x00, 0x06, 0x00, 0x00, 0x00, 0x3c, 0x00, 0x00, 0x00,
  0x80, 0xfe, 0xff, 0xff, 0x2f, 0x00, 0x00, 0x00, 0x73, 0x65, 0x71, 0x75,
  0x65, 0x6e, 0x74, 0x69, 0x61, 0x6c, 0x5f, 0x31, 0x5f, 0x31, 0x2f, 0x64,
  0x65, 0x6e, 0x73, 0x65, 0x5f, 0x33, 0x5f, 0x31, 0x2f, 0x42, 0x69, 0x61,
  0x73, 0x41, 0x64, 0x64, 0x2f, 0x52, 0x65, 0x61, 0x64, 0x56, 0x61, 0x72,
  0x69, 0x61, 0x62, 0x6c, 0x65, 0x4f, 0x70, 0x00, 0x01, 0x00, 0x00, 0x00,
  0x10, 0x00, 0x00, 0x00, 0x52, 0xff, 0xff, 0xff, 0x00, 0x00, 0x00, 0x01,
  0x10, 0x00, 0x00, 0x00, 0x10, 0x00, 0x00, 0x00, 0x05, 0x00, 0x00, 0x00,
  0x1c, 0x00, 0x00, 0x00, 0xd8, 0xfe, 0xff, 0xff, 0x0f, 0x00, 0x00, 0x00,
  0x61, 0x72, 0x69, 0x74, 0x68, 0x2e, 0x63, 0x6f, 0x6e, 0x73, 0x74, 0x61,
  0x6e, 0x74, 0x33, 0x00, 0x01, 0x00, 0x00, 0x00, 0x10, 0x00, 0x00, 0x00,
  0x8a, 0xff, 0xff, 0xff, 0x00, 0x00, 0x00, 0x01, 0x10, 0x00, 0x00, 0x00,
  0x10, 0x00, 0x00, 0x00, 0x04, 0x00, 0x00, 0x00, 0x1c, 0x00, 0x00, 0x00,
  0x10, 0xff, 0xff, 0xff, 0x0f, 0x00, 0x00, 0x00, 0x61, 0x72, 0x69, 0x74,
  0x68, 0x2e, 0x63, 0x6f, 0x6e, 0x73, 0x74, 0x61, 0x6e, 0x74, 0x32, 0x00,
  0x01, 0x00, 0x00, 0x00, 0x02, 0x00, 0x00, 0x00, 0xc2, 0xff, 0xff, 0xff,
  0x00, 0x00, 0x00, 0x01, 0x10, 0x00, 0x00, 0x00, 0x10, 0x00, 0x00, 0x00,
  0x03, 0x00, 0x00, 0x00, 0x1c, 0x00, 0x00, 0x00, 0x48, 0xff, 0xff, 0xff,
  0x0f, 0x00, 0x00, 0x00, 0x61, 0x72, 0x69, 0x74, 0x68, 0x2e, 0x63, 0x6f,
  0x6e, 0x73, 0x74, 0x61, 0x6e, 0x74, 0x31, 0x00, 0x02, 0x00, 0x00, 0x00,
  0x10, 0x00, 0x00, 0x00, 0x10, 0x00, 0x00, 0x00, 0x00, 0x00, 0x16, 0x00,
  0x18, 0x00, 0x14, 0x00, 0x00, 0x00, 0x10, 0x00, 0x0c, 0x00, 0x08, 0x00,
  0x00, 0x00, 0x00, 0x00, 0x00, 0x00, 0x07, 0x00, 0x16, 0x00, 0x00, 0x00,
  0x00, 0x00, 0x00, 0x01, 0x10, 0x00, 0x00, 0x00, 0x10, 0x00, 0x00, 0x00,
  0x02, 0x00, 0x00, 0x00, 0x1c, 0x00, 0x00, 0x00, 0x9c, 0xff, 0xff, 0xff,
  0x0e, 0x00, 0x00, 0x00, 0x61, 0x72, 0x69, 0x74, 0x68, 0x2e, 0x63, 0x6f,
  0x6e, 0x73, 0x74, 0x61, 0x6e, 0x74, 0x00, 0x00, 0x02, 0x00, 0x00, 0x00,
  0x02, 0x00, 0x00, 0x00, 0x10, 0x00, 0x00, 0x00, 0x00, 0x00, 0x16, 0x00,
  0x1c, 0x00, 0x18, 0x00, 0x00, 0x00, 0x14, 0x00, 0x10, 0x00, 0x0c, 0x00,
  0x00, 0x00, 0x00, 0x00, 0x08, 0x00, 0x07, 0x00, 0x16, 0x00, 0x00, 0x00,
  0x00, 0x00, 0x00, 0x01, 0x14, 0x00, 0x00, 0x00, 0x20, 0x00, 0x00, 0x00,
  0x20, 0x00, 0x00, 0x00, 0x01, 0x00, 0x00, 0x00, 0x40, 0x00, 0x00, 0x00,
  0x02, 0x00, 0x00, 0x00, 0xff, 0xff, 0xff, 0xff, 0x06, 0x00, 0x00, 0x00,
  0x04, 0x00, 0x04, 0x00, 0x04, 0x00, 0x00, 0x00, 0x21, 0x00, 0x00, 0x00,
  0x73, 0x65, 0x72, 0x76, 0x69, 0x6e, 0x67, 0x5f, 0x64, 0x65, 0x66, 0x61,
  0x75, 0x6c, 0x74, 0x5f, 0x6b, 0x65, 0x72, 0x61, 0x73, 0x5f, 0x74, 0x65,
  0x6e, 0x73, 0x6f, 0x72, 0x5f, 0x31, 0x36, 0x3a, 0x30, 0x00, 0x00, 0x00,
  0x02, 0x00, 0x00, 0x00, 0x01, 0x00, 0x00, 0x00, 0x06, 0x00, 0x00, 0x00,
  0x02, 0x00, 0x00, 0x00, 0x20, 0x00, 0x00, 0x00, 0x04, 0x00, 0x00, 0x00,
  0xf4, 0xff, 0xff, 0xff, 0x19, 0x00, 0x00, 0x00, 0x00, 0x00, 0x00, 0x19,
  0x0c, 0x00, 0x0c, 0x00, 0x0b, 0x00, 0x00, 0x00, 0x00, 0x00, 0x04, 0x00,
  0x0c, 0x00, 0x00, 0x00, 0x09, 0x00, 0x00, 0x00, 0x00, 0x00, 0x00, 0x09
};
