const unsigned char model[] = {
  0x1c, 0x00, 0x00, 0x00, 0x54, 0x46, 0x4c, 0x33, 0x14, 0x00, 0x20, 0x00,
  0x1c, 0x00, 0x18, 0x00, 0x14, 0x00, 0x10, 0x00, 0x0c, 0x00, 0x00, 0x00,
  0x08, 0x00, 0x04, 0x00, 0x14, 0x00, 0x00, 0x00, 0x1c, 0x00, 0x00, 0x00,
  0x98, 0x00, 0x00, 0x00, 0xf0, 0x00, 0x00, 0x00, 0xdc, 0x08, 0x00, 0x00,
  0xec, 0x08, 0x00, 0x00, 0xb0, 0x0e, 0x00, 0x00, 0x03, 0x00, 0x00, 0x00,
  0x01, 0x00, 0x00, 0x00, 0x10, 0x00, 0x00, 0x00, 0x00, 0x00, 0x0a, 0x00,
  0x10, 0x00, 0x0c, 0x00, 0x08, 0x00, 0x04, 0x00, 0x0a, 0x00, 0x00, 0x00,
  0x0c, 0x00, 0x00, 0x00, 0x1c, 0x00, 0x00, 0x00, 0x3c, 0x00, 0x00, 0x00,
  0x0f, 0x00, 0x00, 0x00, 0x73, 0x65, 0x72, 0x76, 0x69, 0x6e, 0x67, 0x5f,
  0x64, 0x65, 0x66, 0x61, 0x75, 0x6c, 0x74, 0x00, 0x01, 0x00, 0x00, 0x00,
  0x04, 0x00, 0x00, 0x00, 0x90, 0xff, 0xff, 0xff, 0x0a, 0x00, 0x00, 0x00,
  0x04, 0x00, 0x00, 0x00, 0x08, 0x00, 0x00, 0x00, 0x6f, 0x75, 0x74, 0x70,
  0x75, 0x74, 0x5f, 0x30, 0x00, 0x00, 0x00, 0x00, 0x01, 0x00, 0x00, 0x00,
  0x04, 0x00, 0x00, 0x00, 0x0a, 0xf7, 0xff, 0xff, 0x04, 0x00, 0x00, 0x00,
  0x0f, 0x00, 0x00, 0x00, 0x6b, 0x65, 0x72, 0x61, 0x73, 0x5f, 0x74, 0x65,
  0x6e, 0x73, 0x6f, 0x72, 0x5f, 0x33, 0x32, 0x00, 0x02, 0x00, 0x00, 0x00,
  0x34, 0x00, 0x00, 0x00, 0x04, 0x00, 0x00, 0x00, 0xdc, 0xff, 0xff, 0xff,
  0x0d, 0x00, 0x00, 0x00, 0x04, 0x00, 0x00, 0x00, 0x13, 0x00, 0x00, 0x00,
  0x43, 0x4f, 0x4e, 0x56, 0x45, 0x52, 0x53, 0x49, 0x4f, 0x4e, 0x5f, 0x4d,
  0x45, 0x54, 0x41, 0x44, 0x41, 0x54, 0x41, 0x00, 0x08, 0x00, 0x0c, 0x00,
  0x08, 0x00, 0x04, 0x00, 0x08, 0x00, 0x00, 0x00, 0x0c, 0x00, 0x00, 0x00,
  0x04, 0x00, 0x00, 0x00, 0x13, 0x00, 0x00, 0x00, 0x6d, 0x69, 0x6e, 0x5f,
  0x72, 0x75, 0x6e, 0x74, 0x69, 0x6d, 0x65, 0x5f, 0x76, 0x65, 0x72, 0x73,
  0x69, 0x6f, 0x6e, 0x00, 0x0e, 0x00, 0x00, 0x00, 0xe8, 0x07, 0x00, 0x00,
  0xe0, 0x07, 0x00, 0x00, 0x10, 0x07, 0x00, 0x00, 0x00, 0x03, 0x00, 0x00,
  0xe4, 0x02, 0x00, 0x00, 0x94, 0x02, 0x00, 0x00, 0x44, 0x02, 0x00, 0x00,
  0xb4, 0x00, 0x00, 0x00, 0xac, 0x00, 0x00, 0x00, 0xa4, 0x00, 0x00, 0x00,
  0x9c, 0x00, 0x00, 0x00, 0x94, 0x00, 0x00, 0x00, 0x74, 0x00, 0x00, 0x00,
  0x04, 0x00, 0x00, 0x00, 0xbe, 0xf7, 0xff, 0xff, 0x04, 0x00, 0x00, 0x00,
  0x60, 0x00, 0x00, 0x00, 0x0c, 0x00, 0x00, 0x00, 0x08, 0x00, 0x0e, 0x00,
  0x08, 0x00, 0x04, 0x00, 0x08, 0x00, 0x00, 0x00, 0x10, 0x00, 0x00, 0x00,
  0x28, 0x00, 0x00, 0x00, 0x00, 0x00, 0x06, 0x00, 0x08, 0x00, 0x04, 0x00,
  0x06, 0x00, 0x00, 0x00, 0x04, 0x00, 0x00, 0x00, 0x01, 0x00, 0x00, 0x00,
  0xea, 0x03, 0x00, 0x00, 0x0c, 0x00, 0x18, 0x00, 0x14, 0x00, 0x10, 0x00,
  0x0c, 0x00, 0x04, 0x00, 0x0c, 0x00, 0x00, 0x00, 0x32, 0x48, 0x96, 0x8c,
  0x3f, 0x27, 0x3c, 0x07, 0x02, 0x00, 0x00, 0x00, 0x02, 0x00, 0x00, 0x00,
  0x04, 0x00, 0x00, 0x00, 0x06, 0x00, 0x00, 0x00, 0x32, 0x2e, 0x31, 0x39,
  0x2e, 0x30, 0x00, 0x00, 0x2a, 0xf8, 0xff, 0xff, 0x04, 0x00, 0x00, 0x00,
  0x10, 0x00, 0x00, 0x00, 0x31, 0x2e, 0x35, 0x2e, 0x30, 0x00, 0x00, 0x00,
  0x00, 0x00, 0x00, 0x00, 0x00, 0x00, 0x00, 0x00, 0x34, 0xf3, 0xff, 0xff,
  0x38, 0xf3, 0xff, 0xff, 0x3c, 0xf3, 0xff, 0xff, 0x40, 0xf3, 0xff, 0xff,
  0x56, 0xf8, 0xff, 0xff, 0x04, 0x00, 0x00, 0x00, 0x80, 0x01, 0x00, 0x00,
  0x95, 0x57, 0x81, 0x3e, 0xac, 0x43, 0x05, 0xbf, 0xbb, 0xbe, 0x9c, 0x3e,
  0x36, 0xc5, 0xfa, 0x3f, 0xff, 0x60, 0xc3, 0x3e, 0xab, 0x6f, 0x9f, 0xbf,
  0xf8, 0x4e, 0x3d, 0x3e, 0xf5, 0xe4, 0xc9, 0xbe, 0x0a, 0xbd, 0xaf, 0x3f,
  0x98, 0xdc, 0x8b, 0xbf, 0x93, 0x7f, 0x8a, 0x3f, 0x57, 0x7e, 0x56, 0xbf,
  0x6b, 0x22, 0x94, 0xbd, 0xbe, 0xe0, 0x2e, 0x3e, 0xab, 0x32, 0xe2, 0x3f,
  0xdf, 0x57, 0x28, 0xbf, 0x08, 0x4f, 0xcb, 0x3f, 0x3b, 0x1f, 0xe4, 0xbf,
  0x1d, 0x32, 0x8c, 0x3e, 0xcc, 0xfb, 0x12, 0xbf, 0x03, 0xe6, 0x16, 0xbf,
  0x9e, 0x3e, 0x08, 0x3f, 0xd7, 0xa0, 0x2b, 0xbf, 0x83, 0xda, 0x4f, 0x3f,
  0x3f, 0x6f, 0x3f, 0x3e, 0xe9, 0xbe, 0xc8, 0xbe, 0x43, 0xa2, 0x38, 0x3d,
  0xef, 0xe5, 0x60, 0xbf, 0xfb, 0x7a, 0x99, 0xbe, 0xf9, 0x50, 0x71, 0x3f,
  0x82, 0x80, 0x2e, 0x3e, 0x7f, 0x90, 0xb5, 0xbe, 0x68, 0xb2, 0x83, 0xbf,
  0x6f, 0x20, 0xfc, 0x3f, 0x21, 0xa5, 0x66, 0xbf, 0x3a, 0x34, 0xaf, 0xbf,
  0xef, 0x8c, 0x0c, 0x3e, 0x45, 0xa6, 0x8a, 0xbe, 0xfa, 0x92, 0x9e, 0x3d,
  0x38, 0xb3, 0xb1, 0xbf, 0x02, 0x6e, 0xea, 0xbe, 0xc4, 0x06, 0x1b, 0x40,
  0xba, 0x81, 0x9e, 0xbe, 0x7c, 0x69, 0x74, 0x3e, 0xc4, 0x5d, 0x25, 0x3e,
  0x60, 0x70, 0x83, 0x3d, 0xd6, 0x29, 0x97, 0xbe, 0xd4, 0x02, 0x4f, 0x3e,
  0xa7, 0x3e, 0x70, 0x3d, 0x2e, 0xeb, 0xc7, 0xbd, 0xba, 0xc2, 0xe6, 0x3d,
  0xdc, 0x64, 0x16, 0x3f, 0xb7, 0x81, 0xc2, 0x3d, 0xbb, 0x43, 0xdb, 0xbf,
  0xcd, 0x89, 0x86, 0xbe, 0x20, 0xd0, 0xe6, 0x3d, 0x20, 0x62, 0x8f, 0xbd,
  0x2e, 0xfb, 0xda, 0x3e, 0xb8, 0xdb, 0x19, 0xbd, 0x6e, 0x5e, 0x6e, 0xbe,
  0xd7, 0xd2, 0xf0, 0xbe, 0x84, 0x57, 0x8b, 0xbd, 0x34, 0x49, 0x47, 0x3e,
  0x65, 0xa8, 0xfe, 0xbe, 0x28, 0x0c, 0xd2, 0xbe, 0x80, 0x6b, 0x86, 0xbd,
  0x80, 0xde, 0x00, 0xbf, 0x30, 0x86, 0x12, 0x3d, 0x34, 0x8f, 0x8a, 0xbe,
  0xba, 0xf6, 0x03, 0xbe, 0x60, 0x7d, 0x31, 0x3d, 0xc8, 0x36, 0x23, 0xbe,
  0x22, 0xb9, 0xdd, 0x3d, 0xdd, 0xea, 0x55, 0xbe, 0xcc, 0xe1, 0x74, 0x3f,
  0x96, 0xfe, 0xf7, 0xbf, 0x52, 0xcb, 0x93, 0x3e, 0x45, 0x05, 0x6e, 0x3f,
  0xac, 0xa1, 0x51, 0xbe, 0x3c, 0xb3, 0x13, 0x3e, 0x5e, 0x4a, 0x8a, 0xbe,
  0xf0, 0x44, 0x8e, 0x3e, 0x34, 0xf6, 0x9b, 0xbd, 0xf2, 0x48, 0xaf, 0x3e,
  0x34, 0xe0, 0x05, 0x3e, 0x6b, 0xea, 0x98, 0xbe, 0x20, 0x38, 0xa1, 0xbe,
  0x19, 0xc1, 0x75, 0xbc, 0x5a, 0x5c, 0x73, 0xbe, 0x9a, 0xd8, 0xe1, 0x3d,
  0xf0, 0x50, 0xfa, 0xbd, 0xf4, 0xa0, 0x8b, 0x3e, 0x98, 0x11, 0x24, 0xbf,
  0x2e, 0x31, 0x1d, 0x40, 0xe4, 0x33, 0xc8, 0xbe, 0x3f, 0x07, 0x32, 0xbf,
  0xe2, 0xf9, 0xff, 0xff, 0x04, 0x00, 0x00, 0x00, 0x40, 0x00, 0x00, 0x00,
  0xf3, 0xb2, 0x19, 0xbd, 0xd5, 0x8d, 0x83, 0xbd, 0x45, 0x7a, 0x61, 0xbd,
  0x68, 0x0a, 0x81, 0xbd, 0xd3, 0xf3, 0x47, 0xbe, 0x87, 0x85, 0xdd, 0xbd,
  0x62, 0x73, 0x6f, 0xbe, 0x00, 0x00, 0x00, 0x00, 0xfa, 0x0b, 0x9a, 0xbe,
  0x00, 0x00, 0x00, 0x00, 0x00, 0x00, 0x00, 0x00, 0x00, 0x00, 0x00, 0x00,
  0x38, 0xb0, 0x2e, 0xbe, 0x00, 0x00, 0x00, 0x00, 0xcd, 0x08, 0x34, 0xbd,
  0x84, 0x64, 0x48, 0xbe, 0x2e, 0xfa, 0xff, 0xff, 0x04, 0x00, 0x00, 0x00,
  0x40, 0x00, 0x00, 0x00, 0x22, 0x9c, 0x28, 0x3e, 0x0a, 0x22, 0xf6, 0xbd,
  0xd2, 0xcb, 0x23, 0x3e, 0x7f, 0x6c, 0x43, 0x3f, 0x5f, 0xc7, 0xfe, 0xbe,
  0x09, 0x3f, 0x12, 0xbe, 0xdd, 0x6b, 0x23, 0x3f, 0x6b, 0xb2, 0xa9, 0x3e,
  0xb1, 0x85, 0xf8, 0xbe, 0x55, 0x42, 0xbd, 0x3e, 0xb9, 0xcd, 0xc9, 0x3d,
  0xc0, 0x35, 0x34, 0x3e, 0x8b, 0xa9, 0xbe, 0xbe, 0x45, 0x6b, 0xeb, 0x3e,
  0xd8, 0x5f, 0x29, 0xbe, 0xc8, 0x1d, 0x30, 0x3e, 0x7a, 0xfa, 0xff, 0xff,
  0x04, 0x00, 0x00, 0x00, 0x0c, 0x00, 0x00, 0x00, 0xa6, 0x4b, 0x23, 0x3f,
  0x0a, 0xd5, 0x92, 0xbe, 0x9e, 0x4c, 0x91, 0xbe, 0x92, 0xfa, 0xff, 0xff,
  0x04, 0x00, 0x00, 0x00, 0x00, 0x04, 0x00, 0x00, 0xa0, 0x16, 0xbd, 0x3e,
  0xa7, 0x42, 0xeb, 0xbe, 0xb8, 0x11, 0x7e, 0x3e, 0xb4, 0x88, 0x06, 0x3e,
  0x20, 0x52, 0x81, 0x3e, 0xb8, 0x48, 0x8a, 0x3e, 0x89, 0x61, 0xbc, 0xbe,
  0xa3, 0x76, 0x9f, 0xbe, 0x78, 0xff, 0xa8, 0x3e, 0xe4, 0xcf, 0xe9, 0xbd,
  0xb0, 0xa7, 0xa3, 0x3c, 0xbb, 0xe4, 0x95, 0x3e, 0xe0, 0xdf, 0xdc, 0xbe,
  0xcc, 0x0d, 0xde, 0xbd, 0x7c, 0x37, 0xc5, 0x3e, 0x2b, 0x74, 0xc7, 0x3e,
  0x86, 0xd3, 0x3a, 0x3e, 0x35, 0x99, 0xa5, 0x3e, 0xc8, 0x6f, 0x42, 0xbe,
  0x5e, 0x62, 0xf7, 0xbe, 0x05, 0x40, 0xc3, 0xbe, 0x75, 0x57, 0x61, 0x3c,
  0x24, 0x22, 0x29, 0x3e, 0xf0, 0x15, 0xd9, 0xbc, 0x9d, 0x14, 0x0d, 0x3e,
  0x0f, 0x6f, 0x92, 0x3e, 0x15, 0x40, 0xbd, 0x3e, 0x4b, 0xda, 0xae, 0x3e,
  0x21, 0x01, 0x01, 0xbf, 0x84, 0x5f, 0xa1, 0x3d, 0xab, 0x50, 0xd4, 0x3e,
  0xbb, 0x23, 0x91, 0x3e, 0x98, 0xc1, 0xa7, 0x3b, 0x71, 0x76, 0x47, 0x3f,
  0x28, 0x40, 0x0b, 0x3e, 0x5e, 0xbf, 0x94, 0xbe, 0xe1, 0x76, 0x60, 0xbe,
  0x10, 0x85, 0x7e, 0xbd, 0x87, 0x5e, 0x66, 0xbd, 0x74, 0xfc, 0xae, 0x3d,
  0x8a, 0x25, 0x81, 0x3d, 0x8a, 0xb3, 0xb6, 0xbe, 0x4c, 0xac, 0x9d, 0x3d,
  0x00, 0xa2, 0x06, 0xbb, 0x27, 0xcf, 0x23, 0x3e, 0xd0, 0xd1, 0xe1, 0x3c,
  0xf3, 0x95, 0xb9, 0x3e, 0xd1, 0x3e, 0x86, 0xbe, 0x49, 0xef, 0x29, 0xbf,
  0xdc, 0x8d, 0x91, 0xbe, 0xbc, 0x8b, 0x63, 0xbe, 0x3d, 0x87, 0xae, 0x3e,
  0x58, 0x17, 0x76, 0x3d, 0x9d, 0xef, 0x58, 0x3e, 0x47, 0x8b, 0x1f, 0xbf,
  0xa0, 0x23, 0x92, 0x3c, 0xdd, 0x56, 0xbb, 0x3c, 0x7c, 0x5b, 0xcd, 0x3d,
  0x02, 0x20, 0x58, 0xbe, 0xd2, 0x2a, 0xdd, 0xbe, 0x14, 0x42, 0x14, 0x3e,
  0xe8, 0x48, 0x6a, 0x3d, 0x31, 0xa9, 0xd0, 0xbe, 0xeb, 0xb8, 0x86, 0xbe,
  0x74, 0x01, 0xc1, 0x3e, 0xb1, 0x66, 0x87, 0x3e, 0xf1, 0xbd, 0x62, 0x3f,
  0x0d, 0x91, 0xa8, 0xbe, 0xa7, 0x92, 0x73, 0x3e, 0xf3, 0x1c, 0xb1, 0xbe,
  0xb8, 0x4c, 0x43, 0x3e, 0xbb, 0xaf, 0x95, 0x3e, 0x4c, 0x81, 0xba, 0xbe,
  0x04, 0x2e, 0xa7, 0xbe, 0x03, 0x2c, 0xc4, 0x3e, 0xd0, 0xc7, 0x1f, 0xbe,
  0xfb, 0xb6, 0x8b, 0xbd, 0x94, 0x6b, 0xd4, 0xbd, 0x80, 0xdc, 0x40, 0xbd,
  0x19, 0x98, 0xc9, 0xbe, 0x64, 0x33, 0x07, 0x3f, 0x59, 0x37, 0x69, 0x3e,
  0x96, 0x24, 0x68, 0x3e, 0x41, 0x26, 0x57, 0xbe, 0xa5, 0x83, 0x5c, 0x3e,
  0x0f, 0x6d, 0xfd, 0xbe, 0x6c, 0xcc, 0x3d, 0xbe, 0x28, 0x0a, 0xb4, 0xbe,
  0xef, 0xa3, 0x0c, 0x3e, 0xde, 0x7d, 0x81, 0xbe, 0x0e, 0x33, 0x7c, 0x3e,
  0xd6, 0x12, 0x43, 0x3e, 0xbd, 0x10, 0x61, 0x3e, 0x80, 0xba, 0x65, 0xbd,
  0xc7, 0xa9, 0x03, 0x3e, 0xce, 0xdc, 0x28, 0x3e, 0x2b, 0x7c, 0xf4, 0xbd,
  0x9f, 0x8e, 0x7e, 0xbe, 0xc8, 0x34, 0x08, 0xbc, 0x50, 0x04, 0x2b, 0x3d,
  0xcc, 0xf0, 0xca, 0x3e, 0xed, 0xa4, 0xcb, 0xbe, 0xd0, 0x52, 0x9b, 0x3d,
  0x82, 0x9d, 0x6e, 0x3e, 0x41, 0x7d, 0xaf, 0x3d, 0xaf, 0xde, 0xce, 0xbe,
  0x01, 0xd7, 0x5c, 0xbe, 0xb8, 0x1d, 0xda, 0xbe, 0x34, 0xe2, 0x5c, 0x3e,
  0xf1, 0x51, 0x83, 0xbe, 0xc5, 0xee, 0x81, 0x3e, 0xe0, 0xab, 0x8e, 0xbe,
  0x72, 0x10, 0x29, 0xbe, 0x45, 0x80, 0x6e, 0x3d, 0xb7, 0x25, 0x7c, 0x3d,
  0xfe, 0x5a, 0x9c, 0x3e, 0xbe, 0x09, 0xb1, 0x3d, 0x24, 0x9b, 0x01, 0xbf,
  0x72, 0xff, 0x45, 0x3f, 0x94, 0xf9, 0x88, 0xbd, 0x77, 0x11, 0x87, 0x3b,
  0x5c, 0xc1, 0x97, 0xbd, 0xe6, 0x54, 0x22, 0x3e, 0x6d, 0x65, 0xdb, 0xbe,
  0x81, 0xda, 0x2d, 0x3f, 0xc4, 0xe4, 0xba, 0xbe, 0xd0, 0x9f, 0xbf, 0x3e,
  0xcb, 0x1c, 0x46, 0xbe, 0x18, 0xfd, 0xde, 0xbe, 0x65, 0x66, 0xac, 0xbc,
  0xf9, 0x1f, 0xa0, 0xbd, 0xa8, 0x21, 0x9a, 0xbe, 0x72, 0xab, 0xb0, 0x3e,
  0xe5, 0xf1, 0x1d, 0xbd, 0xc6, 0x6b, 0xa6, 0xbe, 0xe0, 0xac, 0x28, 0x3c,
  0x3c, 0x69, 0x41, 0x3e, 0x8f, 0x64, 0xc0, 0x3e, 0x85, 0xa0, 0xc1, 0xbe,
  0xef, 0x85, 0xa5, 0xbe, 0xb7, 0xb7, 0xcc, 0xbd, 0xd3, 0x8c, 0x84, 0xbe,
  0x57, 0x90, 0x24, 0x3c, 0x9f, 0xd9, 0x1f, 0x3e, 0x95, 0xc3, 0xaa, 0xbc,
  0xa2, 0x3c, 0x30, 0x3e, 0x05, 0xc6, 0x24, 0x3f, 0xf1, 0xad, 0x69, 0xbc,
  0x9e, 0xa4, 0x8c, 0xbe, 0x37, 0x77, 0xd0, 0x3e, 0x10, 0x60, 0xe8, 0xbd,
  0xba, 0xfc, 0x46, 0x3e, 0x85, 0x7a, 0x88, 0x3e, 0x77, 0xcc, 0xb1, 0x3e,
  0x00, 0xd3, 0x6c, 0x3b, 0x46, 0xb1, 0x8e, 0xbe, 0xd1, 0x09, 0xd9, 0x3d,
  0x62, 0x49, 0x9b, 0xbe, 0x05, 0xef, 0x5f, 0xbe, 0xcb, 0x7f, 0x0c, 0x3d,
  0xcd, 0x33, 0x1e, 0x3f, 0x9e, 0x74, 0x8a, 0x3e, 0xcd, 0x40, 0x72, 0xbd,
  0x09, 0xd1, 0x72, 0xbd, 0xbc, 0x93, 0x8c, 0xbc, 0x85, 0x27, 0xcf, 0x3e,
  0xcb, 0x57, 0x9f, 0xbd, 0x7b, 0x28, 0xc3, 0x3e, 0x2f, 0x89, 0x48, 0x3e,
  0x94, 0xe7, 0x37, 0xbe, 0xe4, 0xeb, 0xc5, 0xbd, 0xbb, 0xef, 0xc1, 0x3e,
  0x98, 0x79, 0x9f, 0xbd, 0x8b, 0x71, 0x8b, 0x3e, 0x80, 0x90, 0x97, 0xbe,
  0x83, 0xac, 0x90, 0x3e, 0x75, 0x73, 0x2c, 0xbf, 0xa0, 0x41, 0x48, 0x3e,
  0xe0, 0x28, 0x23, 0xbf, 0xa9, 0x84, 0x06, 0xbe, 0x64, 0xd4, 0x35, 0xbd,
  0x7f, 0xa3, 0x56, 0xbe, 0x6d, 0x89, 0xc0, 0x3e, 0x9b, 0xd0, 0xa9, 0x3e,
  0xfb, 0x5a, 0x76, 0xbd, 0xa5, 0x7d, 0x94, 0x3e, 0x74, 0x6f, 0x8e, 0xbd,
  0x55, 0xa6, 0x85, 0x3e, 0x4d, 0xf4, 0xa6, 0x3e, 0xf3, 0x4f, 0x83, 0x3e,
  0xa2, 0x1c, 0xfd, 0xbd, 0x9b, 0x26, 0x42, 0xbe, 0x11, 0xcf, 0x85, 0x3f,
  0x5a, 0xbc, 0xd3, 0xbe, 0x47, 0x9c, 0x14, 0xbe, 0x1e, 0x77, 0xe4, 0xbc,
  0x1b, 0xce, 0xe9, 0x3d, 0x1b, 0x54, 0x44, 0x3f, 0x8b, 0x2a, 0xed, 0xbd,
  0x22, 0x3d, 0x13, 0xbe, 0x73, 0x93, 0x33, 0xbe, 0x2c, 0x1b, 0xb9, 0xbd,
  0x78, 0xa0, 0xac, 0xbd, 0x83, 0x9f, 0x8e, 0x3e, 0x57, 0x2c, 0xdc, 0xbe,
  0x4f, 0x2b, 0x8a, 0x3e, 0x1a, 0x7d, 0xa9, 0x3e, 0x61, 0x29, 0x20, 0x3e,
  0xb6, 0x7b, 0xc5, 0xbe, 0x46, 0xf4, 0x22, 0xbf, 0xa4, 0x50, 0xfe, 0xbe,
  0x0f, 0x91, 0x71, 0x3c, 0x71, 0x6d, 0xa6, 0x3e, 0xb8, 0xfd, 0x05, 0xbf,
  0x68, 0x6e, 0x63, 0xbf, 0x6c, 0xde, 0xdf, 0xbd, 0x42, 0xc9, 0x6d, 0x3c,
  0xb4, 0x66, 0xce, 0xbd, 0xa0, 0x8b, 0x15, 0x3d, 0x9c, 0xe3, 0xaf, 0xbe,
  0xc4, 0xdd, 0xa9, 0x3e, 0x6d, 0x24, 0x84, 0xbe, 0x84, 0xe0, 0x81, 0xbe,
  0xbe, 0xd2, 0x20, 0xbe, 0x61, 0x1e, 0xb9, 0x3e, 0x83, 0xae, 0x0e, 0x3f,
  0x5e, 0xf8, 0xfe, 0x3e, 0xbf, 0xa7, 0xcc, 0xbe, 0xdc, 0x84, 0x46, 0xbe,
  0x83, 0x71, 0xf4, 0xbe, 0x58, 0x78, 0xfc, 0xbd, 0x01, 0x0f, 0x86, 0xbe,
  0x3d, 0x8c, 0x84, 0x3e, 0x35, 0xb5, 0xb6, 0xbe, 0xa8, 0xbe, 0x12, 0xbd,
  0xe4, 0x1c, 0xec, 0x3d, 0x39, 0xab, 0x87, 0x3e, 0xf2, 0xb5, 0xa8, 0xbe,
  0x46, 0x23, 0x36, 0xbd, 0x4c, 0x04, 0x17, 0xbf, 0x1e, 0xf7, 0xcd, 0x3e,
  0xb7, 0xe7, 0xf6, 0xbe, 0x67, 0xa0, 0xa2, 0x3d, 0xbe, 0x38, 0x1c, 0xbe,
  0x2c, 0xde, 0x50, 0xbe, 0x66, 0x41, 0x4c, 0x3e, 0xec, 0xe9, 0xce, 0xbe,
  0x3f, 0xf3, 0xcd, 0xbe, 0x5b, 0x28, 0x25, 0x3e, 0x88, 0x8c, 0xa2, 0xbe,
  0x06, 0xd4, 0x9d, 0xbe, 0x18, 0xe0, 0x4c, 0xbe, 0xc3, 0x8d, 0x5f, 0x3e,
  0x6f, 0x5e, 0xa5, 0xbe, 0x95, 0xe6, 0x8b, 0x3e, 0xc0, 0x67, 0x98, 0xbc,
  0x9e, 0xfe, 0xff, 0xff, 0x04, 0x00, 0x00, 0x00, 0xc0, 0x00, 0x00, 0x00,
  0x5c, 0xbb, 0xac, 0xbe, 0xd5, 0xc9, 0x8e, 0xbc, 0x57, 0xd0, 0x04, 0xbf,
  0x5b, 0x1f, 0x4c, 0x3e, 0xda, 0xce, 0x8e, 0x3e, 0x82, 0x82, 0x50, 0xbe,
  0x3a, 0x11, 0xfc, 0x3e, 0x24, 0xbc, 0x2d, 0x3f, 0x64, 0x11, 0xa1, 0x3e,
  0x2a, 0x6b, 0x22, 0x3e, 0xf0, 0x84, 0xa5, 0xbe, 0x5e, 0xce, 0x27, 0x3d,
  0xa0, 0x22, 0xd3, 0xbe, 0x3c, 0xff, 0x4e, 0x3f, 0x52, 0x61, 0x90, 0xbd,
  0xfd, 0xf4, 0xd8, 0xbe, 0x9a, 0x3c, 0xbc, 0xbd, 0x59, 0x31, 0x0f, 0x3d,
  0x9b, 0xaa, 0xba, 0xbe, 0x84, 0x1a, 0x73, 0xbd, 0x7b, 0x50, 0x67, 0x3e,
  0xb6, 0x70, 0x7a, 0x3d, 0x71, 0xf9, 0xf5, 0xbe, 0x5f, 0x22, 0x6d, 0x3e,
  0xb8, 0xe6, 0xb8, 0xbe, 0x03, 0xd6, 0xf8, 0x3e, 0x0c, 0x8e, 0x47, 0x3e,
  0x70, 0x26, 0xf7, 0xbe, 0xb2, 0x7d, 0x0c, 0x3f, 0x94, 0x27, 0xdc, 0xbe,
  0x24, 0x6f, 0xdd, 0x3d, 0xf7, 0xeb, 0xd3, 0x3e, 0x53, 0xe0, 0xba, 0xbe,
  0x5f, 0xdb, 0x7f, 0xbc, 0x85, 0xd8, 0x2f, 0x3f, 0x5d, 0x3d, 0x26, 0xbf,
  0x95, 0xd7, 0x1d, 0x3f, 0xc0, 0xf6, 0x93, 0x3e, 0x7a, 0x4e, 0xfc, 0x3d,
  0x9f, 0x3a, 0x07, 0x3f, 0x91, 0x8f, 0x97, 0xbe, 0x56, 0x84, 0xe1, 0x3e,
  0xa6, 0x1e, 0xa4, 0xbd, 0xdb, 0x49, 0xd8, 0xbe, 0xa2, 0xe4, 0x24, 0xbe,
  0xac, 0x7e, 0x1d, 0xbd, 0x72, 0xf4, 0xf2, 0x3e, 0x10, 0xe5, 0xaf, 0xbd,
  0x58, 0xfa, 0xff, 0xff, 0x5c, 0xfa, 0xff, 0xff, 0x0f, 0x00, 0x00, 0x00,
  0x4d, 0x4c, 0x49, 0x52, 0x20, 0x43, 0x6f, 0x6e, 0x76, 0x65, 0x72, 0x74,
  0x65, 0x64, 0x2e, 0x00, 0x01, 0x00, 0x00, 0x00, 0x14, 0x00, 0x00, 0x00,
  0x00, 0x00, 0x0e, 0x00, 0x18, 0x00, 0x14, 0x00, 0x10, 0x00, 0x0c, 0x00,
  0x08, 0x00, 0x04, 0x00, 0x0e, 0x00, 0x00, 0x00, 0x14, 0x00, 0x00, 0x00,
  0x1c, 0x00, 0x00, 0x00, 0x34, 0x01, 0x00, 0x00, 0x38, 0x01, 0x00, 0x00,
  0x3c, 0x01, 0x00, 0x00, 0x04, 0x00, 0x00, 0x00, 0x6d, 0x61, 0x69, 0x6e,
  0x00, 0x00, 0x00, 0x00, 0x04, 0x00, 0x00, 0x00, 0xdc, 0x00, 0x00, 0x00,
  0x94, 0x00, 0x00, 0x00, 0x50, 0x00, 0x00, 0x00, 0x14, 0x00, 0x00, 0x00,
  0x00, 0x00, 0x0e, 0x00, 0x1a, 0x00, 0x14, 0x00, 0x10, 0x00, 0x0c, 0x00,
  0x0b, 0x00, 0x04, 0x00, 0x0e, 0x00, 0x00, 0x00, 0x1c, 0x00, 0x00, 0x00,
  0x00, 0x00, 0x00, 0x09, 0x1c, 0x00, 0x00, 0x00, 0x20, 0x00, 0x00, 0x00,
  0x01, 0x00, 0x00, 0x00, 0x00, 0x00, 0x06, 0x00, 0x08, 0x00, 0x04, 0x00,
  0x06, 0x00, 0x00, 0x00, 0x00, 0x00, 0x80, 0x3f, 0x01, 0x00, 0x00, 0x00,
  0x0a, 0x00, 0x00, 0x00, 0x01, 0x00, 0x00, 0x00, 0x09, 0x00, 0x00, 0x00,
  0xce, 0xff, 0xff, 0xff, 0x10, 0x00, 0x00, 0x00, 0x00, 0x00, 0x00, 0x08,
  0x0c, 0x00, 0x00, 0x00, 0x10, 0x00, 0x00, 0x00, 0x20, 0xfb, 0xff, 0xff,
  0x01, 0x00, 0x00, 0x00, 0x09, 0x00, 0x00, 0x00, 0x03, 0x00, 0x00, 0x00,
  0x08, 0x00, 0x00, 0x00, 0x01, 0x00, 0x00, 0x00, 0x03, 0x00, 0x00, 0x00,
  0x00, 0x00, 0x0e, 0x00, 0x14, 0x00, 0x00, 0x00, 0x10, 0x00, 0x0c, 0x00,
  0x0b, 0x00, 0x04, 0x00, 0x0e, 0x00, 0x00, 0x00, 0x10, 0x00, 0x00, 0x00,
  0x00, 0x00, 0x00, 0x08, 0x10, 0x00, 0x00, 0x00, 0x14, 0x00, 0x00, 0x00,
  0xba, 0xff, 0xff, 0xff, 0x00, 0x00, 0x00, 0x01, 0x01, 0x00, 0x00, 0x00,
  0x08, 0x00, 0x00, 0x00, 0x03, 0x00, 0x00, 0x00, 0x07, 0x00, 0x00, 0x00,
  0x02, 0x00, 0x00, 0x00, 0x04, 0x00, 0x00, 0x00, 0x00, 0x00, 0x0e, 0x00,
  0x16, 0x00, 0x00, 0x00, 0x10, 0x00, 0x0c, 0x00, 0x0b, 0x00, 0x04, 0x00,
  0x0e, 0x00, 0x00, 0x00, 0x18, 0x00, 0x00, 0x00, 0x00, 0x00, 0x00, 0x08,
  0x18, 0x00, 0x00, 0x00, 0x1c, 0x00, 0x00, 0x00, 0x00, 0x00, 0x06, 0x00,
  0x08, 0x00, 0x07, 0x00, 0x06, 0x00, 0x00, 0x00, 0x00, 0x00, 0x00, 0x01,
  0x01, 0x00, 0x00, 0x00, 0x07, 0x00, 0x00, 0x00, 0x03, 0x00, 0x00, 0x00,
  0x00, 0x00, 0x00, 0x00, 0x06, 0x00, 0x00, 0x00, 0x05, 0x00, 0x00, 0x00,
  0x01, 0x00, 0x00, 0x00, 0x0a, 0x00, 0x00, 0x00, 0x01, 0x00, 0x00, 0x00,
  0x00, 0x00, 0x00, 0x00, 0x0b, 0x00, 0x00, 0x00, 0xf8, 0x03, 0x00, 0x00,
  0xa0, 0x03, 0x00, 0x00, 0x48, 0x03, 0x00, 0x00, 0x0c, 0x03, 0x00, 0x00,
  0xd0, 0x02, 0x00, 0x00, 0x74, 0x02, 0x00, 0x00, 0x24, 0x02, 0x00, 0x00,
  0x84, 0x01, 0x00, 0x00, 0xe4, 0x00, 0x00, 0x00, 0x60, 0x00, 0x00, 0x00,
  0x04, 0x00, 0x00, 0x00, 0x4a, 0xfc, 0xff, 0xff, 0x00, 0x00, 0x00, 0x01,
  0x14, 0x00, 0x00, 0x00, 0x1c, 0x00, 0x00, 0x00, 0x1c, 0x00, 0x00, 0x00,
  0x0b, 0x00, 0x00, 0x00, 0x34, 0x00, 0x00, 0x00, 0x02, 0x00, 0x00, 0x00,
  0xff, 0xff, 0xff, 0xff, 0x03, 0x00, 0x00, 0x00, 0x34, 0xfc, 0xff, 0xff,
  0x1b, 0x00, 0x00, 0x00, 0x53, 0x74, 0x61, 0x74, 0x65, 0x66, 0x75, 0x6c,
  0x50, 0x61, 0x72, 0x74, 0x69, 0x74, 0x69, 0x6f, 0x6e, 0x65, 0x64, 0x43,
  0x61, 0x6c, 0x6c, 0x5f, 0x31, 0x3a, 0x30, 0x00, 0x02, 0x00, 0x00, 0x00,
  0x01, 0x00, 0x00, 0x00, 0x03, 0x00, 0x00, 0x00, 0xa2, 0xfc, 0xff, 0xff,
  0x00, 0x00, 0x00, 0x01, 0x14, 0x00, 0x00, 0x00, 0x1c, 0x00, 0x00, 0x00,
  0x1c, 0x00, 0x00, 0x00, 0x0a, 0x00, 0x00, 0x00, 0x5c, 0x00, 0x00, 0x00,
  0x02, 0x00, 0x00, 0x00, 0xff, 0xff, 0xff, 0xff, 0x03, 0x00, 0x00, 0x00,
  0x8c, 0xfc, 0xff, 0xff, 0x40, 0x00, 0x00, 0x00, 0x73, 0x65, 0x71, 0x75,
  0x65, 0x6e, 0x74, 0x69, 0x61, 0x6c, 0x5f, 0x32, 0x5f, 0x31, 0x2f, 0x64,
  0x65, 0x6e, 0x73, 0x65, 0x5f, 0x38, 0x5f, 0x31, 0x2f, 0x4d, 0x61, 0x74,
  0x4d, 0x75, 0x6c, 0x3b, 0x73, 0x65, 0x71, 0x75, 0x65, 0x6e, 0x74, 0x69,
  0x61, 0x6c, 0x5f, 0x32, 0x5f, 0x31, 0x2f, 0x64, 0x65, 0x6e, 0x73, 0x65,
  0x5f, 0x38, 0x5f, 0x31, 0x2f, 0x42, 0x69, 0x61, 0x73, 0x41, 0x64, 0x64,
  0x00, 0x00, 0x00, 0x00, 0x02, 0x00, 0x00, 0x00, 0x01, 0x00, 0x00, 0x00,
  0x03, 0x00, 0x00, 0x00, 0x22, 0xfd, 0xff, 0xff, 0x00, 0x00, 0x00, 0x01,
  0x14, 0x00, 0x00, 0x00, 0x1c, 0x00, 0x00, 0x00, 0x1c, 0x00, 0x00, 0x00,
  0x09, 0x00, 0x00, 0x00, 0x78, 0x00, 0x00, 0x00, 0x02, 0x00, 0x00, 0x00,
  0xff, 0xff, 0xff, 0xff, 0x10, 0x00, 0x00, 0x00, 0x0c, 0xfd, 0xff, 0xff,
  0x5e, 0x00, 0x00, 0x00, 0x73, 0x65, 0x71, 0x75, 0x65, 0x6e, 0x74, 0x69,
  0x61, 0x6c, 0x5f, 0x32, 0x5f, 0x31, 0x2f, 0x64, 0x65, 0x6e, 0x73, 0x65,
  0x5f, 0x37, 0x5f, 0x31, 0x2f, 0x4d, 0x61, 0x74, 0x4d, 0x75, 0x6c, 0x3b,
  0x73, 0x65, 0x71, 0x75, 0x65, 0x6e, 0x74, 0x69, 0x61, 0x6c, 0x5f, 0x32,
  0x5f, 0x31, 0x2f, 0x64, 0x65, 0x6e, 0x73, 0x65, 0x5f, 0x37, 0x5f, 0x31,
  0x2f, 0x52, 0x65, 0x6c, 0x75, 0x3b, 0x73, 0x65, 0x71, 0x75, 0x65, 0x6e,
  0x74, 0x69, 0x61, 0x6c, 0x5f, 0x32, 0x5f, 0x31, 0x2f, 0x64, 0x65, 0x6e,
  0x73, 0x65, 0x5f, 0x37, 0x5f, 0x31, 0x2f, 0x42, 0x69, 0x61, 0x73, 0x41,
  0x64, 0x64, 0x00, 0x00, 0x02, 0x00, 0x00, 0x00, 0x01, 0x00, 0x00, 0x00,
  0x10, 0x00, 0x00, 0x00, 0xbe, 0xfd, 0xff, 0xff, 0x00, 0x00, 0x00, 0x01,
  0x14, 0x00, 0x00, 0x00, 0x1c, 0x00, 0x00, 0x00, 0x1c, 0x00, 0x00, 0x00,
  0x08, 0x00, 0x00, 0x00, 0x78, 0x00, 0x00, 0x00, 0x02, 0x00, 0x00, 0x00,
  0xff, 0xff, 0xff, 0xff, 0x10, 0x00, 0x00, 0x00, 0xa8, 0xfd, 0xff, 0xff,
  0x5e, 0x00, 0x00, 0x00, 0x73, 0x65, 0x71, 0x75, 0x65, 0x6e, 0x74, 0x69,
  0x61, 0x6c, 0x5f, 0x32, 0x5f, 0x31, 0x2f, 0x64, 0x65, 0x6e, 0x73, 0x65,
  0x5f, 0x36, 0x5f, 0x31, 0x2f, 0x4d, 0x61, 0x74, 0x4d, 0x75, 0x6c, 0x3b,
  0x73, 0x65, 0x71, 0x75, 0x65, 0x6e, 0x74, 0x69, 0x61, 0x6c, 0x5f, 0x32,
  0x5f, 0x31, 0x2f, 0x64, 0x65, 0x6e, 0x73, 0x65, 0x5f, 0x36, 0x5f, 0x31,
  0x2f, 0x52, 0x65, 0x6c, 0x75, 0x3b, 0x73, 0x65, 0x71, 0x75, 0x65, 0x6e,
  0x74, 0x69, 0x61, 0x6c, 0x5f, 0x32, 0x5f, 0x31, 0x2f, 0x64, 0x65, 0x6e,
  0x73, 0x65, 0x5f, 0x36, 0x5f, 0x31, 0x2f, 0x42, 0x69, 0x61, 0x73, 0x41,
  0x64, 0x64, 0x00, 0x00, 0x02, 0x00, 0x00, 0x00, 0x01, 0x00, 0x00, 0x00,
  0x10, 0x00, 0x00, 0x00, 0xae, 0xfe, 0xff, 0xff, 0x00, 0x00, 0x00, 0x01,
  0x10, 0x00, 0x00, 0x00, 0x10, 0x00, 0x00, 0x00, 0x07, 0x00, 0x00, 0x00,
  0x2c, 0x00, 0x00, 0x00, 0x34, 0xfe, 0xff, 0xff, 0x1f, 0x00, 0x00, 0x00,
  0x73, 0x65, 0x71, 0x75, 0x65, 0x6e, 0x74, 0x69, 0x61, 0x6c, 0x5f, 0x32,
  0x5f, 0x31, 0x2f, 0x64, 0x65, 0x6e, 0x73, 0x65, 0x5f, 0x36, 0x5f, 0x31,
  0x2f, 0x4d, 0x61, 0x74, 0x4d, 0x75, 0x6c, 0x00, 0x02, 0x00, 0x00, 0x00,
  0x10, 0x00, 0x00, 0x00, 0x06, 0x00, 0x00, 0x00, 0xfa, 0xfe, 0xff, 0xff,
  0x00, 0x00, 0x00, 0x01, 0x10, 0x00, 0x00, 0x00, 0x10, 0x00, 0x00, 0x00,
  0x06, 0x00, 0x00, 0x00, 0x3c, 0x00, 0x00, 0x00, 0x80, 0xfe, 0xff, 0xff,
  0x2f, 0x00, 0x00, 0x00, 0x73, 0x65, 0x71, 0x75, 0x65, 0x6e, 0x74, 0x69,
  0x61, 0x6c, 0x5f, 0x32, 0x5f, 0x31, 0x2f, 0x64, 0x65, 0x6e, 0x73, 0x65,
  0x5f, 0x36, 0x5f, 0x31, 0x2f, 0x42, 0x69, 0x61, 0x73, 0x41, 0x64, 0x64,
  0x2f, 0x52, 0x65, 0x61, 0x64, 0x56, 0x61, 0x72, 0x69, 0x61, 0x62, 0x6c,
  0x65, 0x4f, 0x70, 0x00, 0x01, 0x00, 0x00, 0x00, 0x10, 0x00, 0x00, 0x00,
  0x52, 0xff, 0xff, 0xff, 0x00, 0x00, 0x00, 0x01, 0x10, 0x00, 0x00, 0x00,
  0x10, 0x00, 0x00, 0x00, 0x05, 0x00, 0x00, 0x00, 0x1c, 0x00, 0x00, 0x00,
  0xd8, 0xfe, 0xff, 0xff, 0x0f, 0x00, 0x00, 0x00, 0x61, 0x72, 0x69, 0x74,
  0x68, 0x2e, 0x63, 0x6f, 0x6e, 0x73, 0x74, 0x61, 0x6e, 0x74, 0x33, 0x00,
  0x01, 0x00, 0x00, 0x00, 0x10, 0x00, 0x00, 0x00, 0x8a, 0xff, 0xff, 0xff,
  0x00, 0x00, 0x00, 0x01, 0x10, 0x00, 0x00, 0x00, 0x10, 0x00, 0x00, 0x00,
  0x04, 0x00, 0x00, 0x00, 0x1c, 0x00, 0x00, 0x00, 0x10, 0xff, 0xff, 0xff,
  0x0f, 0x00, 0x00, 0x00, 0x61, 0x72, 0x69, 0x74, 0x68, 0x2e, 0x63, 0x6f,
  0x6e, 0x73, 0x74, 0x61, 0x6e, 0x74, 0x32, 0x00, 0x01, 0x00, 0x00, 0x00,
  0x03, 0x00, 0x00, 0x00, 0xc2, 0xff, 0xff, 0xff, 0x00, 0x00, 0x00, 0x01,
  0x10, 0x00, 0x00, 0x00, 0x10, 0x00, 0x00, 0x00, 0x03, 0x00, 0x00, 0x00,
  0x1c, 0x00, 0x00, 0x00, 0x48, 0xff, 0xff, 0xff, 0x0f, 0x00, 0x00, 0x00,
  0x61, 0x72, 0x69, 0x74, 0x68, 0x2e, 0x63, 0x6f, 0x6e, 0x73, 0x74, 0x61,
  0x6e, 0x74, 0x31, 0x00, 0x02, 0x00, 0x00, 0x00, 0x10, 0x00, 0x00, 0x00,
  0x10, 0x00, 0x00, 0x00, 0x00, 0x00, 0x16, 0x00, 0x18, 0x00, 0x14, 0x00,
  0x00, 0x00, 0x10, 0x00, 0x0c, 0x00, 0x08, 0x00, 0x00, 0x00, 0x00, 0x00,
  0x00, 0x00, 0x07, 0x00, 0x16, 0x00, 0x00, 0x00, 0x00, 0x00, 0x00, 0x01,
  0x10, 0x00, 0x00, 0x00, 0x10, 0x00, 0x00, 0x00, 0x02, 0x00, 0x00, 0x00,
  0x1c, 0x00, 0x00, 0x00, 0x9c, 0xff, 0xff, 0xff, 0x0e, 0x00, 0x00, 0x00,
  0x61, 0x72, 0x69, 0x74, 0x68, 0x2e, 0x63, 0x6f, 0x6e, 0x73, 0x74, 0x61,
  0x6e, 0x74, 0x00, 0x00, 0x02, 0x00, 0x00, 0x00, 0x03, 0x00, 0x00, 0x00,
  0x10, 0x00, 0x00, 0x00, 0x00, 0x00, 0x16, 0x00, 0x1c, 0x00, 0x18, 0x00,
  0x00, 0x00, 0x14, 0x00, 0x10, 0x00, 0x0c, 0x00, 0x00, 0x00, 0x00, 0x00,
  0x08, 0x00, 0x07, 0x00, 0x16, 0x00, 0x00, 0x00, 0x00, 0x00, 0x00, 0x01,
  0x14, 0x00, 0x00, 0x00, 0x20, 0x00, 0x00, 0x00, 0x20, 0x00, 0x00, 0x00,
  0x01, 0x00, 0x00, 0x00, 0x40, 0x00, 0x00, 0x00, 0x02, 0x00, 0x00, 0x00,
  0xff, 0xff, 0xff, 0xff, 0x06, 0x00, 0x00, 0x00, 0x04, 0x00, 0x04, 0x00,
  0x04, 0x00, 0x00, 0x00, 0x21, 0x00, 0x00, 0x00, 0x73, 0x65, 0x72, 0x76,
  0x69, 0x6e, 0x67, 0x5f, 0x64, 0x65, 0x66, 0x61, 0x75, 0x6c, 0x74, 0x5f,
  0x6b, 0x65, 0x72, 0x61, 0x73, 0x5f, 0x74, 0x65, 0x6e, 0x73, 0x6f, 0x72,
  0x5f, 0x33, 0x32, 0x3a, 0x30, 0x00, 0x00, 0x00, 0x02, 0x00, 0x00, 0x00,
  0x01, 0x00, 0x00, 0x00, 0x06, 0x00, 0x00, 0x00, 0x02, 0x00, 0x00, 0x00,
  0x20, 0x00, 0x00, 0x00, 0x04, 0x00, 0x00, 0x00, 0xf4, 0xff, 0xff, 0xff,
  0x19, 0x00, 0x00, 0x00, 0x00, 0x00, 0x00, 0x19, 0x0c, 0x00, 0x0c, 0x00,
  0x0b, 0x00, 0x00, 0x00, 0x00, 0x00, 0x04, 0x00, 0x0c, 0x00, 0x00, 0x00,
  0x09, 0x00, 0x00, 0x00, 0x00, 0x00, 0x00, 0x09
};
