/**
 * TFLite / LiteRT model byte array.
 *
 * Auto-generated by model_to_tflite.py
 * Timestamp  : 2026-03-03 11:39 UTC
 * Source     : model.tflite
 * Model size : 5,400 bytes
 * Quantized  : no (float32)
 *
 * Usage (Arduino / TFLite Micro):
 *
 *   #include "model.h"
 *   const tflite::Model* model = tflite::GetModel(g_model);
 */

#ifndef MODEL_H
#define MODEL_H

/* 8-byte alignment required by TFLite Micro */
alignas(8) const unsigned char g_model[] = {
    0x1c, 0x00, 0x00, 0x00, 0x54, 0x46, 0x4c, 0x33, 0x14, 0x00, 0x20, 0x00,
    0x1c, 0x00, 0x18, 0x00, 0x14, 0x00, 0x10, 0x00, 0x0c, 0x00, 0x00, 0x00,
    0x08, 0x00, 0x04, 0x00, 0x14, 0x00, 0x00, 0x00, 0x1c, 0x00, 0x00, 0x00,
    0x1c, 0x00, 0x00, 0x00, 0x74, 0x00, 0x00, 0x00, 0x84, 0x08, 0x00, 0x00,
    0x94, 0x08, 0x00, 0x00, 0x74, 0x14, 0x00, 0x00, 0x03, 0x00, 0x00, 0x00,
    0x00, 0x00, 0x00, 0x00, 0x02, 0x00, 0x00, 0x00, 0x34, 0x00, 0x00, 0x00,
    0x04, 0x00, 0x00, 0x00, 0xdc, 0xff, 0xff, 0xff, 0x19, 0x00, 0x00, 0x00,
    0x04, 0x00, 0x00, 0x00, 0x13, 0x00, 0x00, 0x00, 0x43, 0x4f, 0x4e, 0x56,
    0x45, 0x52, 0x53, 0x49, 0x4f, 0x4e, 0x5f, 0x4d, 0x45, 0x54, 0x41, 0x44,
    0x41, 0x54, 0x41, 0x00, 0x08, 0x00, 0x0c, 0x00, 0x08, 0x00, 0x04, 0x00,
    0x08, 0x00, 0x00, 0x00, 0x18, 0x00, 0x00, 0x00, 0x04, 0x00, 0x00, 0x00,
    0x13, 0x00, 0x00, 0x00, 0x6d, 0x69, 0x6e, 0x5f, 0x72, 0x75, 0x6e, 0x74,
    0x69, 0x6d, 0x65, 0x5f, 0x76, 0x65, 0x72, 0x73, 0x69, 0x6f, 0x6e, 0x00,
    0x1a, 0x00, 0x00, 0x00, 0x0c, 0x08, 0x00, 0x00, 0x04, 0x08, 0x00, 0x00,
    0xb4, 0x07, 0x00, 0x00, 0x84, 0x07, 0x00, 0x00, 0x54, 0x07, 0x00, 0x00,
    0x34, 0x07, 0x00, 0x00, 0x18, 0x07, 0x00, 0x00, 0xf8, 0x06, 0x00, 0x00,
    0xe8, 0x04, 0x00, 0x00, 0x58, 0x04, 0x00, 0x00, 0x48, 0x03, 0x00, 0x00,
    0x38, 0x01, 0x00, 0x00, 0x24, 0x01, 0x00, 0x00, 0xf4, 0x00, 0x00, 0x00,
    0xdc, 0x00, 0x00, 0x00, 0xd4, 0x00, 0x00, 0x00, 0xcc, 0x00, 0x00, 0x00,
    0xc4, 0x00, 0x00, 0x00, 0xbc, 0x00, 0x00, 0x00, 0xb4, 0x00, 0x00, 0x00,
    0xac, 0x00, 0x00, 0x00, 0xa4, 0x00, 0x00, 0x00, 0x9c, 0x00, 0x00, 0x00,
    0x94, 0x00, 0x00, 0x00, 0x74, 0x00, 0x00, 0x00, 0x04, 0x00, 0x00, 0x00,
    0xb6, 0xf7, 0xff, 0xff, 0x04, 0x00, 0x00, 0x00, 0x60, 0x00, 0x00, 0x00,
    0x10, 0x00, 0x00, 0x00, 0x00, 0x00, 0x00, 0x00, 0x08, 0x00, 0x0e, 0x00,
    0x08, 0x00, 0x04, 0x00, 0x08, 0x00, 0x00, 0x00, 0x10, 0x00, 0x00, 0x00,
    0x24, 0x00, 0x00, 0x00, 0x00, 0x00, 0x06, 0x00, 0x08, 0x00, 0x04, 0x00,
    0x06, 0x00, 0x00, 0x00, 0x04, 0x00, 0x00, 0x00, 0x00, 0x00, 0x00, 0x00,
    0x0c, 0x00, 0x18, 0x00, 0x14, 0x00, 0x10, 0x00, 0x0c, 0x00, 0x04, 0x00,
    0x0c, 0x00, 0x00, 0x00, 0x19, 0x47, 0xb0, 0x66, 0x41, 0xce, 0x5b, 0x17,
    0x03, 0x00, 0x00, 0x00, 0x02, 0x00, 0x00, 0x00, 0x04, 0x00, 0x00, 0x00,
    0x06, 0x00, 0x00, 0x00, 0x32, 0x2e, 0x32, 0x30, 0x2e, 0x30, 0x00, 0x00,
    0x22, 0xf8, 0xff, 0xff, 0x04, 0x00, 0x00, 0x00, 0x10, 0x00, 0x00, 0x00,
    0x32, 0x2e, 0x30, 0x2e, 0x30, 0x00, 0x00, 0x00, 0x00, 0x00, 0x00, 0x00,
    0x00, 0x00, 0x00, 0x00, 0x08, 0xed, 0xff, 0xff, 0x0c, 0xed, 0xff, 0xff,
    0x10, 0xed, 0xff, 0xff, 0x14, 0xed, 0xff, 0xff, 0x18, 0xed, 0xff, 0xff,
    0x1c, 0xed, 0xff, 0xff, 0x20, 0xed, 0xff, 0xff, 0x24, 0xed, 0xff, 0xff,
    0x28, 0xed, 0xff, 0xff, 0x62, 0xf8, 0xff, 0xff, 0x04, 0x00, 0x00, 0x00,
    0x08, 0x00, 0x00, 0x00, 0x91, 0xa3, 0x9d, 0x22, 0xf7, 0xc8, 0x0b, 0xa2,
    0x76, 0xf8, 0xff, 0xff, 0x04, 0x00, 0x00, 0x00, 0x20, 0x00, 0x00, 0x00,
    0xdc, 0x45, 0x17, 0xbf, 0x1e, 0x59, 0x1a, 0x3f, 0x8a, 0x19, 0x96, 0x3d,
    0x3f, 0xee, 0x07, 0x3f, 0x55, 0x97, 0x25, 0x3d, 0xa4, 0x90, 0x1d, 0xbd,
    0x19, 0x4b, 0x7f, 0x3f, 0x41, 0x9d, 0x48, 0xbd, 0xa2, 0xf8, 0xff, 0xff,
    0x04, 0x00, 0x00, 0x00, 0x04, 0x00, 0x00, 0x00, 0x01, 0x00, 0x00, 0x00,
    0xb2, 0xf8, 0xff, 0xff, 0x04, 0x00, 0x00, 0x00, 0x00, 0x02, 0x00, 0x00,
    0xaf, 0x3b, 0x5a, 0x3e, 0x1d, 0x65, 0x12, 0x3f, 0x46, 0xb0, 0x4a, 0xbe,
    0xa7, 0xff, 0xf9, 0xbd, 0x42, 0x2d, 0x40, 0xbe, 0xba, 0x8a, 0x0c, 0xbe,
    0x7f, 0xa5, 0xaf, 0x3d, 0xa7, 0xa4, 0x1e, 0x3f, 0x86, 0xfd, 0x95, 0xbe,
    0x48, 0xe0, 0x8a, 0x3e, 0xab, 0x0c, 0xde, 0x3e, 0xd5, 0x05, 0xf6, 0x3e,
    0xda, 0x31, 0x1a, 0xbe, 0x99, 0xb2, 0x1c, 0xbe, 0x45, 0xcf, 0xa7, 0xbe,
    0xca, 0x70, 0x10, 0x3f, 0x1b, 0x11, 0x64, 0x3e, 0xb9, 0x52, 0xda, 0xbe,
    0x24, 0xf4, 0x1d, 0x3e, 0xc3, 0x73, 0x15, 0x3f, 0x4b, 0x6d, 0xff, 0x3e,
    0xfc, 0x10, 0xe2, 0x3c, 0xf8, 0x83, 0x95, 0xbe, 0xf4, 0x93, 0x0c, 0x3f,
    0xb5, 0x23, 0x06, 0x3f, 0x4d, 0xbc, 0x50, 0x3e, 0xdf, 0x70, 0x9e, 0x3e,
    0x62, 0xb4, 0x72, 0x3c, 0x8b, 0x9f, 0x35, 0x3e, 0xa7, 0x7e, 0xb6, 0xbd,
    0x70, 0x5f, 0xc0, 0xbe, 0x84, 0xb6, 0xdb, 0x3d, 0xc0, 0x8f, 0xc0, 0x3e,
    0x8b, 0x73, 0x02, 0x3f, 0x8d, 0x11, 0x6d, 0x3e, 0xc5, 0x9c, 0x08, 0x3f,
    0xb2, 0x55, 0x1d, 0x3e, 0xd4, 0x26, 0x66, 0x3d, 0xc4, 0xa7, 0xec, 0xbd,
    0x64, 0x67, 0xb4, 0x3e, 0x0c, 0xa9, 0xab, 0x3e, 0x32, 0x2f, 0xd3, 0x3e,
    0x83, 0x72, 0x33, 0x3d, 0x30, 0xdc, 0xe3, 0xbe, 0x53, 0x42, 0x0b, 0xbf,
    0xab, 0x00, 0xff, 0xbe, 0x2e, 0x3b, 0x83, 0x3e, 0x87, 0x98, 0x86, 0x3d,
    0x00, 0xb7, 0xc5, 0x3b, 0xcc, 0x7d, 0xd1, 0xbe, 0x18, 0x70, 0xe6, 0xbe,
    0xf8, 0xb2, 0x24, 0xbe, 0x48, 0x7d, 0x35, 0xbe, 0x98, 0x5e, 0xae, 0xbe,
    0x28, 0x4e, 0xd4, 0x3e, 0x00, 0xa8, 0xd3, 0x3d, 0xeb, 0xb0, 0xc2, 0xbe,
    0x16, 0xf3, 0xd2, 0xbe, 0x02, 0xd0, 0xe4, 0x3d, 0x2f, 0x67, 0x89, 0x3e,
    0x6b, 0xfc, 0xc5, 0x3e, 0xe0, 0x35, 0x78, 0xbe, 0x2c, 0x47, 0xa8, 0x3e,
    0x51, 0x9a, 0x0b, 0xbe, 0x08, 0x43, 0xd0, 0xbc, 0x50, 0x1c, 0x9c, 0x3e,
    0xbb, 0x12, 0x2e, 0x3e, 0x31, 0x87, 0xb2, 0xbe, 0xc3, 0x82, 0xbc, 0xbe,
    0xd2, 0x02, 0xd7, 0x3e, 0x04, 0x60, 0xa7, 0xbe, 0xa7, 0x16, 0x44, 0xbe,
    0x8a, 0x26, 0xbc, 0x3e, 0x36, 0x02, 0x63, 0x3e, 0xf1, 0x8e, 0xad, 0x3d,
    0x04, 0x85, 0xdf, 0xbe, 0x53, 0x7e, 0x46, 0xbe, 0x80, 0xf9, 0xcb, 0x3e,
    0x5c, 0xdc, 0xed, 0xbd, 0xa0, 0x3d, 0x87, 0xbd, 0x73, 0x94, 0xe8, 0x3e,
    0xe8, 0x22, 0xea, 0xbe, 0xad, 0x20, 0x2b, 0x3f, 0x7b, 0x49, 0xa9, 0x3e,
    0x54, 0x75, 0xf2, 0x3e, 0xce, 0x35, 0x5d, 0x3d, 0x69, 0x44, 0x29, 0xbd,
    0x14, 0xe9, 0x23, 0xbc, 0x4e, 0xe6, 0x06, 0xbf, 0xc6, 0x32, 0x2e, 0x3e,
    0x47, 0x89, 0x95, 0x3d, 0xe6, 0xf9, 0x79, 0x3e, 0x6c, 0x8b, 0xd1, 0xbe,
    0x8d, 0x5d, 0x51, 0xbe, 0x24, 0x7f, 0xd6, 0xbe, 0x68, 0xef, 0x36, 0x3e,
    0x7d, 0x36, 0xdb, 0x3e, 0xcc, 0x59, 0xf5, 0xbe, 0x19, 0x1a, 0xd2, 0x3e,
    0xf6, 0xdd, 0x00, 0x3d, 0x46, 0xa7, 0x36, 0x3e, 0xc0, 0x71, 0x09, 0xbf,
    0x36, 0x21, 0xa4, 0x3e, 0xb8, 0x61, 0xbe, 0x3d, 0x84, 0x26, 0x2b, 0xbd,
    0xa8, 0x14, 0xcb, 0xbe, 0xda, 0xbd, 0xf1, 0x3e, 0x80, 0xf8, 0x83, 0xbd,
    0xa4, 0x1c, 0x83, 0x3d, 0x2f, 0x6f, 0xfc, 0x3e, 0x4c, 0x87, 0x9d, 0x3e,
    0x93, 0x54, 0xc5, 0xbc, 0x44, 0x53, 0xb7, 0x3e, 0x22, 0xf1, 0x85, 0x3d,
    0x23, 0x7c, 0x80, 0xbd, 0xa3, 0x6e, 0xd4, 0xbe, 0x67, 0xf8, 0xd2, 0x3e,
    0x5f, 0x0d, 0x16, 0xbf, 0x99, 0x41, 0x15, 0x3e, 0x37, 0x95, 0x86, 0xbe,
    0x2c, 0x60, 0x05, 0xbf, 0x88, 0xb2, 0x11, 0x3f, 0x74, 0x7c, 0xe3, 0xbe,
    0xb8, 0x4d, 0xa0, 0x3e, 0xd7, 0x2a, 0x0f, 0xbe, 0xdf, 0x24, 0xd4, 0x3e,
    0x5e, 0x25, 0xb9, 0x3e, 0x5d, 0x6d, 0xaf, 0xbd, 0xbe, 0xfa, 0xff, 0xff,
    0x04, 0x00, 0x00, 0x00, 0x00, 0x01, 0x00, 0x00, 0xa1, 0xf3, 0x40, 0xbe,
    0xc7, 0x38, 0xfc, 0xbe, 0xd1, 0xf8, 0xf0, 0xbd, 0xa8, 0x6e, 0x7f, 0x3e,
    0xb4, 0xa1, 0x32, 0x3e, 0xa3, 0x74, 0x62, 0xbe, 0x20, 0xfb, 0xed, 0xbc,
    0xa3, 0xed, 0xef, 0xbe, 0xc0, 0x4c, 0x81, 0xbe, 0xce, 0x54, 0xb4, 0xbd,
    0xdc, 0x88, 0x0c, 0x3f, 0x76, 0xce, 0xce, 0xbd, 0xc6, 0x5a, 0xde, 0x3e,
    0x19, 0x06, 0x62, 0xbd, 0xbf, 0xf9, 0xa6, 0x3e, 0x77, 0xd7, 0x9a, 0x3e,
    0x00, 0xc6, 0x7d, 0x3e, 0xec, 0x32, 0x35, 0x3e, 0xfc, 0x5d, 0x3d, 0x3d,
    0x4b, 0xd3, 0xcf, 0x3e, 0xd9, 0x7a, 0xf4, 0x3d, 0x53, 0x63, 0x92, 0xbd,
    0x2d, 0xc4, 0xb8, 0xbe, 0xd1, 0x5d, 0x93, 0x3e, 0xb9, 0x33, 0x86, 0xbe,
    0xdd, 0xb4, 0x9e, 0xbe, 0x05, 0x83, 0x8b, 0x3e, 0x20, 0xe4, 0xe9, 0x3e,
    0x59, 0x16, 0x83, 0xbe, 0x06, 0x7c, 0xed, 0xbe, 0xf0, 0x35, 0x13, 0xbf,
    0x4d, 0x84, 0xe4, 0xbe, 0x57, 0x1a, 0x10, 0x3e, 0xb7, 0x4b, 0x2c, 0xbf,
    0x09, 0xde, 0x0e, 0xbf, 0xed, 0xa5, 0x30, 0xbf, 0x2c, 0x60, 0xaf, 0xbd,
    0x76, 0xaf, 0xdf, 0x3e, 0xc0, 0x4c, 0x4a, 0x3c, 0xc2, 0xc0, 0x82, 0x3e,
    0x02, 0x51, 0xe9, 0x3e, 0x8f, 0xd5, 0xdf, 0x3e, 0x02, 0x2f, 0x85, 0xbe,
    0x98, 0xea, 0x07, 0xbf, 0x9f, 0xcd, 0x12, 0xbe, 0xab, 0x95, 0x13, 0x3f,
    0x9e, 0x26, 0x88, 0xbe, 0xc2, 0xae, 0xb7, 0x3e, 0xec, 0x0a, 0xa7, 0xbe,
    0xcd, 0x93, 0x13, 0xbe, 0xcb, 0x7a, 0x92, 0xbe, 0x9c, 0x69, 0x82, 0xbe,
    0xf6, 0x30, 0x1c, 0xbf, 0xc5, 0x9e, 0x8b, 0xbe, 0xe0, 0x9f, 0x9a, 0xbc,
    0x39, 0xf6, 0x75, 0x3e, 0x62, 0x24, 0xed, 0xbd, 0x0f, 0x29, 0x04, 0x3e,
    0x70, 0x70, 0x83, 0x3c, 0xf7, 0x42, 0xbd, 0x3e, 0xbf, 0x76, 0x8d, 0xbe,
    0x98, 0xbf, 0x64, 0xbe, 0xc5, 0x34, 0x0b, 0x3e, 0x2b, 0x57, 0x0e, 0xbf,
    0xca, 0xfb, 0xff, 0xff, 0x04, 0x00, 0x00, 0x00, 0x80, 0x00, 0x00, 0x00,
    0x0f, 0xc6, 0x45, 0x3e, 0x91, 0x32, 0xa6, 0x3e, 0xfb, 0x8c, 0x3b, 0xbe,
    0x87, 0x33, 0xda, 0xbe, 0x0f, 0xae, 0x1b, 0xbf, 0x93, 0x8f, 0x13, 0xbf,
    0x32, 0xb6, 0x01, 0xbf, 0x3a, 0x2e, 0x65, 0xbc, 0x27, 0xe9, 0xd7, 0x3c,
    0x3f, 0xa6, 0xb0, 0xbe, 0xe8, 0x1d, 0x3f, 0x3f, 0x47, 0xc9, 0xe6, 0xbe,
    0xfb, 0xd3, 0xf8, 0x3e, 0xf7, 0xaa, 0x8b, 0xbd, 0xf4, 0x15, 0x0c, 0xbd,
    0xc6, 0x7b, 0xc7, 0x3e, 0x9b, 0x4f, 0x3b, 0x3e, 0x2c, 0xe3, 0x60, 0x3e,
    0xb9, 0x08, 0x13, 0xbf, 0x17, 0x92, 0x11, 0x3e, 0x0f, 0xad, 0xad, 0x3e,
    0xa3, 0x3d, 0xf8, 0xbe, 0xb0, 0xe1, 0xb6, 0x3e, 0x78, 0x5a, 0x06, 0xbf,
    0x3e, 0xde, 0x0d, 0xbe, 0x39, 0x9a, 0xa0, 0xbe, 0xf3, 0x31, 0xfb, 0xbe,
    0xa1, 0xa2, 0xba, 0x3e, 0x13, 0x4e, 0x8c, 0xbe, 0x52, 0x36, 0xd8, 0x3e,
    0x68, 0x78, 0x8c, 0x3e, 0x79, 0x0d, 0x02, 0xbf, 0x56, 0xfc, 0xff, 0xff,
    0x04, 0x00, 0x00, 0x00, 0x00, 0x02, 0x00, 0x00, 0xb0, 0xa3, 0x2b, 0xbe,
    0xd0, 0x46, 0xca, 0x3c, 0x22, 0x3e, 0x09, 0x3f, 0xed, 0xf0, 0xa3, 0x3e,
    0x5b, 0x46, 0x70, 0x3b, 0x7d, 0x1e, 0xa4, 0x3e, 0xf4, 0xe3, 0x5e, 0xbe,
    0xca, 0x6c, 0xc6, 0x3e, 0xad, 0x50, 0xc8, 0x3e, 0x35, 0x5a, 0xca, 0xbe,
    0x5c, 0xef, 0xe8, 0x3e, 0x95, 0x44, 0xda, 0xbd, 0x9d, 0x5a, 0x51, 0x3e,
    0xab, 0xb0, 0xbc, 0x3d, 0x71, 0x00, 0x8b, 0x3e, 0x2a, 0xf5, 0xd2, 0x3e,
    0x31, 0x65, 0x3e, 0x3e, 0xfd, 0x07, 0x87, 0xbd, 0x21, 0x1e, 0x0a, 0x3d,
    0xca, 0x0b, 0x5f, 0x3d, 0xa6, 0xf8, 0x2f, 0x3e, 0x9f, 0x18, 0x2d, 0xbd,
    0xb6, 0xe2, 0x66, 0x3e, 0x0e, 0x81, 0x48, 0x3e, 0x1e, 0x65, 0x16, 0x3e,
    0x9d, 0xaa, 0x4b, 0x3e, 0x2e, 0xac, 0x26, 0xbe, 0x81, 0x9c, 0xd7, 0xbe,
    0xd0, 0x1f, 0x28, 0xbe, 0x36, 0x76, 0x51, 0x3e, 0x04, 0x22, 0x3b, 0x3e,
    0xd9, 0xb9, 0x91, 0xbd, 0x54, 0xe2, 0xca, 0x3e, 0x15, 0x34, 0xa0, 0xbe,
    0x17, 0xe5, 0xc0, 0x3a, 0x0d, 0x84, 0xe6, 0xbd, 0x97, 0x75, 0x4a, 0xbe,
    0x19, 0x71, 0xeb, 0x3d, 0xea, 0x7a, 0xd6, 0x3e, 0x4d, 0x69, 0xdf, 0x3e,
    0x83, 0xcb, 0x50, 0xbe, 0x92, 0xdb, 0x05, 0xbe, 0xf2, 0x75, 0x03, 0x3f,
    0xcf, 0x8a, 0x02, 0x3f, 0xb0, 0x78, 0x96, 0xbe, 0x84, 0x66, 0x2a, 0xbe,
    0xe6, 0x96, 0xf1, 0xbe, 0xaa, 0x60, 0xaf, 0x3d, 0x31, 0x84, 0x88, 0x3e,
    0x3e, 0xf3, 0xc4, 0xbe, 0x61, 0x5c, 0x24, 0xbe, 0x2c, 0x14, 0x12, 0xbe,
    0x6d, 0x78, 0xe2, 0xbd, 0x71, 0xce, 0xa3, 0x3e, 0xba, 0x3e, 0x54, 0xbe,
    0xed, 0x98, 0x73, 0x3e, 0x1d, 0x03, 0xaa, 0x3e, 0x9d, 0x2c, 0xcc, 0x3e,
    0x20, 0x7f, 0xcd, 0x3e, 0xcd, 0xb8, 0xc8, 0xbe, 0xd5, 0x58, 0x73, 0xbe,
    0x30, 0xf8, 0x33, 0xbe, 0x05, 0xa5, 0xb2, 0x3e, 0x54, 0x41, 0x00, 0x3f,
    0xee, 0x1d, 0x2a, 0xbe, 0xda, 0xfb, 0x8e, 0x3e, 0x16, 0xc2, 0xde, 0x3d,
    0x14, 0x4e, 0x9e, 0xbc, 0xac, 0xf1, 0x27, 0xbe, 0x8c, 0xa7, 0x53, 0x3c,
    0x81, 0xac, 0xe6, 0xbe, 0xa5, 0x24, 0x4e, 0x3d, 0xa4, 0x39, 0x1f, 0xbc,
    0x1c, 0xb4, 0xf1, 0xbc, 0x6d, 0x6d, 0x80, 0x3e, 0x86, 0x58, 0x21, 0x3d,
    0x7e, 0xec, 0xef, 0xbe, 0x48, 0x25, 0xb3, 0x3e, 0xef, 0x47, 0xc9, 0x3c,
    0x04, 0xd1, 0xef, 0x3e, 0x9f, 0x89, 0x87, 0xbe, 0xea, 0xcf, 0xf6, 0x3e,
    0xb9, 0xcc, 0x37, 0x3e, 0x97, 0xa7, 0xac, 0x3e, 0x88, 0xf8, 0x7e, 0x3d,
    0x28, 0x1c, 0xcd, 0xbe, 0x4a, 0x3b, 0xfc, 0x3e, 0x3e, 0xa1, 0xeb, 0xbd,
    0x7a, 0x02, 0x62, 0xbe, 0x6a, 0xe2, 0x86, 0x3e, 0x3f, 0xf6, 0x2a, 0x3d,
    0xa2, 0xb3, 0x2f, 0xbe, 0x48, 0x26, 0x91, 0x3e, 0x9e, 0xe6, 0xb7, 0xbe,
    0x23, 0x72, 0x44, 0x3e, 0xc3, 0xfe, 0x87, 0xbe, 0x66, 0x9e, 0x83, 0x3d,
    0x7e, 0x10, 0x80, 0xbd, 0x89, 0xfb, 0x13, 0xbe, 0x0d, 0x3d, 0x14, 0x3e,
    0xb6, 0xc7, 0xba, 0xbe, 0xe0, 0x99, 0xd5, 0xbe, 0xb4, 0xf2, 0xa5, 0x3d,
    0x1a, 0x32, 0x8f, 0xbe, 0x06, 0x3e, 0x28, 0x3e, 0xe5, 0x79, 0xdc, 0xbd,
    0x3d, 0x47, 0x5a, 0xbd, 0x6d, 0xc8, 0x8b, 0xbe, 0x0f, 0x81, 0x09, 0x3d,
    0x06, 0x35, 0x2e, 0x3e, 0x51, 0x74, 0xca, 0xbe, 0x48, 0x9b, 0x8d, 0xbe,
    0xe3, 0x54, 0x6d, 0x3e, 0x71, 0xdf, 0x17, 0xbe, 0x7a, 0xc4, 0x85, 0xbe,
    0xcd, 0x3b, 0x85, 0x3e, 0x62, 0x6e, 0x15, 0x3e, 0x31, 0x78, 0xd5, 0x3e,
    0xc1, 0xbb, 0x0a, 0x3e, 0x64, 0x6a, 0x10, 0x3f, 0x24, 0xef, 0xb1, 0x3e,
    0x27, 0xde, 0x84, 0xbd, 0x97, 0xf5, 0x88, 0xbe, 0xa4, 0x3c, 0x84, 0xbe,
    0x7e, 0x44, 0xa4, 0xbe, 0x4c, 0x1a, 0x0b, 0xbe, 0x11, 0x68, 0xba, 0x3e,
    0xc1, 0xa2, 0xfb, 0x3e, 0x62, 0xfe, 0xff, 0xff, 0x04, 0x00, 0x00, 0x00,
    0x10, 0x00, 0x00, 0x00, 0x01, 0x00, 0x00, 0x00, 0x01, 0x00, 0x00, 0x00,
    0x0a, 0x00, 0x00, 0x00, 0x02, 0x00, 0x00, 0x00, 0x7e, 0xfe, 0xff, 0xff,
    0x04, 0x00, 0x00, 0x00, 0x0c, 0x00, 0x00, 0x00, 0x01, 0x00, 0x00, 0x00,
    0x08, 0x00, 0x00, 0x00, 0x08, 0x00, 0x00, 0x00, 0x96, 0xfe, 0xff, 0xff,
    0x04, 0x00, 0x00, 0x00, 0x10, 0x00, 0x00, 0x00, 0xea, 0x55, 0x56, 0x3d,
    0x2a, 0xa1, 0x1e, 0x3e, 0xe8, 0x01, 0xd5, 0xbd, 0xa1, 0x4d, 0xf5, 0xbd,
    0xb2, 0xfe, 0xff, 0xff, 0x04, 0x00, 0x00, 0x00, 0x20, 0x00, 0x00, 0x00,
    0xb4, 0x4a, 0x10, 0x3e, 0xdc, 0x9a, 0xc6, 0x3d, 0xb8, 0xf1, 0xda, 0x3d,
    0xe8, 0x6e, 0x49, 0xbd, 0xa0, 0x0a, 0xe7, 0xbd, 0x87, 0xba, 0x27, 0x3e,
    0x6e, 0xa0, 0x3e, 0x3e, 0xff, 0x6f, 0xf6, 0x3d, 0xde, 0xfe, 0xff, 0xff,
    0x04, 0x00, 0x00, 0x00, 0x20, 0x00, 0x00, 0x00, 0x05, 0xcf, 0x8f, 0x3d,
    0xea, 0x72, 0x17, 0x3e, 0x06, 0xc8, 0x0e, 0x3e, 0x12, 0x2b, 0x2a, 0x3e,
    0x3c, 0x40, 0xd6, 0x3d, 0x47, 0x3c, 0x7a, 0x3d, 0x0a, 0x0d, 0x26, 0xbd,
    0x6d, 0x0b, 0x26, 0x3e, 0x0a, 0xff, 0xff, 0xff, 0x04, 0x00, 0x00, 0x00,
    0x40, 0x00, 0x00, 0x00, 0x3e, 0xce, 0x3c, 0x3d, 0xc2, 0x91, 0x21, 0x3e,
    0x7b, 0x22, 0x1e, 0x3e, 0xef, 0xe4, 0xff, 0x3d, 0x7d, 0x53, 0xfb, 0x3d,
    0xf7, 0xf8, 0x85, 0xbd, 0x00, 0x00, 0x00, 0x00, 0xb2, 0x0e, 0x8c, 0x3c,
    0x9c, 0xc6, 0x5a, 0xbc, 0xe0, 0x69, 0xcc, 0xbd, 0x27, 0x45, 0xcc, 0x3d,
    0x99, 0x1a, 0x89, 0xbd, 0x82, 0xe4, 0xfb, 0xbc, 0xe1, 0x75, 0x3f, 0xbd,
    0xd8, 0x42, 0x1c, 0xba, 0x17, 0x0d, 0x84, 0xbd, 0x20, 0xf4, 0xff, 0xff,
    0x24, 0xf4, 0xff, 0xff, 0x0f, 0x00, 0x00, 0x00, 0x4d, 0x4c, 0x49, 0x52,
    0x20, 0x43, 0x6f, 0x6e, 0x76, 0x65, 0x72, 0x74, 0x65, 0x64, 0x2e, 0x00,
    0x01, 0x00, 0x00, 0x00, 0x14, 0x00, 0x00, 0x00, 0x00, 0x00, 0x0e, 0x00,
    0x18, 0x00, 0x14, 0x00, 0x10, 0x00, 0x0c, 0x00, 0x08, 0x00, 0x04, 0x00,
    0x0e, 0x00, 0x00, 0x00, 0x14, 0x00, 0x00, 0x00, 0x1c, 0x00, 0x00, 0x00,
    0x7c, 0x02, 0x00, 0x00, 0x80, 0x02, 0x00, 0x00, 0x84, 0x02, 0x00, 0x00,
    0x04, 0x00, 0x00, 0x00, 0x6d, 0x61, 0x69, 0x6e, 0x00, 0x00, 0x00, 0x00,
    0x09, 0x00, 0x00, 0x00, 0x20, 0x02, 0x00, 0x00, 0xe8, 0x01, 0x00, 0x00,
    0x88, 0x01, 0x00, 0x00, 0x30, 0x01, 0x00, 0x00, 0x08, 0x01, 0x00, 0x00,
    0xd4, 0x00, 0x00, 0x00, 0x94, 0x00, 0x00, 0x00, 0x60, 0x00, 0x00, 0x00,
    0x14, 0x00, 0x00, 0x00, 0x00, 0x00, 0x0e, 0x00, 0x1a, 0x00, 0x14, 0x00,
    0x10, 0x00, 0x0c, 0x00, 0x0b, 0x00, 0x04, 0x00, 0x0e, 0x00, 0x00, 0x00,
    0x1c, 0x00, 0x00, 0x00, 0x00, 0x00, 0x00, 0x09, 0x1c, 0x00, 0x00, 0x00,
    0x20, 0x00, 0x00, 0x00, 0x04, 0x00, 0x00, 0x00, 0x00, 0x00, 0x06, 0x00,
    0x08, 0x00, 0x04, 0x00, 0x06, 0x00, 0x00, 0x00, 0x00, 0x00, 0x80, 0x3f,
    0x01, 0x00, 0x00, 0x00, 0x16, 0x00, 0x00, 0x00, 0x01, 0x00, 0x00, 0x00,
    0x15, 0x00, 0x00, 0x00, 0x00, 0x00, 0x0e, 0x00, 0x14, 0x00, 0x00, 0x00,
    0x10, 0x00, 0x0c, 0x00, 0x0b, 0x00, 0x04, 0x00, 0x0e, 0x00, 0x00, 0x00,
    0x10, 0x00, 0x00, 0x00, 0x00, 0x00, 0x00, 0x08, 0x0c, 0x00, 0x00, 0x00,
    0x10, 0x00, 0x00, 0x00, 0x0c, 0xf5, 0xff, 0xff, 0x01, 0x00, 0x00, 0x00,
    0x15, 0x00, 0x00, 0x00, 0x03, 0x00, 0x00, 0x00, 0x14, 0x00, 0x00, 0x00,
    0x09, 0x00, 0x00, 0x00, 0x04, 0x00, 0x00, 0x00, 0x9a, 0xfe, 0xff, 0xff,
    0x18, 0x00, 0x00, 0x00, 0x00, 0x00, 0x00, 0x08, 0x18, 0x00, 0x00, 0x00,
    0x1c, 0x00, 0x00, 0x00, 0x00, 0x00, 0x06, 0x00, 0x08, 0x00, 0x07, 0x00,
    0x06, 0x00, 0x00, 0x00, 0x00, 0x00, 0x00, 0x01, 0x01, 0x00, 0x00, 0x00,
    0x14, 0x00, 0x00, 0x00, 0x03, 0x00, 0x00, 0x00, 0x13, 0x00, 0x00, 0x00,
    0x0a, 0x00, 0x00, 0x00, 0x01, 0x00, 0x00, 0x00, 0x66, 0xff, 0xff, 0xff,
    0x14, 0x00, 0x00, 0x00, 0x00, 0x00, 0x00, 0x1b, 0x10, 0x00, 0x00, 0x00,
    0x14, 0x00, 0x00, 0x00, 0x03, 0x00, 0x00, 0x00, 0x7c, 0xf5, 0xff, 0xff,
    0x01, 0x00, 0x00, 0x00, 0x13, 0x00, 0x00, 0x00, 0x02, 0x00, 0x00, 0x00,
    0x12, 0x00, 0x00, 0x00, 0x0b, 0x00, 0x00, 0x00, 0x36, 0xff, 0xff, 0xff,
    0x0c, 0x00, 0x00, 0x00, 0x10, 0x00, 0x00, 0x00, 0x01, 0x00, 0x00, 0x00,
    0x01, 0x00, 0x00, 0x00, 0x12, 0x00, 0x00, 0x00, 0x02, 0x00, 0x00, 0x00,
    0x11, 0x00, 0x00, 0x00, 0x05, 0x00, 0x00, 0x00, 0xba, 0xff, 0xff, 0xff,
    0x14, 0x00, 0x00, 0x00, 0x00, 0x00, 0x00, 0x01, 0x20, 0x00, 0x00, 0x00,
    0x24, 0x00, 0x00, 0x00, 0x02, 0x00, 0x00, 0x00, 0xac, 0xff, 0xff, 0xff,
    0x00, 0x00, 0x00, 0x01, 0x01, 0x00, 0x00, 0x00, 0x01, 0x00, 0x00, 0x00,
    0x00, 0x00, 0x00, 0x01, 0x01, 0x00, 0x00, 0x00, 0x11, 0x00, 0x00, 0x00,
    0x03, 0x00, 0x00, 0x00, 0x10, 0x00, 0x00, 0x00, 0x07, 0x00, 0x00, 0x00,
    0x02, 0x00, 0x00, 0x00, 0x00, 0x00, 0x0e, 0x00, 0x18, 0x00, 0x14, 0x00,
    0x10, 0x00, 0x0c, 0x00, 0x0b, 0x00, 0x04, 0x00, 0x0e, 0x00, 0x00, 0x00,
    0x20, 0x00, 0x00, 0x00, 0x00, 0x00, 0x00, 0x01, 0x2c, 0x00, 0x00, 0x00,
    0x30, 0x00, 0x00, 0x00, 0x02, 0x00, 0x00, 0x00, 0x0c, 0x00, 0x14, 0x00,
    0x13, 0x00, 0x0c, 0x00, 0x08, 0x00, 0x07, 0x00, 0x0c, 0x00, 0x00, 0x00,
    0x00, 0x00, 0x00, 0x01, 0x01, 0x00, 0x00, 0x00, 0x01, 0x00, 0x00, 0x00,
    0x00, 0x00, 0x00, 0x01, 0x01, 0x00, 0x00, 0x00, 0x10, 0x00, 0x00, 0x00,
    0x03, 0x00, 0x00, 0x00, 0x0f, 0x00, 0x00, 0x00, 0x08, 0x00, 0x00, 0x00,
    0x03, 0x00, 0x00, 0x00, 0x00, 0x00, 0x0a, 0x00, 0x10, 0x00, 0x0c, 0x00,
    0x08, 0x00, 0x04, 0x00, 0x0a, 0x00, 0x00, 0x00, 0x0c, 0x00, 0x00, 0x00,
    0x10, 0x00, 0x00, 0x00, 0x01, 0x00, 0x00, 0x00, 0x01, 0x00, 0x00, 0x00,
    0x0f, 0x00, 0x00, 0x00, 0x02, 0x00, 0x00, 0x00, 0x0e, 0x00, 0x00, 0x00,
    0x06, 0x00, 0x00, 0x00, 0x00, 0x00, 0x0e, 0x00, 0x16, 0x00, 0x00, 0x00,
    0x10, 0x00, 0x0c, 0x00, 0x0b, 0x00, 0x04, 0x00, 0x0e, 0x00, 0x00, 0x00,
    0x1c, 0x00, 0x00, 0x00, 0x00, 0x00, 0x00, 0x08, 0x1c, 0x00, 0x00, 0x00,
    0x20, 0x00, 0x00, 0x00, 0x00, 0x00, 0x0a, 0x00, 0x08, 0x00, 0x00, 0x00,
    0x00, 0x00, 0x07, 0x00, 0x0a, 0x00, 0x00, 0x00, 0x00, 0x00, 0x00, 0x01,
    0x01, 0x00, 0x00, 0x00, 0x0e, 0x00, 0x00, 0x00, 0x03, 0x00, 0x00, 0x00,
    0x00, 0x00, 0x00, 0x00, 0x0c, 0x00, 0x00, 0x00, 0x0d, 0x00, 0x00, 0x00,
    0x01, 0x00, 0x00, 0x00, 0x16, 0x00, 0x00, 0x00, 0x01, 0x00, 0x00, 0x00,
    0x00, 0x00, 0x00, 0x00, 0x17, 0x00, 0x00, 0x00, 0xf8, 0x08, 0x00, 0x00,
    0xa4, 0x08, 0x00, 0x00, 0x68, 0x08, 0x00, 0x00, 0x2c, 0x08, 0x00, 0x00,
    0xf0, 0x07, 0x00, 0x00, 0xb0, 0x07, 0x00, 0x00, 0x58, 0x07, 0x00, 0x00,
    0x10, 0x07, 0x00, 0x00, 0xc8, 0x06, 0x00, 0x00, 0x88, 0x06, 0x00, 0x00,
    0x48, 0x06, 0x00, 0x00, 0x08, 0x06, 0x00, 0x00, 0xb4, 0x05, 0x00, 0x00,
    0x64, 0x05, 0x00, 0x00, 0xe8, 0x04, 0x00, 0x00, 0x7c, 0x04, 0x00, 0x00,
    0x80, 0x03, 0x00, 0x00, 0x84, 0x02, 0x00, 0x00, 0xb4, 0x01, 0x00, 0x00,
    0x50, 0x01, 0x00, 0x00, 0xb8, 0x00, 0x00, 0x00, 0x40, 0x00, 0x00, 0x00,
    0x04, 0x00, 0x00, 0x00, 0x7a, 0xf7, 0xff, 0xff, 0x00, 0x00, 0x00, 0x01,
    0x10, 0x00, 0x00, 0x00, 0x10, 0x00, 0x00, 0x00, 0x17, 0x00, 0x00, 0x00,
    0x18, 0x00, 0x00, 0x00, 0x64, 0xf7, 0xff, 0xff, 0x08, 0x00, 0x00, 0x00,
    0x49, 0x64, 0x65, 0x6e, 0x74, 0x69, 0x74, 0x79, 0x00, 0x00, 0x00, 0x00,
    0x02, 0x00, 0x00, 0x00, 0x01, 0x00, 0x00, 0x00, 0x04, 0x00, 0x00, 0x00,
    0xb2, 0xf7, 0xff, 0xff, 0x00, 0x00, 0x00, 0x01, 0x10, 0x00, 0x00, 0x00,
    0x10, 0x00, 0x00, 0x00, 0x16, 0x00, 0x00, 0x00, 0x54, 0x00, 0x00, 0x00,
    0x9c, 0xf7, 0xff, 0xff, 0x44, 0x00, 0x00, 0x00, 0x73, 0x65, 0x71, 0x75,
    0x65, 0x6e, 0x74, 0x69, 0x61, 0x6c, 0x5f, 0x31, 0x32, 0x5f, 0x31, 0x2f,
    0x64, 0x65, 0x6e, 0x73, 0x65, 0x5f, 0x33, 0x38, 0x5f, 0x31, 0x2f, 0x4d,
    0x61, 0x74, 0x4d, 0x75, 0x6c, 0x3b, 0x73, 0x65, 0x71, 0x75, 0x65, 0x6e,
    0x74, 0x69, 0x61, 0x6c, 0x5f, 0x31, 0x32, 0x5f, 0x31, 0x2f, 0x64, 0x65,
    0x6e, 0x73, 0x65, 0x5f, 0x33, 0x38, 0x5f, 0x31, 0x2f, 0x42, 0x69, 0x61,
    0x73, 0x41, 0x64, 0x64, 0x00, 0x00, 0x00, 0x00, 0x02, 0x00, 0x00, 0x00,
    0x01, 0x00, 0x00, 0x00, 0x04, 0x00, 0x00, 0x00, 0x26, 0xf8, 0xff, 0xff,
    0x00, 0x00, 0x00, 0x01, 0x10, 0x00, 0x00, 0x00, 0x10, 0x00, 0x00, 0x00,
    0x15, 0x00, 0x00, 0x00, 0x74, 0x00, 0x00, 0x00, 0x10, 0xf8, 0xff, 0xff,
    0x64, 0x00, 0x00, 0x00, 0x73, 0x65, 0x71, 0x75, 0x65, 0x6e, 0x74, 0x69,
    0x61, 0x6c, 0x5f, 0x31, 0x32, 0x5f, 0x31, 0x2f, 0x64, 0x65, 0x6e, 0x73,
    0x65, 0x5f, 0x33, 0x37, 0x5f, 0x31, 0x2f, 0x4d, 0x61, 0x74, 0x4d, 0x75,
    0x6c, 0x3b, 0x73, 0x65, 0x71, 0x75, 0x65, 0x6e, 0x74, 0x69, 0x61, 0x6c,
    0x5f, 0x31, 0x32, 0x5f, 0x31, 0x2f, 0x64, 0x65, 0x6e, 0x73, 0x65, 0x5f,
    0x33, 0x37, 0x5f, 0x31, 0x2f, 0x52, 0x65, 0x6c, 0x75, 0x3b, 0x73, 0x65,
    0x71, 0x75, 0x65, 0x6e, 0x74, 0x69, 0x61, 0x6c, 0x5f, 0x31, 0x32, 0x5f,
    0x31, 0x2f, 0x64, 0x65, 0x6e, 0x73, 0x65, 0x5f, 0x33, 0x37, 0x5f, 0x31,
    0x2f, 0x42, 0x69, 0x61, 0x73, 0x41, 0x64, 0x64, 0x00, 0x00, 0x00, 0x00,
    0x02, 0x00, 0x00, 0x00, 0x01, 0x00, 0x00, 0x00, 0x10, 0x00, 0x00, 0x00,
    0xba, 0xf8, 0xff, 0xff, 0x00, 0x00, 0x00, 0x01, 0x10, 0x00, 0x00, 0x00,
    0x10, 0x00, 0x00, 0x00, 0x14, 0x00, 0x00, 0x00, 0x40, 0x00, 0x00, 0x00,
    0xa4, 0xf8, 0xff, 0xff, 0x32, 0x00, 0x00, 0x00, 0x73, 0x65, 0x71, 0x75,
    0x65, 0x6e, 0x74, 0x69, 0x61, 0x6c, 0x5f, 0x31, 0x32, 0x5f, 0x31, 0x2f,
    0x67, 0x6c, 0x6f, 0x62, 0x61, 0x6c, 0x5f, 0x61, 0x76, 0x65, 0x72, 0x61,
    0x67, 0x65, 0x5f, 0x70, 0x6f, 0x6f, 0x6c, 0x69, 0x6e, 0x67, 0x31, 0x64,
    0x5f, 0x31, 0x32, 0x5f, 0x31, 0x2f, 0x4d, 0x65, 0x61, 0x6e, 0x00, 0x00,
    0x02, 0x00, 0x00, 0x00, 0x01, 0x00, 0x00, 0x00, 0x08, 0x00, 0x00, 0x00,
    0x1a, 0xf9, 0xff, 0xff, 0x00, 0x00, 0x00, 0x01, 0x10, 0x00, 0x00, 0x00,
    0x10, 0x00, 0x00, 0x00, 0x13, 0x00, 0x00, 0x00, 0xa8, 0x00, 0x00, 0x00,
    0x04, 0xf9, 0xff, 0xff, 0x98, 0x00, 0x00, 0x00, 0x73, 0x65, 0x71, 0x75,
    0x65, 0x6e, 0x74, 0x69, 0x61, 0x6c, 0x5f, 0x31, 0x32, 0x5f, 0x31, 0x2f,
    0x63, 0x6f, 0x6e, 0x76, 0x31, 0x64, 0x5f, 0x32, 0x35, 0x5f, 0x31, 0x2f,
    0x52, 0x65, 0x6c, 0x75, 0x3b, 0x73, 0x65, 0x71, 0x75, 0x65, 0x6e, 0x74,
    0x69, 0x61, 0x6c, 0x5f, 0x31, 0x32, 0x5f, 0x31, 0x2f, 0x63, 0x6f, 0x6e,
    0x76, 0x31, 0x64, 0x5f, 0x32, 0x35, 0x5f, 0x31, 0x2f, 0x42, 0x69, 0x61,
    0x73, 0x41, 0x64, 0x64, 0x3b, 0x73, 0x65, 0x71, 0x75, 0x65, 0x6e, 0x74,
    0x69, 0x61, 0x6c, 0x5f, 0x31, 0x32, 0x5f, 0x31, 0x2f, 0x63, 0x6f, 0x6e,
    0x76, 0x31, 0x64, 0x5f, 0x32, 0x35, 0x5f, 0x31, 0x2f, 0x63, 0x6f, 0x6e,
    0x76, 0x6f, 0x6c, 0x75, 0x74, 0x69, 0x6f, 0x6e, 0x2f, 0x53, 0x71, 0x75,
    0x65, 0x65, 0x7a, 0x65, 0x3b, 0x73, 0x65, 0x71, 0x75, 0x65, 0x6e, 0x74,
    0x69, 0x61, 0x6c, 0x5f, 0x31, 0x32, 0x5f, 0x31, 0x2f, 0x63, 0x6f, 0x6e,
    0x76, 0x31, 0x64, 0x5f, 0x32, 0x35, 0x5f, 0x31, 0x2f, 0x53, 0x71, 0x75,
    0x65, 0x65, 0x7a, 0x65, 0x00, 0x00, 0x00, 0x00, 0x03, 0x00, 0x00, 0x00,
    0x01, 0x00, 0x00, 0x00, 0x08, 0x00, 0x00, 0x00, 0x08, 0x00, 0x00, 0x00,
    0xe6, 0xf9, 0xff, 0xff, 0x00, 0x00, 0x00, 0x01, 0x10, 0x00, 0x00, 0x00,
    0x10, 0x00, 0x00, 0x00, 0x12, 0x00, 0x00, 0x00, 0xd0, 0x00, 0x00, 0x00,
    0xd0, 0xf9, 0xff, 0xff, 0xc0, 0x00, 0x00, 0x00, 0x73, 0x65, 0x71, 0x75,
    0x65, 0x6e, 0x74, 0x69, 0x61, 0x6c, 0x5f, 0x31, 0x32, 0x5f, 0x31, 0x2f,
    0x63, 0x6f, 0x6e, 0x76, 0x31, 0x64, 0x5f, 0x32, 0x35, 0x5f, 0x31, 0x2f,
    0x52, 0x65, 0x6c, 0x75, 0x3b, 0x73, 0x65, 0x71, 0x75, 0x65, 0x6e, 0x74,
    0x69, 0x61, 0x6c, 0x5f, 0x31, 0x32, 0x5f, 0x31, 0x2f, 0x63, 0x6f, 0x6e,
    0x76, 0x31, 0x64, 0x5f, 0x32, 0x35, 0x5f, 0x31, 0x2f, 0x42, 0x69, 0x61,
    0x73, 0x41, 0x64, 0x64, 0x3b, 0x73, 0x65, 0x71, 0x75, 0x65, 0x6e, 0x74,
    0x69, 0x61, 0x6c, 0x5f, 0x31, 0x32, 0x5f, 0x31, 0x2f, 0x63, 0x6f, 0x6e,
    0x76, 0x31, 0x64, 0x5f, 0x32, 0x35, 0x5f, 0x31, 0x2f, 0x63, 0x6f, 0x6e,
    0x76, 0x6f, 0x6c, 0x75, 0x74, 0x69, 0x6f, 0x6e, 0x2f, 0x53, 0x71, 0x75,
    0x65, 0x65, 0x7a, 0x65, 0x3b, 0x73, 0x65, 0x71, 0x75, 0x65, 0x6e, 0x74,
    0x69, 0x61, 0x6c, 0x5f, 0x31, 0x32, 0x5f, 0x31, 0x2f, 0x63, 0x6f, 0x6e,
    0x76, 0x31, 0x64, 0x5f, 0x32, 0x35, 0x5f, 0x31, 0x2f, 0x53, 0x71, 0x75,
    0x65, 0x65, 0x7a, 0x65, 0x3b, 0x73, 0x65, 0x71, 0x75, 0x65, 0x6e, 0x74,
    0x69, 0x61, 0x6c, 0x5f, 0x31, 0x32, 0x5f, 0x31, 0x2f, 0x63, 0x6f, 0x6e,
    0x76, 0x31, 0x64, 0x5f, 0x32, 0x35, 0x5f, 0x31, 0x2f, 0x63, 0x6f, 0x6e,
    0x76, 0x6f, 0x6c, 0x75, 0x74, 0x69, 0x6f, 0x6e, 0x00, 0x00, 0x00, 0x00,
    0x04, 0x00, 0x00, 0x00, 0x01, 0x00, 0x00, 0x00, 0x01, 0x00, 0x00, 0x00,
    0x08, 0x00, 0x00, 0x00, 0x08, 0x00, 0x00, 0x00, 0xde, 0xfa, 0xff, 0xff,
    0x00, 0x00, 0x00, 0x01, 0x10, 0x00, 0x00, 0x00, 0x10, 0x00, 0x00, 0x00,
    0x11, 0x00, 0x00, 0x00, 0xd0, 0x00, 0x00, 0x00, 0xc8, 0xfa, 0xff, 0xff,
    0xc0, 0x00, 0x00, 0x00, 0x73, 0x65, 0x71, 0x75, 0x65, 0x6e, 0x74, 0x69,
    0x61, 0x6c, 0x5f, 0x31, 0x32, 0x5f, 0x31, 0x2f, 0x63, 0x6f, 0x6e, 0x76,
    0x31, 0x64, 0x5f, 0x32, 0x34, 0x5f, 0x31, 0x2f, 0x52, 0x65, 0x6c, 0x75,
    0x3b, 0x73, 0x65, 0x71, 0x75, 0x65, 0x6e, 0x74, 0x69, 0x61, 0x6c, 0x5f,
    0x31, 0x32, 0x5f, 0x31, 0x2f, 0x63, 0x6f, 0x6e, 0x76, 0x31, 0x64, 0x5f,
    0x32, 0x34, 0x5f, 0x31, 0x2f, 0x42, 0x69, 0x61, 0x73, 0x41, 0x64, 0x64,
    0x3b, 0x73, 0x65, 0x71, 0x75, 0x65, 0x6e, 0x74, 0x69, 0x61, 0x6c, 0x5f,
    0x31, 0x32, 0x5f, 0x31, 0x2f, 0x63, 0x6f, 0x6e, 0x76, 0x31, 0x64, 0x5f,
    0x32, 0x34, 0x5f, 0x31, 0x2f, 0x63, 0x6f, 0x6e, 0x76, 0x6f, 0x6c, 0x75,
    0x74, 0x69, 0x6f, 0x6e, 0x2f, 0x53, 0x71, 0x75, 0x65, 0x65, 0x7a, 0x65,
    0x3b, 0x73, 0x65, 0x71, 0x75, 0x65, 0x6e, 0x74, 0x69, 0x61, 0x6c, 0x5f,
    0x31, 0x32, 0x5f, 0x31, 0x2f, 0x63, 0x6f, 0x6e, 0x76, 0x31, 0x64, 0x5f,
    0x32, 0x34, 0x5f, 0x31, 0x2f, 0x53, 0x71, 0x75, 0x65, 0x65, 0x7a, 0x65,
    0x3b, 0x73, 0x65, 0x71, 0x75, 0x65, 0x6e, 0x74, 0x69, 0x61, 0x6c, 0x5f,
    0x31, 0x32, 0x5f, 0x31, 0x2f, 0x63, 0x6f, 0x6e, 0x76, 0x31, 0x64, 0x5f,
    0x32, 0x34, 0x5f, 0x31, 0x2f, 0x63, 0x6f, 0x6e, 0x76, 0x6f, 0x6c, 0x75,
    0x74, 0x69, 0x6f, 0x6e, 0x00, 0x00, 0x00, 0x00, 0x04, 0x00, 0x00, 0x00,
    0x01, 0x00, 0x00, 0x00, 0x01, 0x00, 0x00, 0x00, 0x09, 0x00, 0x00, 0x00,
    0x08, 0x00, 0x00, 0x00, 0xd6, 0xfb, 0xff, 0xff, 0x00, 0x00, 0x00, 0x01,
    0x10, 0x00, 0x00, 0x00, 0x10, 0x00, 0x00, 0x00, 0x10, 0x00, 0x00, 0x00,
    0x40, 0x00, 0x00, 0x00, 0xc0, 0xfb, 0xff, 0xff, 0x32, 0x00, 0x00, 0x00,
    0x73, 0x65, 0x71, 0x75, 0x65, 0x6e, 0x74, 0x69, 0x61, 0x6c, 0x5f, 0x31,
    0x32, 0x5f, 0x31, 0x2f, 0x63, 0x6f, 0x6e, 0x76, 0x31, 0x64, 0x5f, 0x32,
    0x34, 0x5f, 0x31, 0x2f, 0x63, 0x6f, 0x6e, 0x76, 0x6f, 0x6c, 0x75, 0x74,
    0x69, 0x6f, 0x6e, 0x2f, 0x45, 0x78, 0x70, 0x61, 0x6e, 0x64, 0x44, 0x69,
    0x6d, 0x73, 0x00, 0x00, 0x04, 0x00, 0x00, 0x00, 0x01, 0x00, 0x00, 0x00,
    0x01, 0x00, 0x00, 0x00, 0x0a, 0x00, 0x00, 0x00, 0x02, 0x00, 0x00, 0x00,
    0x3e, 0xfc, 0xff, 0xff, 0x00, 0x00, 0x00, 0x01, 0x10, 0x00, 0x00, 0x00,
    0x10, 0x00, 0x00, 0x00, 0x0f, 0x00, 0x00, 0x00, 0x54, 0x00, 0x00, 0x00,
    0x28, 0xfc, 0xff, 0xff, 0x44, 0x00, 0x00, 0x00, 0x73, 0x65, 0x71, 0x75,
    0x65, 0x6e, 0x74, 0x69, 0x61, 0x6c, 0x5f, 0x31, 0x32, 0x5f, 0x31, 0x2f,
    0x64, 0x65, 0x6e, 0x73, 0x65, 0x5f, 0x33, 0x36, 0x5f, 0x31, 0x2f, 0x4d,
    0x61, 0x74, 0x4d, 0x75, 0x6c, 0x3b, 0x73, 0x65, 0x71, 0x75, 0x65, 0x6e,
    0x74, 0x69, 0x61, 0x6c, 0x5f, 0x31, 0x32, 0x5f, 0x31, 0x2f, 0x64, 0x65,
    0x6e, 0x73, 0x65, 0x5f, 0x33, 0x36, 0x5f, 0x31, 0x2f, 0x42, 0x69, 0x61,
    0x73, 0x41, 0x64, 0x64, 0x00, 0x00, 0x00, 0x00, 0x03, 0x00, 0x00, 0x00,
    0x01, 0x00, 0x00, 0x00, 0x0a, 0x00, 0x00, 0x00, 0x02, 0x00, 0x00, 0x00,
    0xb6, 0xfc, 0xff, 0xff, 0x00, 0x00, 0x00, 0x01, 0x10, 0x00, 0x00, 0x00,
    0x10, 0x00, 0x00, 0x00, 0x0e, 0x00, 0x00, 0x00, 0x30, 0x00, 0x00, 0x00,
    0xa0, 0xfc, 0xff, 0xff, 0x22, 0x00, 0x00, 0x00, 0x73, 0x65, 0x71, 0x75,
    0x65, 0x6e, 0x74, 0x69, 0x61, 0x6c, 0x5f, 0x31, 0x32, 0x5f, 0x31, 0x2f,
    0x64, 0x65, 0x6e, 0x73, 0x65, 0x5f, 0x33, 0x36, 0x5f, 0x31, 0x2f, 0x42,
    0x69, 0x61, 0x73, 0x41, 0x64, 0x64, 0x00, 0x00, 0x01, 0x00, 0x00, 0x00,
    0x02, 0x00, 0x00, 0x00, 0x02, 0xfd, 0xff, 0xff, 0x00, 0x00, 0x00, 0x01,
    0x10, 0x00, 0x00, 0x00, 0x10, 0x00, 0x00, 0x00, 0x0d, 0x00, 0x00, 0x00,
    0x30, 0x00, 0x00, 0x00, 0xec, 0xfc, 0xff, 0xff, 0x21, 0x00, 0x00, 0x00,
    0x73, 0x65, 0x71, 0x75, 0x65, 0x6e, 0x74, 0x69, 0x61, 0x6c, 0x5f, 0x31,
    0x32, 0x5f, 0x31, 0x2f, 0x64, 0x65, 0x6e, 0x73, 0x65, 0x5f, 0x33, 0x36,
    0x5f, 0x31, 0x2f, 0x4d, 0x61, 0x74, 0x4d, 0x75, 0x6c, 0x00, 0x00, 0x00,
    0x02, 0x00, 0x00, 0x00, 0x02, 0x00, 0x00, 0x00, 0x04, 0x00, 0x00, 0x00,
    0x86, 0xfe, 0xff, 0xff, 0x00, 0x00, 0x00, 0x01, 0x14, 0x00, 0x00, 0x00,
    0x14, 0x00, 0x00, 0x00, 0x0c, 0x00, 0x00, 0x00, 0x00, 0x00, 0x00, 0x02,
    0x20, 0x00, 0x00, 0x00, 0x40, 0xfd, 0xff, 0xff, 0x10, 0x00, 0x00, 0x00,
    0x61, 0x72, 0x69, 0x74, 0x68, 0x2e, 0x63, 0x6f, 0x6e, 0x73, 0x74, 0x61,
    0x6e, 0x74, 0x31, 0x30, 0x00, 0x00, 0x00, 0x00, 0x00, 0x00, 0x00, 0x00,
    0x8e, 0xfd, 0xff, 0xff, 0x00, 0x00, 0x00, 0x01, 0x10, 0x00, 0x00, 0x00,
    0x10, 0x00, 0x00, 0x00, 0x0b, 0x00, 0x00, 0x00, 0x1c, 0x00, 0x00, 0x00,
    0x78, 0xfd, 0xff, 0xff, 0x0f, 0x00, 0x00, 0x00, 0x61, 0x72, 0x69, 0x74,
    0x68, 0x2e, 0x63, 0x6f, 0x6e, 0x73, 0x74, 0x61, 0x6e, 0x74, 0x39, 0x00,
    0x02, 0x00, 0x00, 0x00, 0x10, 0x00, 0x00, 0x00, 0x08, 0x00, 0x00, 0x00,
    0xca, 0xfd, 0xff, 0xff, 0x00, 0x00, 0x00, 0x01, 0x10, 0x00, 0x00, 0x00,
    0x10, 0x00, 0x00, 0x00, 0x0a, 0x00, 0x00, 0x00, 0x1c, 0x00, 0x00, 0x00,
    0xb4, 0xfd, 0xff, 0xff, 0x0f, 0x00, 0x00, 0x00, 0x61, 0x72, 0x69, 0x74,
    0x68, 0x2e, 0x63, 0x6f, 0x6e, 0x73, 0x74, 0x61, 0x6e, 0x74, 0x38, 0x00,
    0x02, 0x00, 0x00, 0x00, 0x04, 0x00, 0x00, 0x00, 0x10, 0x00, 0x00, 0x00,
    0x06, 0xfe, 0xff, 0xff, 0x00, 0x00, 0x00, 0x01, 0x10, 0x00, 0x00, 0x00,
    0x10, 0x00, 0x00, 0x00, 0x09, 0x00, 0x00, 0x00, 0x1c, 0x00, 0x00, 0x00,
    0xf0, 0xfd, 0xff, 0xff, 0x0f, 0x00, 0x00, 0x00, 0x61, 0x72, 0x69, 0x74,
    0x68, 0x2e, 0x63, 0x6f, 0x6e, 0x73, 0x74, 0x61, 0x6e, 0x74, 0x37, 0x00,
    0x04, 0x00, 0x00, 0x00, 0x08, 0x00, 0x00, 0x00, 0x01, 0x00, 0x00, 0x00,
    0x02, 0x00, 0x00, 0x00, 0x02, 0x00, 0x00, 0x00, 0x4a, 0xfe, 0xff, 0xff,
    0x00, 0x00, 0x00, 0x01, 0x10, 0x00, 0x00, 0x00, 0x10, 0x00, 0x00, 0x00,
    0x08, 0x00, 0x00, 0x00, 0x1c, 0x00, 0x00, 0x00, 0x34, 0xfe, 0xff, 0xff,
    0x0f, 0x00, 0x00, 0x00, 0x61, 0x72, 0x69, 0x74, 0x68, 0x2e, 0x63, 0x6f,
    0x6e, 0x73, 0x74, 0x61, 0x6e, 0x74, 0x36, 0x00, 0x04, 0x00, 0x00, 0x00,
    0x08, 0x00, 0x00, 0x00, 0x01, 0x00, 0x00, 0x00, 0x02, 0x00, 0x00, 0x00,
    0x08, 0x00, 0x00, 0x00, 0xc2, 0xff, 0xff, 0xff, 0x00, 0x00, 0x00, 0x01,
    0x14, 0x00, 0x00, 0x00, 0x14, 0x00, 0x00, 0x00, 0x07, 0x00, 0x00, 0x00,
    0x00, 0x00, 0x00, 0x02, 0x1c, 0x00, 0x00, 0x00, 0x7c, 0xfe, 0xff, 0xff,
    0x0f, 0x00, 0x00, 0x00, 0x61, 0x72, 0x69, 0x74, 0x68, 0x2e, 0x63, 0x6f,
    0x6e, 0x73, 0x74, 0x61, 0x6e, 0x74, 0x35, 0x00, 0x01, 0x00, 0x00, 0x00,
    0x04, 0x00, 0x00, 0x00, 0x00, 0x00, 0x16, 0x00, 0x1c, 0x00, 0x18, 0x00,
    0x17, 0x00, 0x10, 0x00, 0x0c, 0x00, 0x08, 0x00, 0x00, 0x00, 0x00, 0x00,
    0x00, 0x00, 0x07, 0x00, 0x16, 0x00, 0x00, 0x00, 0x00, 0x00, 0x00, 0x01,
    0x14, 0x00, 0x00, 0x00, 0x14, 0x00, 0x00, 0x00, 0x06, 0x00, 0x00, 0x00,
    0x00, 0x00, 0x00, 0x02, 0x1c, 0x00, 0x00, 0x00, 0xd0, 0xfe, 0xff, 0xff,
    0x0f, 0x00, 0x00, 0x00, 0x61, 0x72, 0x69, 0x74, 0x68, 0x2e, 0x63, 0x6f,
    0x6e, 0x73, 0x74, 0x61, 0x6e, 0x74, 0x34, 0x00, 0x01, 0x00, 0x00, 0x00,
    0x03, 0x00, 0x00, 0x00, 0x1e, 0xff, 0xff, 0xff, 0x00, 0x00, 0x00, 0x01,
    0x10, 0x00, 0x00, 0x00, 0x10, 0x00, 0x00, 0x00, 0x05, 0x00, 0x00, 0x00,
    0x1c, 0x00, 0x00, 0x00, 0x08, 0xff, 0xff, 0xff, 0x0f, 0x00, 0x00, 0x00,
    0x61, 0x72, 0x69, 0x74, 0x68, 0x2e, 0x63, 0x6f, 0x6e, 0x73, 0x74, 0x61,
    0x6e, 0x74, 0x33, 0x00, 0x01, 0x00, 0x00, 0x00, 0x04, 0x00, 0x00, 0x00,
    0x56, 0xff, 0xff, 0xff, 0x00, 0x00, 0x00, 0x01, 0x10, 0x00, 0x00, 0x00,
    0x10, 0x00, 0x00, 0x00, 0x04, 0x00, 0x00, 0x00, 0x1c, 0x00, 0x00, 0x00,
    0x40, 0xff, 0xff, 0xff, 0x0f, 0x00, 0x00, 0x00, 0x61, 0x72, 0x69, 0x74,
    0x68, 0x2e, 0x63, 0x6f, 0x6e, 0x73, 0x74, 0x61, 0x6e, 0x74, 0x32, 0x00,
    0x01, 0x00, 0x00, 0x00, 0x08, 0x00, 0x00, 0x00, 0x8e, 0xff, 0xff, 0xff,
    0x00, 0x00, 0x00, 0x01, 0x10, 0x00, 0x00, 0x00, 0x10, 0x00, 0x00, 0x00,
    0x03, 0x00, 0x00, 0x00, 0x1c, 0x00, 0x00, 0x00, 0x78, 0xff, 0xff, 0xff,
    0x0f, 0x00, 0x00, 0x00, 0x61, 0x72, 0x69, 0x74, 0x68, 0x2e, 0x63, 0x6f,
    0x6e, 0x73, 0x74, 0x61, 0x6e, 0x74, 0x31, 0x00, 0x01, 0x00, 0x00, 0x00,
    0x08, 0x00, 0x00, 0x00, 0xc6, 0xff, 0xff, 0xff, 0x00, 0x00, 0x00, 0x01,
    0x10, 0x00, 0x00, 0x00, 0x10, 0x00, 0x00, 0x00, 0x02, 0x00, 0x00, 0x00,
    0x1c, 0x00, 0x00, 0x00, 0xb0, 0xff, 0xff, 0xff, 0x0e, 0x00, 0x00, 0x00,
    0x61, 0x72, 0x69, 0x74, 0x68, 0x2e, 0x63, 0x6f, 0x6e, 0x73, 0x74, 0x61,
    0x6e, 0x74, 0x00, 0x00, 0x01, 0x00, 0x00, 0x00, 0x10, 0x00, 0x00, 0x00,
    0x00, 0x00, 0x16, 0x00, 0x18, 0x00, 0x14, 0x00, 0x00, 0x00, 0x10, 0x00,
    0x0c, 0x00, 0x08, 0x00, 0x00, 0x00, 0x00, 0x00, 0x00, 0x00, 0x07, 0x00,
    0x16, 0x00, 0x00, 0x00, 0x00, 0x00, 0x00, 0x01, 0x14, 0x00, 0x00, 0x00,
    0x14, 0x00, 0x00, 0x00, 0x01, 0x00, 0x00, 0x00, 0x14, 0x00, 0x00, 0x00,
    0x04, 0x00, 0x04, 0x00, 0x04, 0x00, 0x00, 0x00, 0x01, 0x00, 0x00, 0x00,
    0x78, 0x00, 0x00, 0x00, 0x03, 0x00, 0x00, 0x00, 0x01, 0x00, 0x00, 0x00,
    0x0a, 0x00, 0x00, 0x00, 0x04, 0x00, 0x00, 0x00, 0x05, 0x00, 0x00, 0x00,
    0x5c, 0x00, 0x00, 0x00, 0x40, 0x00, 0x00, 0x00, 0x24, 0x00, 0x00, 0x00,
    0x14, 0x00, 0x00, 0x00, 0x04, 0x00, 0x00, 0x00, 0xdc, 0xff, 0xff, 0xff,
    0x19, 0x00, 0x00, 0x00, 0x00, 0x00, 0x00, 0x19, 0xe8, 0xff, 0xff, 0xff,
    0x28, 0x00, 0x00, 0x00, 0x00, 0x00, 0x00, 0x28, 0xf4, 0xff, 0xff, 0xff,
    0x03, 0x00, 0x00, 0x00, 0x00, 0x00, 0x00, 0x03, 0x0c, 0x00, 0x0c, 0x00,
    0x0b, 0x00, 0x00, 0x00, 0x00, 0x00, 0x04, 0x00, 0x0c, 0x00, 0x00, 0x00,
    0x16, 0x00, 0x00, 0x00, 0x00, 0x00, 0x00, 0x16, 0x0c, 0x00, 0x10, 0x00,
    0x0f, 0x00, 0x00, 0x00, 0x08, 0x00, 0x04, 0x00, 0x0c, 0x00, 0x00, 0x00,
    0x09, 0x00, 0x00, 0x00, 0x05, 0x00, 0x00, 0x00, 0x00, 0x00, 0x00, 0x09
};

const unsigned int g_model_len = sizeof(g_model);

#endif /* MODEL_H */
