/**
 * TFLite / LiteRT model byte array.
 *
 * Auto-generated by model_to_tflite.py
 * Timestamp  : 2026-03-02 11:44 UTC
 * Source     : model.tflite
 * Model size : 9,640 bytes
 * Quantized  : no (float32)
 *
 * Usage (Arduino / TFLite Micro):
 *
 *   #include "model.h"
 *   const tflite::Model* model = tflite::GetModel(g_model);
 */

#ifndef MODEL_H
#define MODEL_H

/* 8-byte alignment required by TFLite Micro */
alignas(8) const unsigned char g_model[] = {
    0x1c, 0x00, 0x00, 0x00, 0x54, 0x46, 0x4c, 0x33, 0x14, 0x00, 0x20, 0x00,
    0x1c, 0x00, 0x18, 0x00, 0x14, 0x00, 0x10, 0x00, 0x0c, 0x00, 0x00, 0x00,
    0x08, 0x00, 0x04, 0x00, 0x14, 0x00, 0x00, 0x00, 0x1c, 0x00, 0x00, 0x00,
    0x1c, 0x00, 0x00, 0x00, 0x74, 0x00, 0x00, 0x00, 0xb4, 0x1a, 0x00, 0x00,
    0xc4, 0x1a, 0x00, 0x00, 0x14, 0x25, 0x00, 0x00, 0x03, 0x00, 0x00, 0x00,
    0x00, 0x00, 0x00, 0x00, 0x02, 0x00, 0x00, 0x00, 0x34, 0x00, 0x00, 0x00,
    0x04, 0x00, 0x00, 0x00, 0xdc, 0xff, 0xff, 0xff, 0x16, 0x00, 0x00, 0x00,
    0x04, 0x00, 0x00, 0x00, 0x13, 0x00, 0x00, 0x00, 0x43, 0x4f, 0x4e, 0x56,
    0x45, 0x52, 0x53, 0x49, 0x4f, 0x4e, 0x5f, 0x4d, 0x45, 0x54, 0x41, 0x44,
    0x41, 0x54, 0x41, 0x00, 0x08, 0x00, 0x0c, 0x00, 0x08, 0x00, 0x04, 0x00,
    0x08, 0x00, 0x00, 0x00, 0x15, 0x00, 0x00, 0x00, 0x04, 0x00, 0x00, 0x00,
    0x13, 0x00, 0x00, 0x00, 0x6d, 0x69, 0x6e, 0x5f, 0x72, 0x75, 0x6e, 0x74,
    0x69, 0x6d, 0x65, 0x5f, 0x76, 0x65, 0x72, 0x73, 0x69, 0x6f, 0x6e, 0x00,
    0x17, 0x00, 0x00, 0x00, 0x3c, 0x1a, 0x00, 0x00, 0x34, 0x1a, 0x00, 0x00,
    0xa4, 0x19, 0x00, 0x00, 0x54, 0x19, 0x00, 0x00, 0x04, 0x19, 0x00, 0x00,
    0xe4, 0x18, 0x00, 0x00, 0xc8, 0x18, 0x00, 0x00, 0xb8, 0x0c, 0x00, 0x00,
    0x28, 0x0b, 0x00, 0x00, 0x18, 0x09, 0x00, 0x00, 0x08, 0x01, 0x00, 0x00,
    0xf4, 0x00, 0x00, 0x00, 0xd4, 0x00, 0x00, 0x00, 0xcc, 0x00, 0x00, 0x00,
    0xc4, 0x00, 0x00, 0x00, 0xbc, 0x00, 0x00, 0x00, 0xb4, 0x00, 0x00, 0x00,
    0xac, 0x00, 0x00, 0x00, 0xa4, 0x00, 0x00, 0x00, 0x9c, 0x00, 0x00, 0x00,
    0x94, 0x00, 0x00, 0x00, 0x74, 0x00, 0x00, 0x00, 0x04, 0x00, 0x00, 0x00,
    0x8e, 0xe5, 0xff, 0xff, 0x04, 0x00, 0x00, 0x00, 0x60, 0x00, 0x00, 0x00,
    0x10, 0x00, 0x00, 0x00, 0x00, 0x00, 0x00, 0x00, 0x08, 0x00, 0x0e, 0x00,
    0x08, 0x00, 0x04, 0x00, 0x08, 0x00, 0x00, 0x00, 0x10, 0x00, 0x00, 0x00,
    0x24, 0x00, 0x00, 0x00, 0x00, 0x00, 0x06, 0x00, 0x08, 0x00, 0x04, 0x00,
    0x06, 0x00, 0x00, 0x00, 0x04, 0x00, 0x00, 0x00, 0x00, 0x00, 0x00, 0x00,
    0x0c, 0x00, 0x18, 0x00, 0x14, 0x00, 0x10, 0x00, 0x0c, 0x00, 0x04, 0x00,
    0x0c, 0x00, 0x00, 0x00, 0x83, 0xcf, 0x60, 0xbd, 0x7c, 0xae, 0x6c, 0x0b,
    0x03, 0x00, 0x00, 0x00, 0x02, 0x00, 0x00, 0x00, 0x04, 0x00, 0x00, 0x00,
    0x06, 0x00, 0x00, 0x00, 0x32, 0x2e, 0x32, 0x30, 0x2e, 0x30, 0x00, 0x00,
    0xfa, 0xe5, 0xff, 0xff, 0x04, 0x00, 0x00, 0x00, 0x10, 0x00, 0x00, 0x00,
    0x31, 0x2e, 0x36, 0x2e, 0x30, 0x00, 0x00, 0x00, 0x00, 0x00, 0x00, 0x00,
    0x00, 0x00, 0x00, 0x00, 0x5c, 0xdc, 0xff, 0xff, 0x60, 0xdc, 0xff, 0xff,
    0x64, 0xdc, 0xff, 0xff, 0x68, 0xdc, 0xff, 0xff, 0x6c, 0xdc, 0xff, 0xff,
    0x70, 0xdc, 0xff, 0xff, 0x74, 0xdc, 0xff, 0xff, 0x78, 0xdc, 0xff, 0xff,
    0x36, 0xe6, 0xff, 0xff, 0x04, 0x00, 0x00, 0x00, 0x10, 0x00, 0x00, 0x00,
    0x01, 0x00, 0x00, 0x00, 0x01, 0x00, 0x00, 0x00, 0x0a, 0x00, 0x00, 0x00,
    0x02, 0x00, 0x00, 0x00, 0x52, 0xe6, 0xff, 0xff, 0x04, 0x00, 0x00, 0x00,
    0x04, 0x00, 0x00, 0x00, 0x01, 0x00, 0x00, 0x00, 0x62, 0xe6, 0xff, 0xff,
    0x04, 0x00, 0x00, 0x00, 0x00, 0x08, 0x00, 0x00, 0xa9, 0xc9, 0x73, 0x3e,
    0x97, 0xfe, 0x1e, 0xbf, 0xc2, 0x32, 0x69, 0xbe, 0x99, 0x7d, 0x2a, 0xbf,
    0xd4, 0xd1, 0xc9, 0xbd, 0x42, 0x44, 0xa0, 0x3e, 0x64, 0x01, 0xa5, 0xbd,
    0x67, 0x25, 0x01, 0x3f, 0xbe, 0x48, 0xd5, 0xbe, 0x77, 0xe3, 0x98, 0x3e,
    0x68, 0x5b, 0x03, 0xbe, 0x63, 0xff, 0x88, 0x3e, 0xcf, 0xa5, 0x2b, 0xbe,
    0xa1, 0x33, 0x54, 0xbe, 0xad, 0x54, 0x5d, 0x3e, 0xe1, 0x3e, 0x7d, 0x3e,
    0x6e, 0xe8, 0x20, 0xbe, 0x1c, 0x6c, 0x67, 0x3e, 0x9d, 0xa1, 0x78, 0xbe,
    0x0a, 0x46, 0xd0, 0x3d, 0x27, 0xc1, 0x05, 0xbf, 0x62, 0x74, 0x9c, 0x3d,
    0x5e, 0x50, 0x01, 0xbf, 0x1b, 0xa1, 0xf4, 0x3e, 0x03, 0x80, 0x39, 0xbe,
    0x26, 0x02, 0x0b, 0x3f, 0x3f, 0xa4, 0x46, 0x3f, 0x90, 0xa7, 0x35, 0xbf,
    0xb4, 0x4b, 0x75, 0x3e, 0x51, 0x09, 0x41, 0xbc, 0xbf, 0x3c, 0x88, 0xbf,
    0x03, 0x5f, 0x0f, 0x3f, 0xd4, 0x25, 0x66, 0xbe, 0xa4, 0x42, 0x42, 0x3f,
    0xf2, 0x2d, 0x80, 0xbe, 0x2a, 0x67, 0x26, 0x3f, 0x0f, 0xf4, 0xfd, 0x3c,
    0xc4, 0xa3, 0x61, 0x3e, 0x60, 0x73, 0xe9, 0x3c, 0x3b, 0xa0, 0x61, 0xbf,
    0x3b, 0xf9, 0x30, 0x3d, 0x05, 0x7c, 0x2b, 0xbe, 0x1e, 0x5a, 0x0b, 0x3f,
    0x33, 0xaf, 0x2d, 0xbf, 0xc0, 0xb2, 0x7e, 0x3e, 0x36, 0x56, 0x82, 0x3f,
    0x07, 0x71, 0x3c, 0x3d, 0x9e, 0x26, 0xf7, 0xbe, 0xa3, 0x30, 0x50, 0xbe,
    0x34, 0x46, 0x09, 0x3e, 0x9c, 0xfe, 0x20, 0x3d, 0x39, 0x07, 0x1e, 0xbe,
    0x59, 0x90, 0xb1, 0x3e, 0x9d, 0x0c, 0x95, 0x3e, 0x95, 0x14, 0x60, 0xbe,
    0xa6, 0x77, 0x83, 0x3f, 0x4d, 0x68, 0x9f, 0xbe, 0x78, 0xee, 0xc5, 0x3e,
    0x1f, 0xaf, 0x9e, 0xbe, 0xd7, 0xb9, 0xf6, 0x3e, 0x58, 0x6f, 0x4e, 0x3e,
    0x06, 0x60, 0x63, 0xbf, 0x21, 0xea, 0x41, 0xbf, 0x00, 0xd9, 0x18, 0x3f,
    0xc8, 0xf8, 0x30, 0xbe, 0x9f, 0xb4, 0x0a, 0x3f, 0xd2, 0x8f, 0xa0, 0x3e,
    0xf0, 0xb9, 0x30, 0x3f, 0xd1, 0x72, 0xfe, 0x3d, 0x23, 0x4a, 0x62, 0x3d,
    0x51, 0x87, 0xb8, 0xbd, 0xa4, 0x67, 0x23, 0xbf, 0xf3, 0xdc, 0x26, 0x3e,
    0x3d, 0x7a, 0x9a, 0x3c, 0xf2, 0x9b, 0x3a, 0x3f, 0xbb, 0x1c, 0x84, 0xbf,
    0x96, 0xf1, 0x4b, 0x3d, 0x97, 0xe8, 0x54, 0x3f, 0xcf, 0x43, 0xa1, 0xbc,
    0x03, 0x6c, 0x02, 0xbf, 0x62, 0x89, 0x49, 0x3e, 0x14, 0x6c, 0xc2, 0x3c,
    0x8e, 0x81, 0x75, 0xbc, 0xd6, 0xa1, 0xd9, 0xbe, 0xf9, 0xfb, 0x3f, 0x3e,
    0x1e, 0x97, 0x2c, 0x3f, 0x94, 0xe9, 0xfb, 0xbd, 0xe5, 0xa6, 0x9d, 0x3f,
    0x87, 0xeb, 0x1e, 0x3e, 0x7f, 0x07, 0x42, 0x3d, 0xbf, 0xc6, 0x02, 0x3e,
    0x09, 0x24, 0xe3, 0x3e, 0xca, 0xf8, 0xd0, 0xbe, 0xbe, 0x99, 0x5a, 0xbf,
    0xb4, 0xdf, 0x24, 0xbf, 0x75, 0xf1, 0x41, 0x3f, 0x7c, 0x2b, 0x92, 0xbe,
    0x71, 0x59, 0x15, 0xbe, 0xf2, 0xbb, 0x43, 0x3e, 0x98, 0x8e, 0x3b, 0xbd,
    0x67, 0x80, 0xa2, 0x3e, 0x94, 0x42, 0xc3, 0x3d, 0x42, 0xed, 0x82, 0xbe,
    0x70, 0x71, 0xdd, 0xbc, 0x20, 0xe3, 0xb6, 0x3d, 0xaa, 0x0a, 0xa4, 0xbe,
    0x9e, 0x54, 0xa7, 0xbe, 0x58, 0x99, 0x70, 0x3d, 0x00, 0x91, 0x98, 0xbe,
    0x19, 0x4c, 0x4b, 0xbe, 0xc0, 0x2d, 0xb0, 0x3c, 0xe0, 0xa9, 0x25, 0x3d,
    0xe4, 0x90, 0xe3, 0x3c, 0x03, 0xfc, 0x1c, 0xbf, 0xff, 0x9c, 0x7e, 0xbe,
    0x0c, 0xf9, 0xf1, 0xbe, 0x4b, 0x46, 0x99, 0x3e, 0x6d, 0x84, 0xaa, 0xbc,
    0xfe, 0xca, 0xb7, 0x3e, 0xba, 0xac, 0x7d, 0x3f, 0x04, 0xd2, 0x6d, 0xbe,
    0x27, 0x0e, 0x23, 0x3e, 0xeb, 0x0b, 0x00, 0xbf, 0x96, 0x34, 0x3f, 0x3f,
    0x3f, 0x56, 0xa6, 0xbe, 0xab, 0x71, 0x87, 0xbf, 0x3d, 0x3b, 0xc8, 0xbe,
    0xfe, 0x4e, 0x51, 0x3f, 0xbd, 0x1f, 0xfa, 0xbe, 0x8a, 0x3a, 0xbb, 0xbd,
    0xe2, 0xd8, 0xfa, 0xbd, 0xf5, 0x90, 0x9c, 0x3e, 0x82, 0x25, 0x65, 0xbe,
    0x36, 0x6e, 0x5f, 0x3f, 0xf6, 0x99, 0x87, 0x3c, 0x22, 0xe6, 0xcb, 0x3e,
    0x78, 0x24, 0x87, 0x3e, 0x16, 0xbd, 0xdc, 0x3e, 0xb8, 0xbd, 0x99, 0xbe,
    0xb0, 0x74, 0xa0, 0x3e, 0xa7, 0xb2, 0xa3, 0xbe, 0xf6, 0x8f, 0x12, 0x3e,
    0xe2, 0xd5, 0x81, 0xbf, 0x6c, 0x6b, 0xd9, 0xbe, 0x53, 0x98, 0x8c, 0xbe,
    0x3a, 0xb7, 0xc6, 0x3e, 0xf8, 0xa2, 0xb7, 0xbe, 0x92, 0x7d, 0xdc, 0xbd,
    0x21, 0x79, 0x9c, 0xbd, 0x63, 0xfe, 0xab, 0xbe, 0xb7, 0x5c, 0xcf, 0xbc,
    0xa7, 0xd3, 0x9f, 0xbe, 0x2a, 0x68, 0x75, 0xbd, 0x8f, 0x4c, 0x83, 0x3e,
    0xef, 0x3f, 0x61, 0x3e, 0xb7, 0xcc, 0xfa, 0xbe, 0xbf, 0x05, 0x03, 0x3f,
    0x56, 0x59, 0xc0, 0xbf, 0xa1, 0xa7, 0x6d, 0xbf, 0xe9, 0xec, 0xcf, 0x3d,
    0xdc, 0xa8, 0xe9, 0xbd, 0x9c, 0xf1, 0x7d, 0xbe, 0x33, 0x78, 0x3b, 0xbe,
    0x25, 0x33, 0x91, 0xbe, 0xed, 0xb7, 0x80, 0x3e, 0x80, 0x8b, 0xaa, 0x3b,
    0x05, 0xad, 0x0f, 0xbe, 0xe6, 0x6c, 0x56, 0xbe, 0xcb, 0x00, 0x42, 0xbe,
    0xec, 0xdf, 0x8f, 0xbe, 0x80, 0x3c, 0x2e, 0xbb, 0xa0, 0x36, 0x4c, 0x3d,
    0x57, 0x6b, 0x47, 0xbe, 0xc5, 0x47, 0x9c, 0x3e, 0x47, 0x04, 0x15, 0xbe,
    0x33, 0xb1, 0x67, 0xbe, 0xab, 0x06, 0x77, 0x3e, 0xc6, 0x83, 0xe8, 0xbe,
    0xcb, 0xe1, 0x68, 0x3e, 0xca, 0x0d, 0x06, 0xbe, 0xa4, 0x86, 0x06, 0x3e,
    0x21, 0x54, 0xb9, 0x3e, 0xab, 0x2b, 0xc6, 0x3e, 0x2c, 0x27, 0x2b, 0x3f,
    0x43, 0xdc, 0xac, 0x3e, 0xb0, 0xb3, 0x8b, 0x3e, 0xd5, 0xef, 0x27, 0xbf,
    0xb5, 0xd0, 0x6e, 0x3f, 0x31, 0x0b, 0xcd, 0xbe, 0x5d, 0xdf, 0xb9, 0x3e,
    0xc1, 0x15, 0x27, 0x3e, 0x3d, 0x66, 0xd1, 0x3e, 0x76, 0x11, 0x37, 0xbe,
    0x08, 0x81, 0x53, 0x3d, 0xa0, 0xc9, 0x33, 0xbc, 0xfa, 0xce, 0x1f, 0xbe,
    0xbc, 0xad, 0x6e, 0xbe, 0x5f, 0x4f, 0xa6, 0xbe, 0x80, 0x08, 0xbd, 0xbe,
    0x01, 0xec, 0x3c, 0x3d, 0x21, 0x45, 0xb2, 0xbe, 0xbf, 0xf5, 0x88, 0x3e,
    0xd6, 0xfd, 0x23, 0x3e, 0x40, 0xb0, 0x9c, 0x3d, 0xaf, 0xb2, 0x1f, 0xbe,
    0x4a, 0x68, 0x85, 0x3e, 0x87, 0xdd, 0x49, 0xbe, 0x79, 0xe0, 0x4f, 0x3d,
    0x01, 0x58, 0xef, 0x3e, 0x14, 0x29, 0x22, 0xbe, 0xe2, 0xd2, 0x4c, 0x3c,
    0x55, 0x34, 0x91, 0xbe, 0x32, 0x7c, 0xaf, 0x3e, 0xbf, 0x57, 0x84, 0xbe,
    0xe6, 0xec, 0x26, 0x3e, 0x9a, 0x48, 0x0b, 0x3f, 0xb2, 0x38, 0x1f, 0xbf,
    0xd8, 0x01, 0x0e, 0xbe, 0xa2, 0x6f, 0x7e, 0x3c, 0x62, 0x66, 0x56, 0x3f,
    0x4c, 0x48, 0x3e, 0xbe, 0x62, 0x58, 0x48, 0xbf, 0xcb, 0x44, 0x8e, 0xbe,
    0xa9, 0x8b, 0xd1, 0xbc, 0xb0, 0xc4, 0x99, 0x3d, 0x3e, 0xfc, 0xa5, 0x3e,
    0x57, 0xd3, 0x23, 0x3e, 0x4d, 0xfa, 0xc1, 0xbd, 0x4a, 0xab, 0x69, 0x3d,
    0x4d, 0x5d, 0xbd, 0xbe, 0x04, 0x85, 0x98, 0x3b, 0xfa, 0x38, 0xa0, 0x3e,
    0xba, 0x2f, 0x90, 0xbd, 0xbd, 0x4b, 0x90, 0x3e, 0x14, 0x3b, 0x09, 0x3e,
    0xc1, 0x7d, 0x83, 0xbf, 0x2f, 0xe9, 0x99, 0x3e, 0xcd, 0x41, 0x9d, 0xbf,
    0x59, 0x82, 0x91, 0xbf, 0x67, 0xda, 0xda, 0xbd, 0x41, 0x51, 0x50, 0xbe,
    0x4c, 0x6e, 0xad, 0xbe, 0xdd, 0xa8, 0x76, 0x3e, 0x39, 0x74, 0x64, 0xbe,
    0x2f, 0x28, 0x60, 0x3d, 0xba, 0xcd, 0x9f, 0xbd, 0xd0, 0xad, 0xb4, 0x3e,
    0x4f, 0x6d, 0x1f, 0x3f, 0x25, 0xed, 0x2a, 0xbf, 0xcc, 0x0a, 0x42, 0x3e,
    0x3b, 0x2b, 0x03, 0xbf, 0x6f, 0x41, 0x51, 0x3f, 0x2c, 0xae, 0x8c, 0xbd,
    0x30, 0x83, 0x7f, 0xbf, 0xc7, 0x93, 0xd3, 0x3c, 0x93, 0xb2, 0x3f, 0x3f,
    0x3c, 0x7f, 0xf4, 0x3d, 0x36, 0x6c, 0x83, 0xbc, 0x58, 0xfc, 0x08, 0x3e,
    0xf5, 0x91, 0x4a, 0xbc, 0xd6, 0xeb, 0x9f, 0x3c, 0x22, 0xb7, 0xcf, 0x3e,
    0xd5, 0xc2, 0x23, 0x3e, 0x64, 0x87, 0x1d, 0xbe, 0x1a, 0xbc, 0x1a, 0x3e,
    0xeb, 0xa7, 0xbd, 0x3b, 0x57, 0x0e, 0xdb, 0xbe, 0x19, 0x70, 0x90, 0x3e,
    0xcd, 0x8c, 0xfe, 0xbe, 0x86, 0x51, 0x35, 0x3f, 0xa6, 0xab, 0x1b, 0x3f,
    0x07, 0x4a, 0x68, 0xbe, 0xe1, 0xd3, 0x46, 0xbd, 0xe2, 0xa2, 0xd5, 0x3e,
    0x04, 0x8f, 0x2b, 0x3e, 0x8a, 0x5e, 0x9f, 0xbe, 0xce, 0xb9, 0x7a, 0x3e,
    0x58, 0x46, 0xa4, 0xbe, 0xa0, 0x2a, 0xdd, 0xbe, 0x7e, 0x35, 0xde, 0x3e,
    0x52, 0xa6, 0x73, 0x3d, 0x05, 0x08, 0x6b, 0x3e, 0x15, 0xda, 0x8a, 0x3d,
    0x11, 0xb2, 0x2e, 0xbf, 0x85, 0x6b, 0xe2, 0x3e, 0x8b, 0x14, 0x8a, 0xbf,
    0x5f, 0x2d, 0x9e, 0xbf, 0x37, 0x9a, 0x9d, 0x3e, 0x35, 0xfe, 0x43, 0x3b,
    0x50, 0x34, 0xb6, 0xbe, 0xc6, 0xee, 0x12, 0xbe, 0x1d, 0x39, 0x88, 0xbe,
    0xcd, 0xc6, 0xb6, 0x3e, 0x9f, 0x76, 0x38, 0x3d, 0x1e, 0x68, 0x9e, 0xbd,
    0xa9, 0x2b, 0x48, 0x3f, 0x27, 0xa9, 0x39, 0xbf, 0x25, 0x1d, 0x83, 0x3e,
    0x6b, 0xe4, 0x52, 0xbe, 0x02, 0xd8, 0x89, 0x3d, 0x4d, 0x04, 0x17, 0x3f,
    0x3f, 0xd8, 0x30, 0xbf, 0x49, 0x9e, 0x1a, 0xbf, 0x82, 0xde, 0x4f, 0xbd,
    0x9d, 0xaf, 0x74, 0xbc, 0x2f, 0x1b, 0xa9, 0x3e, 0xf3, 0x36, 0x75, 0xbe,
    0x6a, 0xa2, 0x08, 0x3f, 0xe6, 0x9d, 0xf9, 0x3d, 0x69, 0xa1, 0xc4, 0x3e,
    0xe2, 0x23, 0x95, 0xbe, 0x73, 0x05, 0xa9, 0xbe, 0x73, 0x34, 0x4c, 0x3d,
    0x35, 0xbd, 0xa5, 0x3c, 0xbf, 0x20, 0x01, 0x3f, 0xed, 0xfb, 0x21, 0xbf,
    0xef, 0x03, 0x23, 0x3e, 0x61, 0x63, 0x00, 0x3f, 0x1c, 0xf6, 0x50, 0xbe,
    0x8c, 0x5a, 0x63, 0xbe, 0x10, 0x26, 0xc0, 0xbd, 0x06, 0x71, 0x62, 0xbe,
    0x64, 0x8a, 0x77, 0x3b, 0x63, 0x57, 0x2e, 0x3d, 0xd4, 0xc0, 0xce, 0xbd,
    0x30, 0x6c, 0x04, 0x3e, 0xc5, 0x78, 0x2f, 0xbe, 0x04, 0x1f, 0x8c, 0x3e,
    0xb0, 0x31, 0x2f, 0x3e, 0x5d, 0xf3, 0xab, 0xbe, 0x2c, 0x54, 0x88, 0xbe,
    0xc4, 0xd8, 0x1f, 0x3e, 0x73, 0x2a, 0x36, 0x3d, 0xfe, 0x17, 0x09, 0x3e,
    0x17, 0x6b, 0x68, 0xbd, 0xdc, 0x42, 0x42, 0xbe, 0xef, 0xba, 0x01, 0x3f,
    0xd1, 0x50, 0x16, 0xbe, 0x24, 0x20, 0x2e, 0x3e, 0x40, 0x2e, 0xaa, 0x3e,
    0xf3, 0x55, 0x7a, 0x3e, 0x4f, 0xb6, 0xbe, 0xbe, 0x9a, 0x1e, 0x14, 0x3e,
    0xb7, 0x8c, 0x42, 0xbf, 0x9c, 0x4f, 0xb2, 0xbd, 0xa2, 0xd9, 0x3a, 0xbf,
    0x67, 0xba, 0x7b, 0xbf, 0x45, 0x43, 0x1a, 0xbf, 0x53, 0x40, 0x18, 0x3e,
    0x11, 0xf0, 0x45, 0x3f, 0x66, 0xad, 0x9e, 0x3f, 0xbf, 0x88, 0x92, 0xbe,
    0xdb, 0x20, 0x4d, 0xbe, 0x22, 0xa8, 0xf2, 0xbe, 0x10, 0x1e, 0xa7, 0xbc,
    0x5f, 0xbd, 0xcb, 0xbe, 0x97, 0x1a, 0x5f, 0x3d, 0xfd, 0x4a, 0x25, 0xbe,
    0x09, 0xc7, 0xd7, 0x3e, 0x9d, 0xf2, 0x11, 0x3f, 0xd4, 0x22, 0x74, 0x3e,
    0x3b, 0x17, 0xa9, 0x3e, 0xa3, 0xf1, 0x2a, 0xbe, 0x3a, 0xbe, 0x00, 0x3f,
    0x1a, 0xc1, 0x14, 0xbf, 0x03, 0x19, 0x60, 0xbe, 0x37, 0xf3, 0x08, 0x3e,
    0xb1, 0x68, 0x57, 0x3f, 0xb7, 0x31, 0x42, 0xbe, 0xbb, 0x0e, 0x95, 0xbe,
    0xc7, 0xde, 0xa3, 0xbe, 0x4c, 0x80, 0xfc, 0xbd, 0xe1, 0x35, 0x01, 0xbe,
    0x30, 0xa6, 0xf5, 0x3c, 0xf1, 0x10, 0xb4, 0xbe, 0x92, 0x3b, 0x17, 0x3e,
    0xe2, 0xb2, 0x12, 0xbe, 0xec, 0x25, 0xb5, 0x3d, 0xf4, 0x43, 0x77, 0xbe,
    0x61, 0x99, 0xa4, 0x3e, 0xf8, 0x7b, 0xc8, 0x3d, 0x1c, 0x9e, 0xde, 0xbd,
    0xf2, 0x9d, 0x4e, 0x3e, 0x50, 0x10, 0xc0, 0xbc, 0x47, 0x5d, 0x98, 0xbe,
    0xa6, 0x3b, 0x03, 0x3e, 0x3e, 0xb9, 0x4e, 0xbe, 0x52, 0xd5, 0x9b, 0xbe,
    0x3c, 0x7c, 0x98, 0xbd, 0xa2, 0x4c, 0x47, 0x3e, 0xf0, 0x2c, 0x33, 0xbe,
    0x11, 0x9d, 0x8c, 0xbc, 0x04, 0x70, 0xc9, 0x3d, 0xdc, 0x01, 0xc9, 0x3d,
    0x8b, 0xf0, 0x5a, 0xbe, 0x60, 0x62, 0xb7, 0x3d, 0xc6, 0x26, 0x31, 0xbe,
    0x18, 0x64, 0x74, 0xbe, 0xfa, 0xd8, 0xa2, 0x3e, 0x64, 0xb2, 0x07, 0xbe,
    0x0e, 0x7f, 0x61, 0x3e, 0x2c, 0x1e, 0xa2, 0xbe, 0x00, 0x45, 0x58, 0xbb,
    0x20, 0x87, 0x97, 0xbd, 0x50, 0x74, 0x0e, 0xbd, 0x61, 0x60, 0x8e, 0x3e,
    0x5e, 0x39, 0x0a, 0xbe, 0x06, 0x42, 0x28, 0x3e, 0xac, 0x9c, 0x86, 0xbd,
    0x00, 0xc7, 0xc3, 0x3c, 0x10, 0x8e, 0xa6, 0xbe, 0x68, 0x8a, 0xad, 0xbd,
    0x4d, 0x77, 0x8d, 0xbe, 0xe2, 0x0c, 0xb1, 0xbe, 0x6a, 0x4d, 0x6a, 0x3e,
    0xf6, 0x90, 0x80, 0xbe, 0xf7, 0x12, 0x06, 0xbd, 0xf6, 0xc1, 0xec, 0x3e,
    0xee, 0xe6, 0x5d, 0xbe, 0x30, 0x4e, 0x17, 0x3e, 0x22, 0x3e, 0xf3, 0xbe,
    0xf1, 0x51, 0x26, 0x3e, 0x16, 0x41, 0x06, 0xbf, 0x12, 0x97, 0x23, 0x3e,
    0x84, 0xd5, 0xb1, 0x3e, 0x24, 0x89, 0xe7, 0x3e, 0x80, 0xe0, 0xee, 0x3e,
    0xf5, 0x85, 0x19, 0xbf, 0x71, 0x4c, 0x98, 0xbe, 0x5d, 0xe3, 0x67, 0x3f,
    0x5a, 0xaf, 0x90, 0xbe, 0xba, 0x0d, 0x2f, 0x3d, 0x1f, 0xf3, 0x8b, 0x3e,
    0x5a, 0xa1, 0x14, 0xbe, 0x05, 0x7a, 0x87, 0xbd, 0x1f, 0x3b, 0x45, 0x3e,
    0x55, 0xe3, 0x17, 0x3e, 0x08, 0x38, 0xa6, 0x3e, 0x80, 0x4d, 0xb0, 0x3e,
    0xaa, 0x26, 0x04, 0xbe, 0x1d, 0x50, 0xe7, 0x3d, 0xac, 0x68, 0xd5, 0xbe,
    0x32, 0x2d, 0x31, 0xbf, 0xb6, 0x90, 0x05, 0x3f, 0xc1, 0xf0, 0xe8, 0xbe,
    0x70, 0x4e, 0x11, 0x40, 0x87, 0x2d, 0xa4, 0x3f, 0x6c, 0x63, 0x7e, 0xbc,
    0x09, 0x98, 0x1f, 0x3e, 0x79, 0x53, 0x07, 0x3f, 0xcf, 0x2b, 0x3f, 0xbd,
    0x43, 0x58, 0xe3, 0x3e, 0x47, 0xaa, 0xc3, 0xbe, 0xfc, 0x65, 0xc4, 0x3e,
    0x38, 0xbc, 0x3b, 0xbe, 0x22, 0x3a, 0x8a, 0xbf, 0xd9, 0xd4, 0xd4, 0x3d,
    0x31, 0xef, 0x42, 0x3e, 0x0f, 0xb7, 0xf9, 0x3e, 0x7c, 0x15, 0x8a, 0xbf,
    0x7a, 0x31, 0x8a, 0x3e, 0x19, 0xcf, 0x77, 0x3f, 0xb2, 0x9d, 0xed, 0x3d,
    0xc1, 0x4c, 0x19, 0xbf, 0x53, 0xbf, 0xcd, 0xbe, 0xf4, 0x69, 0xfd, 0x3d,
    0xd8, 0x76, 0x86, 0xbe, 0x38, 0xe6, 0x21, 0xbe, 0x07, 0xed, 0x1e, 0xbe,
    0xdc, 0x39, 0xd4, 0x3e, 0x4b, 0x27, 0x8d, 0xbd, 0x08, 0x09, 0x5b, 0x3e,
    0x55, 0x02, 0x71, 0xbe, 0x25, 0x2b, 0x07, 0x3f, 0x08, 0x1b, 0x2f, 0x3f,
    0xc2, 0x54, 0x7f, 0xbe, 0x44, 0x57, 0xb6, 0xbd, 0xfd, 0x01, 0x32, 0xbe,
    0x97, 0x46, 0x5a, 0xbf, 0x0e, 0xa3, 0x1f, 0x3f, 0xa0, 0xe7, 0x0c, 0x3e,
    0x0f, 0x4b, 0x8a, 0x3e, 0x9f, 0xd8, 0x71, 0xbc, 0x64, 0x29, 0x13, 0x3f,
    0x78, 0x15, 0x66, 0xbe, 0x5b, 0x73, 0x50, 0xbd, 0xeb, 0xd7, 0xaa, 0xbd,
    0x90, 0x21, 0x77, 0xbf, 0xe0, 0xf9, 0xa7, 0x3e, 0x71, 0x4c, 0x45, 0x3e,
    0x0e, 0xbe, 0xb7, 0x3e, 0x0d, 0x85, 0x81, 0xbf, 0x7d, 0x60, 0xd4, 0x3e,
    0x44, 0xbe, 0x63, 0x3f, 0x84, 0xce, 0x1d, 0xbd, 0x01, 0xdc, 0x23, 0xbf,
    0x8d, 0x4d, 0xad, 0x3e, 0x1b, 0xcd, 0x86, 0xbe, 0xbb, 0x1e, 0x76, 0xbe,
    0x5a, 0xf7, 0x49, 0x3e, 0xf5, 0x61, 0x90, 0x3e, 0x25, 0x75, 0x94, 0xbd,
    0x7d, 0x48, 0xee, 0x3e, 0x92, 0x02, 0xe1, 0xbe, 0xe7, 0xdf, 0xd7, 0x3e,
    0x99, 0x00, 0xc7, 0xbe, 0x0f, 0xd8, 0x0d, 0xbf, 0xb6, 0xd8, 0xae, 0xbd,
    0xfa, 0x86, 0xdb, 0xbe, 0x3c, 0xa6, 0xe6, 0x3f, 0x15, 0xdd, 0x98, 0x3f,
    0xeb, 0x9d, 0xa9, 0xbe, 0x6e, 0xee, 0xff, 0xff, 0x04, 0x00, 0x00, 0x00,
    0x00, 0x02, 0x00, 0x00, 0x00, 0xb9, 0x46, 0x3d, 0xb8, 0x3e, 0xd3, 0x3e,
    0xfb, 0x15, 0x93, 0x3e, 0xf2, 0x18, 0x01, 0x3e, 0x91, 0xdd, 0x42, 0x3e,
    0xcd, 0xf6, 0x4a, 0xbe, 0xa9, 0xbd, 0x3f, 0xbe, 0x10, 0xb5, 0xb5, 0xbe,
    0xf9, 0x14, 0xb5, 0x3e, 0xe3, 0xc8, 0x94, 0x3f, 0x36, 0x6e, 0x93, 0xbe,
    0x03, 0x45, 0xa9, 0xbf, 0xfa, 0x4d, 0x44, 0xbd, 0xc3, 0x07, 0xa6, 0xbb,
    0x61, 0x5a, 0x8e, 0x3f, 0x72, 0xa0, 0x15, 0xbf, 0x69, 0x68, 0x63, 0xbf,
    0x26, 0xed, 0xab, 0x3f, 0x42, 0x8d, 0x2e, 0x3f, 0x8f, 0xb3, 0x5b, 0xbe,
    0x65, 0x82, 0xe9, 0xbb, 0x27, 0xc1, 0x4f, 0xbf, 0x70, 0x8b, 0x00, 0xc0,
    0xa0, 0xf6, 0x30, 0xbe, 0x51, 0x62, 0x02, 0x3e, 0xfc, 0xc0, 0x86, 0x3d,
    0xde, 0x95, 0x9a, 0x3d, 0x48, 0xe8, 0xdb, 0xbf, 0xe5, 0xc0, 0xd2, 0x3c,
    0xea, 0x9a, 0xe2, 0x3e, 0xc5, 0x5b, 0x30, 0x3e, 0xa5, 0xc0, 0xe5, 0xbf,
    0x6e, 0x66, 0x84, 0x3f, 0xce, 0x1b, 0x40, 0xbf, 0x5d, 0x81, 0xcd, 0xbf,
    0xc3, 0x5d, 0xff, 0x3e, 0x08, 0x43, 0xc1, 0xbf, 0xb6, 0xdc, 0x51, 0x3f,
    0x60, 0x82, 0x3e, 0xbd, 0x42, 0xdc, 0xb2, 0x3f, 0xee, 0x96, 0x81, 0xbe,
    0xec, 0xe9, 0xc5, 0xbe, 0x20, 0xb6, 0xdd, 0xbc, 0x56, 0x91, 0x1a, 0x3f,
    0xe6, 0xa2, 0x3f, 0x3e, 0x17, 0x6a, 0xdf, 0x3e, 0x7e, 0xee, 0xe4, 0xbe,
    0x01, 0x9d, 0x0f, 0x3f, 0x9e, 0xc6, 0xf7, 0x3e, 0x91, 0x44, 0x59, 0xbb,
    0x84, 0xb1, 0xe7, 0x3e, 0x77, 0x28, 0xbb, 0xbf, 0xe9, 0x7c, 0x48, 0x3e,
    0xd5, 0x63, 0xd2, 0x3e, 0x37, 0xac, 0x70, 0x3f, 0x84, 0xea, 0x2d, 0x3e,
    0x5f, 0x1a, 0xd5, 0xbd, 0x10, 0x67, 0xc9, 0xbd, 0xf5, 0x95, 0x9d, 0xbf,
    0x1b, 0x41, 0xfc, 0x3e, 0xae, 0xff, 0xe0, 0xbf, 0x40, 0xe5, 0x75, 0xbe,
    0x79, 0x32, 0xc6, 0xbf, 0x59, 0x8b, 0xb8, 0x3e, 0xdd, 0x52, 0x92, 0x3e,
    0xae, 0x71, 0xe8, 0x3e, 0xfe, 0xb8, 0x97, 0x3e, 0xdc, 0xf3, 0x92, 0xbd,
    0x38, 0x70, 0x43, 0x3e, 0x26, 0x7f, 0xd7, 0x3d, 0x00, 0x37, 0x35, 0xbd,
    0xd5, 0xd3, 0x23, 0xbf, 0xc1, 0x2a, 0x61, 0x3f, 0xda, 0x7d, 0xaa, 0xbf,
    0x4b, 0x7f, 0x5c, 0xbe, 0xd9, 0x6f, 0x6d, 0x3d, 0xb7, 0x8f, 0x6c, 0xbe,
    0x9a, 0xec, 0x45, 0xbf, 0x70, 0x51, 0xd3, 0xbf, 0xdd, 0xf7, 0x9a, 0xbe,
    0x47, 0xf0, 0xb3, 0xbf, 0x22, 0x05, 0x8c, 0xbf, 0x98, 0xa9, 0x44, 0xbf,
    0x6e, 0x1c, 0x57, 0xbe, 0xe8, 0x96, 0x99, 0xbe, 0x36, 0x66, 0x9c, 0xbf,
    0x30, 0xe7, 0x6a, 0x3e, 0x93, 0xd9, 0x95, 0xbe, 0xfa, 0x27, 0x96, 0xbe,
    0xa0, 0xd2, 0x42, 0xbe, 0x74, 0x01, 0x26, 0x3f, 0x96, 0x7a, 0x5d, 0x3e,
    0x5f, 0xde, 0x8b, 0x3c, 0xb0, 0x8b, 0x17, 0x3f, 0x4a, 0x88, 0x48, 0x3e,
    0xd9, 0xf5, 0x05, 0xbe, 0xd6, 0xec, 0xe9, 0xbf, 0x11, 0xc2, 0xc2, 0xbf,
    0x3c, 0xbb, 0xa6, 0x3e, 0x76, 0xe5, 0x81, 0xbf, 0x37, 0x79, 0x53, 0x3e,
    0x65, 0x48, 0xa1, 0xbf, 0xc0, 0xaa, 0x0e, 0x3c, 0x0c, 0x3e, 0x22, 0xbf,
    0xef, 0x16, 0xb0, 0xbf, 0x2f, 0x3e, 0x24, 0x3e, 0x4a, 0xb1, 0x8f, 0x3e,
    0x89, 0x8e, 0x6b, 0x3e, 0x75, 0x84, 0x92, 0x3e, 0xc7, 0xd2, 0xae, 0xbd,
    0xdc, 0xc5, 0x26, 0xbe, 0x5c, 0xc5, 0xca, 0xbe, 0x11, 0xed, 0x19, 0x3f,
    0x0c, 0x8d, 0x5b, 0xbf, 0x13, 0x63, 0x97, 0xbe, 0x35, 0x6b, 0x6b, 0xbe,
    0x65, 0xc4, 0xdf, 0xbe, 0x9d, 0x49, 0xbe, 0x3f, 0x42, 0xf0, 0x8a, 0x3d,
    0x40, 0xed, 0xa0, 0x3b, 0x95, 0x2e, 0x55, 0xbe, 0x2c, 0x17, 0x4e, 0x3e,
    0x93, 0xef, 0x47, 0xbf, 0x65, 0x9e, 0x05, 0x3f, 0x4e, 0x90, 0x8c, 0x3c,
    0x41, 0x3a, 0xff, 0xbf, 0x76, 0x65, 0x70, 0x3e, 0x73, 0x62, 0x16, 0x3f,
    0x7a, 0xf0, 0xff, 0xff, 0x04, 0x00, 0x00, 0x00, 0x80, 0x01, 0x00, 0x00,
    0x4b, 0x72, 0x1a, 0x3f, 0x25, 0xec, 0xbf, 0xbe, 0x64, 0x55, 0xb8, 0xbd,
    0xa7, 0x37, 0xc9, 0xbe, 0x6a, 0xbe, 0x9c, 0xbe, 0x15, 0xab, 0xdb, 0xbe,
    0xf6, 0xac, 0x07, 0x3f, 0x53, 0x35, 0x37, 0xbf, 0x34, 0xfc, 0x33, 0x3f,
    0x42, 0x9a, 0x2a, 0x3f, 0x5f, 0xe0, 0x7e, 0x3f, 0x04, 0x97, 0xee, 0x3e,
    0xc5, 0x3e, 0x08, 0x3e, 0x45, 0x6d, 0x0c, 0x3d, 0xa3, 0x4f, 0x74, 0xbe,
    0x72, 0x80, 0xf7, 0x3d, 0x8f, 0xd4, 0x58, 0xbe, 0x22, 0x32, 0x77, 0xbf,
    0x4e, 0xe9, 0x17, 0x3f, 0x36, 0x4a, 0x0f, 0xbf, 0x54, 0x0d, 0x03, 0x3e,
    0x92, 0xd0, 0x81, 0xbe, 0x51, 0x29, 0x43, 0xbd, 0xb5, 0x4a, 0xcb, 0xbe,
    0x80, 0x75, 0x39, 0xbe, 0x2e, 0x02, 0x03, 0xbf, 0x66, 0x38, 0xd1, 0x3e,
    0x58, 0xf1, 0x0f, 0xbf, 0x23, 0x68, 0xb5, 0x3e, 0x30, 0xb3, 0xc1, 0xbe,
    0x0d, 0xfa, 0xac, 0xbd, 0x01, 0xa2, 0x3f, 0x3f, 0x7f, 0xa2, 0x05, 0xbf,
    0x40, 0x97, 0xc5, 0xbe, 0xf1, 0x92, 0xf0, 0x3d, 0x76, 0x0a, 0x73, 0xbf,
    0xaa, 0x17, 0x96, 0x3f, 0x16, 0x1b, 0x6b, 0x3f, 0x03, 0x19, 0x4e, 0x3f,
    0xc7, 0x42, 0xba, 0x3e, 0x27, 0x9a, 0x4f, 0x3f, 0xd8, 0xd0, 0x7a, 0x3e,
    0xb5, 0x00, 0x4c, 0xbf, 0xb0, 0xb4, 0xa1, 0xbe, 0x06, 0x30, 0x73, 0xbe,
    0x01, 0x32, 0x61, 0x3f, 0x62, 0xd5, 0x7b, 0x3e, 0xb4, 0x92, 0x04, 0x3f,
    0xaa, 0x59, 0xb8, 0x3d, 0xb1, 0x21, 0x11, 0x3f, 0x4c, 0x56, 0x0c, 0xbf,
    0x43, 0x02, 0x38, 0x3d, 0x62, 0x52, 0x84, 0xbe, 0x31, 0x56, 0x43, 0xbe,
    0xcf, 0x6c, 0x06, 0x3e, 0xe1, 0xb4, 0x6e, 0xbe, 0x42, 0x4b, 0xe8, 0x3b,
    0x87, 0xba, 0xfc, 0xbe, 0xd0, 0x17, 0x03, 0xbf, 0xef, 0xf0, 0xb6, 0xbd,
    0xc6, 0x25, 0x1a, 0xbf, 0xca, 0x64, 0x5c, 0x3d, 0x10, 0xd0, 0x92, 0xbe,
    0xd1, 0xea, 0x09, 0xbf, 0xde, 0x51, 0x94, 0x3c, 0xd3, 0xa9, 0x82, 0x3e,
    0xbf, 0x5a, 0x68, 0xbe, 0xaa, 0xbc, 0x5e, 0x3e, 0xc7, 0x32, 0xac, 0xbe,
    0xcb, 0x02, 0x89, 0xbe, 0xda, 0x30, 0x1d, 0xbf, 0xa3, 0x90, 0xb6, 0x3d,
    0xe7, 0x1a, 0x7a, 0x3f, 0x53, 0x5a, 0x8e, 0x3d, 0xa9, 0x99, 0x75, 0x3f,
    0x90, 0x71, 0x77, 0x3e, 0x7a, 0x47, 0x83, 0x3f, 0x81, 0x16, 0x61, 0xbe,
    0x46, 0x06, 0x71, 0xbe, 0x1e, 0x9c, 0x56, 0xbd, 0x69, 0x72, 0x90, 0xbc,
    0x10, 0x33, 0x4d, 0x3f, 0x51, 0x01, 0x8e, 0x3e, 0x55, 0xf9, 0xaf, 0xbe,
    0xaf, 0xb6, 0xd3, 0xbe, 0x5a, 0x6c, 0x36, 0xbf, 0xa2, 0x92, 0xbe, 0xbc,
    0x7b, 0xa6, 0x57, 0xbe, 0xea, 0x29, 0xe6, 0x3e, 0x80, 0x73, 0x55, 0x3f,
    0x07, 0xbb, 0xcb, 0x3e, 0x11, 0xb8, 0x1d, 0x3f, 0x27, 0x3c, 0x84, 0xbe,
    0x11, 0xe3, 0x09, 0x3e, 0x8a, 0xa7, 0x10, 0xbf, 0xdd, 0x58, 0xbb, 0xbe,
    0x06, 0xf2, 0xff, 0xff, 0x04, 0x00, 0x00, 0x00, 0x00, 0x0c, 0x00, 0x00,
    0x71, 0xeb, 0x6b, 0x3e, 0x61, 0xb7, 0x17, 0x3e, 0x67, 0x29, 0x9f, 0x3e,
    0x0d, 0xc3, 0x68, 0xbe, 0x3d, 0x44, 0x54, 0xbe, 0xb5, 0xed, 0xe1, 0x3d,
    0xde, 0x29, 0x20, 0x3e, 0x9f, 0x2c, 0x14, 0xbe, 0xd8, 0x91, 0x98, 0xbd,
    0x7e, 0x28, 0xac, 0xbe, 0x79, 0x52, 0xc4, 0xbe, 0xea, 0x59, 0x85, 0xbe,
    0x3d, 0xe3, 0xb0, 0xbd, 0x30, 0xa9, 0x4c, 0xbd, 0xab, 0x76, 0xbd, 0xbe,
    0xbe, 0x2e, 0xd7, 0x3e, 0xfb, 0x55, 0x7f, 0x3e, 0x00, 0x9f, 0x60, 0xbe,
    0x19, 0xb0, 0xe5, 0x3d, 0x13, 0x3e, 0xde, 0xbd, 0x74, 0x22, 0x68, 0xbd,
    0x31, 0xdf, 0xf9, 0x3c, 0x58, 0xd5, 0x28, 0xbe, 0x74, 0xd1, 0x3f, 0x3e,
    0x43, 0xd0, 0x6c, 0x3e, 0x47, 0x1e, 0xa7, 0xbd, 0xdb, 0x90, 0x0a, 0x3e,
    0x1d, 0xea, 0x58, 0x3d, 0x92, 0x0e, 0x11, 0x3d, 0xf2, 0xc5, 0x0c, 0x3e,
    0xda, 0x84, 0x17, 0x3f, 0xf3, 0xb1, 0xfb, 0x3e, 0x60, 0xfb, 0x48, 0xbe,
    0x70, 0xc0, 0x8c, 0x3e, 0xd6, 0xcc, 0x36, 0x3e, 0xd9, 0x23, 0x18, 0x3e,
    0x2f, 0x34, 0x79, 0x3e, 0xa8, 0x2c, 0xc5, 0x3d, 0x2d, 0xe0, 0xae, 0xbd,
    0xea, 0x5b, 0xe7, 0x3d, 0xbf, 0x44, 0x4e, 0x3e, 0x95, 0x0a, 0xde, 0x3c,
    0x40, 0xaf, 0x3d, 0x3e, 0x84, 0x0b, 0x80, 0x3e, 0x55, 0x17, 0x24, 0xbe,
    0xbe, 0xcd, 0x16, 0x3d, 0x8b, 0xe7, 0x5e, 0x3f, 0x5e, 0x8a, 0x0e, 0x3f,
    0x16, 0x34, 0x71, 0x3d, 0xda, 0x07, 0x2f, 0x3e, 0x98, 0x87, 0x49, 0x3e,
    0x76, 0xe9, 0x7b, 0xbd, 0x79, 0xb3, 0x8d, 0x3e, 0x35, 0xf1, 0x10, 0x3d,
    0x3a, 0x93, 0x32, 0xbe, 0x78, 0xcd, 0xef, 0x3e, 0x40, 0x11, 0x54, 0xbe,
    0x94, 0x62, 0xa9, 0x3d, 0x4c, 0xee, 0xf2, 0x3d, 0x8d, 0x5e, 0xc2, 0x3e,
    0x0a, 0x51, 0xaf, 0xbc, 0xe5, 0x21, 0x82, 0x3e, 0x4c, 0xf2, 0x21, 0xbd,
    0xe5, 0xf3, 0x64, 0xbe, 0x59, 0xd4, 0xec, 0xbd, 0x43, 0x27, 0xbf, 0x3d,
    0x6e, 0x72, 0x53, 0xbd, 0xd9, 0xab, 0xe9, 0x3d, 0x39, 0x7b, 0x3f, 0x3c,
    0xae, 0x5e, 0x1e, 0x3e, 0x79, 0xfa, 0x69, 0xbd, 0xc5, 0xb2, 0xe7, 0x3e,
    0x68, 0x83, 0xfb, 0xbd, 0x9e, 0x87, 0x0d, 0xbe, 0x20, 0x9b, 0x09, 0xbe,
    0x41, 0xc3, 0x58, 0xbe, 0x12, 0xfd, 0x09, 0xbe, 0x1f, 0xe5, 0x11, 0x3f,
    0xc9, 0x34, 0x52, 0xbf, 0x34, 0xd3, 0xe5, 0xbe, 0x39, 0x59, 0x98, 0x3c,
    0xe5, 0xba, 0x1e, 0xbd, 0x65, 0x64, 0x10, 0xbe, 0xed, 0xf7, 0xfd, 0x3d,
    0xf4, 0xde, 0xb9, 0x3e, 0xdc, 0x94, 0x8f, 0x3e, 0x58, 0x10, 0xe9, 0x3d,
    0xbd, 0x6d, 0x04, 0xbe, 0x60, 0x10, 0xcc, 0xbe, 0x2a, 0x24, 0x83, 0x3e,
    0xb8, 0xde, 0x22, 0xbe, 0xae, 0xe8, 0x18, 0xbe, 0xce, 0xda, 0x95, 0xbd,
    0x94, 0x8d, 0x12, 0x3f, 0x50, 0x83, 0x2f, 0xbf, 0x76, 0x4c, 0x5e, 0x3c,
    0x70, 0x41, 0xf8, 0x3d, 0x28, 0x38, 0x4d, 0xbe, 0x89, 0x78, 0x2e, 0xbe,
    0x8c, 0xbf, 0x0a, 0x3e, 0xef, 0x73, 0x0d, 0x3b, 0xfc, 0x70, 0x1a, 0x3e,
    0x3b, 0xba, 0x84, 0x3d, 0x0b, 0x53, 0x7f, 0xbe, 0x98, 0x28, 0xa8, 0xbd,
    0xd8, 0x67, 0xe8, 0xbd, 0x1e, 0xd5, 0xa3, 0xbd, 0xe1, 0xc6, 0x99, 0x3d,
    0x82, 0x2a, 0x25, 0xbe, 0xb7, 0xdb, 0x3b, 0xbe, 0x23, 0x80, 0x23, 0xbe,
    0x6f, 0x1d, 0xbc, 0x3c, 0xd5, 0x92, 0xab, 0xbb, 0xf4, 0xbc, 0x5d, 0x3e,
    0x21, 0xfb, 0x37, 0xbe, 0x71, 0xc2, 0x89, 0xbd, 0x22, 0xbc, 0xda, 0xbd,
    0x76, 0x3d, 0x9f, 0xbd, 0x5a, 0xe6, 0x38, 0xbe, 0x9f, 0xfb, 0xaa, 0x3a,
    0x50, 0x17, 0x17, 0xbe, 0xf1, 0x19, 0x35, 0x3e, 0xb4, 0xf0, 0x35, 0xbe,
    0x15, 0x41, 0x51, 0x3c, 0xdb, 0x6b, 0x1a, 0xbe, 0x13, 0xde, 0x6d, 0xbe,
    0xdf, 0x71, 0x87, 0xbe, 0x68, 0xe9, 0x04, 0x3e, 0x27, 0x25, 0x7a, 0xbe,
    0x31, 0x87, 0x88, 0xbe, 0x6e, 0x7d, 0x00, 0xbe, 0x7c, 0x17, 0x05, 0x3e,
    0x9a, 0xc1, 0xc0, 0xbc, 0x30, 0x87, 0x47, 0xbd, 0xae, 0x79, 0x14, 0xbe,
    0xb4, 0xc2, 0x48, 0x3e, 0xb3, 0x53, 0x6a, 0xbe, 0x79, 0x28, 0xd5, 0x3d,
    0x16, 0x82, 0x93, 0xbc, 0xdc, 0x95, 0xed, 0xbd, 0x76, 0xa4, 0x8d, 0xbd,
    0xf3, 0x97, 0x3f, 0x3e, 0x87, 0x9d, 0x2b, 0x3e, 0x08, 0xb4, 0x4c, 0xbe,
    0x71, 0xdd, 0x03, 0x3e, 0xab, 0x5a, 0xac, 0x3d, 0xcc, 0x5f, 0xe7, 0xbd,
    0x89, 0xfa, 0x15, 0x3e, 0xdd, 0x3a, 0x13, 0xbe, 0x45, 0x8d, 0x8c, 0x3e,
    0x2b, 0x2f, 0x4e, 0x3e, 0x68, 0xbe, 0xb1, 0x3e, 0x6e, 0xfa, 0x63, 0x3e,
    0x4b, 0x04, 0x6f, 0xbe, 0xf5, 0x26, 0x25, 0x3e, 0xb2, 0xa5, 0x9f, 0x3d,
    0x90, 0x74, 0xa4, 0x3e, 0xa8, 0x20, 0x89, 0x3e, 0xa0, 0xc7, 0x86, 0x3d,
    0xcb, 0x28, 0xe2, 0x3e, 0xb0, 0x27, 0x37, 0xbe, 0xb6, 0x13, 0x18, 0x3e,
    0x44, 0xdc, 0xc4, 0x3d, 0xf4, 0x19, 0x6e, 0xbe, 0xa1, 0x8e, 0x53, 0xbe,
    0x78, 0xd4, 0x86, 0x3d, 0x07, 0x36, 0xaa, 0xbd, 0x58, 0x06, 0xb9, 0x3e,
    0xac, 0xe8, 0xb8, 0x3e, 0x4c, 0xe9, 0xb0, 0xbe, 0x4a, 0x15, 0x76, 0x3e,
    0x76, 0x99, 0x19, 0x3e, 0xd6, 0xfd, 0x5b, 0x3e, 0xc0, 0xf7, 0x99, 0x3e,
    0x50, 0x74, 0x77, 0xbe, 0x09, 0xcf, 0x83, 0x3b, 0x13, 0x80, 0xc0, 0xbd,
    0xda, 0x64, 0x9e, 0xbc, 0x73, 0xf3, 0xce, 0xbe, 0x7f, 0x59, 0x01, 0xbf,
    0xc3, 0xe6, 0x03, 0xbe, 0x07, 0x6d, 0xcd, 0xbd, 0xb0, 0x34, 0xe2, 0x3d,
    0xc0, 0xb6, 0x22, 0x3e, 0xe5, 0x76, 0x42, 0xbe, 0x33, 0xa8, 0x74, 0xbe,
    0x67, 0x62, 0xa4, 0x3e, 0x60, 0x24, 0xf7, 0x3d, 0xa2, 0x08, 0x8e, 0x3e,
    0x61, 0xd6, 0x87, 0xbe, 0x80, 0x6f, 0x1d, 0x3c, 0xda, 0xfe, 0x45, 0xbd,
    0x2c, 0xc5, 0x9d, 0x3d, 0x54, 0x43, 0x23, 0x3e, 0x3c, 0x11, 0x63, 0xbe,
    0xe3, 0x25, 0x2d, 0x3e, 0xc0, 0x2d, 0x9f, 0xbc, 0xcb, 0x64, 0x13, 0x3e,
    0x85, 0x96, 0xbf, 0x3d, 0x45, 0x90, 0x01, 0xbf, 0x37, 0x2c, 0x21, 0xbe,
    0x30, 0xa0, 0xea, 0xbc, 0xef, 0xc3, 0x51, 0xbc, 0xe2, 0xb9, 0x28, 0xbe,
    0xa9, 0x4f, 0x81, 0x3e, 0x8a, 0x30, 0x36, 0xbe, 0xb3, 0xef, 0xa5, 0xbe,
    0xf6, 0xf2, 0xcf, 0xbd, 0xf5, 0x59, 0x71, 0xbe, 0x62, 0x7d, 0x16, 0x3e,
    0xd8, 0x2b, 0x08, 0x3e, 0x30, 0x49, 0x1e, 0x3d, 0x7f, 0x11, 0x2b, 0x3d,
    0x8a, 0xf2, 0x9c, 0xbd, 0x5b, 0xcb, 0x35, 0x3e, 0x6e, 0x4e, 0x7d, 0xbe,
    0xba, 0x4d, 0x50, 0x3e, 0x70, 0x34, 0x47, 0x3e, 0x08, 0xc3, 0x56, 0x3e,
    0x33, 0xd0, 0xda, 0xbc, 0x1a, 0x92, 0xb9, 0x3d, 0x84, 0x96, 0x90, 0xbe,
    0x76, 0x40, 0x57, 0x3f, 0x77, 0x85, 0x34, 0x3e, 0x4e, 0x13, 0x78, 0x3e,
    0x4a, 0xd2, 0x2f, 0x3f, 0x40, 0xa0, 0x48, 0x3e, 0xf9, 0x17, 0x79, 0xbd,
    0x3c, 0xdf, 0x72, 0xbe, 0x9c, 0xd7, 0xb0, 0x3d, 0x50, 0xdf, 0xeb, 0x3d,
    0xac, 0x1b, 0x89, 0x3e, 0x63, 0x2a, 0xc5, 0x3e, 0xa6, 0x4a, 0x23, 0x3e,
    0x2a, 0x33, 0x45, 0x3e, 0xf7, 0xa4, 0x06, 0xbe, 0x4b, 0xed, 0xd5, 0x3d,
    0xb0, 0xd2, 0xa2, 0xbd, 0xf7, 0x07, 0x44, 0x3f, 0xbd, 0x40, 0xe4, 0x3e,
    0x05, 0xd6, 0xc6, 0x3e, 0x83, 0x9b, 0xc6, 0x3e, 0x46, 0x72, 0xa8, 0xbe,
    0x1d, 0x51, 0x16, 0x3f, 0x03, 0x6d, 0x9c, 0x3d, 0x4a, 0x71, 0x2b, 0xbe,
    0xd3, 0x0e, 0x15, 0x3e, 0xae, 0xa7, 0x42, 0x3e, 0x20, 0xae, 0x91, 0x3e,
    0xd8, 0xfa, 0xad, 0x3e, 0xbf, 0x03, 0xc5, 0x3d, 0xbc, 0xcd, 0xfc, 0x3b,
    0xc4, 0xe2, 0x9c, 0x3e, 0x09, 0xd9, 0x9b, 0x3e, 0x79, 0x44, 0xdf, 0x3e,
    0x70, 0x59, 0x09, 0x3e, 0xf2, 0xc9, 0xf7, 0x3d, 0x5e, 0x1e, 0x29, 0x3e,
    0xb6, 0x0a, 0x70, 0xbf, 0x98, 0x7c, 0xf9, 0xbe, 0x93, 0x4f, 0x49, 0x3e,
    0x37, 0xb5, 0xc7, 0xbd, 0xe7, 0x42, 0xbc, 0x3e, 0xe1, 0xff, 0xde, 0x3d,
    0x80, 0x3d, 0xdd, 0x3d, 0x9e, 0x5e, 0x1b, 0xbe, 0xd4, 0xbe, 0x13, 0xbf,
    0xb1, 0x65, 0x8e, 0xbe, 0x4e, 0xbe, 0x1e, 0x3e, 0x10, 0x63, 0x13, 0x3e,
    0x17, 0x9d, 0xd2, 0xbd, 0xb3, 0x25, 0xf1, 0xbd, 0x04, 0x98, 0xae, 0x3e,
    0xbd, 0x51, 0xd3, 0xbd, 0xb9, 0xd6, 0x35, 0xbe, 0xac, 0x67, 0x83, 0x3e,
    0x73, 0xbc, 0x29, 0xbe, 0xa3, 0x5a, 0x83, 0xbe, 0xb1, 0x7f, 0x62, 0x3e,
    0xbf, 0xe0, 0x5a, 0xbe, 0xf7, 0xe0, 0xaa, 0xbc, 0xd4, 0x9b, 0xc1, 0xbe,
    0x8f, 0xfc, 0xbf, 0xbf, 0xad, 0x58, 0xa3, 0xbd, 0xd4, 0x1b, 0x8b, 0x3d,
    0xe4, 0xad, 0xc9, 0xbe, 0x91, 0x06, 0xb5, 0xbe, 0x6a, 0x0d, 0xc9, 0x3e,
    0xb4, 0xce, 0x77, 0x3d, 0xb8, 0x32, 0x37, 0xbd, 0x66, 0x53, 0xeb, 0xbd,
    0xb5, 0x72, 0x8a, 0x3d, 0x85, 0x1c, 0x36, 0x3c, 0x6b, 0x0f, 0x1b, 0xbd,
    0xeb, 0xb5, 0x4a, 0x3e, 0xed, 0x82, 0xb4, 0xbd, 0x5f, 0x26, 0x90, 0x3e,
    0x78, 0xeb, 0x07, 0xbc, 0x9b, 0x09, 0x51, 0xbe, 0x9a, 0xb2, 0xef, 0x3d,
    0x7b, 0x89, 0x19, 0xbe, 0xd1, 0x7c, 0x7c, 0xbe, 0x7f, 0x75, 0x97, 0xbe,
    0x04, 0x42, 0x1c, 0x3f, 0xf2, 0xce, 0xad, 0xbd, 0xff, 0x80, 0x0d, 0xbe,
    0x7a, 0x0a, 0x0e, 0x3d, 0x7c, 0x82, 0x84, 0xbe, 0xf5, 0x04, 0x88, 0xbe,
    0xa6, 0xb1, 0x13, 0xbd, 0xa8, 0x45, 0xf3, 0xbc, 0xbf, 0x5f, 0x78, 0x3d,
    0x40, 0xce, 0x68, 0x3e, 0xc9, 0xae, 0x40, 0x3e, 0xc0, 0xa5, 0xa4, 0x3e,
    0x94, 0x25, 0x5e, 0x3e, 0x1b, 0x57, 0x03, 0xbe, 0x78, 0x6c, 0x12, 0xbd,
    0xbd, 0x56, 0x60, 0x3f, 0xa0, 0xa7, 0xdc, 0x3e, 0x89, 0x5f, 0x97, 0xbd,
    0x9b, 0xce, 0x8b, 0x3e, 0x6d, 0xac, 0x53, 0x3e, 0xe4, 0x2c, 0x8f, 0xbe,
    0xc5, 0x8e, 0x6d, 0x3e, 0x73, 0x10, 0x0a, 0xbe, 0xe4, 0x77, 0xa5, 0xbd,
    0xc1, 0xe1, 0xf9, 0x3d, 0x97, 0x2a, 0x75, 0x3e, 0xce, 0xc0, 0x6f, 0xbe,
    0xa3, 0x42, 0x23, 0x3e, 0x36, 0x8c, 0x97, 0x3e, 0xca, 0x3d, 0x5a, 0xbd,
    0xb5, 0x95, 0x23, 0x3d, 0xf5, 0x8f, 0x74, 0x3f, 0x75, 0xd6, 0xdb, 0x3e,
    0x4a, 0x05, 0x21, 0x3e, 0x5f, 0x52, 0x8d, 0x3e, 0x34, 0x7c, 0x18, 0x3d,
    0xd5, 0x95, 0xa7, 0x3e, 0xd9, 0x34, 0x23, 0x3e, 0xce, 0x99, 0xb9, 0x3e,
    0x4c, 0x53, 0x52, 0xbe, 0x69, 0x80, 0x0b, 0xbf, 0xb9, 0x44, 0x17, 0x3f,
    0xe3, 0x61, 0x51, 0xbd, 0x58, 0x91, 0x84, 0x3e, 0xf5, 0xc2, 0xbc, 0x3e,
    0xd5, 0x82, 0x8f, 0x3e, 0x5a, 0x02, 0x83, 0xbf, 0x34, 0x0b, 0x26, 0x3f,
    0xda, 0xb1, 0xa1, 0x3e, 0x46, 0xc2, 0x86, 0x3e, 0xca, 0x26, 0xb6, 0x3d,
    0xbc, 0x9f, 0xe2, 0xbe, 0xe0, 0xc0, 0xab, 0x3e, 0x79, 0xa0, 0xf2, 0xbd,
    0x3e, 0x3a, 0xcb, 0xbe, 0x25, 0x5c, 0xd1, 0x3d, 0x25, 0x5d, 0x28, 0xbd,
    0x30, 0x9d, 0x2a, 0x3f, 0x0d, 0x6d, 0xc3, 0x3e, 0x2f, 0xdb, 0xba, 0x3b,
    0xf0, 0x99, 0xbd, 0x3d, 0xa0, 0x44, 0xac, 0xbe, 0x98, 0x17, 0xc6, 0xbe,
    0x7d, 0x9f, 0xfe, 0x3e, 0xc7, 0xb7, 0x79, 0xbd, 0x00, 0x54, 0x60, 0xbe,
    0x45, 0x7a, 0x61, 0xbe, 0x62, 0xd9, 0xb9, 0x3d, 0x9c, 0x20, 0xd3, 0x3d,
    0xc4, 0xbb, 0xc0, 0xbe, 0x7f, 0xd1, 0xe1, 0x3c, 0xec, 0xf2, 0x76, 0x3d,
    0x31, 0x56, 0x3d, 0x3e, 0x5a, 0x15, 0xc0, 0x3e, 0x05, 0xd7, 0x6c, 0x3e,
    0xe8, 0x5f, 0x90, 0xbe, 0x04, 0x09, 0x13, 0xbe, 0x28, 0x8a, 0x9d, 0xbe,
    0xb0, 0x53, 0x77, 0x3e, 0xb0, 0xb4, 0x67, 0xbe, 0xcf, 0xec, 0xe4, 0x3e,
    0xe9, 0x37, 0xbd, 0xbc, 0xa4, 0x48, 0x11, 0x3e, 0x15, 0x59, 0x14, 0x3d,
    0xe7, 0x85, 0xca, 0x3e, 0xaa, 0xfa, 0x2c, 0xbf, 0xd0, 0xe3, 0x0c, 0xbe,
    0x84, 0x0f, 0xd6, 0x3e, 0x44, 0x00, 0x26, 0x3e, 0xf2, 0x9e, 0x18, 0xbe,
    0xc8, 0x7c, 0x13, 0xbf, 0xc2, 0x4c, 0x16, 0xbd, 0x45, 0x8f, 0x99, 0x3d,
    0x50, 0x91, 0xa7, 0x3e, 0x2a, 0x8f, 0x6b, 0xbc, 0x5a, 0xb5, 0x8a, 0x3e,
    0x53, 0x04, 0x6e, 0xbd, 0x06, 0x9a, 0x40, 0xbe, 0xd3, 0xf7, 0x7e, 0xbd,
    0xba, 0x13, 0x84, 0xbd, 0x62, 0x42, 0xa5, 0xbb, 0x35, 0x24, 0xde, 0xbd,
    0x28, 0x51, 0x8d, 0x3e, 0x48, 0xb1, 0x3d, 0x3c, 0xfc, 0x31, 0x4d, 0xbe,
    0x0f, 0xc0, 0x1d, 0x3e, 0xe6, 0xe5, 0x3c, 0xbf, 0xd6, 0x93, 0x0e, 0x3e,
    0xff, 0xd6, 0x26, 0x3e, 0xcd, 0xc4, 0x01, 0x3e, 0xc3, 0x07, 0x86, 0x3e,
    0x07, 0xdc, 0x04, 0xbf, 0xdd, 0xe4, 0x99, 0x3e, 0x43, 0x5d, 0xbe, 0x3d,
    0xc1, 0xaf, 0x63, 0xbe, 0x9f, 0xa1, 0xd5, 0xbd, 0x52, 0xab, 0x8e, 0xbe,
    0x47, 0x36, 0x5a, 0xbe, 0xaa, 0x91, 0x80, 0xbd, 0x83, 0x07, 0x2f, 0xbe,
    0xc6, 0x3a, 0x0b, 0x3d, 0x85, 0xcb, 0x50, 0x3e, 0x73, 0xac, 0xee, 0xbe,
    0xe0, 0x30, 0xe9, 0x3d, 0x5c, 0x0b, 0x47, 0x3d, 0x85, 0x4d, 0x2a, 0xbd,
    0x34, 0xed, 0x35, 0xbf, 0x40, 0x27, 0x03, 0xbd, 0x43, 0x41, 0x7a, 0x3e,
    0x15, 0x68, 0xbd, 0xbd, 0xd7, 0xb7, 0x9b, 0x3e, 0xad, 0x5a, 0xfe, 0x3d,
    0x2e, 0xc7, 0xb0, 0x3e, 0xec, 0x96, 0x9b, 0x3d, 0x11, 0xcb, 0xce, 0xbd,
    0x10, 0xf8, 0x94, 0xbe, 0xd1, 0x92, 0xaa, 0x3e, 0xb0, 0x08, 0x4d, 0x3d,
    0x0c, 0x50, 0x89, 0x3e, 0x3f, 0x8c, 0x9b, 0x3e, 0xe3, 0x40, 0x97, 0x3d,
    0xd5, 0x54, 0x16, 0xbf, 0x9b, 0x1d, 0x20, 0x3e, 0x32, 0x98, 0x02, 0x3f,
    0x8e, 0xb8, 0x96, 0xbe, 0xe2, 0xf2, 0x4d, 0x3e, 0xb4, 0xaf, 0x1b, 0xbe,
    0x8a, 0x2b, 0x9e, 0xbe, 0x7a, 0xaf, 0x0a, 0x3e, 0xe8, 0x1f, 0xc6, 0x3d,
    0x3b, 0xb6, 0xb2, 0x3e, 0xc5, 0x1f, 0x32, 0x3e, 0x9e, 0x1f, 0xd8, 0x3e,
    0x7a, 0xf0, 0x5b, 0x3f, 0xce, 0x52, 0x48, 0x3c, 0x3d, 0x3f, 0x0a, 0x3e,
    0x97, 0xba, 0xa3, 0xbe, 0xed, 0xb5, 0x23, 0xbf, 0x5d, 0x46, 0x0a, 0x3e,
    0xeb, 0x96, 0x19, 0x3e, 0xb7, 0x28, 0x9e, 0x3e, 0x3f, 0x51, 0x9d, 0xbd,
    0xc9, 0x20, 0x89, 0xbf, 0x86, 0x44, 0x07, 0xbc, 0x2e, 0x34, 0x01, 0x3d,
    0xf5, 0x95, 0x26, 0x3d, 0xfd, 0x06, 0x09, 0x3f, 0x2e, 0x7d, 0x67, 0xbe,
    0x0f, 0x6d, 0xae, 0x3d, 0x6c, 0x56, 0x3a, 0x3f, 0xf6, 0x3b, 0x38, 0x3e,
    0x23, 0x09, 0x7c, 0xbe, 0xe0, 0xfb, 0xd2, 0x3d, 0xa3, 0x4a, 0xbc, 0xbe,
    0x20, 0xab, 0x29, 0x3d, 0x43, 0x29, 0x38, 0xbe, 0xee, 0x7e, 0x0f, 0x3f,
    0x72, 0x9a, 0x1a, 0x3d, 0xb7, 0x03, 0x95, 0x3d, 0x39, 0x89, 0xe6, 0xbd,
    0xcd, 0xef, 0x61, 0x3e, 0x53, 0xe1, 0xda, 0x3e, 0xea, 0x21, 0x55, 0xbe,
    0xfe, 0xcf, 0x54, 0xbe, 0xac, 0x80, 0x94, 0x3e, 0xaa, 0xd2, 0x25, 0xbf,
    0x01, 0xff, 0xed, 0x3e, 0x24, 0xb4, 0xc1, 0x3e, 0xef, 0xd9, 0xa5, 0x3d,
    0xc2, 0xf4, 0x4d, 0xbc, 0x39, 0xea, 0x86, 0x3e, 0xe1, 0x61, 0x83, 0x3e,
    0x49, 0xfa, 0x34, 0xbf, 0x5c, 0xbf, 0x01, 0xbd, 0xc5, 0xee, 0x6d, 0x3e,
    0xc0, 0x1e, 0x34, 0x3e, 0x69, 0x31, 0x80, 0x3e, 0x82, 0x0d, 0xb6, 0x3e,
    0xf6, 0x1e, 0xbc, 0x3d, 0x91, 0x85, 0x3d, 0x3e, 0x7d, 0x2c, 0x20, 0x3f,
    0xf1, 0xb9, 0x58, 0xbe, 0x42, 0xe1, 0x91, 0xbd, 0xeb, 0x14, 0xe4, 0xbd,
    0xff, 0xaa, 0xb0, 0xbe, 0x5c, 0xe5, 0x9b, 0x3d, 0x29, 0x28, 0xd9, 0x3e,
    0x65, 0x95, 0x53, 0xbf, 0x44, 0x96, 0xa9, 0xbe, 0x16, 0xd1, 0x3a, 0xbe,
    0x77, 0xe6, 0x80, 0xbe, 0x65, 0x33, 0x4a, 0x3d, 0xb3, 0x1e, 0x84, 0x3d,
    0x27, 0x42, 0x16, 0x3e, 0xe3, 0xf1, 0xdc, 0x3e, 0x7d, 0xec, 0x1a, 0x3e,
    0xcc, 0xbc, 0x93, 0xbe, 0x80, 0xef, 0x12, 0xbe, 0x8f, 0xaf, 0x14, 0xbc,
    0xa5, 0x10, 0x71, 0xbe, 0x61, 0x84, 0x94, 0xbe, 0xea, 0x2e, 0x7c, 0x3e,
    0x4e, 0xc9, 0xe5, 0x3d, 0x40, 0xd0, 0x69, 0xbf, 0x0a, 0x1b, 0xa6, 0xbe,
    0x68, 0xae, 0x20, 0x3e, 0xbb, 0xef, 0xdb, 0xbf, 0x68, 0x0d, 0x8c, 0x3e,
    0x88, 0x7c, 0x03, 0x3e, 0xf6, 0xa4, 0xaa, 0x3e, 0x6f, 0x34, 0x90, 0x3e,
    0x0c, 0xb9, 0x0e, 0xbf, 0x8b, 0x2c, 0xb2, 0xbf, 0x8d, 0xb0, 0x6c, 0x3e,
    0xc7, 0xab, 0xb2, 0xbd, 0xa8, 0x03, 0xa0, 0x3c, 0x7b, 0x0d, 0x03, 0x3e,
    0x8a, 0xbd, 0x8d, 0xbe, 0x08, 0x10, 0x17, 0xbf, 0x3c, 0x4d, 0x7b, 0x3f,
    0xdb, 0x3a, 0xaa, 0x3e, 0xe1, 0x66, 0xc8, 0xbc, 0x20, 0x47, 0x36, 0x3e,
    0xcb, 0x87, 0x23, 0xbe, 0x46, 0x8e, 0xb1, 0x3e, 0x83, 0x40, 0x9b, 0x3e,
    0x3e, 0x8a, 0x88, 0x3c, 0x4f, 0x1c, 0x98, 0xbf, 0x09, 0x4f, 0xfc, 0xbd,
    0x7e, 0x4a, 0x1c, 0x3f, 0x8e, 0xf5, 0xdf, 0xbd, 0x9d, 0x69, 0x55, 0x3e,
    0x79, 0xee, 0x86, 0x3b, 0xff, 0xc4, 0x94, 0x3e, 0x29, 0x41, 0x05, 0xc0,
    0x79, 0x9a, 0x0c, 0x3f, 0x53, 0x3e, 0x26, 0x3f, 0xb6, 0xd9, 0x8b, 0xbd,
    0xb8, 0x4e, 0x0f, 0xbe, 0xc7, 0x05, 0xf9, 0xbe, 0x71, 0x3f, 0x5e, 0x3d,
    0x8f, 0xe9, 0x7c, 0x3e, 0x9a, 0x6a, 0x65, 0xbf, 0xd2, 0x06, 0x2b, 0xbf,
    0xcc, 0xff, 0xd8, 0xbd, 0x3e, 0x1e, 0x2a, 0xbf, 0x52, 0x93, 0x53, 0xbe,
    0xe1, 0x0e, 0x19, 0xbe, 0x0c, 0x62, 0x1f, 0xbd, 0x11, 0xb4, 0xa0, 0x3d,
    0x7d, 0x80, 0x48, 0xbf, 0x7d, 0x72, 0xac, 0x3e, 0xe0, 0x67, 0xd4, 0xbf,
    0x43, 0x89, 0x5f, 0x3d, 0xae, 0xab, 0x99, 0x3d, 0xb8, 0x5a, 0x09, 0x3d,
    0x1e, 0xbe, 0x36, 0x3e, 0xf9, 0xac, 0xb8, 0x3e, 0xd8, 0x64, 0x71, 0xbe,
    0x90, 0xf9, 0x20, 0xbd, 0xdb, 0x29, 0x85, 0x3e, 0x50, 0x00, 0x1f, 0xbe,
    0x58, 0x8e, 0x86, 0x3e, 0x97, 0x42, 0x55, 0x3e, 0x99, 0x35, 0x5a, 0xbe,
    0x0f, 0x42, 0xb4, 0x3c, 0x14, 0xb5, 0x86, 0x3e, 0xbb, 0xf1, 0x9f, 0xbd,
    0xe3, 0x45, 0x8a, 0x3d, 0x7f, 0x61, 0x50, 0x3e, 0x63, 0x1e, 0x90, 0x3e,
    0xa3, 0x6c, 0x75, 0x3e, 0xae, 0x7a, 0xe0, 0xbc, 0x15, 0x0f, 0x09, 0x3e,
    0x60, 0x30, 0xc5, 0xbd, 0xe2, 0xa5, 0x41, 0x3e, 0x7b, 0x0f, 0x9b, 0xbb,
    0xb7, 0xb2, 0xdd, 0xbe, 0x7f, 0xc9, 0x24, 0xbe, 0xc4, 0x25, 0xbb, 0xbd,
    0xa5, 0x89, 0xca, 0xbe, 0x9d, 0x37, 0x3e, 0xbc, 0x1e, 0x38, 0xd5, 0x3e,
    0xcd, 0xfa, 0xe0, 0xbe, 0x82, 0x6d, 0x20, 0xbe, 0x6b, 0x25, 0x85, 0x3d,
    0x22, 0xf0, 0x82, 0x3e, 0xfd, 0x00, 0x9e, 0x3d, 0xcd, 0xae, 0x88, 0x3e,
    0x66, 0x77, 0x5b, 0x3e, 0xb0, 0xfe, 0xc5, 0x3e, 0x77, 0x68, 0x68, 0x3e,
    0xf3, 0xbe, 0x17, 0x3e, 0x8a, 0xb9, 0x8e, 0xbe, 0xb8, 0x7d, 0x66, 0x3e,
    0x4c, 0xe2, 0xa7, 0xbd, 0xe1, 0x93, 0xf9, 0xbd, 0x49, 0x13, 0xb5, 0xbd,
    0x76, 0xf9, 0xaa, 0x3e, 0x48, 0xc6, 0x35, 0xbe, 0xf7, 0x6c, 0xd3, 0xbe,
    0x3b, 0xc8, 0xd5, 0xbd, 0x99, 0xa6, 0xba, 0xbe, 0x70, 0x7b, 0x83, 0x3e,
    0x98, 0xc8, 0xb0, 0xbe, 0xb4, 0xdd, 0xcb, 0xbe, 0xe3, 0xa1, 0x98, 0x3e,
    0xa2, 0x56, 0x36, 0xbf, 0xc8, 0xe3, 0xe3, 0xbe, 0xb8, 0x52, 0xf5, 0x3e,
    0x14, 0x46, 0x91, 0xbe, 0xa9, 0x2e, 0x85, 0xbd, 0xb6, 0xd9, 0x05, 0x3f,
    0xa2, 0x97, 0xec, 0x3d, 0xe7, 0xaa, 0x06, 0x3f, 0x3a, 0x47, 0xaa, 0x3c,
    0x94, 0xb9, 0xe8, 0x3d, 0x55, 0xd8, 0x65, 0xbe, 0x94, 0x1d, 0x28, 0x3e,
    0x3c, 0xe5, 0x54, 0xbd, 0xa9, 0x17, 0x83, 0xbe, 0x06, 0x6d, 0x0a, 0xbe,
    0x37, 0x1a, 0xa7, 0xbd, 0xbb, 0x31, 0x80, 0xbf, 0xf9, 0x5b, 0x0c, 0x3f,
    0x63, 0xfa, 0x88, 0x3e, 0x58, 0x03, 0x79, 0xbe, 0x5b, 0x3c, 0x46, 0x3e,
    0x56, 0x48, 0xc9, 0x3e, 0xe8, 0x65, 0x18, 0xbf, 0x65, 0xe0, 0x76, 0x3e,
    0x46, 0x84, 0x3b, 0xbe, 0x04, 0x7f, 0x26, 0x3e, 0x7e, 0x13, 0x16, 0xbf,
    0xb3, 0xb2, 0xd9, 0x3e, 0x80, 0xbd, 0xe8, 0xbe, 0xe7, 0xa8, 0x24, 0xbf,
    0xbd, 0x76, 0x3a, 0xbc, 0x7b, 0x4b, 0x70, 0x3b, 0x6e, 0xb0, 0xc6, 0xbe,
    0xc1, 0xa9, 0xb0, 0x3e, 0x24, 0x20, 0x9a, 0xbd, 0x06, 0x84, 0x5f, 0xbe,
    0xf9, 0xe3, 0xc0, 0x3e, 0x12, 0xe2, 0x84, 0x3e, 0xee, 0x37, 0xf2, 0x3c,
    0x02, 0xd7, 0x17, 0x3c, 0x84, 0x76, 0x02, 0x3f, 0x6c, 0x66, 0xf2, 0x3d,
    0xa4, 0x8a, 0xa0, 0x3c, 0x7a, 0xa5, 0x74, 0xbf, 0x71, 0x98, 0x03, 0xbe,
    0xa6, 0x8c, 0x83, 0xbe, 0x4c, 0xbe, 0x92, 0xbc, 0x70, 0xb4, 0xc1, 0x3d,
    0x61, 0x68, 0x3d, 0xbf, 0x61, 0xec, 0xa6, 0xbe, 0x6e, 0x37, 0x9c, 0x3d,
    0x56, 0xee, 0x24, 0x3e, 0x96, 0x5f, 0x7a, 0x3e, 0x3a, 0xf6, 0xd7, 0x3d,
    0xfa, 0x2b, 0xab, 0xbe, 0x62, 0x23, 0x8d, 0xbd, 0x61, 0xfd, 0x34, 0xbf,
    0x96, 0x0a, 0xcc, 0x3e, 0x6e, 0x50, 0x19, 0xbe, 0x35, 0x26, 0x57, 0xbc,
    0xb8, 0x59, 0xb1, 0x3e, 0x2f, 0x85, 0x0b, 0x3d, 0x6f, 0xa6, 0xe7, 0x3d,
    0x21, 0xab, 0x25, 0x3e, 0xb2, 0xdb, 0x8e, 0xbf, 0x66, 0x87, 0x57, 0x3e,
    0xf2, 0x61, 0xcf, 0x3e, 0x95, 0x06, 0x42, 0xbe, 0x43, 0x4f, 0xee, 0x3e,
    0x7b, 0x88, 0xeb, 0x3e, 0x4c, 0x50, 0xf2, 0xbe, 0x87, 0x0b, 0x22, 0xbe,
    0xda, 0x97, 0x43, 0x3f, 0x5f, 0xa6, 0x72, 0x3e, 0xa0, 0x39, 0x83, 0xbe,
    0x19, 0xb1, 0x13, 0x3f, 0x18, 0x87, 0xab, 0xbe, 0xce, 0xd2, 0x23, 0xbf,
    0x14, 0xfb, 0xdb, 0xbb, 0x8d, 0x82, 0xde, 0xbd, 0x58, 0x73, 0xd3, 0x3e,
    0xb6, 0x52, 0xfd, 0x3e, 0x9e, 0x68, 0x59, 0xbe, 0xff, 0x47, 0x72, 0xbe,
    0xe6, 0xe1, 0xa6, 0x3e, 0x45, 0x74, 0x6e, 0x3e, 0x1a, 0xcc, 0x55, 0x3f,
    0x5d, 0xca, 0x43, 0x3e, 0xc3, 0x72, 0x86, 0x3f, 0xbe, 0x76, 0x51, 0xbe,
    0x9d, 0xcb, 0xa3, 0xbe, 0xaa, 0x8a, 0xcf, 0x3e, 0xe6, 0x08, 0x28, 0xbe,
    0xbf, 0x57, 0xe0, 0xbd, 0x95, 0x1e, 0x10, 0xbf, 0x0c, 0x37, 0x8d, 0xbe,
    0x34, 0x63, 0x02, 0xbe, 0xe1, 0xf3, 0x08, 0x3f, 0x96, 0xa6, 0x2a, 0x3d,
    0xde, 0xd8, 0x19, 0xbd, 0xc3, 0x06, 0x32, 0xbe, 0xa9, 0x9e, 0xc4, 0x3d,
    0x1b, 0x3c, 0xa9, 0xbf, 0xc2, 0x73, 0x00, 0x3f, 0x1d, 0x52, 0x89, 0xbc,
    0xff, 0x80, 0x06, 0x3e, 0x2b, 0x7b, 0x3b, 0x3e, 0x5d, 0x0f, 0xfe, 0x3d,
    0xe4, 0x00, 0xbc, 0x3d, 0x27, 0x67, 0xfb, 0xbd, 0xa1, 0xba, 0x2f, 0xbe,
    0x49, 0xfb, 0x5f, 0x3e, 0x9e, 0x68, 0xe5, 0x3e, 0xa4, 0x82, 0x49, 0x3e,
    0x4a, 0xe2, 0xf6, 0x3e, 0x3b, 0xf5, 0x91, 0x3e, 0xa0, 0x6c, 0xcc, 0xbd,
    0x40, 0xc1, 0x88, 0xbd, 0xa4, 0x0b, 0x8a, 0xbf, 0x60, 0x7c, 0x70, 0xbd,
    0x71, 0xbf, 0x94, 0x3d, 0x64, 0x0f, 0x58, 0x3e, 0xb9, 0xb5, 0x5f, 0xbd,
    0x8f, 0x7e, 0x81, 0xbf, 0xb8, 0x43, 0x94, 0x3e, 0x97, 0x19, 0x26, 0xbd,
    0x61, 0x42, 0xbf, 0xbc, 0xe8, 0x4d, 0xb0, 0x3e, 0x72, 0xc6, 0x1a, 0x3f,
    0x86, 0x23, 0x65, 0xbf, 0x02, 0x8d, 0xf6, 0x3e, 0x1e, 0x0c, 0x6d, 0x3e,
    0xd5, 0x81, 0x85, 0x3e, 0xcf, 0xaf, 0x69, 0x3e, 0x5d, 0xa6, 0x6c, 0xbf,
    0xfa, 0x6c, 0xab, 0xbc, 0x03, 0x4a, 0x2d, 0x3f, 0x0c, 0xb7, 0x86, 0x3e,
    0x12, 0xfe, 0xff, 0xff, 0x04, 0x00, 0x00, 0x00, 0x0c, 0x00, 0x00, 0x00,
    0x01, 0x00, 0x00, 0x00, 0x06, 0x00, 0x00, 0x00, 0x10, 0x00, 0x00, 0x00,
    0x2a, 0xfe, 0xff, 0xff, 0x04, 0x00, 0x00, 0x00, 0x10, 0x00, 0x00, 0x00,
    0xa7, 0x99, 0x12, 0xbd, 0x95, 0x3d, 0x39, 0xbc, 0x78, 0xf9, 0x84, 0xbe,
    0x32, 0x19, 0x98, 0x3e, 0x46, 0xfe, 0xff, 0xff, 0x04, 0x00, 0x00, 0x00,
    0x40, 0x00, 0x00, 0x00, 0x6f, 0x18, 0xe5, 0x3b, 0x2f, 0x68, 0x51, 0x3e,
    0x11, 0x65, 0xe2, 0x3d, 0x93, 0x17, 0x4f, 0xbd, 0xed, 0x2c, 0x1b, 0x3e,
    0x69, 0x93, 0xb1, 0x3e, 0x35, 0xa1, 0x7a, 0xbd, 0xb2, 0x70, 0x47, 0x3e,
    0xa5, 0x7d, 0xce, 0xbd, 0xf0, 0xcd, 0x91, 0x3b, 0x45, 0x5e, 0x02, 0x3e,
    0xc0, 0x13, 0x81, 0xbd, 0x95, 0x6f, 0x95, 0x3e, 0xc0, 0xed, 0x76, 0x3e,
    0x7a, 0x70, 0x0c, 0xbe, 0xc2, 0xf4, 0xd7, 0x3d, 0x92, 0xfe, 0xff, 0xff,
    0x04, 0x00, 0x00, 0x00, 0x40, 0x00, 0x00, 0x00, 0x74, 0xd2, 0x2d, 0x3e,
    0x63, 0x00, 0x49, 0x3e, 0x90, 0xda, 0xb9, 0xbc, 0x2d, 0x1c, 0xc2, 0x3d,
    0x7c, 0x52, 0xe1, 0x3d, 0x34, 0xba, 0xb6, 0xbe, 0x93, 0x1c, 0x49, 0x3c,
    0x51, 0xe6, 0x70, 0xbe, 0xb7, 0x51, 0x44, 0xbe, 0x8e, 0x11, 0x96, 0xbd,
    0x36, 0x53, 0x1d, 0x3e, 0xae, 0xee, 0x01, 0xbe, 0xa3, 0x50, 0x7b, 0x3e,
    0x80, 0xef, 0x2a, 0x3e, 0x23, 0xd0, 0x5e, 0x3d, 0xb8, 0x92, 0xaf, 0xbd,
    0xde, 0xfe, 0xff, 0xff, 0x04, 0x00, 0x00, 0x00, 0x80, 0x00, 0x00, 0x00,
    0x9b, 0xf9, 0x59, 0xbe, 0x8f, 0xa4, 0x58, 0xbe, 0x81, 0xed, 0x6e, 0x3d,
    0xbf, 0x4c, 0x0d, 0xbe, 0x88, 0x8b, 0x26, 0x3e, 0xd2, 0xf3, 0x5b, 0xbe,
    0x00, 0x00, 0x00, 0x00, 0x30, 0x92, 0xa7, 0xbd, 0xf0, 0x36, 0xec, 0xbe,
    0xf8, 0x80, 0x6c, 0x3e, 0x00, 0x00, 0x00, 0x00, 0x60, 0xcf, 0x9b, 0xbd,
    0xce, 0xa9, 0x63, 0xbd, 0x35, 0x6f, 0x51, 0x3e, 0x4c, 0x8b, 0x9d, 0x3e,
    0x0f, 0xde, 0x83, 0xbe, 0x8c, 0x3c, 0x05, 0x3c, 0x2d, 0x30, 0xab, 0x3d,
    0x4a, 0xfd, 0x7a, 0x3e, 0xfe, 0x7e, 0x75, 0x3d, 0xa0, 0x1d, 0x19, 0xbd,
    0xd4, 0xf8, 0xbc, 0x3e, 0x3d, 0xb7, 0x9f, 0xbd, 0x00, 0x00, 0x00, 0x00,
    0x83, 0x50, 0x00, 0xbd, 0x00, 0x00, 0x00, 0x00, 0xc2, 0x50, 0x47, 0xbe,
    0x86, 0x27, 0x15, 0xbd, 0xe7, 0xd3, 0xec, 0x3d, 0x95, 0x99, 0x2f, 0xbe,
    0x5f, 0x07, 0x61, 0x3e, 0x98, 0xb2, 0x00, 0x3e, 0xb0, 0xf5, 0xff, 0xff,
    0xb4, 0xf5, 0xff, 0xff, 0x0f, 0x00, 0x00, 0x00, 0x4d, 0x4c, 0x49, 0x52,
    0x20, 0x43, 0x6f, 0x6e, 0x76, 0x65, 0x72, 0x74, 0x65, 0x64, 0x2e, 0x00,
    0x01, 0x00, 0x00, 0x00, 0x14, 0x00, 0x00, 0x00, 0x00, 0x00, 0x0e, 0x00,
    0x18, 0x00, 0x14, 0x00, 0x10, 0x00, 0x0c, 0x00, 0x08, 0x00, 0x04, 0x00,
    0x0e, 0x00, 0x00, 0x00, 0x14, 0x00, 0x00, 0x00, 0x1c, 0x00, 0x00, 0x00,
    0x18, 0x02, 0x00, 0x00, 0x1c, 0x02, 0x00, 0x00, 0x20, 0x02, 0x00, 0x00,
    0x04, 0x00, 0x00, 0x00, 0x6d, 0x61, 0x69, 0x6e, 0x00, 0x00, 0x00, 0x00,
    0x08, 0x00, 0x00, 0x00, 0xdc, 0x01, 0x00, 0x00, 0x7c, 0x01, 0x00, 0x00,
    0x24, 0x01, 0x00, 0x00, 0x00, 0x01, 0x00, 0x00, 0xcc, 0x00, 0x00, 0x00,
    0x88, 0x00, 0x00, 0x00, 0x40, 0x00, 0x00, 0x00, 0x04, 0x00, 0x00, 0x00,
    0x92, 0xff, 0xff, 0xff, 0x1c, 0x00, 0x00, 0x00, 0x00, 0x00, 0x00, 0x09,
    0x1c, 0x00, 0x00, 0x00, 0x20, 0x00, 0x00, 0x00, 0x04, 0x00, 0x00, 0x00,
    0x00, 0x00, 0x06, 0x00, 0x08, 0x00, 0x04, 0x00, 0x06, 0x00, 0x00, 0x00,
    0x00, 0x00, 0x80, 0x3f, 0x01, 0x00, 0x00, 0x00, 0x13, 0x00, 0x00, 0x00,
    0x01, 0x00, 0x00, 0x00, 0x12, 0x00, 0x00, 0x00, 0xe6, 0xfe, 0xff, 0xff,
    0x14, 0x00, 0x00, 0x00, 0x00, 0x00, 0x00, 0x08, 0x10, 0x00, 0x00, 0x00,
    0x14, 0x00, 0x00, 0x00, 0x03, 0x00, 0x00, 0x00, 0x7c, 0xf6, 0xff, 0xff,
    0x01, 0x00, 0x00, 0x00, 0x12, 0x00, 0x00, 0x00, 0x03, 0x00, 0x00, 0x00,
    0x11, 0x00, 0x00, 0x00, 0x08, 0x00, 0x00, 0x00, 0x04, 0x00, 0x00, 0x00,
    0x00, 0x00, 0x0e, 0x00, 0x1a, 0x00, 0x14, 0x00, 0x10, 0x00, 0x0c, 0x00,
    0x0b, 0x00, 0x04, 0x00, 0x0e, 0x00, 0x00, 0x00, 0x1c, 0x00, 0x00, 0x00,
    0x00, 0x00, 0x00, 0x08, 0x1c, 0x00, 0x00, 0x00, 0x20, 0x00, 0x00, 0x00,
    0x03, 0x00, 0x00, 0x00, 0x00, 0x00, 0x06, 0x00, 0x08, 0x00, 0x07, 0x00,
    0x06, 0x00, 0x00, 0x00, 0x00, 0x00, 0x00, 0x01, 0x01, 0x00, 0x00, 0x00,
    0x11, 0x00, 0x00, 0x00, 0x03, 0x00, 0x00, 0x00, 0x10, 0x00, 0x00, 0x00,
    0x09, 0x00, 0x00, 0x00, 0x01, 0x00, 0x00, 0x00, 0x6a, 0xff, 0xff, 0xff,
    0x14, 0x00, 0x00, 0x00, 0x00, 0x00, 0x00, 0x1b, 0x10, 0x00, 0x00, 0x00,
    0x14, 0x00, 0x00, 0x00, 0x02, 0x00, 0x00, 0x00, 0x00, 0xf7, 0xff, 0xff,
    0x01, 0x00, 0x00, 0x00, 0x10, 0x00, 0x00, 0x00, 0x02, 0x00, 0x00, 0x00,
    0x0f, 0x00, 0x00, 0x00, 0x0a, 0x00, 0x00, 0x00, 0x3a, 0xff, 0xff, 0xff,
    0x08, 0x00, 0x00, 0x00, 0x0c, 0x00, 0x00, 0x00, 0x01, 0x00, 0x00, 0x00,
    0x0f, 0x00, 0x00, 0x00, 0x02, 0x00, 0x00, 0x00, 0x0e, 0x00, 0x00, 0x00,
    0x05, 0x00, 0x00, 0x00, 0xba, 0xff, 0xff, 0xff, 0x14, 0x00, 0x00, 0x00,
    0x00, 0x00, 0x00, 0x01, 0x20, 0x00, 0x00, 0x00, 0x24, 0x00, 0x00, 0x00,
    0x01, 0x00, 0x00, 0x00, 0xac, 0xff, 0xff, 0xff, 0x00, 0x00, 0x00, 0x01,
    0x01, 0x00, 0x00, 0x00, 0x01, 0x00, 0x00, 0x00, 0x00, 0x00, 0x00, 0x01,
    0x01, 0x00, 0x00, 0x00, 0x0e, 0x00, 0x00, 0x00, 0x03, 0x00, 0x00, 0x00,
    0x0d, 0x00, 0x00, 0x00, 0x06, 0x00, 0x00, 0x00, 0x02, 0x00, 0x00, 0x00,
    0x00, 0x00, 0x0e, 0x00, 0x18, 0x00, 0x14, 0x00, 0x10, 0x00, 0x0c, 0x00,
    0x0b, 0x00, 0x04, 0x00, 0x0e, 0x00, 0x00, 0x00, 0x20, 0x00, 0x00, 0x00,
    0x00, 0x00, 0x00, 0x01, 0x2c, 0x00, 0x00, 0x00, 0x30, 0x00, 0x00, 0x00,
    0x01, 0x00, 0x00, 0x00, 0x0c, 0x00, 0x14, 0x00, 0x13, 0x00, 0x0c, 0x00,
    0x08, 0x00, 0x07, 0x00, 0x0c, 0x00, 0x00, 0x00, 0x00, 0x00, 0x00, 0x01,
    0x01, 0x00, 0x00, 0x00, 0x01, 0x00, 0x00, 0x00, 0x00, 0x00, 0x00, 0x01,
    0x01, 0x00, 0x00, 0x00, 0x0d, 0x00, 0x00, 0x00, 0x03, 0x00, 0x00, 0x00,
    0x0c, 0x00, 0x00, 0x00, 0x07, 0x00, 0x00, 0x00, 0x03, 0x00, 0x00, 0x00,
    0x00, 0x00, 0x0a, 0x00, 0x0c, 0x00, 0x00, 0x00, 0x08, 0x00, 0x04, 0x00,
    0x0a, 0x00, 0x00, 0x00, 0x08, 0x00, 0x00, 0x00, 0x0c, 0x00, 0x00, 0x00,
    0x01, 0x00, 0x00, 0x00, 0x0c, 0x00, 0x00, 0x00, 0x02, 0x00, 0x00, 0x00,
    0x00, 0x00, 0x00, 0x00, 0x0b, 0x00, 0x00, 0x00, 0x01, 0x00, 0x00, 0x00,
    0x13, 0x00, 0x00, 0x00, 0x01, 0x00, 0x00, 0x00, 0x00, 0x00, 0x00, 0x00,
    0x14, 0x00, 0x00, 0x00, 0xcc, 0x07, 0x00, 0x00, 0x78, 0x07, 0x00, 0x00,
    0x3c, 0x07, 0x00, 0x00, 0x00, 0x07, 0x00, 0x00, 0xc4, 0x06, 0x00, 0x00,
    0x84, 0x06, 0x00, 0x00, 0x24, 0x06, 0x00, 0x00, 0xdc, 0x05, 0x00, 0x00,
    0x9c, 0x05, 0x00, 0x00, 0x5c, 0x05, 0x00, 0x00, 0x20, 0x05, 0x00, 0x00,
    0xbc, 0x04, 0x00, 0x00, 0x50, 0x04, 0x00, 0x00, 0x60, 0x03, 0x00, 0x00,
    0x70, 0x02, 0x00, 0x00, 0xa8, 0x01, 0x00, 0x00, 0x44, 0x01, 0x00, 0x00,
    0xb4, 0x00, 0x00, 0x00, 0x40, 0x00, 0x00, 0x00, 0x04, 0x00, 0x00, 0x00,
    0x9a, 0xf8, 0xff, 0xff, 0x00, 0x00, 0x00, 0x01, 0x10, 0x00, 0x00, 0x00,
    0x10, 0x00, 0x00, 0x00, 0x14, 0x00, 0x00, 0x00, 0x18, 0x00, 0x00, 0x00,
    0x84, 0xf8, 0xff, 0xff, 0x08, 0x00, 0x00, 0x00, 0x49, 0x64, 0x65, 0x6e,
    0x74, 0x69, 0x74, 0x79, 0x00, 0x00, 0x00, 0x00, 0x02, 0x00, 0x00, 0x00,
    0x01, 0x00, 0x00, 0x00, 0x04, 0x00, 0x00, 0x00, 0xd2, 0xf8, 0xff, 0xff,
    0x00, 0x00, 0x00, 0x01, 0x10, 0x00, 0x00, 0x00, 0x10, 0x00, 0x00, 0x00,
    0x13, 0x00, 0x00, 0x00, 0x50, 0x00, 0x00, 0x00, 0xbc, 0xf8, 0xff, 0xff,
    0x40, 0x00, 0x00, 0x00, 0x73, 0x65, 0x71, 0x75, 0x65, 0x6e, 0x74, 0x69,
    0x61, 0x6c, 0x5f, 0x34, 0x5f, 0x31, 0x2f, 0x64, 0x65, 0x6e, 0x73, 0x65,
    0x5f, 0x39, 0x5f, 0x31, 0x2f, 0x4d, 0x61, 0x74, 0x4d, 0x75, 0x6c, 0x3b,
    0x73, 0x65, 0x71, 0x75, 0x65, 0x6e, 0x74, 0x69, 0x61, 0x6c, 0x5f, 0x34,
    0x5f, 0x31, 0x2f, 0x64, 0x65, 0x6e, 0x73, 0x65, 0x5f, 0x39, 0x5f, 0x31,
    0x2f, 0x42, 0x69, 0x61, 0x73, 0x41, 0x64, 0x64, 0x00, 0x00, 0x00, 0x00,
    0x02, 0x00, 0x00, 0x00, 0x01, 0x00, 0x00, 0x00, 0x04, 0x00, 0x00, 0x00,
    0x42, 0xf9, 0xff, 0xff, 0x00, 0x00, 0x00, 0x01, 0x10, 0x00, 0x00, 0x00,
    0x10, 0x00, 0x00, 0x00, 0x12, 0x00, 0x00, 0x00, 0x6c, 0x00, 0x00, 0x00,
    0x2c, 0xf9, 0xff, 0xff, 0x5e, 0x00, 0x00, 0x00, 0x73, 0x65, 0x71, 0x75,
    0x65, 0x6e, 0x74, 0x69, 0x61, 0x6c, 0x5f, 0x34, 0x5f, 0x31, 0x2f, 0x64,
    0x65, 0x6e, 0x73, 0x65, 0x5f, 0x38, 0x5f, 0x31, 0x2f, 0x4d, 0x61, 0x74,
    0x4d, 0x75, 0x6c, 0x3b, 0x73, 0x65, 0x71, 0x75, 0x65, 0x6e, 0x74, 0x69,
    0x61, 0x6c, 0x5f, 0x34, 0x5f, 0x31, 0x2f, 0x64, 0x65, 0x6e, 0x73, 0x65,
    0x5f, 0x38, 0x5f, 0x31, 0x2f, 0x52, 0x65, 0x6c, 0x75, 0x3b, 0x73, 0x65,
    0x71, 0x75, 0x65, 0x6e, 0x74, 0x69, 0x61, 0x6c, 0x5f, 0x34, 0x5f, 0x31,
    0x2f, 0x64, 0x65, 0x6e, 0x73, 0x65, 0x5f, 0x38, 0x5f, 0x31, 0x2f, 0x42,
    0x69, 0x61, 0x73, 0x41, 0x64, 0x64, 0x00, 0x00, 0x02, 0x00, 0x00, 0x00,
    0x01, 0x00, 0x00, 0x00, 0x20, 0x00, 0x00, 0x00, 0xce, 0xf9, 0xff, 0xff,
    0x00, 0x00, 0x00, 0x01, 0x10, 0x00, 0x00, 0x00, 0x10, 0x00, 0x00, 0x00,
    0x11, 0x00, 0x00, 0x00, 0x40, 0x00, 0x00, 0x00, 0xb8, 0xf9, 0xff, 0xff,
    0x30, 0x00, 0x00, 0x00, 0x73, 0x65, 0x71, 0x75, 0x65, 0x6e, 0x74, 0x69,
    0x61, 0x6c, 0x5f, 0x34, 0x5f, 0x31, 0x2f, 0x67, 0x6c, 0x6f, 0x62, 0x61,
    0x6c, 0x5f, 0x61, 0x76, 0x65, 0x72, 0x61, 0x67, 0x65, 0x5f, 0x70, 0x6f,
    0x6f, 0x6c, 0x69, 0x6e, 0x67, 0x31, 0x64, 0x5f, 0x34, 0x5f, 0x31, 0x2f,
    0x4d, 0x65, 0x61, 0x6e, 0x00, 0x00, 0x00, 0x00, 0x02, 0x00, 0x00, 0x00,
    0x01, 0x00, 0x00, 0x00, 0x10, 0x00, 0x00, 0x00, 0x2e, 0xfa, 0xff, 0xff,
    0x00, 0x00, 0x00, 0x01, 0x10, 0x00, 0x00, 0x00, 0x10, 0x00, 0x00, 0x00,
    0x10, 0x00, 0x00, 0x00, 0xa0, 0x00, 0x00, 0x00, 0x18, 0xfa, 0xff, 0xff,
    0x90, 0x00, 0x00, 0x00, 0x73, 0x65, 0x71, 0x75, 0x65, 0x6e, 0x74, 0x69,
    0x61, 0x6c, 0x5f, 0x34, 0x5f, 0x31, 0x2f, 0x63, 0x6f, 0x6e, 0x76, 0x31,
    0x64, 0x5f, 0x39, 0x5f, 0x31, 0x2f, 0x52, 0x65, 0x6c, 0x75, 0x3b, 0x73,
    0x65, 0x71, 0x75, 0x65, 0x6e, 0x74, 0x69, 0x61, 0x6c, 0x5f, 0x34, 0x5f,
    0x31, 0x2f, 0x63, 0x6f, 0x6e, 0x76, 0x31, 0x64, 0x5f, 0x39, 0x5f, 0x31,
    0x2f, 0x42, 0x69, 0x61, 0x73, 0x41, 0x64, 0x64, 0x3b, 0x73, 0x65, 0x71,
    0x75, 0x65, 0x6e, 0x74, 0x69, 0x61, 0x6c, 0x5f, 0x34, 0x5f, 0x31, 0x2f,
    0x63, 0x6f, 0x6e, 0x76, 0x31, 0x64, 0x5f, 0x39, 0x5f, 0x31, 0x2f, 0x63,
    0x6f, 0x6e, 0x76, 0x6f, 0x6c, 0x75, 0x74, 0x69, 0x6f, 0x6e, 0x2f, 0x53,
    0x71, 0x75, 0x65, 0x65, 0x7a, 0x65, 0x3b, 0x73, 0x65, 0x71, 0x75, 0x65,
    0x6e, 0x74, 0x69, 0x61, 0x6c, 0x5f, 0x34, 0x5f, 0x31, 0x2f, 0x63, 0x6f,
    0x6e, 0x76, 0x31, 0x64, 0x5f, 0x39, 0x5f, 0x31, 0x2f, 0x53, 0x71, 0x75,
    0x65, 0x65, 0x7a, 0x65, 0x00, 0x00, 0x00, 0x00, 0x03, 0x00, 0x00, 0x00,
    0x01, 0x00, 0x00, 0x00, 0x06, 0x00, 0x00, 0x00, 0x10, 0x00, 0x00, 0x00,
    0xf2, 0xfa, 0xff, 0xff, 0x00, 0x00, 0x00, 0x01, 0x10, 0x00, 0x00, 0x00,
    0x10, 0x00, 0x00, 0x00, 0x0f, 0x00, 0x00, 0x00, 0xc4, 0x00, 0x00, 0x00,
    0xdc, 0xfa, 0xff, 0xff, 0xb6, 0x00, 0x00, 0x00, 0x73, 0x65, 0x71, 0x75,
    0x65, 0x6e, 0x74, 0x69, 0x61, 0x6c, 0x5f, 0x34, 0x5f, 0x31, 0x2f, 0x63,
    0x6f, 0x6e, 0x76, 0x31, 0x64, 0x5f, 0x39, 0x5f, 0x31, 0x2f, 0x52, 0x65,
    0x6c, 0x75, 0x3b, 0x73, 0x65, 0x71, 0x75, 0x65, 0x6e, 0x74, 0x69, 0x61,
    0x6c, 0x5f, 0x34, 0x5f, 0x31, 0x2f, 0x63, 0x6f, 0x6e, 0x76, 0x31, 0x64,
    0x5f, 0x39, 0x5f, 0x31, 0x2f, 0x42, 0x69, 0x61, 0x73, 0x41, 0x64, 0x64,
    0x3b, 0x73, 0x65, 0x71, 0x75, 0x65, 0x6e, 0x74, 0x69, 0x61, 0x6c, 0x5f,
    0x34, 0x5f, 0x31, 0x2f, 0x63, 0x6f, 0x6e, 0x76, 0x31, 0x64, 0x5f, 0x39,
    0x5f, 0x31, 0x2f, 0x63, 0x6f, 0x6e, 0x76, 0x6f, 0x6c, 0x75, 0x74, 0x69,
    0x6f, 0x6e, 0x2f, 0x53, 0x71, 0x75, 0x65, 0x65, 0x7a, 0x65, 0x3b, 0x73,
    0x65, 0x71, 0x75, 0x65, 0x6e, 0x74, 0x69, 0x61, 0x6c, 0x5f, 0x34, 0x5f,
    0x31, 0x2f, 0x63, 0x6f, 0x6e, 0x76, 0x31, 0x64, 0x5f, 0x39, 0x5f, 0x31,
    0x2f, 0x53, 0x71, 0x75, 0x65, 0x65, 0x7a, 0x65, 0x3b, 0x73, 0x65, 0x71,
    0x75, 0x65, 0x6e, 0x74, 0x69, 0x61, 0x6c, 0x5f, 0x34, 0x5f, 0x31, 0x2f,
    0x63, 0x6f, 0x6e, 0x76, 0x31, 0x64, 0x5f, 0x39, 0x5f, 0x31, 0x2f, 0x63,
    0x6f, 0x6e, 0x76, 0x6f, 0x6c, 0x75, 0x74, 0x69, 0x6f, 0x6e, 0x00, 0x00,
    0x04, 0x00, 0x00, 0x00, 0x01, 0x00, 0x00, 0x00, 0x01, 0x00, 0x00, 0x00,
    0x06, 0x00, 0x00, 0x00, 0x10, 0x00, 0x00, 0x00, 0xde, 0xfb, 0xff, 0xff,
    0x00, 0x00, 0x00, 0x01, 0x10, 0x00, 0x00, 0x00, 0x10, 0x00, 0x00, 0x00,
    0x0e, 0x00, 0x00, 0x00, 0xc4, 0x00, 0x00, 0x00, 0xc8, 0xfb, 0xff, 0xff,
    0xb6, 0x00, 0x00, 0x00, 0x73, 0x65, 0x71, 0x75, 0x65, 0x6e, 0x74, 0x69,
    0x61, 0x6c, 0x5f, 0x34, 0x5f, 0x31, 0x2f, 0x63, 0x6f, 0x6e, 0x76, 0x31,
    0x64, 0x5f, 0x38, 0x5f, 0x31, 0x2f, 0x52, 0x65, 0x6c, 0x75, 0x3b, 0x73,
    0x65, 0x71, 0x75, 0x65, 0x6e, 0x74, 0x69, 0x61, 0x6c, 0x5f, 0x34, 0x5f,
    0x31, 0x2f, 0x63, 0x6f, 0x6e, 0x76, 0x31, 0x64, 0x5f, 0x38, 0x5f, 0x31,
    0x2f, 0x42, 0x69, 0x61, 0x73, 0x41, 0x64, 0x64, 0x3b, 0x73, 0x65, 0x71,
    0x75, 0x65, 0x6e, 0x74, 0x69, 0x61, 0x6c, 0x5f, 0x34, 0x5f, 0x31, 0x2f,
    0x63, 0x6f, 0x6e, 0x76, 0x31, 0x64, 0x5f, 0x38, 0x5f, 0x31, 0x2f, 0x63,
    0x6f, 0x6e, 0x76, 0x6f, 0x6c, 0x75, 0x74, 0x69, 0x6f, 0x6e, 0x2f, 0x53,
    0x71, 0x75, 0x65, 0x65, 0x7a, 0x65, 0x3b, 0x73, 0x65, 0x71, 0x75, 0x65,
    0x6e, 0x74, 0x69, 0x61, 0x6c, 0x5f, 0x34, 0x5f, 0x31, 0x2f, 0x63, 0x6f,
    0x6e, 0x76, 0x31, 0x64, 0x5f, 0x38, 0x5f, 0x31, 0x2f, 0x53, 0x71, 0x75,
    0x65, 0x65, 0x7a, 0x65, 0x3b, 0x73, 0x65, 0x71, 0x75, 0x65, 0x6e, 0x74,
    0x69, 0x61, 0x6c, 0x5f, 0x34, 0x5f, 0x31, 0x2f, 0x63, 0x6f, 0x6e, 0x76,
    0x31, 0x64, 0x5f, 0x38, 0x5f, 0x31, 0x2f, 0x63, 0x6f, 0x6e, 0x76, 0x6f,
    0x6c, 0x75, 0x74, 0x69, 0x6f, 0x6e, 0x00, 0x00, 0x04, 0x00, 0x00, 0x00,
    0x01, 0x00, 0x00, 0x00, 0x01, 0x00, 0x00, 0x00, 0x08, 0x00, 0x00, 0x00,
    0x10, 0x00, 0x00, 0x00, 0xca, 0xfc, 0xff, 0xff, 0x00, 0x00, 0x00, 0x01,
    0x10, 0x00, 0x00, 0x00, 0x10, 0x00, 0x00, 0x00, 0x0d, 0x00, 0x00, 0x00,
    0x40, 0x00, 0x00, 0x00, 0xb4, 0xfc, 0xff, 0xff, 0x31, 0x00, 0x00, 0x00,
    0x73, 0x65, 0x71, 0x75, 0x65, 0x6e, 0x74, 0x69, 0x61, 0x6c, 0x5f, 0x34,
    0x5f, 0x31, 0x2f, 0x63, 0x6f, 0x6e, 0x76, 0x31, 0x64, 0x5f, 0x38, 0x5f,
    0x31, 0x2f, 0x63, 0x6f, 0x6e, 0x76, 0x6f, 0x6c, 0x75, 0x74, 0x69, 0x6f,
    0x6e, 0x2f, 0x45, 0x78, 0x70, 0x61, 0x6e, 0x64, 0x44, 0x69, 0x6d, 0x73,
    0x31, 0x00, 0x00, 0x00, 0x04, 0x00, 0x00, 0x00, 0x01, 0x00, 0x00, 0x00,
    0x01, 0x00, 0x00, 0x00, 0x0a, 0x00, 0x00, 0x00, 0x02, 0x00, 0x00, 0x00,
    0x66, 0xfe, 0xff, 0xff, 0x00, 0x00, 0x00, 0x01, 0x14, 0x00, 0x00, 0x00,
    0x14, 0x00, 0x00, 0x00, 0x0c, 0x00, 0x00, 0x00, 0x00, 0x00, 0x00, 0x02,
    0x40, 0x00, 0x00, 0x00, 0x20, 0xfd, 0xff, 0xff, 0x30, 0x00, 0x00, 0x00,
    0x73, 0x65, 0x71, 0x75, 0x65, 0x6e, 0x74, 0x69, 0x61, 0x6c, 0x5f, 0x34,
    0x5f, 0x31, 0x2f, 0x63, 0x6f, 0x6e, 0x76, 0x31, 0x64, 0x5f, 0x38, 0x5f,
    0x31, 0x2f, 0x63, 0x6f, 0x6e, 0x76, 0x6f, 0x6c, 0x75, 0x74, 0x69, 0x6f,
    0x6e, 0x2f, 0x45, 0x78, 0x70, 0x61, 0x6e, 0x64, 0x44, 0x69, 0x6d, 0x73,
    0x00, 0x00, 0x00, 0x00, 0x01, 0x00, 0x00, 0x00, 0x04, 0x00, 0x00, 0x00,
    0xc6, 0xfe, 0xff, 0xff, 0x00, 0x00, 0x00, 0x01, 0x14, 0x00, 0x00, 0x00,
    0x14, 0x00, 0x00, 0x00, 0x0b, 0x00, 0x00, 0x00, 0x00, 0x00, 0x00, 0x02,
    0x1c, 0x00, 0x00, 0x00, 0x80, 0xfd, 0xff, 0xff, 0x0f, 0x00, 0x00, 0x00,
    0x61, 0x72, 0x69, 0x74, 0x68, 0x2e, 0x63, 0x6f, 0x6e, 0x73, 0x74, 0x61,
    0x6e, 0x74, 0x39, 0x00, 0x00, 0x00, 0x00, 0x00, 0xca, 0xfd, 0xff, 0xff,
    0x00, 0x00, 0x00, 0x01, 0x10, 0x00, 0x00, 0x00, 0x10, 0x00, 0x00, 0x00,
    0x0a, 0x00, 0x00, 0x00, 0x1c, 0x00, 0x00, 0x00, 0xb4, 0xfd, 0xff, 0xff,
    0x0f, 0x00, 0x00, 0x00, 0x61, 0x72, 0x69, 0x74, 0x68, 0x2e, 0x63, 0x6f,
    0x6e, 0x73, 0x74, 0x61, 0x6e, 0x74, 0x38, 0x00, 0x02, 0x00, 0x00, 0x00,
    0x20, 0x00, 0x00, 0x00, 0x10, 0x00, 0x00, 0x00, 0x06, 0xfe, 0xff, 0xff,
    0x00, 0x00, 0x00, 0x01, 0x10, 0x00, 0x00, 0x00, 0x10, 0x00, 0x00, 0x00,
    0x09, 0x00, 0x00, 0x00, 0x1c, 0x00, 0x00, 0x00, 0xf0, 0xfd, 0xff, 0xff,
    0x0f, 0x00, 0x00, 0x00, 0x61, 0x72, 0x69, 0x74, 0x68, 0x2e, 0x63, 0x6f,
    0x6e, 0x73, 0x74, 0x61, 0x6e, 0x74, 0x37, 0x00, 0x02, 0x00, 0x00, 0x00,
    0x04, 0x00, 0x00, 0x00, 0x20, 0x00, 0x00, 0x00, 0x42, 0xfe, 0xff, 0xff,
    0x00, 0x00, 0x00, 0x01, 0x10, 0x00, 0x00, 0x00, 0x10, 0x00, 0x00, 0x00,
    0x08, 0x00, 0x00, 0x00, 0x1c, 0x00, 0x00, 0x00, 0x2c, 0xfe, 0xff, 0xff,
    0x0f, 0x00, 0x00, 0x00, 0x61, 0x72, 0x69, 0x74, 0x68, 0x2e, 0x63, 0x6f,
    0x6e, 0x73, 0x74, 0x61, 0x6e, 0x74, 0x36, 0x00, 0x04, 0x00, 0x00, 0x00,
    0x10, 0x00, 0x00, 0x00, 0x01, 0x00, 0x00, 0x00, 0x03, 0x00, 0x00, 0x00,
    0x02, 0x00, 0x00, 0x00, 0x86, 0xfe, 0xff, 0xff, 0x00, 0x00, 0x00, 0x01,
    0x10, 0x00, 0x00, 0x00, 0x10, 0x00, 0x00, 0x00, 0x07, 0x00, 0x00, 0x00,
    0x1c, 0x00, 0x00, 0x00, 0x70, 0xfe, 0xff, 0xff, 0x0f, 0x00, 0x00, 0x00,
    0x61, 0x72, 0x69, 0x74, 0x68, 0x2e, 0x63, 0x6f, 0x6e, 0x73, 0x74, 0x61,
    0x6e, 0x74, 0x35, 0x00, 0x04, 0x00, 0x00, 0x00, 0x10, 0x00, 0x00, 0x00,
    0x01, 0x00, 0x00, 0x00, 0x03, 0x00, 0x00, 0x00, 0x10, 0x00, 0x00, 0x00,
    0x00, 0x00, 0x16, 0x00, 0x1c, 0x00, 0x18, 0x00, 0x17, 0x00, 0x10, 0x00,
    0x0c, 0x00, 0x08, 0x00, 0x00, 0x00, 0x00, 0x00, 0x00, 0x00, 0x07, 0x00,
    0x16, 0x00, 0x00, 0x00, 0x00, 0x00, 0x00, 0x01, 0x14, 0x00, 0x00, 0x00,
    0x14, 0x00, 0x00, 0x00, 0x06, 0x00, 0x00, 0x00, 0x00, 0x00, 0x00, 0x02,
    0x1c, 0x00, 0x00, 0x00, 0xd0, 0xfe, 0xff, 0xff, 0x0f, 0x00, 0x00, 0x00,
    0x61, 0x72, 0x69, 0x74, 0x68, 0x2e, 0x63, 0x6f, 0x6e, 0x73, 0x74, 0x61,
    0x6e, 0x74, 0x34, 0x00, 0x01, 0x00, 0x00, 0x00, 0x03, 0x00, 0x00, 0x00,
    0x1e, 0xff, 0xff, 0xff, 0x00, 0x00, 0x00, 0x01, 0x10, 0x00, 0x00, 0x00,
    0x10, 0x00, 0x00, 0x00, 0x05, 0x00, 0x00, 0x00, 0x1c, 0x00, 0x00, 0x00,
    0x08, 0xff, 0xff, 0xff, 0x0f, 0x00, 0x00, 0x00, 0x61, 0x72, 0x69, 0x74,
    0x68, 0x2e, 0x63, 0x6f, 0x6e, 0x73, 0x74, 0x61, 0x6e, 0x74, 0x33, 0x00,
    0x01, 0x00, 0x00, 0x00, 0x04, 0x00, 0x00, 0x00, 0x56, 0xff, 0xff, 0xff,
    0x00, 0x00, 0x00, 0x01, 0x10, 0x00, 0x00, 0x00, 0x10, 0x00, 0x00, 0x00,
    0x04, 0x00, 0x00, 0x00, 0x1c, 0x00, 0x00, 0x00, 0x40, 0xff, 0xff, 0xff,
    0x0f, 0x00, 0x00, 0x00, 0x61, 0x72, 0x69, 0x74, 0x68, 0x2e, 0x63, 0x6f,
    0x6e, 0x73, 0x74, 0x61, 0x6e, 0x74, 0x32, 0x00, 0x01, 0x00, 0x00, 0x00,
    0x10, 0x00, 0x00, 0x00, 0x8e, 0xff, 0xff, 0xff, 0x00, 0x00, 0x00, 0x01,
    0x10, 0x00, 0x00, 0x00, 0x10, 0x00, 0x00, 0x00, 0x03, 0x00, 0x00, 0x00,
    0x1c, 0x00, 0x00, 0x00, 0x78, 0xff, 0xff, 0xff, 0x0f, 0x00, 0x00, 0x00,
    0x61, 0x72, 0x69, 0x74, 0x68, 0x2e, 0x63, 0x6f, 0x6e, 0x73, 0x74, 0x61,
    0x6e, 0x74, 0x31, 0x00, 0x01, 0x00, 0x00, 0x00, 0x10, 0x00, 0x00, 0x00,
    0xc6, 0xff, 0xff, 0xff, 0x00, 0x00, 0x00, 0x01, 0x10, 0x00, 0x00, 0x00,
    0x10, 0x00, 0x00, 0x00, 0x02, 0x00, 0x00, 0x00, 0x1c, 0x00, 0x00, 0x00,
    0xb0, 0xff, 0xff, 0xff, 0x0e, 0x00, 0x00, 0x00, 0x61, 0x72, 0x69, 0x74,
    0x68, 0x2e, 0x63, 0x6f, 0x6e, 0x73, 0x74, 0x61, 0x6e, 0x74, 0x00, 0x00,
    0x01, 0x00, 0x00, 0x00, 0x20, 0x00, 0x00, 0x00, 0x00, 0x00, 0x16, 0x00,
    0x18, 0x00, 0x14, 0x00, 0x00, 0x00, 0x10, 0x00, 0x0c, 0x00, 0x08, 0x00,
    0x00, 0x00, 0x00, 0x00, 0x00, 0x00, 0x07, 0x00, 0x16, 0x00, 0x00, 0x00,
    0x00, 0x00, 0x00, 0x01, 0x14, 0x00, 0x00, 0x00, 0x14, 0x00, 0x00, 0x00,
    0x01, 0x00, 0x00, 0x00, 0x14, 0x00, 0x00, 0x00, 0x04, 0x00, 0x04, 0x00,
    0x04, 0x00, 0x00, 0x00, 0x01, 0x00, 0x00, 0x00, 0x78, 0x00, 0x00, 0x00,
    0x03, 0x00, 0x00, 0x00, 0x01, 0x00, 0x00, 0x00, 0x0a, 0x00, 0x00, 0x00,
    0x02, 0x00, 0x00, 0x00, 0x05, 0x00, 0x00, 0x00, 0x50, 0x00, 0x00, 0x00,
    0x34, 0x00, 0x00, 0x00, 0x24, 0x00, 0x00, 0x00, 0x14, 0x00, 0x00, 0x00,
    0x04, 0x00, 0x00, 0x00, 0xd0, 0xff, 0xff, 0xff, 0x19, 0x00, 0x00, 0x00,
    0x00, 0x00, 0x00, 0x19, 0xdc, 0xff, 0xff, 0xff, 0x09, 0x00, 0x00, 0x00,
    0x00, 0x00, 0x00, 0x09, 0xe8, 0xff, 0xff, 0xff, 0x28, 0x00, 0x00, 0x00,
    0x00, 0x00, 0x00, 0x28, 0xf4, 0xff, 0xff, 0xff, 0x03, 0x00, 0x00, 0x00,
    0x00, 0x00, 0x00, 0x03, 0x0c, 0x00, 0x0c, 0x00, 0x0b, 0x00, 0x00, 0x00,
    0x00, 0x00, 0x04, 0x00, 0x0c, 0x00, 0x00, 0x00, 0x16, 0x00, 0x00, 0x00,
    0x00, 0x00, 0x00, 0x16
};

const unsigned int g_model_len = sizeof(g_model);

#endif /* MODEL_H */
