/**
 * TFLite / LiteRT model byte array.
 *
 * Auto-generated by model_to_tflite.py
 * Timestamp  : 2026-03-01 13:21 UTC
 * Source     : model.tflite
 * Model size : 26,412 bytes
 * Quantized  : no (float32)
 *
 * Usage (Arduino / TFLite Micro):
 *
 *   #include "model.h"
 *   const tflite::Model* model = tflite::GetModel(g_model);
 */

#ifndef MODEL_H
#define MODEL_H

/* 8-byte alignment required by TFLite Micro */
alignas(8) const unsigned char g_model[] = {
    0x1c, 0x00, 0x00, 0x00, 0x54, 0x46, 0x4c, 0x33, 0x14, 0x00, 0x20, 0x00,
    0x1c, 0x00, 0x18, 0x00, 0x14, 0x00, 0x10, 0x00, 0x0c, 0x00, 0x00, 0x00,
    0x08, 0x00, 0x04, 0x00, 0x14, 0x00, 0x00, 0x00, 0x1c, 0x00, 0x00, 0x00,
    0x1c, 0x00, 0x00, 0x00, 0x74, 0x00, 0x00, 0x00, 0x38, 0x5c, 0x00, 0x00,
    0x48, 0x5c, 0x00, 0x00, 0x98, 0x66, 0x00, 0x00, 0x03, 0x00, 0x00, 0x00,
    0x00, 0x00, 0x00, 0x00, 0x02, 0x00, 0x00, 0x00, 0x34, 0x00, 0x00, 0x00,
    0x04, 0x00, 0x00, 0x00, 0xdc, 0xff, 0xff, 0xff, 0x16, 0x00, 0x00, 0x00,
    0x04, 0x00, 0x00, 0x00, 0x13, 0x00, 0x00, 0x00, 0x43, 0x4f, 0x4e, 0x56,
    0x45, 0x52, 0x53, 0x49, 0x4f, 0x4e, 0x5f, 0x4d, 0x45, 0x54, 0x41, 0x44,
    0x41, 0x54, 0x41, 0x00, 0x08, 0x00, 0x0c, 0x00, 0x08, 0x00, 0x04, 0x00,
    0x08, 0x00, 0x00, 0x00, 0x15, 0x00, 0x00, 0x00, 0x04, 0x00, 0x00, 0x00,
    0x13, 0x00, 0x00, 0x00, 0x6d, 0x69, 0x6e, 0x5f, 0x72, 0x75, 0x6e, 0x74,
    0x69, 0x6d, 0x65, 0x5f, 0x76, 0x65, 0x72, 0x73, 0x69, 0x6f, 0x6e, 0x00,
    0x17, 0x00, 0x00, 0x00, 0xc0, 0x5b, 0x00, 0x00, 0xb8, 0x5b, 0x00, 0x00,
    0xa8, 0x5a, 0x00, 0x00, 0x18, 0x5a, 0x00, 0x00, 0x88, 0x59, 0x00, 0x00,
    0x64, 0x59, 0x00, 0x00, 0x48, 0x59, 0x00, 0x00, 0x38, 0x29, 0x00, 0x00,
    0x28, 0x26, 0x00, 0x00, 0x18, 0x21, 0x00, 0x00, 0x08, 0x01, 0x00, 0x00,
    0xf4, 0x00, 0x00, 0x00, 0xd4, 0x00, 0x00, 0x00, 0xcc, 0x00, 0x00, 0x00,
    0xc4, 0x00, 0x00, 0x00, 0xbc, 0x00, 0x00, 0x00, 0xb4, 0x00, 0x00, 0x00,
    0xac, 0x00, 0x00, 0x00, 0xa4, 0x00, 0x00, 0x00, 0x9c, 0x00, 0x00, 0x00,
    0x94, 0x00, 0x00, 0x00, 0x74, 0x00, 0x00, 0x00, 0x04, 0x00, 0x00, 0x00,
    0x0a, 0xa4, 0xff, 0xff, 0x04, 0x00, 0x00, 0x00, 0x60, 0x00, 0x00, 0x00,
    0x10, 0x00, 0x00, 0x00, 0x00, 0x00, 0x00, 0x00, 0x08, 0x00, 0x0e, 0x00,
    0x08, 0x00, 0x04, 0x00, 0x08, 0x00, 0x00, 0x00, 0x10, 0x00, 0x00, 0x00,
    0x24, 0x00, 0x00, 0x00, 0x00, 0x00, 0x06, 0x00, 0x08, 0x00, 0x04, 0x00,
    0x06, 0x00, 0x00, 0x00, 0x04, 0x00, 0x00, 0x00, 0x00, 0x00, 0x00, 0x00,
    0x0c, 0x00, 0x18, 0x00, 0x14, 0x00, 0x10, 0x00, 0x0c, 0x00, 0x04, 0x00,
    0x0c, 0x00, 0x00, 0x00, 0x36, 0xd7, 0xb6, 0x65, 0x52, 0x27, 0x16, 0xb2,
    0x03, 0x00, 0x00, 0x00, 0x02, 0x00, 0x00, 0x00, 0x04, 0x00, 0x00, 0x00,
    0x06, 0x00, 0x00, 0x00, 0x32, 0x2e, 0x32, 0x30, 0x2e, 0x30, 0x00, 0x00,
    0x76, 0xa4, 0xff, 0xff, 0x04, 0x00, 0x00, 0x00, 0x10, 0x00, 0x00, 0x00,
    0x31, 0x2e, 0x36, 0x2e, 0x30, 0x00, 0x00, 0x00, 0x00, 0x00, 0x00, 0x00,
    0x00, 0x00, 0x00, 0x00, 0xd8, 0x9a, 0xff, 0xff, 0xdc, 0x9a, 0xff, 0xff,
    0xe0, 0x9a, 0xff, 0xff, 0xe4, 0x9a, 0xff, 0xff, 0xe8, 0x9a, 0xff, 0xff,
    0xec, 0x9a, 0xff, 0xff, 0xf0, 0x9a, 0xff, 0xff, 0xf4, 0x9a, 0xff, 0xff,
    0xb2, 0xa4, 0xff, 0xff, 0x04, 0x00, 0x00, 0x00, 0x10, 0x00, 0x00, 0x00,
    0x01, 0x00, 0x00, 0x00, 0x01, 0x00, 0x00, 0x00, 0x0a, 0x00, 0x00, 0x00,
    0x02, 0x00, 0x00, 0x00, 0xce, 0xa4, 0xff, 0xff, 0x04, 0x00, 0x00, 0x00,
    0x04, 0x00, 0x00, 0x00, 0x01, 0x00, 0x00, 0x00, 0xde, 0xa4, 0xff, 0xff,
    0x04, 0x00, 0x00, 0x00, 0x00, 0x20, 0x00, 0x00, 0x1e, 0x6e, 0xee, 0xbe,
    0xf3, 0x9e, 0xe5, 0x3e, 0x99, 0xaf, 0x1f, 0x3e, 0xdc, 0x05, 0x15, 0x3b,
    0x99, 0x13, 0x88, 0xbf, 0xce, 0xe4, 0x32, 0x3f, 0x6b, 0x4c, 0x02, 0x3e,
    0x50, 0xa8, 0x23, 0xbe, 0x4c, 0xfd, 0xbf, 0xbe, 0xff, 0x8e, 0x12, 0x3f,
    0xb9, 0x2c, 0x1a, 0xbe, 0x50, 0xb4, 0xa7, 0xbf, 0xac, 0x75, 0xd9, 0xbd,
    0xf7, 0x56, 0x78, 0x39, 0x04, 0x73, 0x49, 0xbe, 0xe7, 0x79, 0x2f, 0xbf,
    0x8b, 0xc5, 0x55, 0x3e, 0x3e, 0xba, 0x17, 0xbf, 0x51, 0x76, 0x3d, 0x3d,
    0xa9, 0xb9, 0xdb, 0xbe, 0xb9, 0x86, 0x6c, 0xbc, 0xdb, 0x11, 0x93, 0x3e,
    0x08, 0x05, 0x2f, 0x3d, 0xe5, 0x4e, 0x0e, 0x3f, 0x79, 0xe4, 0x26, 0xbf,
    0xc8, 0x11, 0x03, 0x3e, 0xf9, 0x97, 0x98, 0x3e, 0x31, 0xa5, 0xbb, 0xbe,
    0x3e, 0x0f, 0xdd, 0xbe, 0xa3, 0x2f, 0xd4, 0x3b, 0x59, 0xed, 0x74, 0xbe,
    0x5f, 0x37, 0x7a, 0x3e, 0x3f, 0x7d, 0x06, 0xbd, 0x0b, 0x24, 0x9f, 0xbe,
    0xa2, 0x16, 0x18, 0x3f, 0xcd, 0x74, 0xac, 0x3e, 0xf4, 0x21, 0x2a, 0xbd,
    0x00, 0x47, 0xc5, 0x3d, 0x61, 0x4a, 0x41, 0xbf, 0xd8, 0xae, 0xf5, 0x3d,
    0xb9, 0x37, 0x92, 0x3e, 0xb1, 0xc7, 0x36, 0xbe, 0xb9, 0x28, 0x01, 0xbe,
    0xa6, 0x63, 0x54, 0xbd, 0x60, 0xa6, 0x08, 0xbf, 0x83, 0x44, 0x8b, 0x3d,
    0x96, 0xa5, 0x32, 0x3e, 0xef, 0x71, 0x72, 0x3e, 0x33, 0xf4, 0x57, 0x3e,
    0xf7, 0x26, 0xe0, 0x3d, 0xc3, 0x16, 0x2a, 0xbe, 0x65, 0xb3, 0xda, 0xbd,
    0x41, 0xeb, 0xed, 0xbe, 0x67, 0x24, 0x8e, 0x3e, 0x80, 0xb2, 0xe0, 0xbe,
    0xea, 0x97, 0xa8, 0xbe, 0x1e, 0xbe, 0x53, 0x3d, 0xc8, 0xb5, 0x71, 0x3e,
    0x30, 0xaf, 0x22, 0x3d, 0x43, 0x17, 0x5d, 0xbe, 0x20, 0xfc, 0xe3, 0x3d,
    0xf2, 0xee, 0x0c, 0x3f, 0x9a, 0x72, 0x01, 0xbd, 0x42, 0x8c, 0xba, 0xbd,
    0x15, 0xc5, 0x66, 0x3e, 0xbb, 0xc7, 0x7e, 0x3e, 0xec, 0xae, 0x0a, 0xbf,
    0xd7, 0x42, 0x2a, 0x3d, 0x24, 0x6e, 0xb6, 0xbe, 0xde, 0xae, 0x52, 0x3f,
    0xf0, 0xa6, 0x8e, 0x3f, 0x9a, 0xf4, 0x3c, 0x3d, 0x88, 0x39, 0xce, 0xbe,
    0x4a, 0xa4, 0x79, 0x3e, 0x5a, 0x22, 0x57, 0x3e, 0x93, 0x2d, 0x05, 0xbe,
    0xcf, 0xfd, 0x21, 0xbe, 0x5c, 0x87, 0x66, 0xbe, 0x2a, 0xf9, 0x6f, 0xbe,
    0x2a, 0x62, 0xfe, 0xbc, 0x12, 0xea, 0xce, 0x3e, 0x66, 0x46, 0x1e, 0xbf,
    0xb1, 0xb0, 0x9d, 0xbc, 0x02, 0xcb, 0x0c, 0x3e, 0xd1, 0x19, 0xc9, 0x3e,
    0x2d, 0x8e, 0x83, 0xbe, 0x66, 0x43, 0x8a, 0x3e, 0xb1, 0x90, 0xab, 0xbe,
    0x31, 0x1d, 0x64, 0xbe, 0x51, 0x94, 0x94, 0x3c, 0x4c, 0x87, 0x87, 0x3e,
    0xcf, 0x8a, 0xb9, 0xbc, 0xf9, 0x11, 0xaf, 0x3d, 0x5a, 0xd3, 0xac, 0xbe,
    0x8b, 0x8d, 0xf1, 0xbd, 0x78, 0x83, 0xbc, 0xbe, 0xd4, 0x01, 0x95, 0x3e,
    0x56, 0xf0, 0xc1, 0xbd, 0xc4, 0x65, 0x8d, 0xbd, 0x44, 0xd2, 0x3a, 0xbe,
    0xd3, 0xbe, 0x39, 0x3d, 0x17, 0x51, 0x83, 0xbd, 0xbf, 0xee, 0x6b, 0x3e,
    0xf9, 0x73, 0x44, 0x3e, 0xc5, 0x73, 0x36, 0xbe, 0xb4, 0xb5, 0x8f, 0xbe,
    0x86, 0x36, 0xc8, 0x3d, 0x59, 0x28, 0xbb, 0x3e, 0xf0, 0x95, 0xf6, 0x3e,
    0xdf, 0xab, 0xf9, 0x3e, 0x09, 0xf0, 0x80, 0xbe, 0x15, 0x41, 0x0e, 0xbd,
    0x34, 0x7f, 0x5c, 0xbe, 0xa5, 0xcc, 0x82, 0xbe, 0x9a, 0xe5, 0x24, 0x3e,
    0x01, 0x19, 0x91, 0x3d, 0x7c, 0x3a, 0x1e, 0x3f, 0xdd, 0x17, 0x39, 0xbe,
    0x34, 0x0b, 0xac, 0xbe, 0x21, 0x35, 0x6b, 0xbe, 0x59, 0x17, 0x31, 0x3e,
    0xad, 0xc3, 0x92, 0xbe, 0x4a, 0xb8, 0x3d, 0xbe, 0xa8, 0xf0, 0xee, 0x3e,
    0x2b, 0xca, 0xf5, 0x3d, 0xb9, 0x14, 0x95, 0x3d, 0xe4, 0x40, 0xf0, 0xba,
    0xeb, 0x99, 0x1e, 0x3d, 0x74, 0xc7, 0x55, 0x3e, 0xb8, 0x77, 0x0c, 0xbe,
    0x30, 0xbc, 0xef, 0x3d, 0x04, 0x58, 0x37, 0xbe, 0x98, 0xce, 0xd8, 0xbd,
    0xd0, 0xb6, 0x24, 0xbd, 0x0c, 0x0d, 0x0a, 0xbe, 0x70, 0xc3, 0x75, 0xbd,
    0x7c, 0xcc, 0x07, 0xbe, 0x7c, 0xa1, 0x10, 0xbe, 0x08, 0x79, 0xfa, 0x3d,
    0x00, 0x11, 0x8c, 0xbc, 0x18, 0x44, 0xd8, 0xbd, 0x50, 0xeb, 0xfc, 0x3d,
    0x44, 0x65, 0x07, 0x3e, 0xe8, 0x59, 0xe4, 0x3d, 0xf0, 0x7c, 0x1e, 0xbd,
    0x00, 0x24, 0x9e, 0x3d, 0x00, 0xd3, 0x05, 0xbc, 0xac, 0xab, 0x10, 0x3e,
    0x34, 0x6d, 0x08, 0xbe, 0xa0, 0x8d, 0xfc, 0x3d, 0xe0, 0xdd, 0xf8, 0x3c,
    0x28, 0x06, 0x38, 0xbe, 0xe0, 0x59, 0x08, 0xbd, 0xc0, 0xf8, 0x54, 0xbe,
    0xc0, 0x07, 0x5e, 0x3e, 0xa0, 0x7f, 0xc4, 0x3d, 0x00, 0xf3, 0x19, 0xbd,
    0x20, 0x9b, 0x1c, 0xbe, 0xb8, 0xe4, 0x4e, 0xbe, 0xfc, 0xbc, 0x60, 0xbe,
    0x8e, 0x44, 0xc0, 0x3e, 0x90, 0x7a, 0xb6, 0xbd, 0xd6, 0xb5, 0xdc, 0x3e,
    0x92, 0xaa, 0xe1, 0xbd, 0x84, 0xaf, 0xc0, 0x3e, 0x9d, 0x76, 0x1d, 0xbe,
    0xb7, 0x82, 0x41, 0xbe, 0x62, 0x12, 0x1b, 0x3f, 0xbc, 0x85, 0x34, 0xbd,
    0x23, 0xa7, 0x31, 0xbe, 0x80, 0xa8, 0xed, 0xbc, 0x2f, 0x80, 0xd1, 0x3c,
    0x45, 0x15, 0xbb, 0x3e, 0xfb, 0x15, 0xa7, 0x3e, 0x27, 0x0f, 0x27, 0xbe,
    0xd6, 0xa8, 0x44, 0xbd, 0x09, 0xe9, 0x4b, 0x3c, 0xf1, 0x9b, 0x9b, 0x3e,
    0x5e, 0x63, 0x8a, 0x3b, 0x60, 0xc6, 0xb3, 0x3d, 0x5c, 0x44, 0x0e, 0xbf,
    0xdb, 0xfc, 0x31, 0xbe, 0x21, 0x01, 0x2c, 0xbf, 0x88, 0x98, 0xa0, 0xbe,
    0xf4, 0x05, 0x9e, 0x3e, 0x4a, 0x7a, 0x07, 0x3e, 0x0e, 0x53, 0x18, 0xbe,
    0x5c, 0xef, 0x2e, 0xbf, 0x0a, 0xd1, 0x98, 0x3e, 0x80, 0x72, 0x8f, 0x3e,
    0x93, 0x9b, 0x8f, 0x3e, 0x76, 0xbe, 0x9f, 0x3e, 0x94, 0x45, 0x2d, 0xbe,
    0x94, 0xf1, 0x57, 0xbe, 0xf8, 0x05, 0xac, 0xbd, 0xa4, 0x4a, 0x7d, 0x3e,
    0x30, 0x3c, 0x62, 0x3e, 0xf0, 0x77, 0x5b, 0xbd, 0x80, 0x74, 0x1d, 0xbc,
    0x00, 0x87, 0xf6, 0xbb, 0xb8, 0x71, 0x91, 0xbd, 0x00, 0x44, 0xb5, 0x3c,
    0xb8, 0x36, 0xd1, 0xbd, 0x48, 0x0e, 0x71, 0xbe, 0x7c, 0xd1, 0x74, 0xbe,
    0x60, 0x4d, 0x9a, 0xbd, 0xc0, 0xa1, 0x2b, 0xbc, 0x7c, 0x07, 0x62, 0x3e,
    0x00, 0x95, 0x52, 0xbb, 0x80, 0x01, 0x70, 0xbe, 0xc0, 0x8a, 0xf7, 0x3d,
    0x00, 0xb4, 0x6a, 0xbe, 0x60, 0xea, 0x7c, 0xbd, 0x88, 0x00, 0xaf, 0xbd,
    0x00, 0xad, 0xc7, 0xbd, 0x18, 0x1e, 0xaa, 0x3d, 0xf0, 0x0c, 0x5b, 0xbe,
    0x14, 0x65, 0x39, 0x3e, 0x28, 0x6b, 0x69, 0xbe, 0x48, 0xb1, 0x6b, 0xbe,
    0x08, 0x22, 0x20, 0xbe, 0x3c, 0xb9, 0x6c, 0x3e, 0xc8, 0xf8, 0x0e, 0xbe,
    0xf0, 0xed, 0xf9, 0x3d, 0xc7, 0xf3, 0x80, 0x3e, 0xb1, 0x77, 0xe4, 0x3d,
    0x1a, 0xa3, 0xc8, 0xbe, 0x2d, 0xd6, 0x03, 0x3e, 0xd4, 0x2f, 0x95, 0x3d,
    0x54, 0x54, 0x6c, 0x3e, 0xc7, 0x98, 0x88, 0x3f, 0xea, 0x2c, 0xb0, 0xbe,
    0xcc, 0xc4, 0xdc, 0x3c, 0x31, 0x4c, 0x2a, 0x3e, 0x04, 0x05, 0x8e, 0x3c,
    0x11, 0x51, 0x12, 0xbe, 0x11, 0x1b, 0xb0, 0xbd, 0x7d, 0x99, 0x4f, 0x3e,
    0x40, 0x37, 0x48, 0xbe, 0x11, 0x12, 0x10, 0xbd, 0x1f, 0xfe, 0x89, 0xbe,
    0xa0, 0x4b, 0xf3, 0xbe, 0x30, 0x60, 0x0d, 0xbd, 0x96, 0x74, 0x8d, 0xbd,
    0x5a, 0x43, 0x10, 0x3f, 0x33, 0x0e, 0x1a, 0x3e, 0x9d, 0x61, 0xa9, 0x3e,
    0x9e, 0x0a, 0x9a, 0x3d, 0xd2, 0x14, 0x1c, 0xbd, 0xd1, 0x97, 0xd2, 0xbe,
    0x6e, 0xdf, 0x92, 0x3d, 0xd5, 0x46, 0xcf, 0x3e, 0x0d, 0x78, 0xc9, 0xbe,
    0xf7, 0x70, 0x2c, 0xbf, 0x90, 0xbe, 0x89, 0xbe, 0x2b, 0x2d, 0xb9, 0x3e,
    0x52, 0x1b, 0x97, 0x3d, 0x91, 0x6e, 0x27, 0x3e, 0xe6, 0x5e, 0x8b, 0x3e,
    0xba, 0x1d, 0xaa, 0xbd, 0x31, 0xef, 0x39, 0xbe, 0x2a, 0xcc, 0x44, 0xbe,
    0xf4, 0x01, 0x7d, 0x3e, 0xed, 0xf7, 0x8d, 0xbe, 0x2e, 0x5b, 0x18, 0x3e,
    0x28, 0x37, 0x38, 0xbd, 0xc4, 0x62, 0xf3, 0xbe, 0xe8, 0x95, 0x40, 0x3e,
    0x73, 0x4b, 0x4d, 0x3e, 0x0f, 0x23, 0x1d, 0x3f, 0xcf, 0x7f, 0xf1, 0xbd,
    0xf9, 0x32, 0xc2, 0xbe, 0x37, 0x8d, 0x77, 0xbe, 0x61, 0x21, 0x97, 0xbd,
    0xbb, 0xae, 0xc5, 0xbe, 0xf6, 0xc9, 0x83, 0x3d, 0x50, 0x4f, 0xfc, 0x3e,
    0xad, 0xf9, 0x84, 0x3d, 0xd6, 0xae, 0xeb, 0x3d, 0xac, 0x5a, 0x48, 0x3f,
    0x98, 0xc2, 0x0a, 0xbf, 0xc0, 0x5c, 0x29, 0xbf, 0x5a, 0xf1, 0x99, 0x3e,
    0xbf, 0xb7, 0xa7, 0x3e, 0xf7, 0xbc, 0x07, 0xbe, 0x73, 0x29, 0x7b, 0xbf,
    0xb2, 0x23, 0xf7, 0x3d, 0x14, 0x01, 0x4e, 0x3f, 0x25, 0x9f, 0x04, 0xbe,
    0x58, 0xfd, 0xaa, 0x3e, 0x04, 0xd2, 0x2a, 0xbe, 0xcb, 0x54, 0x9c, 0x3d,
    0x98, 0xad, 0x85, 0xbd, 0x1b, 0xc3, 0xf4, 0x3e, 0x64, 0xe6, 0x86, 0x3e,
    0xfd, 0xf0, 0xb0, 0x3c, 0xde, 0xd4, 0x8e, 0xbe, 0x9c, 0x14, 0x43, 0x3e,
    0x00, 0xc9, 0xa6, 0x3e, 0xfc, 0xe1, 0x81, 0xbe, 0xa5, 0x3e, 0x17, 0x3c,
    0x58, 0x37, 0x0f, 0xbf, 0xca, 0x2e, 0x8e, 0x3d, 0x53, 0x53, 0x1e, 0xbe,
    0x63, 0x5c, 0x68, 0x3e, 0xcd, 0x85, 0xf8, 0xbe, 0xbd, 0x8d, 0x61, 0x3e,
    0x23, 0x52, 0x0b, 0xbd, 0x61, 0x09, 0x51, 0xbe, 0x5d, 0x03, 0x2c, 0xbe,
    0x40, 0x00, 0xc5, 0x3e, 0xd8, 0x4a, 0x20, 0xbd, 0x2a, 0xd8, 0x71, 0xbd,
    0xb5, 0x68, 0x66, 0x3e, 0x31, 0x94, 0xa5, 0x3e, 0x97, 0x09, 0x1c, 0xbd,
    0x02, 0x58, 0x42, 0xbe, 0x96, 0x65, 0x2d, 0x3e, 0xe0, 0x90, 0x41, 0x3e,
    0xd4, 0xc8, 0x89, 0xbe, 0x3b, 0xbc, 0x41, 0x3e, 0xfa, 0x45, 0xb6, 0x3d,
    0x9a, 0xdd, 0xd6, 0xbe, 0x14, 0xb9, 0x0c, 0xbe, 0x4a, 0x47, 0x3c, 0x3e,
    0x10, 0x43, 0xaa, 0x3e, 0x21, 0x80, 0xb6, 0x3e, 0xb3, 0x11, 0x55, 0x3e,
    0x03, 0xb6, 0x56, 0xbe, 0xfd, 0x3c, 0x88, 0x3e, 0xcb, 0xf0, 0x17, 0x3e,
    0x88, 0x74, 0x4b, 0x3e, 0xf1, 0x3d, 0xdd, 0x3e, 0x2c, 0x0f, 0x57, 0xbd,
    0x85, 0x8c, 0xaa, 0xbe, 0x27, 0xc2, 0xac, 0xbe, 0xb1, 0x15, 0x5d, 0x3e,
    0xb2, 0x39, 0x80, 0xbe, 0x0b, 0xd1, 0x0f, 0xbe, 0x24, 0x8d, 0x79, 0xbe,
    0x00, 0xb1, 0xce, 0x3e, 0xf1, 0x3f, 0xe8, 0xbd, 0x49, 0x68, 0x15, 0xbd,
    0xa6, 0x85, 0xd3, 0xbe, 0x82, 0x2b, 0x27, 0x3e, 0x9c, 0xb6, 0x15, 0xbe,
    0xad, 0x31, 0x9e, 0xbd, 0xf6, 0xda, 0x1c, 0x3f, 0xd0, 0xfb, 0xb3, 0x3d,
    0x16, 0xa4, 0x5a, 0xbe, 0x95, 0x2f, 0x55, 0x3e, 0x8f, 0x6d, 0xbd, 0x3c,
    0x7c, 0xf1, 0x2a, 0x3e, 0x78, 0x9b, 0x6f, 0xbe, 0x38, 0x7b, 0xab, 0xbd,
    0x80, 0x2a, 0xf7, 0x3d, 0xc0, 0x3c, 0x5e, 0x3c, 0x90, 0xfb, 0x79, 0xbe,
    0x00, 0xde, 0x6f, 0xbb, 0x68, 0xd1, 0xed, 0xbd, 0x90, 0x3c, 0x6f, 0xbe,
    0xc0, 0xad, 0x03, 0xbc, 0x18, 0xb3, 0x6d, 0xbe, 0x40, 0x94, 0x11, 0xbd,
    0x7c, 0x73, 0x26, 0xbe, 0x08, 0xa2, 0x02, 0xbe, 0xd0, 0x6c, 0x07, 0xbd,
    0x28, 0xca, 0xad, 0xbd, 0x00, 0x25, 0xb5, 0x3c, 0xc0, 0x4a, 0x08, 0x3c,
    0x10, 0xe3, 0xe1, 0x3d, 0x60, 0xfc, 0xd2, 0xbc, 0x98, 0x8b, 0x42, 0x3e,
    0x74, 0x17, 0x1e, 0xbe, 0xac, 0xf4, 0x1c, 0xbe, 0xd8, 0x00, 0x8c, 0xbd,
    0x30, 0x63, 0xaa, 0x3d, 0xa0, 0x3d, 0x95, 0xbd, 0x00, 0xbf, 0x95, 0x3b,
    0xe0, 0xbb, 0xa8, 0xbd, 0x1c, 0x83, 0x2c, 0xbe, 0x28, 0x13, 0x37, 0xbe,
    0x34, 0xa1, 0x47, 0xbe, 0xb8, 0x36, 0xda, 0xbd, 0x27, 0xab, 0x07, 0xbe,
    0x46, 0x41, 0xb4, 0x3c, 0xd3, 0xe5, 0x1b, 0x3e, 0x76, 0xa1, 0x85, 0xbe,
    0x1a, 0x7f, 0xc3, 0xbe, 0x97, 0x93, 0x0c, 0x3f, 0x3e, 0x3a, 0xa8, 0xbe,
    0x6e, 0x7c, 0x5e, 0x3d, 0xc7, 0xd8, 0x0b, 0x3e, 0x5a, 0x28, 0x99, 0x3d,
    0xaf, 0xd3, 0x34, 0xbe, 0x06, 0xa0, 0x8d, 0xbe, 0x97, 0x99, 0x90, 0xbe,
    0xcd, 0x30, 0x17, 0xbf, 0x4a, 0xf9, 0xa1, 0x3e, 0xcb, 0x97, 0xc4, 0x3d,
    0xad, 0x98, 0x39, 0x3e, 0x4c, 0xb3, 0x2c, 0xbe, 0x9d, 0xa0, 0x51, 0x3e,
    0x27, 0x14, 0x42, 0x3e, 0x83, 0x65, 0x2a, 0xbf, 0xfa, 0xcb, 0x9c, 0x3e,
    0xd7, 0x87, 0x20, 0x3e, 0xf4, 0x07, 0x19, 0xbe, 0x73, 0x69, 0x28, 0xbe,
    0x1b, 0x58, 0xf6, 0x3e, 0x67, 0xe1, 0x6e, 0x3e, 0x74, 0x8a, 0xb6, 0xbe,
    0x7a, 0x07, 0x31, 0x3d, 0x09, 0x65, 0xce, 0x3e, 0xe5, 0xc8, 0xa7, 0xbb,
    0x2b, 0xac, 0x14, 0xbf, 0x51, 0xa0, 0x21, 0x3f, 0xb0, 0x33, 0x92, 0xbe,
    0xa7, 0x42, 0x12, 0x3e, 0xfd, 0x53, 0xa1, 0x3e, 0xf2, 0x74, 0xea, 0x3e,
    0x48, 0xba, 0x9d, 0xbe, 0x7d, 0x6a, 0x98, 0xbe, 0x71, 0x76, 0xe5, 0x3e,
    0xa9, 0x7e, 0xfc, 0x3e, 0x2f, 0x2b, 0xa7, 0xbd, 0xb5, 0xb0, 0x4a, 0x3e,
    0xef, 0x79, 0x15, 0x3f, 0x71, 0x48, 0xb9, 0x3e, 0x9a, 0xf6, 0xa8, 0x3d,
    0xec, 0x8f, 0xc2, 0xbe, 0x4a, 0x18, 0x0d, 0x3f, 0xa1, 0xd8, 0xb7, 0xbe,
    0xa0, 0x16, 0xc1, 0x3e, 0x66, 0x4b, 0xaa, 0xbd, 0x53, 0x5d, 0xb6, 0x3e,
    0xcc, 0x79, 0x07, 0xbf, 0x78, 0x92, 0x73, 0x3e, 0xa7, 0x6e, 0x6a, 0xbe,
    0xe2, 0x17, 0xe0, 0xbd, 0x7e, 0xb7, 0xd8, 0x3e, 0x42, 0xd3, 0xa7, 0x3d,
    0xd3, 0x37, 0x14, 0xbd, 0xdc, 0x7c, 0xe5, 0xbe, 0xf4, 0x2d, 0xdf, 0x3e,
    0xee, 0x5b, 0x14, 0x3f, 0x44, 0x78, 0x4a, 0xbe, 0x37, 0xe9, 0xcb, 0xbe,
    0x87, 0x8e, 0x19, 0xbf, 0xdd, 0xec, 0x90, 0x3e, 0x29, 0x4e, 0x3d, 0xbe,
    0x1c, 0x29, 0x2c, 0x3e, 0x53, 0x58, 0xad, 0xbe, 0x4a, 0x94, 0xc2, 0x3e,
    0xe0, 0x98, 0x7e, 0x3e, 0x07, 0x0c, 0xa4, 0xbe, 0xfa, 0xad, 0xf1, 0xbe,
    0xbb, 0x4d, 0x0a, 0x3e, 0x56, 0x10, 0x9e, 0x3d, 0xfa, 0x5e, 0xdb, 0xbd,
    0xb8, 0x01, 0x31, 0xbe, 0x7f, 0x2f, 0x9d, 0xbe, 0xda, 0x53, 0x57, 0xbe,
    0x69, 0x4a, 0x55, 0xbd, 0x9e, 0x23, 0x1c, 0xbe, 0x2b, 0xe3, 0x55, 0xbe,
    0x02, 0xe2, 0xd2, 0x3d, 0x3b, 0xb1, 0x0a, 0x3e, 0xd9, 0x38, 0x93, 0x3e,
    0x0b, 0x6c, 0xca, 0xbe, 0x1c, 0x7b, 0x90, 0x3b, 0x8d, 0x4b, 0x53, 0xbf,
    0x1e, 0xe9, 0xf4, 0xbe, 0x75, 0xb6, 0xaf, 0xbe, 0xe8, 0x95, 0xb6, 0x3d,
    0x7d, 0x2d, 0x9b, 0xbd, 0x1b, 0x59, 0x32, 0x3e, 0xf6, 0x3d, 0x0b, 0x3e,
    0xdd, 0x4c, 0x3a, 0x3e, 0x5d, 0xca, 0x17, 0xbf, 0x5a, 0x3b, 0x96, 0xbd,
    0xe8, 0x66, 0xe3, 0xbd, 0xf2, 0x02, 0x84, 0xbe, 0x35, 0xb1, 0x22, 0x3d,
    0x36, 0x56, 0x1a, 0xbd, 0x6f, 0x8f, 0x77, 0xbe, 0x56, 0x10, 0xe3, 0xbc,
    0x96, 0x49, 0x52, 0x3e, 0x26, 0xf3, 0xb8, 0x3b, 0x5e, 0x64, 0xce, 0xbc,
    0xd4, 0xf7, 0x16, 0x3e, 0x45, 0x00, 0x19, 0x3d, 0x25, 0x67, 0xc6, 0xbc,
    0xaf, 0xab, 0x34, 0xbe, 0x96, 0xd5, 0x14, 0x3d, 0x9d, 0xd1, 0x34, 0xbe,
    0xa1, 0x59, 0x0c, 0x3e, 0xb5, 0xe6, 0x54, 0xbe, 0x0f, 0x61, 0xcf, 0x3d,
    0x76, 0x6c, 0x3e, 0xbe, 0x87, 0x5a, 0x39, 0xba, 0x99, 0x48, 0x03, 0x3d,
    0xff, 0xe5, 0x04, 0xbe, 0x99, 0x46, 0x44, 0xbe, 0xfe, 0x2d, 0x0c, 0xbd,
    0x94, 0x74, 0x86, 0x3d, 0x95, 0xb0, 0xf9, 0xbd, 0xbb, 0x90, 0x49, 0xbe,
    0xd3, 0xa3, 0x03, 0xbc, 0xe2, 0x3a, 0x84, 0xbe, 0x03, 0x97, 0x2c, 0x3e,
    0x69, 0x6a, 0xd9, 0xbc, 0x4e, 0xb8, 0x0d, 0x3b, 0x62, 0xc2, 0xcc, 0x3e,
    0x5d, 0xdf, 0x12, 0xbf, 0x35, 0x68, 0xf0, 0x3d, 0x59, 0xf9, 0x6c, 0xbe,
    0x0f, 0x10, 0x56, 0x3f, 0xb0, 0x3e, 0x60, 0x3f, 0x88, 0xb3, 0x82, 0xbe,
    0x88, 0x9a, 0x85, 0xbe, 0x98, 0x7e, 0x91, 0x3d, 0x50, 0x60, 0xaf, 0x3e,
    0x62, 0xa2, 0x63, 0xbe, 0x24, 0xd7, 0xf3, 0xbd, 0x16, 0xa8, 0x11, 0xbf,
    0xff, 0x96, 0x81, 0xbe, 0xc1, 0xb6, 0x6b, 0x3e, 0x1a, 0x2c, 0x18, 0x3e,
    0x81, 0x73, 0x18, 0xbf, 0x80, 0xea, 0x15, 0x3e, 0x5c, 0xdc, 0x92, 0x3d,
    0x4c, 0xa8, 0x54, 0x3e, 0x2f, 0xfe, 0x09, 0xbc, 0x43, 0x40, 0xd2, 0x3e,
    0x16, 0xee, 0x1a, 0xbd, 0x07, 0x31, 0x3e, 0xbe, 0x42, 0xaf, 0x6f, 0xbb,
    0xa1, 0xd6, 0x44, 0xbd, 0x0e, 0x7d, 0xb1, 0xbd, 0x97, 0x0b, 0xa4, 0xbe,
    0xa7, 0x8a, 0x0c, 0xbe, 0x0a, 0xc8, 0x68, 0x3d, 0xdb, 0x36, 0x99, 0xbe,
    0xde, 0x5f, 0xd6, 0xbe, 0xbf, 0xd9, 0xaf, 0x3d, 0x64, 0x85, 0xfb, 0xbe,
    0x06, 0xef, 0x75, 0x3d, 0x09, 0xbe, 0x86, 0x3e, 0x65, 0x4b, 0x68, 0x3c,
    0xf9, 0x8c, 0x91, 0x3e, 0x8d, 0xec, 0x0d, 0xbf, 0xa7, 0xcb, 0x10, 0xbf,
    0x52, 0xc7, 0x5d, 0x3e, 0xf4, 0xa4, 0x78, 0x3e, 0xc4, 0xd2, 0xbd, 0x3e,
    0x46, 0x1f, 0x89, 0x3e, 0x88, 0xfe, 0xfb, 0xbe, 0x63, 0x34, 0x75, 0xbd,
    0x32, 0x34, 0xe7, 0x3d, 0x08, 0x64, 0x6b, 0x3e, 0xa9, 0x65, 0x82, 0xbf,
    0x73, 0xc1, 0x9c, 0x3e, 0x36, 0x95, 0xc9, 0xbd, 0xc3, 0x97, 0x26, 0x3e,
    0x79, 0x48, 0x0e, 0xbe, 0x7f, 0xa8, 0xc1, 0x3e, 0xfc, 0x75, 0x2a, 0xbf,
    0x30, 0x67, 0x69, 0x3e, 0x51, 0xec, 0xaf, 0xbd, 0xa6, 0xd0, 0x7a, 0x3e,
    0x69, 0x0c, 0xb0, 0x3d, 0xa3, 0xe4, 0xb5, 0xbd, 0xc4, 0xf6, 0xe8, 0x3e,
    0xc6, 0xf1, 0x30, 0xbe, 0x76, 0x38, 0x2a, 0xbf, 0xa7, 0xc2, 0xc5, 0x3e,
    0xa5, 0x19, 0x34, 0x3e, 0x72, 0xfc, 0xae, 0x3e, 0x27, 0x3e, 0x08, 0x3e,
    0x69, 0xf5, 0x6e, 0x3e, 0xb4, 0xa8, 0xc7, 0xbe, 0x06, 0xdd, 0x1b, 0xbe,
    0xe9, 0xc3, 0x68, 0xbe, 0x78, 0xa8, 0x68, 0x3e, 0x28, 0x54, 0xf4, 0x3d,
    0x5f, 0xb1, 0x2a, 0xbe, 0xa0, 0x35, 0xc4, 0x3e, 0x71, 0x9b, 0x70, 0x3e,
    0x77, 0xb7, 0x2f, 0x3f, 0x1e, 0x51, 0x26, 0x3d, 0x18, 0x16, 0x7c, 0xbe,
    0xfb, 0x20, 0x85, 0xbd, 0x1a, 0x16, 0xb9, 0x3d, 0x15, 0x42, 0x7c, 0xbe,
    0xc9, 0x49, 0x9e, 0xbe, 0x4f, 0x94, 0x82, 0x3d, 0xc7, 0xc3, 0x39, 0x3e,
    0x23, 0x37, 0x01, 0x3e, 0xfd, 0x41, 0x17, 0x3f, 0xb7, 0x6c, 0x7a, 0xbe,
    0xee, 0xc5, 0x00, 0xbf, 0x1c, 0xd9, 0x0b, 0xbd, 0x66, 0x2a, 0xe2, 0x3e,
    0xd1, 0x39, 0xbb, 0xbd, 0x41, 0xe9, 0xda, 0xbe, 0xc5, 0xb3, 0xa0, 0xbe,
    0x1e, 0xc0, 0x0a, 0x3f, 0xc3, 0x00, 0x68, 0xbe, 0x58, 0x0b, 0x12, 0xbe,
    0x97, 0xbd, 0xd8, 0x3d, 0x1b, 0xcc, 0x75, 0xbe, 0x6e, 0x70, 0x42, 0x3e,
    0xfc, 0x0d, 0x41, 0xbe, 0x97, 0xef, 0x7b, 0xbe, 0x09, 0x12, 0xb4, 0xbd,
    0x4c, 0xcf, 0x6c, 0xbe, 0x58, 0x92, 0x16, 0x3e, 0xa7, 0x19, 0x83, 0x3d,
    0x3d, 0xee, 0x1f, 0x3e, 0xdf, 0x89, 0x6a, 0x3c, 0xf1, 0xaa, 0x94, 0xbc,
    0xe0, 0x9c, 0x2a, 0xbe, 0x7b, 0x93, 0x6e, 0x3e, 0xa0, 0xfc, 0xd1, 0xbd,
    0x3b, 0x42, 0x4b, 0x3e, 0x72, 0x4e, 0xc8, 0x3b, 0xa3, 0xe6, 0x6d, 0xbe,
    0x80, 0x8f, 0x0f, 0x3d, 0x0b, 0xeb, 0x15, 0xbc, 0x0e, 0xce, 0x4c, 0xbd,
    0x6d, 0x59, 0x28, 0xbe, 0xba, 0x46, 0x3d, 0x3e, 0x78, 0x2a, 0xd5, 0xbd,
    0xd0, 0x09, 0xc8, 0xbd, 0x21, 0xce, 0x59, 0xbe, 0xc9, 0xba, 0x62, 0xbe,
    0xaa, 0xab, 0x13, 0xbe, 0x88, 0x4f, 0x69, 0xbe, 0x60, 0xaa, 0xe2, 0x3c,
    0x1b, 0x9e, 0x61, 0x3e, 0xa1, 0x6c, 0xc2, 0xbe, 0x88, 0x40, 0x3a, 0x3e,
    0x51, 0x1b, 0x0b, 0x3e, 0xb4, 0xd1, 0x4d, 0x3d, 0x54, 0xf9, 0x38, 0x3e,
    0xb2, 0xc0, 0x52, 0xbf, 0x94, 0x38, 0xbf, 0x3e, 0x51, 0xf8, 0xbc, 0x3d,
    0xf1, 0x06, 0x20, 0x3d, 0x8e, 0xf8, 0x1d, 0x3e, 0xb7, 0x29, 0x5c, 0x3e,
    0x44, 0x8c, 0x05, 0xbd, 0x50, 0x5c, 0x26, 0xbd, 0xa0, 0xf9, 0x18, 0x3c,
    0x9e, 0x5a, 0x86, 0x3e, 0x94, 0xfb, 0xf0, 0x3d, 0xdb, 0x62, 0x98, 0x3e,
    0x27, 0x61, 0x3f, 0x39, 0xbb, 0x73, 0x9f, 0x3e, 0xcd, 0x15, 0xdf, 0xbe,
    0x88, 0x7d, 0xa3, 0x3e, 0xfb, 0x7f, 0xfb, 0xbe, 0x77, 0x14, 0x0f, 0xbe,
    0x75, 0x60, 0x3b, 0x3e, 0xee, 0xf1, 0x3b, 0x3e, 0x00, 0xe6, 0x85, 0xbe,
    0xb8, 0x70, 0x43, 0xbe, 0xce, 0xce, 0x2f, 0x3e, 0x1e, 0xb3, 0x05, 0x3f,
    0x50, 0x11, 0x48, 0x3e, 0x0f, 0x90, 0x83, 0xbe, 0xd6, 0x03, 0x01, 0x3e,
    0x7f, 0x0d, 0x7e, 0xbe, 0xbb, 0xca, 0x82, 0x3c, 0x81, 0xa9, 0x25, 0x3e,
    0x83, 0x23, 0xae, 0xbd, 0xad, 0x90, 0x29, 0xbd, 0xf8, 0x3b, 0xff, 0x3d,
    0xe8, 0x24, 0xd1, 0xbd, 0xf9, 0x92, 0x35, 0xbd, 0xa6, 0xf4, 0x5c, 0x3e,
    0xc4, 0x46, 0x4e, 0xbd, 0xdd, 0xc7, 0x01, 0x3c, 0xf4, 0xb3, 0x01, 0xbe,
    0x2e, 0xe7, 0x7e, 0xbe, 0xc0, 0x5a, 0x55, 0xbc, 0xe7, 0x2f, 0xb3, 0xbd,
    0x18, 0xc2, 0x8e, 0x3d, 0x2f, 0x7b, 0x64, 0xbe, 0xfd, 0xcd, 0x77, 0xbe,
    0x0f, 0xde, 0x2d, 0x3d, 0x5d, 0x38, 0x05, 0xbd, 0xa2, 0xfc, 0xeb, 0xbd,
    0x4a, 0x2e, 0xb2, 0x3d, 0xc8, 0xc1, 0x96, 0xbd, 0xd8, 0x21, 0x86, 0xbd,
    0x10, 0xc5, 0xa5, 0x3d, 0x5f, 0x08, 0x2c, 0xbe, 0x9a, 0xcb, 0x3b, 0x3e,
    0x9f, 0x40, 0x13, 0xbd, 0x60, 0x0c, 0xaf, 0x3d, 0x0f, 0xfe, 0xde, 0xbd,
    0x41, 0x6f, 0x45, 0xbe, 0x1d, 0x7f, 0x62, 0x3e, 0xfe, 0x0e, 0x9a, 0x3c,
    0xd9, 0x95, 0xb5, 0xbd, 0xc2, 0xad, 0xb8, 0xbd, 0x29, 0xb7, 0xa2, 0xbe,
    0x7c, 0x1c, 0x09, 0x3f, 0xa5, 0x25, 0xb9, 0xbc, 0xde, 0xbb, 0x49, 0x3e,
    0x89, 0x35, 0x36, 0x3e, 0x8b, 0x32, 0x52, 0x3e, 0xfc, 0xd0, 0x81, 0x3e,
    0x5e, 0xf1, 0x00, 0xbf, 0x7d, 0x97, 0x9d, 0xbe, 0x51, 0x49, 0x30, 0x3d,
    0x8f, 0xb9, 0x05, 0xbf, 0x75, 0xf1, 0x1a, 0x3e, 0x84, 0xec, 0xad, 0xbc,
    0xc9, 0x11, 0x88, 0x3e, 0xb5, 0xf2, 0x18, 0x3e, 0xb2, 0xd5, 0xd4, 0x3d,
    0x8d, 0x3c, 0xb4, 0xbe, 0x5e, 0xec, 0x9b, 0x3c, 0x5a, 0x8a, 0xbd, 0xbe,
    0x81, 0x9f, 0xb7, 0xbe, 0xa3, 0x93, 0x63, 0xbe, 0x5f, 0x53, 0x5f, 0x3e,
    0x6b, 0xb3, 0x4f, 0xbe, 0x92, 0x8d, 0x17, 0xbf, 0x3b, 0x8c, 0xbf, 0xbd,
    0xb9, 0x98, 0x9f, 0x3e, 0x1c, 0xa2, 0x8f, 0x3c, 0x09, 0x3d, 0x8b, 0xbf,
    0xe8, 0x21, 0x50, 0xbe, 0x00, 0x11, 0x48, 0x3d, 0xd0, 0x01, 0x2d, 0xbe,
    0x4c, 0xf1, 0x22, 0x3e, 0x60, 0x85, 0xc1, 0x3d, 0x08, 0x6a, 0x18, 0xbe,
    0xe8, 0x2c, 0xee, 0x3d, 0x50, 0x1e, 0x58, 0x3d, 0x60, 0xc7, 0xd7, 0xbd,
    0xa8, 0x75, 0xcb, 0xbd, 0xd8, 0x98, 0xe1, 0x3d, 0x40, 0x60, 0xe6, 0x3d,
    0xd0, 0xb1, 0x6d, 0x3e, 0x20, 0x70, 0x97, 0xbc, 0x00, 0x5c, 0x34, 0x3b,
    0x00, 0x4c, 0x76, 0x3d, 0x58, 0xb9, 0x03, 0xbe, 0xf0, 0x46, 0x0c, 0xbe,
    0xf8, 0xaa, 0x15, 0xbe, 0x98, 0x48, 0x41, 0xbe, 0x3c, 0x74, 0x59, 0xbe,
    0x08, 0xcf, 0x0c, 0xbe, 0x28, 0xdc, 0x84, 0xbd, 0x64, 0x7a, 0x08, 0xbe,
    0xbc, 0xae, 0x28, 0xbe, 0x94, 0xf1, 0x28, 0xbe, 0x4c, 0x39, 0x67, 0xbe,
    0x70, 0xc8, 0xda, 0x3d, 0x68, 0x2d, 0x34, 0xbe, 0x20, 0xbf, 0xfa, 0x3c,
    0x44, 0xac, 0x63, 0xbe, 0xe8, 0x98, 0xea, 0xbd, 0xb0, 0x47, 0xde, 0x3d,
    0x58, 0x40, 0x14, 0xbe, 0x18, 0xb8, 0x2d, 0x3e, 0xa0, 0x41, 0x6d, 0xbe,
    0xf4, 0xf9, 0x6c, 0xbe, 0xa0, 0xc7, 0xab, 0x3d, 0x00, 0x0e, 0xe1, 0x3a,
    0xe0, 0x89, 0x05, 0xbe, 0xa0, 0x46, 0xce, 0xbc, 0x60, 0x4a, 0x3e, 0x3d,
    0xb8, 0xb8, 0x93, 0xbd, 0x1c, 0x2a, 0x79, 0x3e, 0x64, 0xb6, 0x3e, 0xbe,
    0x10, 0x00, 0x5a, 0xbd, 0x00, 0xe9, 0xd6, 0xbb, 0x10, 0xa9, 0x6a, 0x3e,
    0x7c, 0x64, 0x01, 0x3e, 0x00, 0xd2, 0x02, 0xbc, 0xe4, 0x78, 0x3e, 0xbe,
    0x40, 0xa3, 0xba, 0x3d, 0x28, 0x37, 0x37, 0x3e, 0x70, 0x63, 0x3c, 0xbe,
    0xd8, 0x80, 0xb1, 0x3d, 0xcc, 0x83, 0x00, 0xbe, 0x80, 0xa5, 0x0d, 0x3c,
    0x58, 0xa0, 0xdd, 0x3d, 0xf8, 0x2c, 0x65, 0xbe, 0xd0, 0x5b, 0x3e, 0x3d,
    0x20, 0x83, 0x27, 0x3d, 0x94, 0xa0, 0x54, 0xbe, 0xc0, 0xa2, 0x6a, 0xbe,
    0x28, 0xfd, 0xa7, 0x3d, 0x25, 0x27, 0x65, 0x3d, 0x2b, 0x40, 0x17, 0x3d,
    0xeb, 0xec, 0xcb, 0xbd, 0x33, 0x8b, 0x29, 0xbe, 0xab, 0x2a, 0x22, 0xbe,
    0x51, 0x6e, 0x2a, 0x3f, 0x40, 0xc8, 0xd1, 0x3e, 0xc0, 0x7f, 0x1e, 0x3e,
    0xd8, 0x5f, 0x9e, 0x3e, 0xbd, 0x44, 0xcf, 0x3d, 0x56, 0xbb, 0x9c, 0x3e,
    0xbf, 0xcc, 0x05, 0xbf, 0xae, 0x45, 0x2d, 0xbf, 0x80, 0x79, 0xd1, 0xbd,
    0xdc, 0xfe, 0x9a, 0xbe, 0x26, 0x0d, 0xa8, 0xbd, 0xf0, 0xd6, 0x02, 0xbd,
    0xce, 0xfa, 0x54, 0xbe, 0xdf, 0x70, 0x7b, 0x3d, 0xd4, 0x51, 0xae, 0x3d,
    0x60, 0x94, 0xbb, 0xbc, 0x75, 0xda, 0x39, 0xbe, 0xe9, 0xf5, 0xb0, 0x3d,
    0x29, 0x20, 0x72, 0xbd, 0x88, 0x2f, 0x8d, 0x3d, 0xea, 0x44, 0xc2, 0x3e,
    0xf4, 0xd1, 0x10, 0xbd, 0x58, 0xc9, 0x32, 0xbd, 0x1f, 0x45, 0xa9, 0xbc,
    0xb7, 0x38, 0x09, 0xbf, 0x10, 0x06, 0xa7, 0x3b, 0xa3, 0xfe, 0x8e, 0x3e,
    0xff, 0x4b, 0x60, 0xbe, 0x1f, 0xe7, 0xd5, 0x3e, 0x12, 0xfb, 0xca, 0xbe,
    0x09, 0x24, 0x95, 0x3c, 0xaf, 0x23, 0xf1, 0x3c, 0x3d, 0x72, 0x70, 0xbe,
    0x2b, 0x44, 0x36, 0x3f, 0xea, 0x43, 0x05, 0xbf, 0x55, 0x69, 0x3a, 0xbf,
    0x36, 0xea, 0xe7, 0x3e, 0xa8, 0x80, 0xf0, 0xbd, 0xc6, 0x36, 0x85, 0x3e,
    0xfd, 0x87, 0xba, 0x3e, 0x35, 0x8f, 0x82, 0xbe, 0x2a, 0x4a, 0xa2, 0x3d,
    0xd6, 0x9b, 0x1c, 0x3d, 0x92, 0x4a, 0xc8, 0x3e, 0xb6, 0xf9, 0x28, 0xbf,
    0x8c, 0x5d, 0x2c, 0xbe, 0x2b, 0xf6, 0x88, 0xbd, 0x94, 0x82, 0xc9, 0x3e,
    0x18, 0xce, 0x07, 0x3e, 0x9c, 0xef, 0xe7, 0x3e, 0xb2, 0x1b, 0xc7, 0xbe,
    0x95, 0xfe, 0xa3, 0xbd, 0xba, 0x96, 0x94, 0xbe, 0xdd, 0xea, 0xb6, 0x3e,
    0x3e, 0x3c, 0xd7, 0x3e, 0x8b, 0x20, 0x35, 0xbe, 0xaa, 0xee, 0x0c, 0xbf,
    0xa9, 0x28, 0x88, 0xbd, 0xf4, 0x21, 0xbd, 0x3c, 0x42, 0x74, 0x89, 0x3d,
    0x8b, 0xf5, 0x9f, 0x3c, 0x8b, 0xbe, 0x33, 0xbf, 0x66, 0xc5, 0x18, 0xbe,
    0x6a, 0xba, 0xab, 0xbe, 0xc9, 0x1b, 0x4d, 0x3e, 0x32, 0x5c, 0x1d, 0x3f,
    0x35, 0x1d, 0x04, 0xbf, 0x28, 0x5d, 0x87, 0xbe, 0x39, 0xf1, 0xb9, 0x3e,
    0x38, 0x95, 0xb7, 0x3e, 0x0f, 0x0f, 0xbc, 0xbe, 0x26, 0x47, 0x4d, 0xbe,
    0x95, 0x9f, 0x03, 0xbf, 0x43, 0x44, 0x92, 0xbd, 0xbf, 0xfe, 0xea, 0xbd,
    0x29, 0xae, 0x1d, 0x3e, 0xa2, 0x01, 0x6f, 0xbf, 0x61, 0xd7, 0x8b, 0x3e,
    0x2b, 0x39, 0xbd, 0x3d, 0x61, 0x78, 0x1e, 0xbe, 0xa1, 0x33, 0x2b, 0x3e,
    0x71, 0x51, 0x06, 0x3f, 0x51, 0xd1, 0x68, 0xbf, 0xeb, 0x88, 0x86, 0x3e,
    0x1e, 0x87, 0xcf, 0x3e, 0x81, 0x77, 0x4f, 0x3e, 0xc0, 0x87, 0x59, 0xbe,
    0xf1, 0xc7, 0x98, 0xbd, 0xaf, 0x94, 0x99, 0xbc, 0xa9, 0x47, 0x84, 0x3e,
    0x81, 0x22, 0x48, 0xbf, 0x47, 0xd5, 0x84, 0xbd, 0xc4, 0x1d, 0x8f, 0x3d,
    0xc5, 0xb7, 0x2c, 0xbd, 0x35, 0x0d, 0x36, 0x3e, 0x9d, 0xb2, 0x7c, 0xbe,
    0x45, 0xd9, 0x4c, 0x3e, 0xd3, 0xbd, 0x9e, 0xbd, 0xb8, 0x50, 0x00, 0xbd,
    0x96, 0x95, 0x1c, 0xbe, 0x47, 0x5d, 0x5d, 0xbe, 0x5d, 0xf6, 0x8a, 0xbb,
    0x06, 0x68, 0x21, 0x3d, 0x51, 0x5b, 0x2b, 0x3e, 0x36, 0xdb, 0xa5, 0xbd,
    0xf1, 0x8f, 0x02, 0xbe, 0x7b, 0x52, 0xcb, 0x3d, 0x60, 0x3a, 0x04, 0xbe,
    0x9c, 0x52, 0xfd, 0x3d, 0x83, 0x35, 0xc9, 0xbd, 0x34, 0x12, 0xac, 0xbd,
    0x98, 0xa4, 0x54, 0x3e, 0x73, 0xaa, 0x22, 0xbe, 0xb9, 0x2a, 0x0f, 0xbd,
    0x5c, 0xca, 0x73, 0xbe, 0x0c, 0x1a, 0x76, 0xbe, 0x77, 0xc8, 0x6b, 0x3e,
    0x69, 0x79, 0x0d, 0xbe, 0x50, 0x71, 0x13, 0xbe, 0xa1, 0x35, 0xab, 0x3d,
    0x95, 0x52, 0x07, 0x3e, 0x30, 0xd4, 0x1e, 0xbe, 0x4f, 0xb1, 0x11, 0xbd,
    0x2c, 0x3c, 0x12, 0xbc, 0x5b, 0x49, 0xa2, 0xbd, 0x71, 0x18, 0x65, 0x3d,
    0x2b, 0xd2, 0x80, 0xbe, 0xd2, 0x15, 0x9c, 0xbe, 0xd3, 0xc0, 0x39, 0xbe,
    0xaf, 0xfc, 0xde, 0x3d, 0xe7, 0xce, 0xa1, 0x3e, 0x8e, 0x7c, 0xf4, 0x3e,
    0x91, 0x82, 0xf3, 0xbe, 0x62, 0xc8, 0xbf, 0x3e, 0x75, 0x33, 0x52, 0xbe,
    0x40, 0x0d, 0xfc, 0x3e, 0x5d, 0x61, 0x88, 0x3e, 0x02, 0x06, 0xad, 0x3d,
    0x20, 0xb2, 0x80, 0x3b, 0x54, 0x68, 0xb5, 0xbe, 0xe9, 0x18, 0x4f, 0x3e,
    0xeb, 0xaa, 0x01, 0x3e, 0x6f, 0x6f, 0x41, 0x3e, 0xc1, 0x4b, 0x38, 0x3e,
    0xfc, 0xa2, 0xbf, 0xbe, 0x23, 0x4c, 0x0e, 0xbe, 0x93, 0x61, 0x94, 0x3d,
    0x55, 0xfd, 0xce, 0x3e, 0x23, 0xc2, 0x98, 0x3e, 0x50, 0x8b, 0xab, 0xbe,
    0xa2, 0xfe, 0xa4, 0x3e, 0x0a, 0x3f, 0xab, 0xbe, 0x7f, 0xbc, 0xca, 0x3d,
    0x80, 0x45, 0x08, 0x3e, 0x28, 0xa9, 0x36, 0x3e, 0x4f, 0xa2, 0x84, 0xbc,
    0x8c, 0xad, 0xf8, 0x3d, 0x27, 0x5a, 0xc0, 0xbe, 0xce, 0x9d, 0x24, 0x3d,
    0x93, 0x44, 0x0f, 0xbd, 0xb0, 0x53, 0xa0, 0x3e, 0xe3, 0x1b, 0xf0, 0x3e,
    0xb0, 0xbf, 0xb2, 0xbe, 0x0a, 0x38, 0x84, 0xbe, 0x9e, 0x40, 0x6a, 0x3e,
    0x42, 0x5a, 0xb3, 0x3d, 0x95, 0x34, 0x20, 0xbe, 0xcd, 0x95, 0x9a, 0xbd,
    0x16, 0x21, 0x9b, 0xbe, 0xe9, 0x13, 0x47, 0x3e, 0x26, 0xb1, 0x22, 0xbe,
    0x3b, 0xa5, 0x31, 0x3e, 0x0d, 0xd0, 0x12, 0xbf, 0xb2, 0x04, 0xcc, 0x3e,
    0x81, 0x40, 0xe5, 0x3d, 0xe6, 0x73, 0xbc, 0x3e, 0x5c, 0x30, 0x5b, 0xbe,
    0x6c, 0xf1, 0xf3, 0x3d, 0x18, 0x1b, 0x1b, 0xbf, 0x72, 0x2d, 0xae, 0x3e,
    0x1d, 0x9f, 0x12, 0x3f, 0xfe, 0x4c, 0x90, 0xbd, 0x1d, 0x2f, 0xaa, 0xbe,
    0xa4, 0xe1, 0x29, 0xbc, 0x97, 0x09, 0x3d, 0xbe, 0x83, 0x41, 0xdb, 0x3d,
    0x25, 0xec, 0x06, 0xbf, 0x47, 0x77, 0x2b, 0xbe, 0xad, 0x9b, 0x86, 0xbe,
    0x15, 0xa0, 0x0c, 0x3f, 0x94, 0xe0, 0x8b, 0xbd, 0x11, 0x49, 0x18, 0x3e,
    0xf5, 0x3c, 0x13, 0xbf, 0x60, 0x3b, 0x41, 0xbf, 0x4e, 0x81, 0x1f, 0x3e,
    0xa0, 0x23, 0xf0, 0x3d, 0x30, 0x5a, 0xf0, 0xbb, 0xe5, 0x48, 0xc2, 0xbc,
    0xb8, 0xfb, 0x57, 0x3e, 0x7d, 0x7d, 0xe5, 0xbd, 0xf9, 0xec, 0x10, 0x39,
    0xc7, 0xe8, 0x12, 0x3e, 0x01, 0x8b, 0x69, 0x3e, 0x30, 0x0b, 0xa2, 0x3d,
    0x8f, 0x4e, 0xe5, 0x3e, 0x62, 0xdc, 0x91, 0x3d, 0x90, 0x8a, 0xc8, 0xbb,
    0x6c, 0xb5, 0x1f, 0xbe, 0x23, 0x11, 0xaa, 0x3d, 0x90, 0x0d, 0x8e, 0xbe,
    0xbb, 0xcb, 0x1b, 0x3e, 0xde, 0xc5, 0x98, 0x3d, 0x95, 0x0e, 0xa9, 0xbe,
    0xea, 0x36, 0xc9, 0xbc, 0x41, 0x4b, 0x81, 0x3e, 0x36, 0xb3, 0x85, 0x3e,
    0x77, 0x2e, 0x67, 0x3e, 0xda, 0xe8, 0xe9, 0xbb, 0xaa, 0xc5, 0xd0, 0xbc,
    0xa6, 0x03, 0xa5, 0x3a, 0x4a, 0x97, 0x2b, 0xbd, 0xd8, 0xe5, 0xd6, 0x3d,
    0x05, 0xe6, 0x92, 0xbe, 0x50, 0x60, 0xb1, 0x3e, 0x19, 0xde, 0x13, 0x3d,
    0x29, 0x69, 0x78, 0x3b, 0x5d, 0x55, 0x71, 0x3a, 0x2e, 0x9c, 0xcd, 0x3c,
    0x90, 0x79, 0xca, 0x3c, 0x78, 0x59, 0xec, 0x3d, 0xae, 0x2e, 0x9e, 0x3e,
    0x6a, 0x48, 0xb9, 0x3e, 0xa4, 0x9c, 0xf4, 0x3e, 0x44, 0x4f, 0xb5, 0xbe,
    0x97, 0x48, 0x38, 0xbe, 0xea, 0xe5, 0x86, 0xbd, 0xf6, 0x05, 0xe1, 0xbd,
    0x52, 0x6f, 0x87, 0xbe, 0xbb, 0x63, 0xc8, 0xbe, 0x77, 0x07, 0x0a, 0x3f,
    0x36, 0x14, 0x1a, 0x3e, 0x58, 0x6e, 0x1e, 0x3e, 0x70, 0xc6, 0xd9, 0xba,
    0xcc, 0x48, 0xfa, 0x3d, 0x72, 0xc2, 0x16, 0xbf, 0xfb, 0xfc, 0x90, 0x3d,
    0xa1, 0xbe, 0x7b, 0x3f, 0x6f, 0x4e, 0x5c, 0x3e, 0x1e, 0xbf, 0x3b, 0xbd,
    0x31, 0x31, 0x72, 0xbe, 0x6f, 0xf0, 0x38, 0x3f, 0x8a, 0xdc, 0x37, 0x3f,
    0x70, 0x19, 0x76, 0xbd, 0xa0, 0x6b, 0x94, 0x3e, 0x98, 0x66, 0x83, 0x3e,
    0x4a, 0xbc, 0x2f, 0x3f, 0xe0, 0x96, 0x76, 0xbd, 0x6d, 0x8c, 0x18, 0xbf,
    0x6d, 0x5a, 0x84, 0x3e, 0x8e, 0x39, 0xa8, 0xbd, 0x3e, 0x78, 0x9d, 0x3d,
    0x01, 0x4c, 0xc8, 0x3e, 0x66, 0x39, 0x3e, 0x3f, 0x2e, 0x3d, 0x7a, 0x3e,
    0xf4, 0x49, 0x86, 0xbe, 0x5c, 0x2a, 0xb0, 0x3d, 0xd2, 0xef, 0x0d, 0x3f,
    0x18, 0xf2, 0x6a, 0xbd, 0xbf, 0xcd, 0x4c, 0xbe, 0xd7, 0xf8, 0x84, 0x3e,
    0x32, 0xb1, 0x4d, 0x3e, 0x3b, 0x96, 0x87, 0xbe, 0x02, 0xac, 0x7a, 0x3c,
    0x45, 0xef, 0x7d, 0xbe, 0x9b, 0x16, 0x4c, 0xbf, 0x1b, 0x69, 0x96, 0x3e,
    0xb9, 0xc3, 0x9d, 0x3e, 0x58, 0xa7, 0x44, 0x3c, 0x25, 0xe3, 0x2a, 0xbe,
    0x6a, 0x2d, 0x0d, 0x3f, 0x90, 0xf4, 0x6a, 0x3f, 0x9d, 0xe2, 0x1d, 0xbe,
    0x16, 0x04, 0x4c, 0xbf, 0x6d, 0x50, 0x31, 0xbe, 0xa7, 0x67, 0xf4, 0x3d,
    0x9a, 0x54, 0x7a, 0x3e, 0x42, 0x5e, 0x4b, 0x3e, 0xaa, 0xf8, 0x33, 0x3d,
    0x98, 0x2c, 0x96, 0x3d, 0x19, 0x99, 0x10, 0xbf, 0xca, 0xea, 0xa8, 0x3d,
    0xe7, 0x98, 0x00, 0x3e, 0x8a, 0x96, 0x81, 0x3e, 0xbf, 0x46, 0x81, 0xbe,
    0x21, 0x14, 0x3a, 0xbe, 0x12, 0xfe, 0xfa, 0xbd, 0x2b, 0xdc, 0xf5, 0xbd,
    0x90, 0x05, 0x83, 0x3e, 0xd6, 0x69, 0x26, 0xbd, 0xec, 0xa8, 0x89, 0x3e,
    0x35, 0xa9, 0x18, 0x3e, 0x74, 0x4d, 0x8a, 0xbd, 0x25, 0xa6, 0xcf, 0x3d,
    0x61, 0x3d, 0xd1, 0xbe, 0xf7, 0xc7, 0x1b, 0xbd, 0x8c, 0xd9, 0xe9, 0xbd,
    0xb2, 0xf8, 0x0b, 0x3e, 0xf5, 0xbb, 0x80, 0xbd, 0x67, 0x8a, 0xa5, 0x3e,
    0x34, 0x52, 0x05, 0x3e, 0x7c, 0x56, 0xfa, 0xbe, 0x9f, 0x70, 0x21, 0xbe,
    0xce, 0x59, 0x87, 0x3d, 0xea, 0xbe, 0x5b, 0x3e, 0x71, 0x40, 0xca, 0x3d,
    0x3f, 0xdf, 0x5a, 0xbe, 0xc5, 0x9a, 0xc1, 0x3e, 0xe0, 0xfb, 0xf7, 0xbd,
    0x66, 0xda, 0xb7, 0xbd, 0x6d, 0x03, 0xe8, 0x3d, 0xe4, 0xfd, 0xdb, 0x3e,
    0x7b, 0x1b, 0xc9, 0x3d, 0xe1, 0xaf, 0xbe, 0xbe, 0x49, 0x6c, 0x33, 0xbf,
    0x57, 0x9a, 0xbf, 0xbc, 0x7f, 0xb8, 0x0a, 0xbe, 0x49, 0x8a, 0x90, 0xbe,
    0x88, 0x3f, 0x83, 0xbe, 0x55, 0x74, 0x12, 0xbf, 0xa1, 0x4c, 0xa6, 0xbd,
    0x6b, 0x0d, 0x85, 0x3e, 0x46, 0xc6, 0x65, 0x3e, 0x4b, 0xb0, 0x5c, 0xbf,
    0x71, 0x63, 0x44, 0x3e, 0xca, 0x2d, 0x8f, 0xbe, 0x78, 0xca, 0x3e, 0x3e,
    0x78, 0x4e, 0x1d, 0xbe, 0xcd, 0xd5, 0x8a, 0x3d, 0xba, 0xeb, 0x9a, 0xbf,
    0x1d, 0xf7, 0xa0, 0xbe, 0xb6, 0x2e, 0xf2, 0xbe, 0xf6, 0xce, 0x17, 0x3e,
    0x22, 0xf9, 0x42, 0x3d, 0x09, 0xcf, 0xb8, 0xbd, 0xc4, 0x2c, 0x23, 0x3f,
    0x87, 0xae, 0xbb, 0xbd, 0x36, 0x74, 0x2c, 0xbf, 0x63, 0xf4, 0xe1, 0x3d,
    0x4b, 0xbd, 0x04, 0xbe, 0x86, 0x0c, 0x34, 0x3e, 0x4a, 0xed, 0x2f, 0xbc,
    0x14, 0x04, 0xc9, 0xbc, 0x35, 0xed, 0x90, 0x3e, 0x64, 0x70, 0xc1, 0xbe,
    0x5d, 0x92, 0x61, 0x3e, 0xf3, 0x5e, 0x0e, 0xbe, 0x40, 0x1f, 0x8b, 0xbd,
    0xa0, 0x43, 0x90, 0x3e, 0xf5, 0x7e, 0x85, 0xbe, 0x10, 0x9d, 0xc6, 0xbe,
    0xaf, 0xfe, 0x0d, 0xbd, 0x8f, 0xdf, 0x67, 0xbe, 0xd1, 0x58, 0x1f, 0x3e,
    0x73, 0x05, 0x27, 0xbe, 0x7d, 0x00, 0x06, 0xbe, 0x29, 0xca, 0xb4, 0x3e,
    0x58, 0x66, 0xd1, 0x3e, 0x5c, 0x0a, 0xd1, 0xbe, 0x45, 0xf6, 0xc3, 0x3e,
    0x36, 0x77, 0x2b, 0xbe, 0x34, 0x0a, 0x43, 0xbf, 0x1a, 0xda, 0x62, 0xbe,
    0xe1, 0x38, 0xb0, 0x3e, 0x56, 0xee, 0xb7, 0x3d, 0x72, 0x0a, 0x02, 0xbf,
    0x13, 0x8f, 0x95, 0x3e, 0x06, 0xf9, 0xa0, 0x3e, 0x94, 0x89, 0x3e, 0x3e,
    0xb1, 0xcd, 0x85, 0xbf, 0x53, 0xeb, 0x22, 0xbe, 0x47, 0x7b, 0xb2, 0x3e,
    0xe5, 0x9b, 0x90, 0xbe, 0x5f, 0xb3, 0x03, 0x3d, 0x29, 0x35, 0x49, 0x3d,
    0x9b, 0x77, 0x04, 0xbe, 0x75, 0x15, 0x84, 0x3e, 0xcd, 0x04, 0x30, 0xbf,
    0xe5, 0xe7, 0x3d, 0xbf, 0x9a, 0xa8, 0xcf, 0x3e, 0x3b, 0x3b, 0x62, 0x3e,
    0xcd, 0x9c, 0xc1, 0x3e, 0xbb, 0xd7, 0x68, 0x3e, 0xeb, 0xd5, 0x84, 0x3c,
    0xeb, 0xb2, 0xdc, 0x3d, 0xb2, 0x62, 0x4a, 0xbe, 0xe8, 0x48, 0x8c, 0x3e,
    0xbf, 0x94, 0x56, 0xbf, 0x52, 0x2c, 0x53, 0xbd, 0xfc, 0x49, 0x2b, 0xbd,
    0xbd, 0x7e, 0x98, 0x3e, 0x80, 0x3f, 0x16, 0xbe, 0xac, 0x72, 0x18, 0x3f,
    0x67, 0x3b, 0xd4, 0x3d, 0x0d, 0xd2, 0x69, 0xbe, 0x8e, 0x1b, 0xb5, 0xbc,
    0x87, 0xd0, 0xda, 0x3d, 0xce, 0x27, 0xec, 0x3e, 0xa8, 0x10, 0x56, 0xbd,
    0xe8, 0xba, 0x47, 0xbe, 0x6a, 0xc8, 0x89, 0xbe, 0x86, 0x6d, 0x2b, 0xbe,
    0xf6, 0x85, 0xe7, 0x3e, 0xc6, 0xdd, 0xa3, 0x3d, 0x67, 0xe5, 0x6f, 0xbe,
    0x60, 0x9a, 0xb7, 0x3d, 0xad, 0x2a, 0x55, 0x3d, 0xb5, 0x06, 0x90, 0x3e,
    0xd8, 0x04, 0x28, 0x3f, 0xa6, 0xf9, 0x44, 0xbc, 0xd8, 0xd3, 0x42, 0xbc,
    0x9c, 0xd4, 0x59, 0xbd, 0x1d, 0x49, 0x1f, 0xbe, 0x84, 0xe7, 0x56, 0x39,
    0x07, 0xa0, 0x69, 0x3e, 0x7e, 0x25, 0xc9, 0x3e, 0x86, 0x1c, 0xbb, 0xbe,
    0xd2, 0x0f, 0xba, 0xbd, 0x26, 0x3c, 0x14, 0x3d, 0x47, 0x62, 0x49, 0xbe,
    0x18, 0xc4, 0x93, 0xbc, 0x07, 0xba, 0x64, 0x3e, 0x74, 0x00, 0xd8, 0x3e,
    0xf2, 0x89, 0x85, 0xbe, 0x3d, 0xed, 0x99, 0xbd, 0xaa, 0xda, 0xa0, 0x3e,
    0x1b, 0xc1, 0xef, 0x3d, 0x2b, 0xc9, 0xc0, 0xbe, 0x05, 0x94, 0xc2, 0x3d,
    0xcb, 0xf8, 0x84, 0x3e, 0xdf, 0x5b, 0x82, 0xbe, 0x63, 0x34, 0x1d, 0xbf,
    0x49, 0x11, 0x3b, 0x3d, 0x27, 0xf9, 0xf5, 0x3d, 0x4c, 0x8c, 0xb1, 0xbd,
    0x8b, 0x89, 0x4c, 0x3e, 0x4c, 0x56, 0x06, 0x3e, 0xc7, 0xbd, 0x2d, 0x3d,
    0x1c, 0x3a, 0x84, 0xbe, 0x38, 0x83, 0x2a, 0x3f, 0x66, 0x03, 0x36, 0x3d,
    0xdb, 0x98, 0xc4, 0x3d, 0xa7, 0x2a, 0xf7, 0xbd, 0x23, 0xfa, 0x90, 0xbd,
    0x87, 0x7b, 0xe6, 0xbc, 0x11, 0x22, 0x97, 0x3c, 0xa4, 0x10, 0x97, 0xbe,
    0x58, 0xc4, 0x68, 0xbe, 0x9a, 0x66, 0x03, 0xbd, 0x20, 0xc4, 0x98, 0x3e,
    0xc2, 0x53, 0x87, 0xbd, 0x4a, 0x1a, 0x23, 0xbe, 0x5b, 0x7b, 0x4b, 0x3e,
    0xed, 0x48, 0x99, 0xbd, 0x55, 0xf2, 0xe9, 0xbe, 0xdf, 0xa8, 0x3e, 0xbe,
    0xf0, 0x78, 0x07, 0xbd, 0x8b, 0x1f, 0x30, 0xbf, 0xe9, 0x44, 0x52, 0x3e,
    0x57, 0x6f, 0xde, 0x3e, 0xf1, 0x12, 0x16, 0x3e, 0xe0, 0x22, 0xb9, 0xbe,
    0x43, 0x7a, 0xf5, 0xbc, 0x16, 0xd0, 0xfa, 0x3e, 0xa3, 0xeb, 0x14, 0xbe,
    0x8f, 0x7c, 0x5b, 0xbf, 0x9b, 0x3e, 0xe8, 0x3d, 0x21, 0x08, 0x51, 0x3e,
    0x5c, 0xcf, 0x82, 0x3e, 0x5e, 0x8a, 0x4f, 0x3e, 0x5a, 0x86, 0xd5, 0x3e,
    0xd7, 0xb3, 0x1d, 0xbf, 0x9f, 0x24, 0xd5, 0x3d, 0x00, 0xa5, 0x98, 0x3e,
    0x48, 0xba, 0x92, 0x3c, 0x5e, 0x24, 0xfb, 0xbc, 0xd5, 0x83, 0x9b, 0xbe,
    0x19, 0x60, 0xb8, 0x3e, 0x77, 0xcf, 0x80, 0x3e, 0x24, 0x7b, 0x24, 0x3f,
    0x81, 0x65, 0x7b, 0xbe, 0xc7, 0xee, 0x42, 0xbd, 0x0f, 0x38, 0x32, 0xbe,
    0x26, 0x38, 0x22, 0x3e, 0x3b, 0x8f, 0xde, 0xbd, 0x5b, 0xcd, 0xf6, 0x3d,
    0xc4, 0x64, 0xef, 0x3e, 0x26, 0x1f, 0x4b, 0xbe, 0x98, 0x29, 0xd0, 0x3d,
    0x14, 0xad, 0xdd, 0x3e, 0x46, 0x75, 0xff, 0xbd, 0xef, 0xb8, 0x2f, 0xbf,
    0x2d, 0xfa, 0x3b, 0xbe, 0xb4, 0x8a, 0x61, 0x3e, 0x0c, 0x9c, 0x9a, 0xbd,
    0xf0, 0x67, 0x86, 0x3d, 0x4a, 0xa8, 0x85, 0x3c, 0x3c, 0xa6, 0x54, 0x3f,
    0xe1, 0xd9, 0xc2, 0xbe, 0xce, 0xe8, 0x4d, 0x3e, 0x7d, 0x80, 0x19, 0xbf,
    0xbc, 0xc4, 0x71, 0x3d, 0xac, 0xdd, 0x0f, 0xbf, 0x05, 0x89, 0x4c, 0x3f,
    0xb8, 0x14, 0xc5, 0x3e, 0x7b, 0x55, 0xec, 0xbd, 0xee, 0x23, 0x1b, 0xbe,
    0x34, 0x45, 0xad, 0x3e, 0x76, 0x61, 0x73, 0x3c, 0x49, 0xfd, 0xcb, 0xbe,
    0xeb, 0xdd, 0x3f, 0xbe, 0x6e, 0x70, 0x0b, 0xbf, 0x57, 0x39, 0xe9, 0x3d,
    0x96, 0xee, 0xa6, 0x3d, 0x4a, 0x62, 0xb0, 0x3e, 0x45, 0xb3, 0x33, 0xbf,
    0xf6, 0x29, 0x2a, 0x3e, 0x50, 0xfc, 0xee, 0xbd, 0xa3, 0xa5, 0x42, 0xbc,
    0xf8, 0x89, 0x8e, 0x3e, 0x87, 0x8a, 0xea, 0x3e, 0x36, 0x6a, 0x45, 0x3d,
    0xfa, 0x75, 0x12, 0xbd, 0xbc, 0x2a, 0x02, 0x3f, 0xa0, 0xda, 0xda, 0x3d,
    0x40, 0x2a, 0x5f, 0xbe, 0x42, 0x4a, 0x67, 0xbe, 0x94, 0xe8, 0x92, 0xbe,
    0x70, 0xcb, 0xc9, 0xbd, 0x0d, 0x59, 0x53, 0x3e, 0x01, 0x4c, 0xfe, 0xbe,
    0x48, 0xdf, 0xeb, 0x3e, 0x5a, 0xbe, 0xb8, 0x3e, 0xda, 0x67, 0x5a, 0xbe,
    0x30, 0x73, 0x39, 0xbf, 0x83, 0x38, 0x77, 0xbe, 0xa6, 0x31, 0x8c, 0xbe,
    0xbb, 0xec, 0x25, 0x3d, 0x67, 0xf6, 0x05, 0x3e, 0x6d, 0x19, 0x62, 0x3e,
    0x06, 0x15, 0x84, 0xbf, 0xce, 0xea, 0x2c, 0xbf, 0xf2, 0xd9, 0x82, 0xbe,
    0x3b, 0x3c, 0xf2, 0x3e, 0xa1, 0x95, 0x16, 0x3e, 0xb5, 0x6d, 0x11, 0xbf,
    0xdc, 0x1f, 0xc2, 0x3b, 0x98, 0x7f, 0x34, 0x3e, 0xf9, 0x0e, 0x95, 0xbc,
    0xe5, 0xa0, 0x25, 0xbf, 0xc0, 0xca, 0xa9, 0xbe, 0xef, 0x99, 0x1a, 0x3f,
    0x74, 0x59, 0x00, 0x3e, 0xfc, 0x62, 0x41, 0x3f, 0x47, 0x21, 0x5f, 0xbf,
    0xd3, 0xff, 0x29, 0xbf, 0x47, 0x67, 0x75, 0xbd, 0xd9, 0x79, 0xd9, 0x3c,
    0xc1, 0x7e, 0xca, 0xbe, 0x9c, 0x3b, 0x1f, 0xbf, 0x54, 0x5c, 0x69, 0xbe,
    0x13, 0x17, 0x28, 0x3f, 0x2e, 0xde, 0x59, 0xbe, 0x4c, 0xcc, 0xa0, 0x3e,
    0x41, 0xae, 0x7e, 0xbe, 0x7c, 0x21, 0x93, 0xbc, 0xff, 0x21, 0x58, 0xbc,
    0x2e, 0xb4, 0x09, 0xbd, 0x15, 0x31, 0xf1, 0x3e, 0xed, 0x1f, 0x06, 0xbf,
    0xaf, 0x74, 0x6e, 0xbf, 0x76, 0x90, 0xb5, 0x3e, 0xb3, 0x62, 0x86, 0x3d,
    0xb4, 0xc3, 0xcd, 0x3e, 0x3d, 0x88, 0x91, 0x3d, 0xcd, 0xce, 0x9f, 0xbe,
    0x8f, 0x05, 0x31, 0x3e, 0x77, 0xb6, 0x37, 0x3e, 0x24, 0x08, 0x2a, 0x3e,
    0x4d, 0xfc, 0xf3, 0xbe, 0xca, 0xaa, 0xd2, 0xbc, 0xfe, 0xeb, 0xfb, 0xbd,
    0x04, 0x6f, 0x9b, 0x3e, 0x60, 0x3f, 0x5f, 0xbe, 0x52, 0x3e, 0xd2, 0x3e,
    0xd1, 0x6b, 0xae, 0xbe, 0x64, 0xac, 0x7e, 0x3e, 0xa3, 0x83, 0x4a, 0xbd,
    0x12, 0x1f, 0x8f, 0x3e, 0x63, 0x0e, 0xd3, 0x3e, 0x42, 0x98, 0x84, 0x3d,
    0x86, 0x73, 0x3a, 0xbe, 0x89, 0x5d, 0x76, 0xbe, 0x76, 0x79, 0x2f, 0xbe,
    0x97, 0x72, 0xd0, 0x3d, 0x72, 0x8c, 0xca, 0xbe, 0xdf, 0x98, 0x1f, 0x3f,
    0x32, 0x4c, 0xa2, 0xbe, 0x71, 0xdd, 0xa4, 0x3e, 0xd8, 0x4c, 0xbc, 0xbe,
    0x86, 0xd7, 0x1a, 0xbf, 0x8d, 0x2e, 0xbf, 0x3e, 0x8c, 0x42, 0x9d, 0x3e,
    0x74, 0x24, 0x7e, 0xbe, 0x76, 0x5e, 0x6e, 0x3e, 0xec, 0x46, 0xc4, 0x3e,
    0xc5, 0x50, 0x11, 0x3f, 0x16, 0xc4, 0x4d, 0x3d, 0xa9, 0xf7, 0xc1, 0x3d,
    0x76, 0xcd, 0x9f, 0x3e, 0x42, 0x9f, 0xf9, 0xbe, 0x30, 0xae, 0xd9, 0x3e,
    0x0a, 0x1b, 0xac, 0x3d, 0x14, 0xae, 0x3e, 0xbe, 0x9f, 0x87, 0x34, 0xbf,
    0xe5, 0x82, 0xed, 0xbd, 0x93, 0xa5, 0xf7, 0xbe, 0x85, 0x43, 0xf4, 0xbd,
    0x1e, 0x2c, 0x40, 0x3e, 0x22, 0xae, 0x2d, 0xbe, 0x16, 0x99, 0x09, 0xbe,
    0x31, 0xfe, 0xa4, 0xbf, 0x24, 0xb4, 0x82, 0x3e, 0x1e, 0x7d, 0x16, 0x3f,
    0xc8, 0xd8, 0x9e, 0x3e, 0x6a, 0xd1, 0x51, 0x3f, 0xad, 0x70, 0x95, 0x3e,
    0xb0, 0xfe, 0x70, 0x3d, 0x92, 0xc5, 0xab, 0xbe, 0x5c, 0x51, 0x54, 0x3e,
    0x81, 0x4b, 0x16, 0x3e, 0x66, 0x4e, 0xaa, 0x3e, 0x42, 0x33, 0x0a, 0x3f,
    0x03, 0xbf, 0x99, 0x3d, 0x97, 0xd0, 0x1b, 0xbe, 0xe2, 0xd9, 0x6b, 0xbe,
    0x9f, 0xeb, 0xb7, 0xbc, 0x03, 0x93, 0x4a, 0x3e, 0x68, 0x5d, 0x43, 0x3e,
    0x9e, 0xea, 0x04, 0x3f, 0x50, 0xe6, 0xf0, 0xbe, 0xd6, 0xac, 0xe7, 0xbd,
    0x00, 0x3b, 0x6b, 0xbd, 0x5b, 0x93, 0xaf, 0x3d, 0xe5, 0x16, 0xcf, 0xbe,
    0x2f, 0x95, 0x62, 0x3d, 0xa5, 0xc7, 0xda, 0x3e, 0xea, 0xec, 0x01, 0x3e,
    0x45, 0x8c, 0x60, 0xbe, 0x73, 0x4f, 0xe4, 0x3e, 0xee, 0x1b, 0x46, 0xbe,
    0x82, 0xc8, 0xbd, 0xbe, 0xd1, 0xe6, 0x88, 0xbd, 0x43, 0x56, 0xe5, 0x3e,
    0xb3, 0xbb, 0xad, 0x3d, 0x3a, 0x98, 0xa3, 0xbe, 0x08, 0xfb, 0xe5, 0xbe,
    0x94, 0x9d, 0x72, 0x3e, 0x45, 0x55, 0xdc, 0x3e, 0x0d, 0x8f, 0x78, 0xbe,
    0x60, 0x59, 0x0c, 0x3f, 0xc1, 0x41, 0xbe, 0x3e, 0x35, 0xee, 0x6a, 0xbd,
    0x89, 0x15, 0x94, 0x3d, 0xe6, 0x94, 0xe9, 0xbe, 0xe6, 0xb7, 0x90, 0x3e,
    0x38, 0xcd, 0x72, 0x3e, 0xdf, 0x71, 0xf7, 0xbd, 0x1c, 0x5f, 0x02, 0xbd,
    0x41, 0x02, 0x16, 0xbe, 0x0d, 0x43, 0x36, 0xbe, 0xb3, 0x2b, 0xc8, 0x3e,
    0xf7, 0xc2, 0x75, 0xbd, 0x3c, 0x34, 0x4e, 0xbe, 0x3a, 0x9b, 0x08, 0x3e,
    0x28, 0xdb, 0xa4, 0x3e, 0x0a, 0xf0, 0x2e, 0xbe, 0xf4, 0x64, 0x10, 0x3e,
    0x68, 0x5c, 0x95, 0xbe, 0x36, 0xf4, 0xb3, 0x3d, 0xdf, 0x1e, 0xd4, 0xbe,
    0xd4, 0x26, 0xa7, 0xbd, 0x3e, 0x31, 0x01, 0xbe, 0x33, 0xd3, 0xf7, 0x3d,
    0xcd, 0x32, 0x43, 0xbe, 0x83, 0x02, 0xc3, 0xbd, 0x15, 0x26, 0x9c, 0x3e,
    0x6b, 0xb3, 0x95, 0x3e, 0xb8, 0xc0, 0x47, 0x3e, 0x6b, 0xd8, 0x89, 0xbe,
    0x27, 0x8e, 0x24, 0x3f, 0x19, 0xb9, 0x07, 0xbe, 0xdc, 0x5e, 0x8e, 0x3e,
    0x15, 0xed, 0xc4, 0x3e, 0x03, 0x87, 0xaa, 0x3e, 0x1b, 0x12, 0xf0, 0x3d,
    0x40, 0x1d, 0xa3, 0xbe, 0xbf, 0x0b, 0x6a, 0x3e, 0x01, 0x8e, 0x22, 0x3e,
    0x2f, 0xc7, 0x63, 0xbe, 0x04, 0xbb, 0x1d, 0x3e, 0x72, 0xd4, 0x15, 0x3e,
    0x8f, 0xc6, 0x79, 0x3e, 0x92, 0xf0, 0x43, 0x3c, 0xd9, 0x9b, 0x80, 0xbe,
    0x4e, 0x9f, 0xf3, 0x3d, 0x69, 0x72, 0x16, 0xbe, 0x17, 0x73, 0x02, 0x3e,
    0x98, 0x8d, 0xfa, 0x3b, 0xbf, 0x8d, 0xbc, 0x3e, 0x07, 0xd9, 0x6e, 0xbe,
    0x37, 0x22, 0x93, 0x3e, 0x39, 0x3f, 0xb3, 0xbd, 0xbb, 0xf1, 0x1b, 0xbf,
    0x92, 0x55, 0x9a, 0x3e, 0x9c, 0x37, 0x34, 0xbd, 0xc3, 0xc1, 0xf9, 0xbd,
    0xdc, 0x76, 0xa1, 0xbe, 0xc1, 0xfe, 0x80, 0x3e, 0xcf, 0x66, 0xc8, 0x3e,
    0x3c, 0x80, 0x6d, 0x3e, 0x50, 0xf5, 0x56, 0xbf, 0xac, 0xb3, 0x24, 0xbf,
    0x8a, 0xa1, 0x2c, 0x3e, 0xe5, 0x7b, 0x80, 0x3e, 0xe3, 0x4b, 0x82, 0xbd,
    0x37, 0xe4, 0xad, 0xbe, 0x69, 0x6b, 0xc0, 0xbd, 0x26, 0x14, 0x5b, 0xbe,
    0x68, 0xfa, 0x79, 0x3e, 0x4a, 0xee, 0x87, 0x3e, 0xec, 0xaf, 0xbc, 0xbd,
    0x74, 0xe3, 0x0e, 0xbf, 0x35, 0x53, 0x7b, 0xbe, 0x78, 0x51, 0x20, 0xbe,
    0x18, 0xc1, 0xa5, 0x3e, 0x71, 0xe6, 0x43, 0x3e, 0x2d, 0xc7, 0xfd, 0xbe,
    0xa3, 0xf8, 0x00, 0xbd, 0x26, 0x07, 0xf8, 0xbd, 0xf9, 0xf4, 0x8c, 0x3d,
    0x5e, 0xbd, 0x29, 0xbf, 0xd4, 0x5b, 0xa5, 0xbe, 0x16, 0xbd, 0xe4, 0x3e,
    0x5d, 0x16, 0x9d, 0xbe, 0x34, 0x15, 0x41, 0x3f, 0x4a, 0x8a, 0x66, 0xbf,
    0x1e, 0xf6, 0x31, 0xbf, 0x87, 0x31, 0x71, 0xbd, 0xd1, 0x22, 0x75, 0xbe,
    0x77, 0xc1, 0x00, 0xbe, 0xb8, 0x3f, 0x87, 0xbe, 0x2e, 0xa8, 0xda, 0x3d,
    0x6e, 0xcf, 0x78, 0x3e, 0x28, 0x8b, 0x3f, 0x3e, 0x4c, 0xf9, 0x10, 0x3e,
    0x50, 0x06, 0x95, 0x3d, 0xa0, 0x8e, 0xd0, 0x3c, 0x5c, 0xbf, 0x43, 0x3e,
    0x40, 0x1f, 0x46, 0x3c, 0x00, 0xb0, 0xa8, 0x3b, 0x3c, 0x47, 0x79, 0xbe,
    0xf4, 0xa7, 0x4b, 0xbe, 0xf0, 0x61, 0x32, 0x3e, 0x58, 0x71, 0x52, 0x3e,
    0x98, 0x4d, 0x2e, 0x3e, 0x8c, 0xb0, 0x4b, 0xbe, 0xd4, 0x21, 0x21, 0x3e,
    0xe0, 0xf0, 0x8b, 0xbc, 0xb0, 0x0e, 0x64, 0xbd, 0xc0, 0x90, 0xf9, 0xbc,
    0x80, 0x08, 0x0f, 0x3d, 0x2c, 0x82, 0x60, 0xbe, 0xb8, 0x14, 0x5d, 0xbe,
    0x00, 0xda, 0x74, 0xbd, 0xd8, 0x49, 0x1d, 0xbe, 0x10, 0x1c, 0x78, 0xbe,
    0x28, 0xad, 0x0a, 0x3e, 0x30, 0xf6, 0x5b, 0xbd, 0x70, 0x4d, 0x01, 0xbd,
    0x2c, 0x98, 0x3b, 0xbe, 0x80, 0xfb, 0xb0, 0xbb, 0x44, 0x54, 0x07, 0xbe,
    0xe0, 0x60, 0x9f, 0xbc, 0xd0, 0x34, 0x81, 0x3d, 0x4c, 0x67, 0x6c, 0xbe,
    0x64, 0xa9, 0x19, 0xbe, 0x42, 0x1f, 0x3c, 0xbe, 0xad, 0xb9, 0x29, 0x3f,
    0x8e, 0x3d, 0x1e, 0x3e, 0xf5, 0xd5, 0xcd, 0xbd, 0xb1, 0xe0, 0xa0, 0xbe,
    0x24, 0x12, 0x27, 0xbf, 0x73, 0x4a, 0x32, 0xbe, 0xea, 0xdb, 0x12, 0xbe,
    0x6c, 0x7a, 0x4b, 0xbe, 0x9e, 0xf8, 0x24, 0x3c, 0xdb, 0xce, 0xe9, 0x3d,
    0xfd, 0xfb, 0xa5, 0xbd, 0xb7, 0x1f, 0x04, 0x3e, 0x62, 0x5c, 0x57, 0x3e,
    0x5d, 0x11, 0x7e, 0x3e, 0x52, 0x4e, 0x23, 0xbe, 0xdb, 0xbf, 0x94, 0x3e,
    0xe6, 0x37, 0x06, 0x3d, 0xc4, 0xd9, 0x14, 0x3e, 0xc9, 0x2c, 0x2c, 0xbd,
    0x41, 0x96, 0x98, 0x3e, 0x26, 0xf0, 0x06, 0xbf, 0x3b, 0xd1, 0x94, 0xbd,
    0x3d, 0x7f, 0xd4, 0x3d, 0xfd, 0xca, 0x3a, 0xbd, 0x30, 0xcb, 0xf6, 0xbd,
    0xba, 0xa0, 0x93, 0x3d, 0x30, 0x53, 0x2c, 0x3e, 0xde, 0x9d, 0x0c, 0x3f,
    0x64, 0x80, 0x17, 0x3e, 0x50, 0x37, 0x43, 0xbf, 0x8a, 0xcc, 0x48, 0xbe,
    0x45, 0x65, 0xc1, 0x3e, 0x22, 0xc5, 0xc5, 0xbe, 0x32, 0xc4, 0xda, 0x3d,
    0xd0, 0xac, 0x99, 0xbe, 0xa1, 0x22, 0x67, 0x3f, 0xe7, 0x18, 0xc4, 0x3e,
    0xf5, 0x1d, 0xa9, 0xbd, 0x74, 0xd8, 0x2f, 0xbd, 0x04, 0x38, 0x89, 0x3e,
    0xdf, 0xa2, 0x23, 0x3e, 0x1f, 0xa2, 0xf5, 0xbe, 0x23, 0xd2, 0xb9, 0xbe,
    0xfe, 0x94, 0xd0, 0xbe, 0x45, 0x42, 0xe8, 0xbd, 0x2a, 0x78, 0x3d, 0xbe,
    0x16, 0xca, 0xa6, 0x3e, 0xf0, 0xa2, 0x5e, 0xbe, 0x21, 0xfc, 0xbf, 0x3c,
    0x66, 0x74, 0xd3, 0x3d, 0x53, 0x42, 0xc7, 0x3c, 0x13, 0xf3, 0xff, 0x3d,
    0x40, 0x8f, 0xef, 0x3e, 0x4f, 0x9c, 0x16, 0xbe, 0x41, 0xdf, 0xc6, 0x3d,
    0xbe, 0x0c, 0x02, 0x3e, 0xd9, 0x05, 0xa7, 0xbd, 0x5b, 0x79, 0xb3, 0xbe,
    0xc5, 0x8b, 0xee, 0xbd, 0x58, 0xe4, 0xa1, 0xbe, 0x64, 0x19, 0x13, 0xbe,
    0xc2, 0xab, 0xd2, 0x3c, 0x83, 0x8e, 0xe2, 0xbe, 0x08, 0x97, 0x89, 0x3e,
    0xa2, 0x5c, 0xc0, 0xbc, 0x9a, 0xa1, 0xaa, 0xbc, 0x0f, 0xaf, 0xcb, 0xbe,
    0xcb, 0x22, 0x8a, 0x3e, 0x4d, 0x7e, 0x5d, 0xbe, 0x3d, 0xae, 0x9e, 0xbe,
    0xd5, 0xc3, 0x1e, 0xbe, 0x9b, 0x81, 0xca, 0xbd, 0x0d, 0x57, 0x8e, 0x3e,
    0x52, 0x24, 0xc7, 0xbd, 0x65, 0x64, 0x7f, 0xbd, 0xcc, 0xd6, 0xd6, 0xbe,
    0xac, 0x20, 0xc7, 0xbd, 0x70, 0x8a, 0xac, 0x3e, 0x9a, 0x40, 0x00, 0xbc,
    0xe0, 0xfd, 0x04, 0xbe, 0xfd, 0x44, 0x97, 0x3e, 0x89, 0x2c, 0x9a, 0x3d,
    0xfe, 0x50, 0x1b, 0xbf, 0x3f, 0xa2, 0xde, 0xbd, 0x55, 0x5a, 0x0a, 0x3e,
    0x2f, 0xb1, 0xe8, 0xbe, 0x18, 0x32, 0x3c, 0x3e, 0x82, 0x64, 0xdd, 0x3e,
    0x3c, 0xbd, 0xb1, 0x3e, 0xb1, 0xc2, 0x1f, 0xbf, 0x0b, 0x3f, 0xa3, 0x3d,
    0xf0, 0x0d, 0x0a, 0x3f, 0x6c, 0x22, 0xa7, 0x3e, 0xec, 0xcb, 0x7b, 0xbf,
    0xa6, 0x94, 0xc5, 0x3e, 0x26, 0xcd, 0x01, 0xbd, 0x9a, 0xc2, 0x36, 0x3e,
    0x26, 0xaf, 0x9f, 0x3e, 0x3b, 0x18, 0x09, 0x3f, 0xb1, 0x6a, 0x52, 0xbd,
    0x24, 0xdd, 0xd3, 0xbe, 0xbf, 0x1d, 0x84, 0x3d, 0x8f, 0xda, 0x97, 0x3e,
    0x9d, 0x84, 0x37, 0xbe, 0xe8, 0xcd, 0x86, 0xbe, 0x2b, 0x3c, 0x3f, 0x3d,
    0x0e, 0xc3, 0xa9, 0x3d, 0xd3, 0x05, 0x2c, 0x3f, 0xd6, 0x84, 0x84, 0xbe,
    0x68, 0x59, 0x8d, 0x3d, 0xd4, 0x1a, 0x7e, 0xbe, 0xc0, 0xc0, 0xde, 0x3e,
    0xf3, 0x86, 0x0b, 0x3e, 0x36, 0x2a, 0xb7, 0xbd, 0xaf, 0xbd, 0xee, 0xbd,
    0x87, 0x50, 0x61, 0x3e, 0x50, 0xf6, 0xdf, 0xbe, 0xcf, 0x12, 0x3d, 0x3e,
    0xed, 0xb3, 0x94, 0xbe, 0xa1, 0xe7, 0xe6, 0xbe, 0xd4, 0xfc, 0x7a, 0xbe,
    0x75, 0x63, 0xc8, 0x3d, 0xb2, 0x3e, 0x92, 0x3e, 0x95, 0xc4, 0x85, 0xbe,
    0x75, 0xd2, 0xf8, 0xbd, 0x9e, 0x74, 0x09, 0x3f, 0xbf, 0x91, 0xad, 0x3d,
    0x6e, 0x7a, 0x2d, 0x39, 0x15, 0x57, 0x1f, 0x3f, 0x53, 0x28, 0x13, 0xbd,
    0xf5, 0x5b, 0x07, 0x3d, 0xac, 0xac, 0xd7, 0x3c, 0xf6, 0x51, 0x1c, 0xbf,
    0x25, 0x40, 0xf7, 0x3c, 0x5a, 0x3f, 0x59, 0xbe, 0xb6, 0xc5, 0x94, 0xbd,
    0x42, 0xcd, 0x42, 0xbd, 0x62, 0x3c, 0xa5, 0xbe, 0xef, 0x3c, 0x41, 0xbe,
    0x36, 0xd8, 0x9f, 0xbe, 0xe3, 0xa2, 0x5b, 0x3e, 0x10, 0xf3, 0xf0, 0x3d,
    0x24, 0xde, 0x28, 0x3e, 0xb2, 0x6b, 0xe3, 0x3e, 0x63, 0x99, 0x14, 0x3e,
    0x75, 0x7f, 0x61, 0x3d, 0x10, 0x38, 0x31, 0xbf, 0x94, 0x07, 0xb3, 0x3e,
    0x02, 0x13, 0xa1, 0xbe, 0xef, 0x1d, 0x9f, 0xbe, 0x20, 0xa4, 0x7d, 0xbe,
    0x28, 0x88, 0xf3, 0x3d, 0xf0, 0x9a, 0x66, 0x3d, 0x80, 0xc3, 0x8c, 0xbe,
    0x59, 0xd1, 0x00, 0x3e, 0x59, 0x1c, 0x2f, 0x3f, 0xa1, 0x3e, 0xfa, 0x3c,
    0x59, 0x1c, 0x04, 0xbf, 0x74, 0x05, 0xb5, 0x3e, 0xe0, 0x00, 0xe8, 0xbe,
    0x20, 0x1a, 0x12, 0x3f, 0x47, 0x20, 0xa6, 0x3e, 0xf0, 0x16, 0x0f, 0x3e,
    0x18, 0xb2, 0x42, 0x3e, 0x87, 0xb1, 0x4f, 0xbf, 0x43, 0x27, 0xd5, 0x3e,
    0x7f, 0x67, 0x42, 0x3e, 0xe2, 0xed, 0x04, 0x3d, 0x22, 0xa3, 0xeb, 0x3d,
    0x3d, 0xfd, 0x50, 0xbe, 0x68, 0x1e, 0x06, 0xbf, 0x76, 0x3d, 0x5a, 0x3e,
    0x87, 0xfa, 0x0b, 0x3e, 0x31, 0x0b, 0x99, 0x3d, 0x64, 0x5d, 0x1d, 0x3c,
    0x5c, 0x83, 0xc9, 0x3e, 0xee, 0xd6, 0xa1, 0xbd, 0x9c, 0x71, 0x84, 0x3e,
    0x1c, 0x95, 0xd4, 0xbe, 0x64, 0x9e, 0x60, 0x3e, 0x55, 0x40, 0x73, 0xbe,
    0xb5, 0x91, 0x4d, 0xbe, 0xe2, 0x64, 0x8c, 0xbd, 0x07, 0x16, 0x10, 0xbd,
    0x95, 0x59, 0x83, 0xbe, 0xa4, 0x6e, 0xea, 0xbd, 0x96, 0x65, 0x1d, 0x3d,
    0xcc, 0xc9, 0x82, 0x3e, 0x50, 0x7c, 0x7b, 0xbd, 0xe8, 0x2f, 0x36, 0xbe,
    0xdb, 0xf2, 0xc8, 0x3d, 0x04, 0xe1, 0xde, 0x3e, 0xc1, 0x03, 0xc0, 0xbe,
    0x00, 0x7b, 0x21, 0x3e, 0x93, 0x56, 0xa9, 0xbe, 0x80, 0x56, 0x0b, 0x3f,
    0x6b, 0x64, 0x2d, 0xbd, 0xc8, 0xdb, 0xcc, 0xbd, 0xb8, 0xf3, 0x68, 0xbe,
    0x19, 0x0e, 0x96, 0x3e, 0x25, 0x14, 0x3a, 0x3e, 0x9d, 0x26, 0xc7, 0xbe,
    0x6c, 0x82, 0x39, 0x3e, 0xf1, 0x45, 0x7c, 0xbe, 0xc2, 0x29, 0x91, 0x3e,
    0x17, 0x2f, 0x2a, 0xbe, 0xf2, 0xfc, 0x19, 0x3c, 0x59, 0x3f, 0x06, 0xbf,
    0x7e, 0xe3, 0x93, 0x3d, 0x34, 0x08, 0xb6, 0xbd, 0x77, 0xd0, 0xf0, 0xbd,
    0x5c, 0xba, 0xbd, 0x3d, 0x92, 0x7a, 0x21, 0x3e, 0xfa, 0x11, 0x00, 0x3b,
    0x29, 0x01, 0xaf, 0x3c, 0x9f, 0xd2, 0x8d, 0x3e, 0x1e, 0x35, 0x82, 0x3e,
    0x0f, 0x0a, 0x95, 0xbe, 0x7f, 0xd8, 0x9a, 0xbd, 0xf4, 0x5d, 0x91, 0xbe,
    0xdb, 0x74, 0x06, 0x3d, 0x1a, 0xb0, 0x19, 0x3a, 0xad, 0x44, 0x86, 0xbd,
    0x33, 0x73, 0xca, 0x3e, 0xf0, 0xd6, 0xbc, 0xbe, 0xd6, 0x56, 0x1d, 0x3c,
    0xf9, 0x4c, 0xa4, 0xbe, 0xd3, 0xf6, 0xb5, 0x3d, 0x52, 0x7d, 0x20, 0x3f,
    0x3a, 0x19, 0x2e, 0x3c, 0x29, 0x3c, 0xb9, 0xbd, 0xcc, 0x4b, 0x41, 0x3e,
    0x76, 0xcf, 0x8e, 0x3e, 0xec, 0x27, 0x9c, 0x3d, 0x8a, 0x49, 0xf4, 0xbd,
    0x7b, 0xa5, 0x68, 0x3e, 0x2e, 0x57, 0xde, 0xbd, 0xcc, 0x76, 0x41, 0xbe,
    0x50, 0x70, 0x2f, 0x3d, 0x09, 0x04, 0x5a, 0xbe, 0xb3, 0xb2, 0x9a, 0xbe,
    0x42, 0x7d, 0xf0, 0xbd, 0xab, 0x66, 0xd0, 0x3e, 0x0a, 0x4f, 0x1f, 0xbc,
    0x09, 0x40, 0xef, 0x3e, 0xf6, 0x9c, 0x04, 0x3f, 0x3c, 0x80, 0x2d, 0x3e,
    0x51, 0xc3, 0x1b, 0xbe, 0xa7, 0x2a, 0xd2, 0x3d, 0xf7, 0xb0, 0xfe, 0x3d,
    0x5b, 0x1d, 0x35, 0xbe, 0xce, 0x31, 0x22, 0xbf, 0x33, 0x41, 0x46, 0xbe,
    0xa7, 0xaf, 0x2d, 0x3f, 0x57, 0x5f, 0x90, 0x3d, 0x65, 0xbf, 0x9b, 0x3e,
    0x77, 0x7b, 0x87, 0x3d, 0xdf, 0x7b, 0xfb, 0xbd, 0x13, 0x51, 0xf7, 0x3d,
    0x8a, 0x35, 0xa7, 0xbe, 0x80, 0x5d, 0x15, 0x3f, 0x55, 0x5d, 0x76, 0xbe,
    0x85, 0x62, 0xf4, 0x3c, 0x39, 0xd3, 0x08, 0x3e, 0xbf, 0xd2, 0xaf, 0xbe,
    0xf2, 0xee, 0x99, 0x3e, 0x65, 0x13, 0xee, 0x3e, 0x5b, 0xca, 0x5a, 0x3e,
    0x49, 0xae, 0x6b, 0xbe, 0xbd, 0x78, 0xad, 0xbc, 0x1a, 0x68, 0xcf, 0xbd,
    0x9e, 0x91, 0x98, 0xbd, 0x5e, 0x10, 0x5c, 0xbe, 0x87, 0x94, 0x8b, 0xbe,
    0x1b, 0x7a, 0xf2, 0x3e, 0x8b, 0x79, 0x2f, 0x3e, 0xe8, 0x07, 0x33, 0x3e,
    0xe4, 0xa0, 0x89, 0x3e, 0x74, 0xef, 0x88, 0xbd, 0x59, 0x35, 0x38, 0xbf,
    0x93, 0xd3, 0x56, 0x3e, 0xda, 0xff, 0x31, 0x3f, 0xdb, 0x0c, 0x35, 0xbe,
    0x5d, 0xbb, 0x5b, 0xbe, 0xd1, 0x6e, 0x9f, 0x3c, 0x15, 0xe9, 0x10, 0x3f,
    0x5a, 0x7c, 0xd5, 0xbe, 0x0b, 0x81, 0xca, 0x3e, 0xab, 0x81, 0xf8, 0xbe,
    0x79, 0xe8, 0x09, 0xbe, 0xf0, 0x56, 0x9c, 0x3e, 0xe1, 0xf8, 0x81, 0xbe,
    0x3d, 0x5a, 0xd3, 0x3e, 0x6f, 0x33, 0xac, 0xbe, 0xc1, 0x10, 0x33, 0xbf,
    0xa5, 0xcc, 0x2c, 0x3d, 0xa2, 0xd9, 0x0f, 0x3e, 0xcf, 0x6e, 0x80, 0x3e,
    0x74, 0xb5, 0xf4, 0x3e, 0xb2, 0x14, 0x9e, 0xbe, 0xba, 0x8d, 0xe3, 0x3d,
    0x04, 0x86, 0x9f, 0x3d, 0x51, 0x00, 0xa6, 0x3e, 0xf1, 0x11, 0xe6, 0xbe,
    0xc4, 0x2f, 0x00, 0xbe, 0x77, 0x00, 0xa3, 0xbe, 0xff, 0x6b, 0x1e, 0x3f,
    0x52, 0x95, 0xce, 0x3d, 0x6e, 0xda, 0x0d, 0x3f, 0xb1, 0xe6, 0x12, 0x3e,
    0xa4, 0x87, 0x2c, 0x3e, 0xcf, 0x82, 0x7d, 0xbe, 0x9d, 0x31, 0xa7, 0x3e,
    0x94, 0xb2, 0xc2, 0x3e, 0xc7, 0x1e, 0xd6, 0xbd, 0x05, 0x7f, 0x46, 0xbe,
    0x2f, 0x3c, 0xe3, 0xbd, 0x5a, 0xe9, 0x42, 0x3e, 0x97, 0x65, 0xe9, 0xbd,
    0x0a, 0x11, 0x97, 0x3d, 0xad, 0xa1, 0xb2, 0x3e, 0x15, 0x8a, 0x10, 0x3e,
    0x4a, 0xfe, 0xa5, 0x3e, 0xb5, 0x0a, 0x2e, 0xbf, 0x52, 0x5f, 0x95, 0xbe,
    0xdf, 0x39, 0x86, 0x3e, 0x99, 0xd6, 0xf2, 0x3c, 0x03, 0x22, 0xaa, 0xbe,
    0x10, 0x4e, 0x1d, 0xbe, 0xc4, 0xa1, 0xd6, 0x3e, 0xfc, 0x36, 0x1c, 0x3f,
    0x21, 0x01, 0xc2, 0x3e, 0xa1, 0xc3, 0x71, 0x3e, 0xec, 0x86, 0xab, 0x3d,
    0x40, 0x18, 0x4b, 0xbe, 0x9f, 0xe0, 0xed, 0x3e, 0xe7, 0xfb, 0x3f, 0xbd,
    0xcd, 0x3a, 0x94, 0xbd, 0x93, 0x4f, 0x74, 0x3e, 0x8a, 0x5c, 0x2c, 0xbe,
    0x92, 0x7d, 0xf7, 0xbd, 0x7b, 0xe9, 0x81, 0x3e, 0x95, 0x7f, 0xc8, 0xbd,
    0xfc, 0x18, 0xcf, 0xbe, 0x1a, 0xb1, 0x1e, 0xbd, 0xad, 0x7f, 0xc2, 0x3e,
    0x42, 0x8b, 0x06, 0x3e, 0xb2, 0xca, 0xb9, 0x3e, 0xe3, 0xf2, 0x85, 0xbe,
    0xf3, 0x50, 0x36, 0x3e, 0xbc, 0x08, 0x04, 0xbe, 0x98, 0x0e, 0x17, 0x3e,
    0xc4, 0xd1, 0x6c, 0x3e, 0x80, 0x42, 0xf5, 0xbc, 0xc8, 0x0f, 0xd6, 0xbd,
    0xf0, 0xf0, 0x17, 0xbe, 0xb8, 0x4c, 0xa9, 0xbd, 0x94, 0x1d, 0x1e, 0xbe,
    0xd0, 0xbe, 0x66, 0x3d, 0xc8, 0xf1, 0xc9, 0xbd, 0xe0, 0x57, 0x6b, 0xbd,
    0x98, 0x2e, 0xe9, 0x3d, 0x44, 0x07, 0x5e, 0x3e, 0xc8, 0x81, 0x75, 0xbe,
    0x7c, 0x6a, 0x5f, 0x3e, 0x48, 0x9c, 0x14, 0x3e, 0xf0, 0x05, 0xc9, 0xbd,
    0x10, 0xb5, 0x40, 0xbd, 0x60, 0x3f, 0x47, 0xbd, 0x88, 0xe9, 0x64, 0xbe,
    0x90, 0x14, 0x68, 0x3d, 0x00, 0xab, 0x5f, 0x3b, 0x00, 0xd3, 0xc8, 0xbb,
    0x38, 0x2a, 0x12, 0xbe, 0x38, 0x88, 0xf7, 0x3d, 0xb4, 0xb8, 0x21, 0x3e,
    0x9c, 0x70, 0x26, 0xbe, 0xbc, 0xaf, 0x69, 0xbe, 0x3c, 0x74, 0x18, 0xbe,
    0x60, 0xd1, 0x32, 0x3d, 0x00, 0xfd, 0x35, 0xbb, 0x90, 0x68, 0x8f, 0xbd,
    0x78, 0x14, 0x3b, 0xbe, 0xe6, 0x23, 0x7e, 0x3e, 0x78, 0x0c, 0xdd, 0x3c,
    0xbb, 0x14, 0x60, 0x3e, 0xd4, 0x61, 0x6c, 0xbd, 0x62, 0xe6, 0x29, 0xbd,
    0xb2, 0x1e, 0x81, 0x3e, 0xa5, 0x3f, 0xc3, 0xbe, 0x78, 0xb6, 0xc7, 0xbe,
    0x58, 0xae, 0x8a, 0x3d, 0x30, 0xe7, 0x77, 0x3e, 0xad, 0x29, 0x1d, 0x3e,
    0x51, 0x61, 0x3a, 0xbe, 0x2a, 0xe2, 0x39, 0xbf, 0xfb, 0xf8, 0xdd, 0x3d,
    0x26, 0x02, 0x22, 0x3e, 0xef, 0xde, 0x5c, 0x3e, 0x0c, 0xbf, 0x3b, 0xbf,
    0x99, 0x68, 0x34, 0x3e, 0xe1, 0xd5, 0x8c, 0xbd, 0x50, 0xf1, 0x90, 0xbe,
    0xb0, 0x20, 0x3a, 0xbd, 0x9e, 0x37, 0xcd, 0x3e, 0x78, 0xf0, 0x21, 0xbf,
    0x47, 0xe1, 0x0f, 0xbc, 0x22, 0x55, 0x4b, 0x3e, 0x93, 0x78, 0x4f, 0x3e,
    0xca, 0x48, 0xb7, 0xbd, 0x80, 0xe6, 0x1d, 0x3d, 0x54, 0xfc, 0xbc, 0x3e,
    0xc8, 0x8c, 0x26, 0x3e, 0x28, 0x0e, 0x43, 0xbf, 0x0c, 0xa2, 0x30, 0xbf,
    0x87, 0xbc, 0x90, 0x3d, 0xe4, 0xff, 0x87, 0xbd, 0xfc, 0x4c, 0xd4, 0x3d,
    0x94, 0x2a, 0x1a, 0xbc, 0x15, 0xfc, 0xcd, 0x3e, 0x9d, 0xc7, 0x03, 0x3f,
    0xc9, 0x3b, 0xf2, 0xbe, 0x6a, 0x26, 0x78, 0xbf, 0x85, 0x31, 0xf0, 0x3e,
    0x67, 0x34, 0x76, 0x3c, 0x04, 0xc0, 0xed, 0xbc, 0xe4, 0xdc, 0x29, 0xbd,
    0x55, 0xc9, 0x57, 0xbe, 0x05, 0x5e, 0x86, 0x3d, 0x59, 0x57, 0xe2, 0xbd,
    0x47, 0xec, 0x37, 0xbe, 0x1f, 0xb0, 0x8d, 0xbf, 0x05, 0x68, 0xbf, 0xbc,
    0x08, 0x68, 0xcf, 0xbe, 0x06, 0x29, 0xfa, 0xbc, 0xae, 0x27, 0x23, 0x3a,
    0xb9, 0xc6, 0x60, 0x3e, 0xd9, 0x18, 0xec, 0xbe, 0xfc, 0x47, 0x12, 0x3d,
    0x42, 0xdf, 0xb9, 0xbd, 0xb1, 0xe9, 0xb6, 0x3e, 0x9d, 0x02, 0x13, 0xbe,
    0x06, 0x2b, 0xb0, 0xbe, 0xb3, 0x0c, 0x9e, 0x3e, 0x0e, 0x5b, 0xcc, 0x3d,
    0xe3, 0x3d, 0x42, 0x3e, 0xea, 0xc4, 0xff, 0xff, 0x04, 0x00, 0x00, 0x00,
    0x00, 0x05, 0x00, 0x00, 0x69, 0x13, 0x79, 0xbf, 0x47, 0x83, 0x23, 0x3e,
    0x4b, 0xce, 0x36, 0x3d, 0x0d, 0xa1, 0x3d, 0x3f, 0x00, 0x0e, 0x7c, 0xba,
    0x0b, 0x70, 0x81, 0x3e, 0x28, 0xe7, 0xc5, 0xbd, 0xca, 0x06, 0xcb, 0x3e,
    0xc5, 0xf3, 0x56, 0x3f, 0x77, 0xaf, 0x3a, 0xbf, 0x14, 0x4d, 0x07, 0x3f,
    0x7a, 0x71, 0x1b, 0xbe, 0x62, 0x2d, 0x52, 0xbf, 0x9b, 0xa4, 0xdb, 0xbc,
    0xcb, 0x42, 0x19, 0x3e, 0x03, 0x1f, 0x77, 0xbe, 0x63, 0x11, 0xff, 0xbe,
    0x02, 0x44, 0x3e, 0xbd, 0xc6, 0x0b, 0xc8, 0x3e, 0x8f, 0x54, 0x39, 0xbe,
    0xcd, 0x34, 0x39, 0x3e, 0xdf, 0x34, 0x41, 0x3e, 0xb4, 0x4c, 0x3b, 0xbf,
    0x90, 0x61, 0x77, 0xbd, 0xc0, 0x2d, 0x94, 0xbb, 0xde, 0x0d, 0x63, 0xbd,
    0x71, 0x57, 0xf2, 0xbe, 0x97, 0x27, 0xe6, 0xbe, 0x76, 0x58, 0xbb, 0xbd,
    0x2d, 0xd8, 0x21, 0xbe, 0x3d, 0xf6, 0x79, 0x3e, 0x48, 0x0c, 0xe7, 0x3d,
    0x0a, 0xf5, 0x02, 0x3f, 0x65, 0x5a, 0x42, 0x3e, 0xb8, 0x33, 0xdc, 0xbe,
    0x36, 0x0e, 0x96, 0xbe, 0x28, 0xa7, 0xba, 0xbd, 0x64, 0x3b, 0xde, 0xbe,
    0xac, 0x0a, 0x21, 0x3f, 0x20, 0xfb, 0x63, 0xbf, 0x9a, 0x50, 0x06, 0x3f,
    0x30, 0x92, 0x69, 0xbf, 0x86, 0x79, 0xf5, 0xbe, 0xc8, 0x93, 0x04, 0xbf,
    0x53, 0xc8, 0x47, 0x3e, 0x92, 0x0b, 0x94, 0x3f, 0xff, 0x69, 0x98, 0x3d,
    0x69, 0x48, 0x50, 0x3e, 0x54, 0x56, 0x09, 0xbf, 0x5e, 0xe7, 0xd1, 0xbd,
    0xfb, 0xea, 0x54, 0xbe, 0x35, 0xe0, 0x43, 0xbf, 0xc8, 0xb9, 0x28, 0xbf,
    0x3f, 0x6b, 0xb9, 0x3e, 0x00, 0x18, 0x0d, 0xbf, 0xbb, 0x6b, 0x46, 0x3e,
    0x0c, 0x28, 0x50, 0xbf, 0x31, 0x5c, 0x14, 0xbe, 0xfa, 0xb3, 0x49, 0x3f,
    0xdd, 0x35, 0x3c, 0xbf, 0x90, 0x58, 0xa6, 0x3e, 0x3e, 0xa5, 0x2f, 0xbe,
    0xc8, 0x72, 0x79, 0xbf, 0x38, 0x22, 0x6b, 0xbe, 0x43, 0x79, 0x31, 0x3e,
    0xf2, 0x0a, 0x5b, 0x3e, 0x24, 0x90, 0xd4, 0x3e, 0x7e, 0x91, 0x98, 0xbe,
    0xb1, 0x6a, 0x93, 0xbe, 0xc4, 0x87, 0xe7, 0xbf, 0x21, 0xea, 0x10, 0xbe,
    0x2a, 0xff, 0xce, 0xbe, 0x4f, 0x7b, 0x68, 0xbf, 0x38, 0xa0, 0x67, 0x3e,
    0x8f, 0xe4, 0x8b, 0xbf, 0x34, 0xea, 0x7d, 0x3e, 0x19, 0x93, 0x82, 0x3e,
    0x3a, 0x73, 0xa6, 0xbd, 0x9f, 0x40, 0x3e, 0xbf, 0x1c, 0x45, 0x02, 0x3d,
    0x38, 0x5b, 0xfd, 0x3e, 0xb0, 0xe5, 0x0e, 0xbf, 0x6a, 0x02, 0x54, 0xbf,
    0xad, 0x03, 0x72, 0x3d, 0xa9, 0x67, 0xd4, 0x3d, 0x45, 0xda, 0xd2, 0xbd,
    0x49, 0x9a, 0x40, 0x3f, 0xf0, 0xc2, 0x9c, 0xbd, 0xa0, 0x91, 0x48, 0xbd,
    0x7a, 0xe9, 0x2f, 0x3f, 0x16, 0x1e, 0x86, 0xbf, 0x5b, 0xe5, 0xeb, 0x3e,
    0x3e, 0x72, 0x28, 0x3e, 0xed, 0xa8, 0x5f, 0x3d, 0x99, 0xa7, 0x04, 0x3f,
    0xca, 0x95, 0x3e, 0xbe, 0xbe, 0xbe, 0xc0, 0xbf, 0x4a, 0x12, 0x2a, 0x3e,
    0xce, 0x44, 0x8a, 0x3e, 0x32, 0x53, 0xbd, 0xbf, 0x2b, 0x27, 0x6f, 0x3d,
    0xec, 0xf2, 0xb8, 0xbf, 0x31, 0xb1, 0x26, 0x3e, 0xa5, 0x4b, 0x3c, 0x3f,
    0xc2, 0x35, 0x49, 0xbf, 0xfa, 0x7c, 0x81, 0x3e, 0xd1, 0xdf, 0x53, 0xbe,
    0x64, 0x3d, 0xa0, 0xbf, 0xe1, 0xbb, 0x04, 0xc0, 0xfe, 0x50, 0x69, 0xbe,
    0x72, 0xa6, 0x06, 0xbc, 0x8c, 0xd9, 0x01, 0x3e, 0xf5, 0x89, 0x0e, 0xbe,
    0xdc, 0xb1, 0x93, 0x3d, 0xe1, 0xab, 0xa3, 0xbd, 0x1e, 0xe2, 0xf4, 0x3e,
    0x10, 0xa4, 0xdd, 0x3e, 0xa3, 0x63, 0xc0, 0xbd, 0x39, 0x1e, 0x2f, 0x3e,
    0x8f, 0xa6, 0xfd, 0x3d, 0x00, 0xc9, 0xac, 0x3e, 0x30, 0x16, 0xad, 0xbe,
    0x2c, 0x92, 0xb0, 0xbf, 0x9e, 0xa3, 0xb9, 0xbf, 0x12, 0xa9, 0xe9, 0xbe,
    0x62, 0xee, 0x58, 0xbe, 0x67, 0x01, 0x25, 0x3c, 0x9d, 0x4b, 0xbc, 0xbf,
    0x95, 0xab, 0x9c, 0xbd, 0x02, 0x9b, 0xeb, 0x3e, 0xa6, 0x49, 0x98, 0xbf,
    0x81, 0xb1, 0x4b, 0xbf, 0x00, 0xee, 0x3f, 0x3e, 0xba, 0xc4, 0x44, 0x3e,
    0x88, 0x1c, 0x00, 0xbd, 0x75, 0x51, 0x98, 0xbf, 0x1e, 0x10, 0xeb, 0x3c,
    0xd3, 0x53, 0xd4, 0xbd, 0xed, 0xb4, 0x6a, 0xbe, 0x08, 0x2a, 0x24, 0x3d,
    0xfe, 0xeb, 0x2b, 0x3e, 0x59, 0xd6, 0xed, 0xbc, 0x52, 0x2e, 0xbe, 0xbe,
    0xf8, 0x9d, 0x3c, 0x3e, 0x29, 0x64, 0x8f, 0xbf, 0x88, 0x35, 0x98, 0xbe,
    0x53, 0x84, 0x82, 0x3e, 0xa8, 0xb9, 0x5c, 0xbe, 0xb0, 0x73, 0x3c, 0x3e,
    0x60, 0x0e, 0x85, 0xbe, 0x34, 0x6e, 0x81, 0x3e, 0x68, 0x64, 0x69, 0x3e,
    0xe8, 0x36, 0xef, 0x3d, 0x42, 0x4a, 0x82, 0xbf, 0x86, 0xbd, 0x1f, 0xbf,
    0xab, 0x5e, 0xbc, 0xbf, 0xa2, 0x20, 0x5e, 0x3e, 0x5b, 0xb7, 0x3e, 0xbf,
    0x6f, 0xaf, 0x0e, 0xc0, 0x4e, 0xdd, 0x54, 0x3e, 0xe7, 0xe3, 0x54, 0x3d,
    0x59, 0x22, 0x45, 0x3e, 0xbf, 0x65, 0xc3, 0x3e, 0x03, 0x9f, 0xc6, 0xbe,
    0xd4, 0x11, 0x95, 0x3c, 0xaf, 0xac, 0x1b, 0xbf, 0x78, 0x4a, 0x0f, 0xbf,
    0x3c, 0xdc, 0x4e, 0x3e, 0xc6, 0xd5, 0x4f, 0x3e, 0x15, 0x1b, 0xc8, 0xbe,
    0x3c, 0x6a, 0x23, 0x3f, 0x74, 0x9c, 0x0f, 0xbd, 0x08, 0x1e, 0x20, 0x3e,
    0x95, 0xa4, 0x8e, 0xbf, 0x55, 0x23, 0x00, 0x3e, 0x72, 0x25, 0x35, 0x3e,
    0x32, 0x9e, 0x1b, 0x3f, 0x02, 0xb4, 0x4a, 0x3e, 0xbf, 0xe4, 0x02, 0x3f,
    0x31, 0xfd, 0xfe, 0xbe, 0xd8, 0x66, 0x9e, 0x3e, 0xc3, 0x3f, 0x91, 0x3e,
    0x61, 0x8d, 0x18, 0x3f, 0x51, 0xe3, 0x82, 0x3e, 0x37, 0xd7, 0x01, 0xbe,
    0xa4, 0x2d, 0x49, 0xbf, 0xaf, 0xf1, 0xdd, 0x3d, 0xa8, 0xdc, 0x3a, 0x3e,
    0x64, 0x66, 0x89, 0x3e, 0xb1, 0xa2, 0x31, 0xbe, 0x8c, 0x25, 0x2d, 0xbd,
    0x79, 0xee, 0x4f, 0xbd, 0x53, 0x31, 0x51, 0x3e, 0xe6, 0x37, 0xf0, 0xbe,
    0x51, 0xe7, 0xe9, 0x3e, 0x13, 0x19, 0xe2, 0xbe, 0xcd, 0xcf, 0x7f, 0xbe,
    0xb5, 0x5c, 0x84, 0x3d, 0x88, 0x55, 0x09, 0xbd, 0xa4, 0xc3, 0x14, 0x3f,
    0x05, 0xd6, 0x5e, 0x3f, 0x19, 0x23, 0x3a, 0x3e, 0x82, 0x13, 0x7e, 0x3e,
    0x4f, 0x3e, 0x87, 0xbe, 0xf5, 0x40, 0x47, 0xbe, 0x84, 0x2e, 0xa1, 0xbf,
    0x19, 0x34, 0xe9, 0xbe, 0x40, 0x51, 0x40, 0x3e, 0xc6, 0xfd, 0xef, 0x3e,
    0xbc, 0xb9, 0x87, 0xbf, 0x8a, 0x0c, 0x09, 0x3f, 0xd9, 0xe4, 0x8d, 0x3e,
    0x50, 0x77, 0x3d, 0xbf, 0xeb, 0xe6, 0x0b, 0x3d, 0xfb, 0x6d, 0x67, 0xbf,
    0x64, 0x3d, 0x25, 0xbe, 0xd8, 0x4d, 0xc9, 0x3d, 0x45, 0x78, 0x2b, 0x3f,
    0xb3, 0xf8, 0xcb, 0x3e, 0x89, 0x44, 0x74, 0xbf, 0x1a, 0xf8, 0x3c, 0x3e,
    0x40, 0xbb, 0x00, 0x3f, 0xae, 0x68, 0xa5, 0x3d, 0x85, 0x72, 0x72, 0xbf,
    0x0a, 0xe1, 0x91, 0x3e, 0x4b, 0xaa, 0x92, 0xbf, 0x79, 0x61, 0x83, 0x3e,
    0xab, 0xde, 0xb9, 0xbf, 0x99, 0x69, 0x9c, 0xbf, 0x5b, 0x0b, 0x3d, 0x3f,
    0xba, 0x96, 0xe5, 0x3e, 0x91, 0xb1, 0x5e, 0xbf, 0xa6, 0x17, 0x99, 0x3e,
    0xbf, 0x83, 0x72, 0x3e, 0x16, 0x12, 0x24, 0x3f, 0xca, 0x3a, 0x06, 0x3e,
    0x1b, 0xc2, 0x3d, 0xbe, 0x66, 0xc2, 0xd5, 0x3e, 0x7b, 0x08, 0xbf, 0xbe,
    0xb1, 0x68, 0xac, 0xbf, 0x74, 0xc6, 0xa8, 0x3e, 0x8a, 0x8f, 0x83, 0x3e,
    0x25, 0x5d, 0x9a, 0xbf, 0xa6, 0x4e, 0xc7, 0x3e, 0xbd, 0x92, 0x9b, 0xbf,
    0xba, 0x61, 0x06, 0x3e, 0x07, 0xd5, 0x50, 0xbf, 0xf6, 0xd9, 0x78, 0xbe,
    0x48, 0xde, 0xe3, 0x3e, 0xc1, 0x51, 0x32, 0x3f, 0xa1, 0x1a, 0x3f, 0x3f,
    0xb6, 0x42, 0x10, 0x3f, 0x71, 0xf9, 0x1e, 0xbf, 0x50, 0xa5, 0xd9, 0x3d,
    0x12, 0xb0, 0xe8, 0xbe, 0xc1, 0x85, 0xb3, 0x3e, 0xda, 0xd2, 0xb2, 0xbe,
    0x22, 0xcf, 0x14, 0xbf, 0x89, 0xe3, 0xaa, 0x3e, 0x69, 0xf9, 0x9a, 0x3d,
    0xb0, 0x86, 0x25, 0x3e, 0x37, 0xa5, 0x8f, 0xbf, 0xb2, 0xe9, 0x20, 0xbe,
    0xec, 0x60, 0x2b, 0x3e, 0xdf, 0xfc, 0x9e, 0xbf, 0xd8, 0x45, 0x1a, 0x3e,
    0xcb, 0x8f, 0x16, 0x3f, 0xa0, 0x76, 0xa6, 0x3d, 0x52, 0x30, 0xe1, 0xbd,
    0x7e, 0x2a, 0x5b, 0xbe, 0xcb, 0x71, 0x91, 0x3f, 0x4b, 0x3f, 0x96, 0xbe,
    0x7a, 0x34, 0xd3, 0x3e, 0x6e, 0x23, 0x9f, 0x3f, 0x17, 0xc4, 0x3f, 0xbf,
    0xb0, 0x0f, 0xe1, 0x3d, 0x25, 0x0e, 0x78, 0xbe, 0x5f, 0x05, 0x08, 0x3e,
    0x8e, 0x75, 0x88, 0xbf, 0xba, 0xa7, 0x4d, 0xbe, 0xa8, 0xf4, 0x54, 0xbd,
    0x36, 0xa4, 0xe0, 0xbe, 0x26, 0x71, 0x44, 0x3f, 0xd9, 0x3b, 0x92, 0x3f,
    0x85, 0x39, 0x2c, 0xbd, 0x5f, 0x03, 0xc8, 0x3f, 0xbe, 0xb4, 0xda, 0x3e,
    0x1d, 0x58, 0xb5, 0xbb, 0x25, 0xc5, 0x74, 0x3d, 0x4d, 0x38, 0x8a, 0x3d,
    0x67, 0x77, 0xcb, 0xbe, 0x3b, 0x4b, 0x01, 0x40, 0x9c, 0xca, 0x9b, 0xbe,
    0x51, 0x4c, 0x8a, 0x3f, 0x9d, 0x57, 0x51, 0xbd, 0xcf, 0x56, 0xed, 0x3e,
    0x02, 0xc4, 0xbb, 0xbe, 0x21, 0x74, 0xbd, 0x3d, 0x67, 0x28, 0x02, 0xbf,
    0x33, 0xb8, 0x86, 0x3f, 0x2c, 0xf3, 0x6b, 0xbf, 0x39, 0x86, 0x7e, 0xbe,
    0x58, 0xff, 0x26, 0xbf, 0xd2, 0x74, 0x16, 0xbe, 0xfc, 0x4c, 0x10, 0xbf,
    0x1a, 0x09, 0x8c, 0xbe, 0x4d, 0x99, 0x67, 0xbd, 0x78, 0x5a, 0x2c, 0x3e,
    0x1d, 0xc4, 0x88, 0x3e, 0x6b, 0x26, 0x1f, 0xbf, 0xf5, 0xf2, 0xe7, 0xbe,
    0x64, 0x6e, 0xb9, 0xbe, 0x4c, 0x60, 0x02, 0x3e, 0xd6, 0xa4, 0x3e, 0x3d,
    0xfe, 0x2f, 0x8b, 0x3e, 0x54, 0x70, 0x50, 0x3f, 0x54, 0x9b, 0xcb, 0x3e,
    0xae, 0x95, 0x1e, 0x3e, 0x81, 0xe3, 0x29, 0x3f, 0x3e, 0x23, 0x90, 0x3f,
    0xf6, 0xc9, 0xff, 0xff, 0x04, 0x00, 0x00, 0x00, 0x00, 0x03, 0x00, 0x00,
    0xa3, 0x71, 0xf2, 0x3e, 0x5c, 0x5a, 0xfb, 0x3b, 0x58, 0x4d, 0xdb, 0x3e,
    0xfe, 0xc4, 0x7c, 0xbd, 0xa3, 0xa2, 0x08, 0x3f, 0x7c, 0x71, 0x30, 0xbe,
    0xc2, 0x2d, 0x8b, 0xbe, 0xa7, 0xc4, 0xe7, 0x3e, 0x9c, 0x1f, 0xbe, 0xbe,
    0xc1, 0xd0, 0xc0, 0xbe, 0x64, 0x39, 0x61, 0xbe, 0x65, 0x7e, 0xb8, 0x3e,
    0xbf, 0xe4, 0x8a, 0x3e, 0xe7, 0x71, 0x88, 0x3e, 0x75, 0xb4, 0x7f, 0xbe,
    0x49, 0x22, 0xa4, 0xbe, 0x2b, 0x79, 0x27, 0xbf, 0x22, 0xdb, 0x0e, 0x3e,
    0x5a, 0x35, 0x81, 0x3e, 0x96, 0x2b, 0x78, 0xbd, 0xff, 0xbc, 0xdb, 0xbe,
    0x8e, 0x32, 0x9e, 0xbe, 0x3b, 0xc9, 0xd6, 0xbe, 0x69, 0xfd, 0x8b, 0xbe,
    0x27, 0x66, 0x43, 0x3f, 0x1b, 0xd7, 0x92, 0xbe, 0x0c, 0x07, 0x8d, 0x3c,
    0x70, 0x86, 0xc3, 0x3e, 0x31, 0x61, 0xf9, 0xbd, 0x4c, 0x16, 0x7d, 0xbe,
    0x5f, 0xf5, 0xd4, 0xbd, 0x93, 0xc8, 0xe2, 0xbe, 0x43, 0xd0, 0xcb, 0x3e,
    0xbc, 0x8e, 0x69, 0x3d, 0x46, 0xcc, 0x96, 0x3e, 0x57, 0x1e, 0x01, 0xbe,
    0x5d, 0xb9, 0x31, 0x3f, 0xe4, 0xd4, 0x19, 0xbe, 0xcc, 0x68, 0x83, 0xbd,
    0xbd, 0x13, 0x74, 0xbe, 0x9f, 0x3a, 0xb0, 0xbe, 0x74, 0x7b, 0xe7, 0x3e,
    0xd4, 0x93, 0x0d, 0x3f, 0x4a, 0x3f, 0x73, 0xbe, 0xad, 0x7b, 0x04, 0x3f,
    0x34, 0x74, 0xf5, 0x3d, 0x39, 0xc6, 0x85, 0xbe, 0x89, 0x6d, 0x1a, 0x3e,
    0x18, 0xb0, 0x1a, 0xbd, 0x1c, 0xe9, 0xa4, 0xbe, 0x0e, 0x04, 0x50, 0xbd,
    0xae, 0x16, 0xae, 0x3b, 0xc6, 0xda, 0x29, 0xbe, 0xf3, 0xd4, 0x43, 0x3e,
    0x2d, 0x26, 0xa3, 0x3e, 0xc7, 0xae, 0x07, 0xbe, 0x11, 0x10, 0x4b, 0x3e,
    0x8b, 0x28, 0xd2, 0xbd, 0x79, 0x3c, 0xed, 0xbd, 0x6b, 0x34, 0x27, 0xbe,
    0xb8, 0x9e, 0x1b, 0x3c, 0xde, 0x25, 0x81, 0x3e, 0x9a, 0x61, 0x15, 0xbf,
    0x39, 0x19, 0x0c, 0xbf, 0x97, 0xfc, 0xd8, 0xbe, 0xc7, 0x84, 0xa4, 0xbe,
    0xb2, 0x68, 0xaf, 0x3e, 0x69, 0x46, 0x54, 0xbe, 0x88, 0x96, 0x5d, 0x3e,
    0xec, 0xdb, 0xc9, 0xbe, 0xc8, 0xbd, 0x1a, 0x3e, 0xc9, 0x13, 0xc0, 0xbe,
    0xd1, 0x62, 0xfd, 0xbe, 0x4e, 0x69, 0x07, 0xbe, 0x4e, 0xeb, 0x66, 0x3e,
    0x9f, 0x01, 0x1c, 0xbe, 0x06, 0x40, 0x13, 0x3e, 0x15, 0xef, 0x1a, 0x3f,
    0x34, 0xf3, 0xcf, 0xbd, 0xae, 0xd6, 0xaf, 0x3e, 0xc4, 0x45, 0xbe, 0xbb,
    0xc5, 0xc0, 0x35, 0xbe, 0xed, 0x57, 0xbe, 0xbd, 0x27, 0xd2, 0xb2, 0x3e,
    0x35, 0xa9, 0x5d, 0x3e, 0x85, 0xe9, 0x96, 0x3e, 0x82, 0x59, 0x61, 0x3e,
    0x1d, 0x18, 0xb6, 0xbe, 0x2a, 0xf9, 0x01, 0xbf, 0x3b, 0x75, 0x84, 0xbe,
    0x49, 0x1c, 0x5d, 0xbe, 0xe9, 0xae, 0x0b, 0x3f, 0x2e, 0xe6, 0x00, 0xbe,
    0x40, 0x2b, 0xb8, 0x3e, 0xed, 0x5c, 0x79, 0x3e, 0x8c, 0x0b, 0xa4, 0xbc,
    0x42, 0x7f, 0x01, 0x3f, 0xba, 0x46, 0x44, 0x3f, 0x3d, 0x1f, 0xba, 0x3d,
    0xb8, 0xdb, 0xa5, 0x3e, 0xa9, 0xb3, 0x6b, 0x3e, 0xba, 0xf2, 0x96, 0xbe,
    0xd3, 0x2f, 0x43, 0xbe, 0x80, 0x1e, 0x85, 0xbd, 0x9b, 0xd7, 0xd5, 0x3e,
    0xfb, 0x6a, 0x45, 0x3f, 0x2b, 0x95, 0x78, 0x3f, 0x79, 0x91, 0xe5, 0x3e,
    0x4d, 0x8c, 0x14, 0x3f, 0xbb, 0xe1, 0x67, 0x3e, 0x19, 0xfc, 0x92, 0x3e,
    0x8d, 0x52, 0x09, 0xbf, 0xbc, 0xf3, 0xb4, 0xbe, 0x11, 0x5c, 0xbb, 0xbe,
    0xc2, 0x4e, 0x85, 0x3e, 0x60, 0x49, 0xba, 0xbd, 0x5c, 0x0f, 0x8d, 0x3d,
    0x60, 0x64, 0xdd, 0x3e, 0x8c, 0xdf, 0x79, 0xbe, 0x63, 0x80, 0xac, 0xbe,
    0x84, 0x9b, 0xa7, 0x3e, 0xf1, 0x11, 0xc7, 0xbe, 0x12, 0x5c, 0xaf, 0x3e,
    0x24, 0x58, 0xb8, 0xbe, 0xe2, 0x86, 0x2b, 0xbf, 0xf3, 0xca, 0xa3, 0xbe,
    0x99, 0xdf, 0x4c, 0x3e, 0xdc, 0x1b, 0x1a, 0xbe, 0x2d, 0x72, 0x99, 0x3e,
    0xec, 0xec, 0x00, 0xbf, 0xb5, 0xbb, 0x52, 0x3f, 0x1d, 0x67, 0xd4, 0x3d,
    0x0b, 0xf5, 0x3d, 0xbf, 0xd8, 0xd8, 0x66, 0x3e, 0xc3, 0x19, 0x40, 0xbe,
    0x10, 0x9a, 0x67, 0xbe, 0x4e, 0x82, 0x43, 0xbd, 0xf9, 0xea, 0x22, 0x3f,
    0x29, 0x51, 0xd8, 0x3e, 0x5a, 0x66, 0x42, 0xbe, 0xd9, 0x7a, 0xb7, 0x3e,
    0x90, 0x4c, 0xfb, 0xba, 0x7c, 0x79, 0x84, 0x3e, 0x48, 0x90, 0xe4, 0xbe,
    0x90, 0x12, 0xa2, 0x3e, 0xd3, 0x04, 0xcf, 0x3e, 0xc0, 0x7b, 0xac, 0x3d,
    0x03, 0x46, 0x39, 0xbf, 0x60, 0xde, 0x69, 0xbe, 0x7b, 0x60, 0xe4, 0xbd,
    0xc2, 0x58, 0x1b, 0x3f, 0xc9, 0x00, 0x6e, 0x3e, 0x30, 0xb8, 0xf7, 0x3e,
    0x76, 0xbb, 0x00, 0xbf, 0x25, 0x83, 0x72, 0x3e, 0x83, 0xe0, 0x63, 0x3e,
    0xe6, 0x88, 0x9c, 0x3e, 0x54, 0xaf, 0xbb, 0x3e, 0xbe, 0x12, 0x12, 0x3e,
    0xc2, 0x88, 0xec, 0xbe, 0x38, 0x39, 0xf6, 0xbe, 0xf2, 0x14, 0xe0, 0xbd,
    0x21, 0xb5, 0xaf, 0x3e, 0xf3, 0x45, 0x12, 0xbe, 0x6e, 0x7f, 0x96, 0xbe,
    0xc2, 0x8e, 0xe9, 0x3e, 0xaa, 0x00, 0x61, 0xbe, 0xe1, 0x7d, 0xf1, 0x3e,
    0x00, 0x84, 0x14, 0x3f, 0xc9, 0x91, 0x89, 0x3e, 0x90, 0x7e, 0x27, 0x3e,
    0xc1, 0x1b, 0x88, 0x3e, 0x9b, 0x4c, 0x09, 0xbf, 0x06, 0x16, 0x42, 0xbe,
    0xe3, 0x5d, 0xf4, 0x3e, 0x76, 0x70, 0x06, 0x3f, 0x30, 0x93, 0xa8, 0x3d,
    0x78, 0x08, 0x9f, 0x3a, 0x37, 0x15, 0xba, 0xbe, 0x38, 0x6c, 0xd4, 0xbe,
    0x1f, 0x87, 0x8a, 0xbe, 0xf1, 0xf8, 0x0c, 0xbf, 0xda, 0x5a, 0x6f, 0xbe,
    0xb9, 0x9c, 0x49, 0xbe, 0x9c, 0xc2, 0xae, 0x3d, 0x00, 0x03, 0x09, 0x3f,
    0xa8, 0x5b, 0xd6, 0x3c, 0x4a, 0x07, 0x8f, 0x3e, 0x46, 0x21, 0x2a, 0x3e,
    0x55, 0x97, 0x0e, 0xbf, 0x76, 0xc4, 0x76, 0xbe, 0x65, 0x63, 0xd8, 0x3e,
    0x02, 0xcd, 0xff, 0xff, 0x04, 0x00, 0x00, 0x00, 0x00, 0x30, 0x00, 0x00,
    0x60, 0xee, 0x8e, 0x3e, 0x5a, 0x40, 0xa6, 0x3c, 0xc5, 0x41, 0xa2, 0x3d,
    0x46, 0x70, 0xf3, 0xbe, 0x1a, 0xa1, 0x10, 0x3c, 0xfe, 0x7c, 0x4a, 0x3e,
    0x14, 0xf5, 0x33, 0xbd, 0x43, 0x84, 0x13, 0x3c, 0xe1, 0x19, 0x14, 0xbe,
    0x8c, 0x02, 0x9e, 0x3d, 0x8e, 0x44, 0x92, 0xbe, 0xa9, 0x9c, 0x4c, 0x3d,
    0x24, 0x46, 0x53, 0x3c, 0xb5, 0x02, 0xe3, 0x3b, 0x52, 0xbd, 0xdc, 0x3d,
    0x48, 0xa1, 0x33, 0x3e, 0xfc, 0x9b, 0x6c, 0x3c, 0xb2, 0xf5, 0xfc, 0xb9,
    0xd4, 0x2f, 0x49, 0xbd, 0x1b, 0x2e, 0x4a, 0xbe, 0x5c, 0xf0, 0x52, 0x3e,
    0x66, 0xf1, 0x87, 0x3e, 0xc5, 0x67, 0x9a, 0xbc, 0xa8, 0xf1, 0x14, 0x3e,
    0x5f, 0xa9, 0x3b, 0x3e, 0x69, 0x12, 0x84, 0x3e, 0xc7, 0xbe, 0x1b, 0x3b,
    0xf9, 0xb9, 0x67, 0xbe, 0x19, 0xf9, 0x1e, 0xbd, 0xea, 0xb5, 0xb9, 0x3d,
    0x46, 0x29, 0x16, 0xbe, 0x01, 0xe5, 0x6b, 0x3e, 0x91, 0x10, 0x04, 0x3e,
    0x7e, 0xe6, 0x38, 0xbf, 0x7b, 0x8b, 0xa8, 0xbe, 0x83, 0xdd, 0xa7, 0xbd,
    0x25, 0x37, 0x80, 0x3d, 0xfd, 0xc7, 0x95, 0x3d, 0x84, 0x83, 0xb6, 0x3d,
    0x3b, 0x15, 0x90, 0x3e, 0xc4, 0x72, 0xa4, 0x3e, 0x17, 0x74, 0x88, 0x3e,
    0x63, 0xd4, 0xae, 0xbe, 0xb5, 0xa4, 0x27, 0x3e, 0xa1, 0xd4, 0x94, 0xbe,
    0x67, 0x4e, 0x0a, 0xbe, 0xb5, 0x85, 0x6e, 0x3e, 0xda, 0x75, 0x6b, 0xbe,
    0x64, 0x96, 0x45, 0xbd, 0xc7, 0x75, 0xa5, 0xbd, 0x15, 0xa3, 0x15, 0x3d,
    0xec, 0x6e, 0xef, 0x3d, 0x93, 0xd8, 0xab, 0x3d, 0x9f, 0xcb, 0xc8, 0xbd,
    0x68, 0x45, 0xee, 0xbe, 0xaa, 0x43, 0x14, 0x3e, 0xa2, 0x37, 0xb7, 0x3d,
    0x3d, 0xf4, 0x83, 0xbd, 0xc6, 0xff, 0x87, 0xbc, 0x42, 0xba, 0x87, 0x3e,
    0x30, 0x17, 0x1e, 0x3e, 0x47, 0xa3, 0xb9, 0x3d, 0x7a, 0xe5, 0x90, 0x3d,
    0x69, 0xdf, 0xd6, 0x3d, 0xea, 0x89, 0xf6, 0x3c, 0xbc, 0xcd, 0x1c, 0xbe,
    0xc6, 0x8f, 0xe4, 0x3d, 0x88, 0xf5, 0xf9, 0x3c, 0xda, 0x81, 0xc2, 0xbb,
    0xf5, 0x8e, 0xab, 0x3d, 0x10, 0x1a, 0xed, 0x3d, 0x77, 0x2d, 0x11, 0xbe,
    0xe9, 0x63, 0x3b, 0xbd, 0x67, 0x2d, 0x80, 0x3e, 0x08, 0x04, 0x52, 0x3e,
    0x82, 0x5d, 0xf9, 0x3d, 0x72, 0x10, 0xc3, 0xbe, 0xba, 0x6a, 0xf8, 0xbd,
    0x93, 0x28, 0x04, 0x3e, 0x96, 0x82, 0x71, 0x3e, 0x47, 0x99, 0xfd, 0x3c,
    0xb1, 0x89, 0xb9, 0xbe, 0xf2, 0xa2, 0xf6, 0x3c, 0x90, 0xd6, 0x45, 0x3e,
    0x67, 0x80, 0x00, 0x3d, 0x5a, 0xce, 0x2a, 0xbd, 0x51, 0xc2, 0xc3, 0xbe,
    0x3e, 0x00, 0x25, 0x3e, 0x4b, 0xfb, 0xb0, 0x3c, 0x47, 0xf1, 0xa5, 0xbc,
    0x36, 0xe4, 0xf9, 0x3a, 0x65, 0xd6, 0xed, 0xbd, 0x0e, 0x4f, 0x47, 0x3e,
    0xc3, 0x32, 0x68, 0x3e, 0x01, 0x37, 0x9b, 0xbe, 0xa5, 0x8c, 0x9a, 0x3d,
    0xb3, 0x54, 0x1b, 0xbc, 0xfd, 0x88, 0xec, 0x3c, 0x52, 0x0c, 0x3d, 0xbd,
    0x9e, 0x81, 0xe6, 0x3d, 0x78, 0xb0, 0xa9, 0x3e, 0xff, 0x9a, 0xd4, 0xbe,
    0x77, 0xfb, 0x99, 0xbd, 0x76, 0xf2, 0x62, 0xbd, 0xff, 0x08, 0xd3, 0x3c,
    0x53, 0x30, 0xa3, 0xbe, 0x8a, 0xe5, 0x00, 0xbe, 0xb1, 0x04, 0x1c, 0xbd,
    0x4e, 0x8a, 0x30, 0x3c, 0xa5, 0x1a, 0x84, 0x3d, 0x0d, 0xda, 0x1c, 0xbe,
    0xa9, 0x57, 0x82, 0x3e, 0x6b, 0x91, 0xd6, 0x3e, 0x6d, 0x64, 0x21, 0xbe,
    0xdf, 0xbd, 0xcc, 0x3e, 0x95, 0x03, 0xa8, 0x3d, 0x80, 0x3e, 0xb7, 0x3e,
    0x50, 0x4e, 0x6b, 0xbe, 0xc5, 0x34, 0x08, 0xbe, 0x93, 0x65, 0x1a, 0x3d,
    0x43, 0x19, 0x08, 0x3e, 0x87, 0xb5, 0x36, 0xbe, 0x26, 0x34, 0x2c, 0xbe,
    0x0e, 0xfe, 0x49, 0x3e, 0x73, 0x83, 0x94, 0x3d, 0x13, 0x85, 0xda, 0x3e,
    0x15, 0x9f, 0xe2, 0x3d, 0xd6, 0x3b, 0xb6, 0x3e, 0x26, 0x93, 0x99, 0xbd,
    0x9e, 0x5c, 0xd6, 0x3d, 0xb4, 0x0d, 0x39, 0xbd, 0xdc, 0xd3, 0x9e, 0xbd,
    0xcd, 0xb2, 0x82, 0xbe, 0x4e, 0xb5, 0xaa, 0xbe, 0x06, 0x81, 0x3f, 0xbe,
    0x1d, 0x9f, 0x02, 0xbe, 0xb4, 0x6d, 0x39, 0x3e, 0x96, 0xf6, 0xbf, 0xbd,
    0xf3, 0xaf, 0x01, 0xbe, 0x51, 0xaf, 0x0c, 0xbe, 0x7a, 0xd1, 0x4f, 0x3e,
    0x01, 0xed, 0xca, 0x3d, 0x39, 0xa6, 0x40, 0x3e, 0xe1, 0x8b, 0x9f, 0x3e,
    0x5b, 0x7d, 0x03, 0x3e, 0xbb, 0x3a, 0x5e, 0x3e, 0x26, 0xa3, 0x32, 0x3e,
    0xf5, 0xb8, 0xbf, 0xbd, 0x46, 0xa1, 0x78, 0x3e, 0x50, 0x36, 0xa6, 0xbc,
    0x02, 0x36, 0xb6, 0xbd, 0x3c, 0x65, 0x95, 0xbe, 0x97, 0x6b, 0xa0, 0x3e,
    0xb8, 0x8e, 0xc4, 0x3d, 0xef, 0x82, 0xbb, 0x3d, 0xdf, 0xac, 0x07, 0x3e,
    0x8c, 0x34, 0xe8, 0x3d, 0x13, 0xbd, 0x02, 0x3e, 0x42, 0xde, 0x20, 0x3e,
    0xa8, 0x7c, 0x58, 0xbc, 0x02, 0xa9, 0x27, 0xbe, 0x4f, 0x7b, 0xa1, 0xbd,
    0xbf, 0xee, 0x0c, 0xbe, 0x5c, 0xe6, 0x10, 0x3c, 0x14, 0xee, 0xd2, 0xbc,
    0xdc, 0xd2, 0xf2, 0xbd, 0xeb, 0x40, 0xc6, 0xbe, 0x50, 0xad, 0x43, 0x3e,
    0x82, 0xdf, 0x38, 0x3d, 0x9a, 0x8a, 0x7c, 0xbe, 0x0e, 0xda, 0x23, 0xbd,
    0xa8, 0xab, 0x79, 0xbd, 0x96, 0xa1, 0xa1, 0xbd, 0xca, 0x0e, 0xad, 0x3d,
    0xd3, 0x8d, 0xbc, 0xbe, 0xf2, 0xcb, 0x9b, 0x3e, 0x25, 0xdc, 0xb4, 0x3e,
    0xd9, 0x4e, 0xb5, 0x3e, 0xa9, 0xe7, 0x71, 0xbe, 0xf5, 0xd0, 0x91, 0xbd,
    0x4a, 0x61, 0x0d, 0x3c, 0x19, 0xb9, 0x34, 0xbd, 0x84, 0x40, 0xec, 0x3c,
    0x87, 0xb9, 0x96, 0x3d, 0x56, 0xf9, 0x93, 0xbe, 0xd5, 0x6e, 0xf7, 0xbe,
    0x38, 0x58, 0x25, 0xbf, 0xe3, 0xdd, 0x24, 0x3d, 0x4d, 0xe7, 0xfd, 0xbe,
    0x7d, 0xaa, 0x20, 0x3e, 0xc3, 0xe8, 0xca, 0xbd, 0x9d, 0xbd, 0x4a, 0xbe,
    0x70, 0x26, 0x66, 0x3e, 0xd9, 0x15, 0x69, 0xbd, 0x37, 0xb2, 0xf4, 0x3d,
    0x30, 0xe1, 0x21, 0x3e, 0x81, 0xe0, 0xd3, 0x3d, 0x8f, 0xb2, 0xc8, 0x3e,
    0x82, 0x50, 0x39, 0x3e, 0xe2, 0x44, 0xf2, 0x3e, 0x70, 0x31, 0x73, 0xbe,
    0xce, 0xcd, 0x27, 0x3f, 0x46, 0xac, 0x7a, 0x3e, 0x68, 0x8b, 0xff, 0x3d,
    0x54, 0xdd, 0xce, 0xbd, 0xb8, 0x90, 0x1d, 0x3e, 0xf9, 0x72, 0x7b, 0x3d,
    0x9e, 0xce, 0x15, 0xbe, 0x0d, 0x18, 0xd8, 0x3d, 0x58, 0x6e, 0xba, 0x3f,
    0x38, 0x46, 0x3f, 0xbe, 0x32, 0x4b, 0x65, 0xbd, 0x0e, 0x21, 0x3b, 0xbe,
    0x4a, 0x52, 0x65, 0x3e, 0xd9, 0xf5, 0x10, 0xbe, 0x16, 0xec, 0x2b, 0x3e,
    0x90, 0xf7, 0x26, 0x3e, 0xbf, 0x25, 0x64, 0x3e, 0xa2, 0x72, 0x79, 0x3e,
    0x09, 0x55, 0xa5, 0x3d, 0x48, 0x89, 0xec, 0x3e, 0x47, 0xc5, 0x40, 0x3e,
    0x58, 0xe7, 0x6f, 0xbe, 0xd0, 0xbc, 0x41, 0xbe, 0xe5, 0x12, 0x88, 0xbe,
    0xb8, 0xde, 0x80, 0x3e, 0x90, 0xd0, 0x81, 0x3a, 0xeb, 0x5f, 0xdf, 0x3d,
    0x97, 0xf2, 0x5c, 0x3e, 0x50, 0xe9, 0x74, 0x3e, 0x5f, 0x77, 0x2b, 0xbe,
    0x4c, 0xa1, 0x61, 0x3e, 0x6b, 0x35, 0xad, 0x3d, 0x49, 0x43, 0x2c, 0xbe,
    0x80, 0x7b, 0x0d, 0x3e, 0xbe, 0x6c, 0xb1, 0xbc, 0x55, 0x67, 0x7c, 0xbd,
    0xcd, 0xb0, 0x82, 0x3e, 0x6b, 0xed, 0x55, 0xbe, 0x24, 0x57, 0x5c, 0xbe,
    0x16, 0x54, 0xb9, 0xbf, 0xef, 0x45, 0x34, 0xbe, 0xdd, 0x8b, 0x79, 0xbe,
    0x25, 0x65, 0x1f, 0xbe, 0x5b, 0xbe, 0xab, 0xbe, 0x36, 0xea, 0x24, 0x3e,
    0xd6, 0x37, 0x8c, 0x3c, 0x37, 0x0a, 0xc6, 0xbd, 0xb3, 0xc8, 0x89, 0xbe,
    0xeb, 0x7e, 0x03, 0xbe, 0x96, 0x61, 0x07, 0xbe, 0x08, 0x76, 0x52, 0xbe,
    0xb0, 0x62, 0x0d, 0x3f, 0x79, 0x32, 0x8b, 0xbf, 0x20, 0x97, 0x65, 0x3d,
    0x5c, 0x4e, 0x62, 0x3d, 0xdc, 0x2f, 0x47, 0xbf, 0x9a, 0xac, 0x75, 0xbd,
    0x53, 0x80, 0x7d, 0xbe, 0x18, 0x71, 0x9d, 0x3d, 0xa2, 0x16, 0x91, 0xbc,
    0x1d, 0x00, 0xf3, 0x3b, 0x7e, 0xb9, 0x2f, 0x3e, 0xed, 0x55, 0xd1, 0xbd,
    0xff, 0xc7, 0xf1, 0xbd, 0xe5, 0x06, 0xbe, 0x3e, 0x2b, 0x64, 0x9f, 0xbe,
    0xb7, 0x67, 0xb4, 0xbe, 0xcc, 0x6f, 0xef, 0x3d, 0x07, 0x27, 0xa0, 0xbd,
    0x5c, 0x07, 0x0f, 0x3e, 0x6e, 0x01, 0xb7, 0xbe, 0xed, 0x2b, 0x6d, 0x3d,
    0xfa, 0xf6, 0x3b, 0xbe, 0x25, 0x86, 0xaf, 0x3d, 0xe6, 0xd3, 0x9c, 0x3d,
    0x8a, 0x6e, 0xe7, 0x3d, 0xa9, 0x77, 0x96, 0x3c, 0x17, 0xd1, 0x31, 0x3b,
    0x2f, 0x04, 0xb5, 0xbe, 0x49, 0x72, 0x35, 0xbe, 0x11, 0xa5, 0xbb, 0x3d,
    0xf3, 0x2a, 0x48, 0x3e, 0xe2, 0x15, 0xbe, 0x3d, 0x41, 0x9c, 0x04, 0x3f,
    0xc4, 0xf5, 0xdd, 0xbd, 0xa2, 0x85, 0x35, 0x3e, 0x7f, 0x68, 0x4b, 0xbe,
    0x51, 0x1b, 0xa6, 0x3d, 0xab, 0xed, 0x09, 0x3e, 0x54, 0x6f, 0xb3, 0x3d,
    0x20, 0x8c, 0x4c, 0x3e, 0x44, 0xca, 0x4f, 0x3e, 0xdf, 0x2e, 0x3f, 0x3d,
    0xa3, 0x7b, 0xa4, 0xbc, 0x55, 0x84, 0x37, 0x3d, 0xbc, 0x2e, 0x29, 0x3d,
    0x3c, 0x42, 0x93, 0x3d, 0x76, 0x96, 0x21, 0x3e, 0xdc, 0x20, 0x3a, 0x3e,
    0x3e, 0xbf, 0xdf, 0xbc, 0xc5, 0xbd, 0xff, 0x3d, 0x5b, 0x64, 0xf2, 0x3d,
    0xe3, 0xf6, 0xfd, 0xbd, 0xc5, 0xa0, 0x5d, 0x3e, 0x34, 0xd8, 0xb1, 0xbd,
    0xe2, 0x1c, 0x40, 0x3c, 0x03, 0x7c, 0x3b, 0x3e, 0xc2, 0x59, 0x84, 0x39,
    0x4b, 0x62, 0x69, 0x3d, 0xad, 0x26, 0x84, 0x3b, 0x62, 0x6d, 0x8c, 0x3e,
    0x63, 0xe3, 0x52, 0x3c, 0x35, 0x55, 0xab, 0x3d, 0x55, 0xcd, 0x95, 0xbd,
    0xc0, 0x4f, 0x60, 0x3d, 0x19, 0x27, 0xa8, 0x3e, 0xde, 0xa3, 0xde, 0xbd,
    0x56, 0x51, 0xa3, 0x3d, 0x0a, 0x49, 0x81, 0x3d, 0xfa, 0x08, 0x85, 0x3e,
    0xf9, 0xcf, 0xbf, 0x3d, 0xaf, 0x3e, 0x5f, 0x3d, 0x60, 0x3e, 0xee, 0xbd,
    0x39, 0x10, 0x69, 0x3e, 0xad, 0x1f, 0xdb, 0x3d, 0x92, 0xe8, 0x75, 0x3d,
    0x2b, 0x3b, 0x1b, 0x3e, 0x22, 0x5e, 0x80, 0x3d, 0xd7, 0x01, 0x29, 0x3d,
    0x6c, 0x6f, 0xea, 0xbd, 0xfb, 0x47, 0xd0, 0x3d, 0x94, 0x86, 0xec, 0xbd,
    0xfb, 0xbc, 0xeb, 0xbd, 0x03, 0xfa, 0xc9, 0xbd, 0x62, 0xda, 0xa1, 0x3e,
    0xd8, 0x05, 0xcb, 0xbd, 0xa9, 0xed, 0xaa, 0xbc, 0xf9, 0x3c, 0xb1, 0x3d,
    0x5a, 0xd6, 0xbd, 0x3d, 0x1b, 0x60, 0x14, 0xbe, 0x86, 0x6d, 0x33, 0x3e,
    0xc6, 0xfd, 0x16, 0x3e, 0xc7, 0xfc, 0x25, 0x3e, 0x30, 0x2c, 0x76, 0xbe,
    0xb2, 0x57, 0x2d, 0xbe, 0x1f, 0xf0, 0x24, 0xbe, 0x85, 0x84, 0x6e, 0xbd,
    0x14, 0x48, 0x66, 0x3e, 0x5f, 0x75, 0xe2, 0xbd, 0xf7, 0x43, 0x11, 0xb9,
    0x47, 0xcd, 0x4e, 0x3d, 0xdc, 0x6b, 0x1d, 0x3e, 0x5a, 0xb0, 0x19, 0x3e,
    0x34, 0x97, 0x07, 0x3d, 0x77, 0x0b, 0x3b, 0xbe, 0xb4, 0x84, 0x1b, 0x3e,
    0x46, 0xcd, 0xc4, 0x3d, 0x2d, 0xae, 0xa0, 0xbd, 0xf2, 0xda, 0x26, 0xbe,
    0x66, 0xb9, 0xea, 0xbd, 0xaa, 0x8b, 0x1d, 0x3e, 0x65, 0x22, 0x83, 0xbd,
    0xc9, 0x4e, 0x3a, 0x3d, 0x98, 0xb0, 0x31, 0x3e, 0x35, 0x74, 0x39, 0x3a,
    0x93, 0xc8, 0xb3, 0xbe, 0x02, 0xa4, 0x6a, 0x3e, 0x4d, 0x55, 0x9e, 0x3d,
    0x1d, 0x1e, 0xfb, 0xbd, 0xb7, 0x13, 0x9c, 0x3c, 0x56, 0xf0, 0xea, 0xbb,
    0x68, 0x72, 0x20, 0xbe, 0xd3, 0xa7, 0xee, 0x3d, 0xd4, 0x63, 0xc9, 0xbd,
    0x71, 0x89, 0x6e, 0x3a, 0xc2, 0x42, 0x16, 0xbd, 0xdf, 0xd2, 0xa6, 0x3c,
    0x46, 0x57, 0xda, 0xbc, 0x52, 0xb2, 0x2a, 0xbe, 0xb5, 0xc2, 0xfd, 0x3d,
    0x3a, 0xbd, 0x2d, 0xbd, 0x77, 0x8d, 0x94, 0x3d, 0xa8, 0x5b, 0x16, 0xbd,
    0x04, 0x9e, 0x09, 0x3e, 0x69, 0x6d, 0xa7, 0xbe, 0x01, 0x6f, 0xcb, 0xbe,
    0xf4, 0x96, 0xe4, 0xbe, 0x9a, 0x8f, 0x6e, 0x3d, 0x9a, 0x50, 0xc5, 0x3a,
    0xf0, 0x61, 0x0d, 0xbc, 0x13, 0xec, 0xc8, 0x3d, 0xe5, 0x98, 0x4a, 0x3d,
    0x0c, 0x30, 0x17, 0x3e, 0xdc, 0x43, 0x22, 0xbf, 0x2e, 0x75, 0x60, 0x3e,
    0x42, 0xbe, 0x5d, 0x3e, 0x24, 0x0b, 0x18, 0x3e, 0x01, 0xb3, 0x5c, 0x3d,
    0x2c, 0x63, 0xb3, 0xbe, 0x2e, 0xb1, 0x04, 0xbe, 0xf1, 0x86, 0x2b, 0xbe,
    0x89, 0x11, 0xc3, 0x3c, 0x1b, 0x07, 0xd9, 0x3d, 0x6c, 0x7e, 0x57, 0x3e,
    0x90, 0x01, 0x78, 0x3d, 0x04, 0x3c, 0xf8, 0x3d, 0x5a, 0x88, 0x64, 0x3e,
    0x4d, 0xfd, 0x61, 0x3e, 0xd6, 0x52, 0x90, 0x3d, 0xf4, 0x28, 0x31, 0x3d,
    0xa5, 0x30, 0x92, 0xbe, 0x2f, 0xca, 0x31, 0xbe, 0x5f, 0x8b, 0x08, 0xbe,
    0x1a, 0x33, 0xd6, 0xbd, 0xd2, 0xe0, 0x6e, 0x3d, 0x70, 0x3c, 0x3f, 0x3e,
    0x40, 0x8e, 0x17, 0xbf, 0xc2, 0xf0, 0xbe, 0xbe, 0xda, 0x8d, 0x1a, 0xbe,
    0xce, 0x13, 0x3c, 0x3c, 0xcb, 0xab, 0xcc, 0xbd, 0x32, 0x0f, 0xe8, 0x3e,
    0xbb, 0xe0, 0xd9, 0x3e, 0xc6, 0x5e, 0x66, 0x3e, 0x56, 0x23, 0x2a, 0x3e,
    0x67, 0x4d, 0xac, 0xbe, 0xb0, 0x64, 0xcc, 0xbd, 0x1b, 0xf5, 0x87, 0xbe,
    0xb5, 0x73, 0x4b, 0xbe, 0xd2, 0xf3, 0xdc, 0xbd, 0x46, 0x62, 0xc9, 0xbe,
    0xf3, 0x47, 0x0c, 0xbe, 0xe4, 0x2a, 0x50, 0xbe, 0xda, 0xd6, 0xbd, 0x3d,
    0xc8, 0x8b, 0x4c, 0x3c, 0x33, 0xe0, 0x2e, 0x3e, 0xa3, 0x38, 0x1b, 0xbe,
    0x55, 0xb2, 0x87, 0xbf, 0xdd, 0xe8, 0x23, 0x3e, 0xb2, 0xf5, 0x3a, 0x3e,
    0xae, 0xef, 0x76, 0x3e, 0x18, 0xb0, 0x22, 0x3e, 0x98, 0xcb, 0x03, 0x3e,
    0x8b, 0xeb, 0x4d, 0x3e, 0x37, 0x57, 0x04, 0xbe, 0x4f, 0x8a, 0x1d, 0xbe,
    0xdf, 0x09, 0x24, 0xbe, 0x83, 0xed, 0x12, 0xbd, 0x8b, 0x97, 0x54, 0xbe,
    0xc4, 0x75, 0x6d, 0x3e, 0xd9, 0xff, 0x7e, 0x3d, 0x3e, 0x6d, 0x6f, 0xbd,
    0xcf, 0x06, 0x4f, 0xbe, 0x89, 0x0d, 0x86, 0x3e, 0x43, 0xe2, 0x70, 0x3e,
    0x34, 0xd8, 0x22, 0x3d, 0xa1, 0xe8, 0xa9, 0x3e, 0x55, 0x41, 0x73, 0x3e,
    0xa0, 0x84, 0xa8, 0x3d, 0x65, 0x77, 0x79, 0xbe, 0xb2, 0xd1, 0x21, 0xbe,
    0x62, 0x91, 0x19, 0x3e, 0xb9, 0x03, 0x6c, 0x3e, 0x48, 0xf7, 0x87, 0x3d,
    0x27, 0x96, 0x16, 0xbe, 0x42, 0x3b, 0x05, 0x3e, 0x59, 0x9b, 0x14, 0xbe,
    0xce, 0x33, 0x8d, 0x3e, 0xa7, 0x4a, 0x81, 0xbe, 0x61, 0x5e, 0x29, 0xbe,
    0x05, 0xc7, 0x3a, 0xbc, 0xaa, 0x1d, 0x21, 0x3e, 0x4d, 0xa6, 0xa9, 0x3d,
    0x3e, 0x7e, 0x7e, 0x3e, 0x7e, 0x11, 0x38, 0xbe, 0x4c, 0x0f, 0xa0, 0x3e,
    0x15, 0x63, 0xa4, 0x3c, 0xd4, 0x36, 0x3e, 0xbe, 0x11, 0xf8, 0x12, 0xbe,
    0x38, 0x32, 0x00, 0xbe, 0x38, 0x00, 0xd2, 0x3d, 0x94, 0x8c, 0xf5, 0xbd,
    0x39, 0x7c, 0x79, 0x3e, 0xc1, 0x71, 0xa2, 0xbe, 0x92, 0xf4, 0x05, 0xbf,
    0xf6, 0x01, 0xb8, 0x3e, 0x7b, 0xe9, 0xac, 0xbf, 0xda, 0x8f, 0xa3, 0xbd,
    0x57, 0x8b, 0x32, 0x3f, 0x3b, 0x5c, 0xf6, 0xbd, 0xdf, 0x49, 0x19, 0xbb,
    0xca, 0x23, 0x2a, 0xbe, 0x49, 0xd2, 0x1c, 0x3d, 0xf3, 0xd9, 0x68, 0x3d,
    0x60, 0xd9, 0x44, 0xbe, 0xca, 0x84, 0xa2, 0x3e, 0x7e, 0x93, 0x00, 0xbd,
    0x28, 0xa9, 0x94, 0x3e, 0x56, 0x76, 0xf6, 0x3d, 0x74, 0xb7, 0x2c, 0x3f,
    0x7f, 0xc6, 0x86, 0xbe, 0xa3, 0x7d, 0x56, 0xbe, 0x9d, 0x5b, 0x03, 0xbe,
    0x65, 0x12, 0x25, 0x3f, 0x86, 0x09, 0x72, 0xbf, 0x92, 0xb4, 0x6c, 0x3e,
    0x4a, 0xaf, 0xd2, 0x3d, 0x9a, 0x3f, 0xf2, 0xbe, 0x74, 0x6c, 0x05, 0xbe,
    0xf8, 0xc1, 0x01, 0xbe, 0xf7, 0x61, 0x53, 0x3e, 0x40, 0x99, 0x86, 0x3e,
    0xef, 0xae, 0x37, 0xbe, 0xd1, 0x89, 0xc6, 0xbd, 0x67, 0x42, 0xbb, 0xbc,
    0xea, 0xdd, 0xba, 0xbd, 0xcd, 0x7c, 0x97, 0xbe, 0x7d, 0xd8, 0xde, 0x3e,
    0xee, 0x82, 0x1d, 0xbe, 0x3d, 0x05, 0x7f, 0xbd, 0x5c, 0x78, 0x3d, 0xbf,
    0x14, 0xe2, 0x34, 0x3d, 0x86, 0x3c, 0x39, 0xbe, 0x15, 0xa6, 0x0a, 0xbe,
    0x06, 0x1b, 0xc4, 0xbc, 0xa2, 0x2f, 0x58, 0xbd, 0x3b, 0xea, 0x8b, 0x3e,
    0x1d, 0x02, 0x69, 0x3e, 0x6f, 0xf9, 0x01, 0xbe, 0x01, 0xe2, 0xea, 0xbd,
    0x1b, 0x9a, 0xc8, 0x3e, 0x66, 0x4e, 0x11, 0x3f, 0x7d, 0xda, 0x2b, 0xbe,
    0x81, 0x42, 0x3f, 0xbd, 0x47, 0xa8, 0x9a, 0xbf, 0x02, 0xa9, 0x0d, 0xbd,
    0x71, 0x4a, 0xf1, 0xbd, 0x87, 0xa1, 0x9d, 0xbe, 0xf5, 0x95, 0x8e, 0x3d,
    0x56, 0xf8, 0x20, 0xbe, 0xdd, 0x00, 0x99, 0x3d, 0x2e, 0xdc, 0xcc, 0xbd,
    0x27, 0xb1, 0x76, 0xbc, 0x14, 0x36, 0x48, 0x3f, 0x27, 0x42, 0x7c, 0x3d,
    0xf9, 0x2e, 0x56, 0x3e, 0x30, 0xac, 0x82, 0x3d, 0xb8, 0x6e, 0xa7, 0xbd,
    0xc7, 0xf6, 0x80, 0xbe, 0xec, 0x37, 0x61, 0xbe, 0x4e, 0x43, 0x9e, 0xbd,
    0x00, 0xf5, 0x0d, 0x3e, 0x75, 0x79, 0x1d, 0xbf, 0x51, 0xca, 0x30, 0x3e,
    0xb2, 0x97, 0x8e, 0xbe, 0x33, 0x1c, 0x01, 0x3e, 0xc3, 0x80, 0x3e, 0x3d,
    0x02, 0x56, 0x8b, 0xbe, 0x6e, 0x23, 0xa1, 0x3e, 0x57, 0x92, 0x13, 0xbc,
    0x23, 0x8c, 0xc4, 0x3e, 0x1a, 0x56, 0x39, 0xbf, 0x8f, 0xcf, 0x11, 0xbd,
    0x2c, 0x5d, 0xc9, 0x3e, 0x26, 0x25, 0xd2, 0xbd, 0x5c, 0x69, 0x4e, 0x3e,
    0x84, 0xa5, 0x9e, 0x3e, 0x1f, 0x6a, 0x14, 0x3e, 0xac, 0xf0, 0xc4, 0xbf,
    0x77, 0xd1, 0x32, 0xbe, 0xff, 0x6b, 0x50, 0x3d, 0x24, 0x3d, 0x2c, 0xbf,
    0x8d, 0x58, 0x88, 0xbe, 0x60, 0x77, 0xea, 0x3d, 0x8b, 0x20, 0x0b, 0x3d,
    0x32, 0x34, 0x5e, 0x3e, 0xe6, 0x63, 0x2d, 0x3e, 0x8e, 0x05, 0x30, 0x3c,
    0xce, 0xf5, 0x73, 0xbe, 0xfc, 0xb8, 0x0d, 0x3e, 0x32, 0xd2, 0x6a, 0xbe,
    0x57, 0x53, 0xb0, 0xbf, 0xc1, 0x18, 0x6e, 0xbe, 0x7a, 0x3f, 0x90, 0xbe,
    0x21, 0x65, 0x0c, 0xbe, 0x06, 0xb2, 0xfc, 0x3c, 0x48, 0x64, 0x87, 0x3c,
    0x4d, 0xa9, 0x42, 0x3f, 0xfa, 0xe8, 0xe3, 0x3d, 0x0d, 0x05, 0xbc, 0x3d,
    0x06, 0x72, 0xa3, 0x3e, 0x0f, 0x4c, 0x09, 0xbe, 0x43, 0x49, 0x3d, 0xbf,
    0x51, 0x1c, 0x51, 0x3e, 0x19, 0x7a, 0x41, 0xbe, 0x25, 0x30, 0x6b, 0xbe,
    0xf1, 0x44, 0x01, 0xbb, 0x81, 0x25, 0x74, 0x3e, 0x92, 0x9f, 0x09, 0xbd,
    0x12, 0x21, 0x63, 0x3e, 0x96, 0x83, 0x4e, 0xbe, 0x81, 0x5d, 0x41, 0xbb,
    0x03, 0xf5, 0xbb, 0xbf, 0x38, 0x8e, 0x4b, 0xbe, 0xde, 0xe2, 0xf4, 0x3d,
    0x88, 0xde, 0xb7, 0xbe, 0xc6, 0x67, 0x0d, 0x3e, 0x4c, 0xaa, 0x98, 0x3d,
    0xe1, 0x27, 0xcf, 0xbe, 0xee, 0xe5, 0xeb, 0xbe, 0xe3, 0x4c, 0x1f, 0x3d,
    0x1a, 0x33, 0xc2, 0xbe, 0x63, 0xb2, 0xd8, 0xbd, 0xf0, 0xaf, 0x96, 0x3d,
    0x15, 0xd0, 0x37, 0xbe, 0xae, 0xf7, 0x1c, 0xbe, 0x68, 0x59, 0x2c, 0xbe,
    0x94, 0x15, 0x07, 0xbe, 0x1b, 0xe7, 0xaa, 0x3d, 0x78, 0xdc, 0xad, 0xbe,
    0xc4, 0xd7, 0x66, 0xbe, 0xe4, 0x48, 0x89, 0x3e, 0x82, 0x8c, 0x9d, 0x3e,
    0xf2, 0xef, 0xf4, 0x3e, 0xbc, 0xdb, 0x9a, 0xbf, 0xa1, 0xa5, 0xf7, 0xbc,
    0xb9, 0x23, 0xd1, 0xbd, 0x26, 0x25, 0x5d, 0x3e, 0x8b, 0xef, 0x0b, 0x3e,
    0x6a, 0x48, 0x13, 0xbf, 0xd9, 0x0e, 0xc8, 0xbe, 0xa6, 0xd0, 0xb7, 0x3c,
    0xdc, 0xdc, 0x84, 0x3d, 0x26, 0x85, 0xe4, 0xbb, 0x20, 0x6d, 0x8e, 0x3e,
    0x2d, 0xef, 0x32, 0xbf, 0x06, 0x6a, 0xc4, 0xbd, 0x47, 0x59, 0x0f, 0xbe,
    0x71, 0x35, 0xa0, 0x3d, 0x64, 0x83, 0x60, 0x3e, 0xc6, 0xa2, 0xe7, 0x3e,
    0x45, 0x56, 0x45, 0x3e, 0xc4, 0x36, 0xfa, 0x3e, 0xc8, 0xdf, 0x78, 0x3d,
    0xd2, 0x79, 0x78, 0x3e, 0x98, 0x10, 0xad, 0xbd, 0x7b, 0xbb, 0xa9, 0x3c,
    0x57, 0x1a, 0x7e, 0x3e, 0x0c, 0x52, 0x62, 0xbe, 0xa0, 0x69, 0x1f, 0x3e,
    0xf4, 0x8e, 0x8f, 0xbd, 0x89, 0x10, 0x3a, 0x3e, 0xfd, 0x87, 0x44, 0x3e,
    0x1a, 0x46, 0xb8, 0xbe, 0x93, 0x23, 0x3a, 0x3e, 0x94, 0x98, 0xcf, 0x3e,
    0x43, 0x36, 0x9b, 0x3e, 0x39, 0xaf, 0xfb, 0xbe, 0x6b, 0x6f, 0x71, 0xbd,
    0x1f, 0x9d, 0x1d, 0xbc, 0xe4, 0xed, 0x75, 0x3e, 0x06, 0xd5, 0x48, 0x3e,
    0x46, 0xc6, 0xf4, 0x3e, 0x6a, 0xf3, 0xe3, 0xbd, 0x85, 0x5b, 0xd1, 0xbe,
    0xc8, 0xef, 0x6f, 0xbe, 0xc1, 0x0d, 0xb1, 0x3d, 0xc8, 0xd3, 0x87, 0xbf,
    0xbb, 0x7f, 0x78, 0xbc, 0x5b, 0x36, 0x9d, 0x3e, 0x36, 0xb0, 0x07, 0x3e,
    0xaf, 0xd8, 0x44, 0x3e, 0x50, 0xe2, 0x31, 0x3d, 0x51, 0x89, 0x34, 0xbe,
    0xab, 0x97, 0xc2, 0xbd, 0x83, 0xb3, 0xb0, 0xbd, 0xcc, 0x12, 0x77, 0x3a,
    0x64, 0x87, 0xde, 0x3e, 0x67, 0xbd, 0x8b, 0x3d, 0x07, 0x48, 0x9c, 0xbc,
    0xf3, 0x9b, 0xbe, 0xbd, 0xd2, 0x83, 0xd6, 0xbe, 0x66, 0xf3, 0x2c, 0xbc,
    0xd7, 0xb3, 0xd5, 0x3c, 0xdb, 0xf1, 0x1a, 0x3e, 0x21, 0x94, 0xf0, 0x3b,
    0x70, 0x8c, 0x0d, 0xbd, 0x48, 0xf9, 0x31, 0xbd, 0x47, 0xf8, 0x19, 0x3d,
    0xbd, 0x0f, 0x27, 0xbe, 0x4b, 0xe7, 0x72, 0xbe, 0x21, 0x80, 0x9c, 0x3d,
    0x28, 0x29, 0x27, 0x3d, 0x80, 0xcb, 0x5b, 0xbd, 0x28, 0xab, 0x3d, 0xbd,
    0xc0, 0xd9, 0xcf, 0x3d, 0xf3, 0x70, 0xf2, 0x3d, 0xca, 0x77, 0x21, 0x3e,
    0x75, 0x54, 0x08, 0x3d, 0x57, 0x65, 0x36, 0xbe, 0x97, 0xea, 0x98, 0xbd,
    0xef, 0x9b, 0x2d, 0xbe, 0x76, 0x5c, 0xa9, 0x3e, 0x01, 0x77, 0x35, 0x3e,
    0x53, 0xf3, 0x3b, 0xbe, 0x6a, 0xd9, 0x47, 0xbd, 0x21, 0x0a, 0xd7, 0x3d,
    0x99, 0x32, 0x89, 0x3b, 0xe7, 0xce, 0x00, 0x3e, 0x18, 0x2a, 0x55, 0x3e,
    0xd1, 0x5c, 0x3f, 0x3e, 0x8e, 0x8f, 0xcd, 0xbd, 0xf3, 0xe1, 0x47, 0x3f,
    0x99, 0x7b, 0x5c, 0xbe, 0xf7, 0xca, 0xcf, 0x3c, 0xd0, 0x7b, 0xe2, 0xbe,
    0x62, 0x51, 0x1e, 0xbe, 0x8b, 0x3a, 0x21, 0x3e, 0x40, 0x1f, 0xa9, 0xbc,
    0xbc, 0xfb, 0x31, 0xbe, 0xa7, 0x44, 0x67, 0xbe, 0x3f, 0x39, 0x90, 0xbd,
    0xdd, 0x8a, 0x89, 0x3e, 0x25, 0x52, 0xa4, 0x3e, 0x8b, 0x8a, 0x21, 0x3d,
    0x42, 0x44, 0x1e, 0xbe, 0x00, 0xbe, 0x4b, 0x3e, 0x58, 0xae, 0xee, 0xbd,
    0x0a, 0xe3, 0xbe, 0x3e, 0x84, 0xb7, 0xd7, 0x3d, 0x66, 0x6a, 0x4a, 0x3e,
    0x68, 0x05, 0xcb, 0x3e, 0x45, 0x65, 0x3c, 0x3e, 0xda, 0xed, 0x0c, 0xbf,
    0x6b, 0x6e, 0x6a, 0xbe, 0x84, 0x7f, 0x17, 0x3d, 0x56, 0x73, 0xe4, 0x3e,
    0xc8, 0x13, 0xc5, 0x3e, 0x5f, 0x06, 0x80, 0x3e, 0x1d, 0xf7, 0xd5, 0xbd,
    0x79, 0x84, 0xdd, 0x3d, 0xcb, 0xb5, 0x2b, 0xbc, 0x7d, 0x18, 0x97, 0xbd,
    0x09, 0xc6, 0x85, 0x3e, 0xee, 0xe8, 0xfd, 0x3e, 0x03, 0x14, 0x81, 0x3e,
    0xdd, 0x22, 0x4e, 0x3d, 0x93, 0x65, 0xa7, 0xbe, 0x07, 0x42, 0xa8, 0x3c,
    0xee, 0xc8, 0x12, 0x3e, 0x3a, 0xb4, 0x88, 0xbd, 0x6f, 0xfe, 0x37, 0xbe,
    0xc7, 0xde, 0x09, 0x3d, 0x67, 0xa2, 0x0b, 0xbe, 0x15, 0x20, 0x90, 0xbd,
    0xd7, 0x07, 0x6f, 0x3e, 0x1b, 0xd5, 0xba, 0xbe, 0x98, 0x3f, 0xd0, 0x3d,
    0x3b, 0xab, 0xbd, 0x3d, 0xfc, 0xcd, 0x23, 0xbe, 0x39, 0x8f, 0x9f, 0xbe,
    0xe1, 0x43, 0x30, 0x3e, 0xc7, 0x32, 0x4c, 0xbe, 0x32, 0x8e, 0x68, 0x3e,
    0x9d, 0x17, 0x84, 0x3c, 0xeb, 0x6d, 0x5d, 0xbe, 0xcf, 0x76, 0xb1, 0x3c,
    0xbd, 0x5e, 0x17, 0x3d, 0x5e, 0xdf, 0x18, 0x3d, 0x48, 0xf4, 0x10, 0x3d,
    0x3a, 0x62, 0x86, 0xbe, 0xbd, 0x20, 0xaf, 0xbe, 0x65, 0x19, 0xd0, 0x3d,
    0x78, 0xa6, 0x23, 0x3e, 0x3d, 0x8b, 0x9a, 0xbd, 0x92, 0x20, 0x81, 0xbd,
    0xed, 0xff, 0x07, 0xbf, 0x19, 0xae, 0xd6, 0xbe, 0xd8, 0x57, 0x64, 0xbc,
    0x93, 0x70, 0x43, 0x3e, 0xdd, 0x97, 0x2c, 0x3d, 0x13, 0xc9, 0xa6, 0x3d,
    0x40, 0xd2, 0x3c, 0x3e, 0x38, 0xc5, 0x89, 0xbe, 0xd2, 0xca, 0x7f, 0x3c,
    0x87, 0x5c, 0x8a, 0xbe, 0xa8, 0x6b, 0x9a, 0xbd, 0x71, 0x88, 0x48, 0xbe,
    0x0d, 0x35, 0x6e, 0x3e, 0x74, 0xf2, 0x09, 0x3e, 0x5c, 0xba, 0x3f, 0xbe,
    0x8f, 0x0a, 0x1e, 0x3d, 0xc6, 0xa5, 0x16, 0xba, 0xea, 0xa5, 0x0d, 0x3e,
    0x8f, 0xf5, 0xba, 0xbd, 0xdb, 0xdb, 0xd7, 0xbc, 0x70, 0x4d, 0x2a, 0xbe,
    0x5d, 0x26, 0xc3, 0xbe, 0xc5, 0x8d, 0xc6, 0x3d, 0x2b, 0xd8, 0xa2, 0x3e,
    0x74, 0x4e, 0x1a, 0xbe, 0x8b, 0x0e, 0x32, 0x3d, 0x20, 0x84, 0x08, 0x3d,
    0x24, 0x54, 0xc7, 0x3e, 0x43, 0xc9, 0x24, 0x3e, 0xca, 0xa8, 0x22, 0x3e,
    0xad, 0x00, 0x2a, 0x3e, 0xd1, 0xd3, 0x87, 0xbe, 0xba, 0xd9, 0x2d, 0x3f,
    0xe0, 0xaf, 0x19, 0xbe, 0x3b, 0x09, 0x95, 0x3d, 0xda, 0x7c, 0x43, 0xbe,
    0xbb, 0x70, 0x5a, 0xbe, 0x19, 0x25, 0xb4, 0xbd, 0xe0, 0x75, 0x95, 0xbd,
    0x12, 0x60, 0xfa, 0xbc, 0x09, 0x1a, 0x0b, 0xbe, 0x13, 0x77, 0x47, 0xbc,
    0x39, 0x71, 0x60, 0x3e, 0xcc, 0x9f, 0xb8, 0x3d, 0x6b, 0x18, 0xcf, 0x3e,
    0x1d, 0x1c, 0xf5, 0xbd, 0x12, 0xe4, 0x9c, 0x3e, 0x43, 0xc4, 0x82, 0xbe,
    0x44, 0x20, 0x8d, 0x3e, 0x35, 0xba, 0x2f, 0xbe, 0x7b, 0xbb, 0x5c, 0xbd,
    0x39, 0x59, 0x0e, 0x3f, 0x03, 0xcf, 0x2a, 0x3e, 0x86, 0x86, 0xf8, 0xbe,
    0x0d, 0xa0, 0x88, 0xbe, 0x3b, 0x97, 0xf3, 0xbd, 0x5f, 0x41, 0x85, 0x3d,
    0xd8, 0x6c, 0x61, 0x3e, 0x29, 0x83, 0xc2, 0x3e, 0xf8, 0xda, 0x52, 0x3e,
    0x17, 0x0f, 0x3e, 0x3d, 0x02, 0x67, 0x01, 0xbe, 0x65, 0x3c, 0xe5, 0x3e,
    0xe9, 0x27, 0x9e, 0xbd, 0x92, 0xc1, 0x08, 0x3f, 0xee, 0x1f, 0xd7, 0x3e,
    0x40, 0xea, 0x00, 0x3e, 0x10, 0x06, 0xa8, 0xbe, 0x35, 0x48, 0x4f, 0x3e,
    0x3f, 0xc2, 0xcd, 0x3e, 0x1c, 0xa3, 0x17, 0xbc, 0xb7, 0x92, 0xae, 0xbc,
    0x44, 0x84, 0x12, 0x3f, 0x21, 0x46, 0xb8, 0xbd, 0x63, 0x80, 0x5c, 0x3d,
    0x28, 0x04, 0xaa, 0xb8, 0xfb, 0xc2, 0x80, 0xbc, 0x28, 0xd9, 0x52, 0xbd,
    0xeb, 0x27, 0x4a, 0x3e, 0x69, 0x29, 0x76, 0x3e, 0xe7, 0xbd, 0xe4, 0xbd,
    0x51, 0xf3, 0x0e, 0x3f, 0x00, 0x27, 0xdb, 0x3d, 0xca, 0xe4, 0xad, 0x3e,
    0x1f, 0xb0, 0xd7, 0x3e, 0xbc, 0xda, 0xab, 0xbd, 0x69, 0x71, 0x28, 0x3e,
    0xa7, 0x11, 0x82, 0x3d, 0x5c, 0xf4, 0x3b, 0x3e, 0x69, 0x0d, 0x0a, 0x3e,
    0xaa, 0xd5, 0xc8, 0xbd, 0xd1, 0xee, 0xdd, 0xbc, 0x1e, 0xe2, 0xec, 0xbd,
    0xf2, 0x7e, 0x45, 0xbe, 0x58, 0xf1, 0x3a, 0x3d, 0xc5, 0xbb, 0x25, 0x3e,
    0x9d, 0x61, 0x06, 0xbf, 0xfc, 0xdc, 0xf5, 0x3d, 0x63, 0x0c, 0x12, 0x3e,
    0x8d, 0xa7, 0x1b, 0x3b, 0x6c, 0x82, 0xa2, 0x3d, 0xff, 0x7f, 0x8c, 0x3b,
    0x10, 0x32, 0x45, 0x3e, 0x25, 0xf2, 0xb0, 0x3e, 0x1d, 0x0d, 0x84, 0xbd,
    0x2e, 0xb6, 0xbf, 0x3e, 0x6d, 0x4f, 0x58, 0x3d, 0x9e, 0x3c, 0x30, 0x3e,
    0x91, 0x92, 0xc0, 0x3d, 0xf7, 0x7b, 0x25, 0xbe, 0xcb, 0xee, 0x1b, 0xbd,
    0x68, 0xf7, 0x98, 0x3e, 0xd5, 0x51, 0x89, 0x3d, 0xf3, 0x53, 0x8e, 0x3c,
    0x8b, 0x90, 0x41, 0x3e, 0x50, 0xe2, 0xaf, 0x3c, 0xcb, 0xbc, 0xd9, 0x3c,
    0xae, 0xe4, 0x79, 0x3e, 0xcf, 0xcb, 0x37, 0x3e, 0xba, 0x00, 0x96, 0xbd,
    0x30, 0x5c, 0x72, 0x3d, 0xe1, 0x35, 0x13, 0xbd, 0x9e, 0x82, 0xaa, 0xbc,
    0xc1, 0x71, 0x25, 0xbe, 0x8c, 0x83, 0x4f, 0xbe, 0x0b, 0x19, 0xd3, 0xbd,
    0x63, 0x90, 0xa9, 0xbe, 0x9f, 0x23, 0xfe, 0x3d, 0x64, 0x93, 0x29, 0xbf,
    0x6b, 0x54, 0xf5, 0xbd, 0x29, 0x58, 0x9e, 0x3e, 0x17, 0xf3, 0xfc, 0x3d,
    0x84, 0x48, 0x6d, 0xbd, 0xe8, 0x8d, 0x47, 0xbe, 0xc3, 0xad, 0x8e, 0x3e,
    0x14, 0x16, 0x9b, 0x3e, 0x51, 0x23, 0x1f, 0x3d, 0xe3, 0x5d, 0xa9, 0x3e,
    0xd2, 0x82, 0xe5, 0xbd, 0x5c, 0xed, 0x3f, 0x3e, 0x9e, 0x2c, 0x39, 0xbc,
    0x51, 0x7b, 0xe3, 0xbd, 0xbf, 0xee, 0x35, 0xbd, 0xd1, 0xf9, 0x6b, 0xbd,
    0x1f, 0x60, 0x88, 0xbd, 0xa4, 0x1e, 0x8c, 0x3c, 0x3e, 0xdf, 0x92, 0x3e,
    0x6e, 0x4a, 0x09, 0xbe, 0x6d, 0x00, 0x4a, 0x3d, 0x11, 0x35, 0x7d, 0x3e,
    0x3d, 0x15, 0xf0, 0x3d, 0x96, 0xed, 0x0d, 0x3e, 0x10, 0x86, 0xe1, 0x3d,
    0x55, 0xde, 0x53, 0xbe, 0x52, 0x4f, 0x04, 0xbd, 0x5f, 0x60, 0x03, 0x3d,
    0x1a, 0x64, 0x0c, 0xbe, 0xab, 0x0d, 0x91, 0x3d, 0x81, 0xab, 0x1a, 0x3e,
    0xd6, 0x78, 0x18, 0x3e, 0x88, 0x23, 0x53, 0xbf, 0xf2, 0xa1, 0x5a, 0xbe,
    0x69, 0x8d, 0x69, 0x3d, 0x74, 0x97, 0xfc, 0xbd, 0x81, 0x9b, 0x3e, 0x3e,
    0x4d, 0x6c, 0x05, 0xbe, 0x3f, 0xd9, 0x9e, 0x3e, 0xb8, 0xbc, 0xe9, 0x3c,
    0x53, 0x4a, 0x97, 0x3e, 0x9f, 0x78, 0x26, 0x3e, 0x68, 0x82, 0xbe, 0x3d,
    0x69, 0x5e, 0x7d, 0xbb, 0xc9, 0x6a, 0x51, 0x3e, 0x29, 0xd4, 0x15, 0xbe,
    0xde, 0xd0, 0x88, 0x3e, 0xe6, 0xba, 0x24, 0xbe, 0x5e, 0xdd, 0xf1, 0xb9,
    0x33, 0xa9, 0x82, 0xbe, 0x34, 0xd4, 0xa2, 0xbd, 0x5b, 0x1e, 0x19, 0xbf,
    0x13, 0x82, 0x88, 0x3a, 0x37, 0xaf, 0x6a, 0x3c, 0x59, 0x9d, 0xf8, 0x3d,
    0xca, 0x84, 0x9d, 0x3d, 0x95, 0x22, 0x31, 0xbe, 0x30, 0x97, 0x9b, 0xbe,
    0x64, 0xa9, 0xfd, 0x3d, 0xcd, 0x41, 0x91, 0xbd, 0xa2, 0x2d, 0xef, 0x3d,
    0xe3, 0xe0, 0x47, 0xbe, 0x47, 0xd7, 0x5a, 0xbe, 0x7c, 0x73, 0x80, 0xbd,
    0xf5, 0x03, 0x02, 0xbd, 0xaf, 0x32, 0x55, 0x3e, 0x7b, 0x4a, 0xc9, 0x3c,
    0x69, 0xcd, 0x9c, 0xbd, 0x66, 0x9a, 0x45, 0xbe, 0xec, 0xe6, 0x65, 0xbe,
    0x36, 0x36, 0x39, 0x3e, 0x3e, 0xae, 0x63, 0x3e, 0x00, 0x70, 0x87, 0xbd,
    0x54, 0xb8, 0x1f, 0x3d, 0x4f, 0xb6, 0x15, 0x3d, 0x33, 0x3c, 0x85, 0xbe,
    0x4f, 0xe4, 0x32, 0xbe, 0x08, 0xf8, 0xd5, 0x3c, 0x46, 0x88, 0x22, 0x3e,
    0x81, 0xf0, 0x51, 0xbc, 0x5a, 0xa0, 0x83, 0xbe, 0xfd, 0x99, 0xc4, 0x3d,
    0xd4, 0x6a, 0x31, 0xbe, 0x17, 0xf0, 0x40, 0xbd, 0x09, 0xce, 0x0e, 0x3e,
    0x98, 0xc0, 0x4f, 0xbc, 0xee, 0x08, 0xc1, 0xbd, 0xfd, 0x02, 0xae, 0xbd,
    0xfd, 0x54, 0x47, 0xbe, 0x73, 0x2d, 0xb5, 0xbe, 0xc3, 0xa3, 0xca, 0x3d,
    0x5c, 0x8c, 0x1b, 0xbe, 0x2f, 0x0c, 0xf9, 0xbd, 0xc3, 0x59, 0xdf, 0x3c,
    0x5c, 0xdc, 0xb0, 0x3d, 0x34, 0x87, 0x75, 0xbe, 0xac, 0xe0, 0x95, 0xbe,
    0xfc, 0x19, 0x94, 0xbb, 0x78, 0x2a, 0x5f, 0x3e, 0xe6, 0x5b, 0x91, 0x3c,
    0x15, 0xe2, 0xd5, 0xbc, 0x38, 0xd6, 0x55, 0x3e, 0xed, 0x39, 0x61, 0x3e,
    0x90, 0xbe, 0xdf, 0xbd, 0xf2, 0x6e, 0x84, 0x3e, 0x23, 0x25, 0xd5, 0x3d,
    0x14, 0x2f, 0xe4, 0xbc, 0xef, 0x97, 0x9c, 0x3c, 0x1d, 0x47, 0xcd, 0xbd,
    0xa5, 0x33, 0x14, 0xbe, 0xb7, 0xc9, 0xad, 0xbc, 0xa2, 0xc0, 0x85, 0xbc,
    0x9a, 0x13, 0x3b, 0xbd, 0xcc, 0xe3, 0x32, 0xbb, 0x65, 0x05, 0x6e, 0xbe,
    0x41, 0xb5, 0x67, 0xbe, 0xe1, 0xd1, 0x12, 0xbe, 0x78, 0x15, 0x7f, 0xbd,
    0x61, 0xb9, 0x92, 0x3d, 0x88, 0x6e, 0x79, 0x3d, 0x82, 0x5c, 0x1d, 0x3e,
    0x65, 0xfd, 0x63, 0x3e, 0x4c, 0x16, 0xef, 0x3d, 0xaa, 0x89, 0xe1, 0x3d,
    0x7a, 0xea, 0x3e, 0x3e, 0xa1, 0x08, 0x6c, 0x3e, 0xd0, 0x60, 0x86, 0x3d,
    0x7b, 0xca, 0x84, 0xbc, 0x52, 0x8d, 0x2c, 0xbe, 0xf1, 0x4c, 0xa8, 0x3d,
    0xae, 0xfa, 0x73, 0x3d, 0x42, 0xba, 0x87, 0xbd, 0xbe, 0x73, 0x50, 0x3d,
    0xb3, 0x7d, 0xec, 0x3e, 0xa0, 0xab, 0x0e, 0x3b, 0x21, 0xb4, 0x98, 0x3e,
    0x77, 0x8c, 0x39, 0x3e, 0xa6, 0xb4, 0xb3, 0x3e, 0xa5, 0x02, 0x09, 0x3e,
    0xe6, 0x8d, 0xd5, 0x3e, 0xae, 0xaf, 0x04, 0xbb, 0xb2, 0x71, 0x77, 0xbe,
    0x80, 0xd4, 0x3f, 0x3e, 0x66, 0x6a, 0xe5, 0x3d, 0x93, 0x5b, 0x01, 0x3e,
    0x55, 0x60, 0xa8, 0x3e, 0x31, 0xb6, 0x67, 0x3c, 0x0a, 0x03, 0x84, 0x3d,
    0x63, 0xa3, 0x8b, 0x3d, 0xdf, 0x1f, 0x0e, 0xbd, 0x91, 0x3f, 0x9f, 0x3e,
    0x31, 0x90, 0x5c, 0x3e, 0x51, 0x81, 0xb6, 0xbe, 0x7e, 0x35, 0x42, 0xbf,
    0x8f, 0xda, 0x10, 0xbf, 0xa8, 0x6f, 0xaf, 0xbd, 0x4a, 0xe7, 0xf2, 0x3d,
    0x6d, 0x2c, 0xf2, 0xbd, 0xa8, 0xc6, 0x01, 0x3e, 0x4d, 0xb0, 0x5d, 0x3e,
    0xbe, 0x66, 0xc4, 0x3e, 0x27, 0x59, 0x26, 0xbf, 0xf6, 0x6f, 0x38, 0x3d,
    0xd1, 0x3e, 0x1b, 0x3e, 0x8e, 0x6d, 0x26, 0x3e, 0xfd, 0x23, 0x83, 0x3e,
    0x00, 0xb0, 0x52, 0xbe, 0x36, 0xe7, 0x18, 0x3e, 0x7e, 0xb4, 0x0e, 0xbe,
    0xd2, 0x29, 0x02, 0xbb, 0xb3, 0xe1, 0x9b, 0xbd, 0x5f, 0x4f, 0xed, 0x3d,
    0xaf, 0xc3, 0x39, 0x3e, 0x1e, 0xbc, 0x9a, 0x3e, 0xea, 0xb8, 0x66, 0x3e,
    0xf7, 0xe1, 0x22, 0x3e, 0x75, 0xc4, 0x8c, 0x3c, 0x51, 0x46, 0x2a, 0x3d,
    0xfc, 0xa3, 0x82, 0xbe, 0x16, 0x00, 0xd1, 0x3c, 0xa3, 0x03, 0xd9, 0xbd,
    0x80, 0xd3, 0x02, 0x3c, 0x32, 0x1e, 0x39, 0x3e, 0xea, 0x65, 0x3f, 0x3e,
    0x36, 0xc7, 0x30, 0xbf, 0x5a, 0xe9, 0x25, 0xbf, 0xa8, 0x78, 0x5d, 0xbe,
    0xee, 0x03, 0x61, 0x3e, 0x33, 0x9d, 0x2d, 0xbe, 0x9f, 0xc2, 0x29, 0x3e,
    0x4e, 0x4f, 0x81, 0x3e, 0xd8, 0x87, 0xc9, 0x39, 0xef, 0x81, 0xa8, 0x3e,
    0x49, 0x76, 0x8b, 0xbe, 0x7a, 0x38, 0xe9, 0x3d, 0x63, 0xfd, 0xda, 0x3b,
    0x7e, 0x52, 0xf6, 0xbd, 0x6a, 0xf7, 0x8f, 0x3d, 0x3d, 0x93, 0x9f, 0xbe,
    0x5a, 0xfd, 0x7c, 0x3c, 0x6b, 0xad, 0x65, 0x3d, 0xda, 0x10, 0xed, 0xbc,
    0x28, 0x2a, 0xf3, 0x3d, 0xc5, 0x5c, 0x8d, 0x3e, 0xe9, 0x97, 0x80, 0xbd,
    0x40, 0x73, 0xaf, 0xbf, 0x60, 0xe5, 0x1b, 0x3e, 0xa3, 0xe2, 0xf0, 0xbd,
    0x42, 0x14, 0x4f, 0x3e, 0x60, 0x00, 0xde, 0xbd, 0xb8, 0x80, 0x58, 0x3e,
    0xf9, 0x48, 0x55, 0x3e, 0x80, 0x60, 0xcf, 0x3c, 0x51, 0x26, 0x1b, 0xbe,
    0x86, 0xf3, 0x25, 0xbe, 0x14, 0x2f, 0x06, 0xbe, 0x1a, 0xd2, 0x35, 0xbf,
    0x58, 0xba, 0x64, 0xbb, 0x9f, 0x34, 0x22, 0x3e, 0x64, 0xdb, 0xd7, 0x3d,
    0xe3, 0x5a, 0xb0, 0x3c, 0x10, 0xe1, 0x76, 0x3d, 0x8b, 0xe7, 0x50, 0x3c,
    0x3f, 0x37, 0x75, 0x3e, 0xc7, 0x10, 0x6b, 0x3e, 0x09, 0x6e, 0xcb, 0x3d,
    0x61, 0x65, 0x28, 0xbe, 0x5a, 0x43, 0xa7, 0xbe, 0x24, 0x28, 0x6e, 0xbe,
    0x82, 0x1b, 0x83, 0x3e, 0x7a, 0x62, 0x5c, 0x3e, 0x9c, 0xf5, 0x09, 0x3e,
    0x60, 0x9a, 0x44, 0xbd, 0xdd, 0x83, 0x25, 0x3e, 0x7f, 0x31, 0x27, 0x3e,
    0x5d, 0xff, 0x52, 0x3d, 0xd3, 0x73, 0x44, 0xbe, 0x5a, 0x1c, 0x23, 0xbe,
    0xc0, 0xc7, 0x18, 0x3d, 0xa2, 0xc7, 0x32, 0x3e, 0xa3, 0xf2, 0xbd, 0x3d,
    0xe8, 0xe1, 0xfd, 0x3d, 0xcb, 0x98, 0x14, 0xbd, 0x01, 0xf9, 0x50, 0x3e,
    0x5c, 0xc8, 0xdf, 0x3d, 0x79, 0x28, 0x27, 0xbe, 0xf2, 0x70, 0x4c, 0xbd,
    0x48, 0x43, 0x11, 0x3e, 0xf6, 0x33, 0x34, 0xbf, 0x7e, 0x94, 0xc9, 0xbe,
    0x8e, 0x0b, 0x0b, 0xbe, 0x6e, 0xd8, 0xd3, 0xbc, 0x80, 0xe9, 0x39, 0x3e,
    0x97, 0x9c, 0x45, 0x3d, 0xf5, 0x0c, 0x9a, 0x3e, 0x92, 0x3a, 0xad, 0x3e,
    0x18, 0xb8, 0xa9, 0x3e, 0x48, 0x97, 0xde, 0xbe, 0x38, 0x75, 0x10, 0xbd,
    0x7e, 0x31, 0x78, 0xbe, 0x4a, 0xb2, 0x68, 0xbe, 0x1c, 0x6a, 0xc0, 0x3d,
    0x77, 0x42, 0x63, 0xbe, 0x5c, 0x41, 0x2d, 0x3e, 0x54, 0xb1, 0x09, 0x3e,
    0x7b, 0xa6, 0xf6, 0xbc, 0xf1, 0x2b, 0x2f, 0x3d, 0xdf, 0x1e, 0x9b, 0x3e,
    0x2a, 0x42, 0x81, 0xbd, 0xf2, 0x21, 0x4a, 0xbf, 0x7c, 0x16, 0x93, 0x3d,
    0x9b, 0x2b, 0x84, 0x3e, 0x96, 0xd3, 0xd2, 0x3e, 0x92, 0xb1, 0x06, 0xbd,
    0x04, 0xd1, 0xa8, 0x3d, 0x6a, 0x05, 0x96, 0xbd, 0x73, 0x17, 0xff, 0x3d,
    0x48, 0x23, 0x71, 0xbe, 0x55, 0xa3, 0xb3, 0x3d, 0xb7, 0x47, 0x53, 0x3d,
    0xfa, 0xd4, 0x4f, 0xbf, 0x3b, 0xd0, 0x3b, 0xbf, 0xb9, 0x71, 0xbf, 0xbe,
    0x8c, 0xcc, 0xd2, 0x3b, 0xa6, 0x03, 0xe1, 0xbd, 0xe6, 0x4e, 0xbc, 0x3d,
    0xb0, 0x62, 0xac, 0x3d, 0x63, 0x05, 0x94, 0x3e, 0xd7, 0x97, 0x84, 0x3e,
    0x17, 0xb7, 0xff, 0xbe, 0x54, 0xb4, 0x1d, 0x3e, 0x48, 0x03, 0xc4, 0xbd,
    0x42, 0x18, 0x69, 0xbe, 0x26, 0x20, 0x81, 0x3c, 0x03, 0x65, 0x11, 0xbd,
    0x16, 0xad, 0x2d, 0xbc, 0xfb, 0xeb, 0x86, 0xbe, 0x94, 0xce, 0xd9, 0xbd,
    0x9b, 0x25, 0xb6, 0xbd, 0x75, 0x15, 0x4d, 0x3e, 0xb5, 0xa0, 0xcb, 0xbc,
    0x40, 0x03, 0x59, 0xbf, 0x9c, 0x75, 0x8a, 0x3d, 0x86, 0x3c, 0xa0, 0x3d,
    0x16, 0x1f, 0x69, 0x3e, 0x59, 0xfb, 0xc2, 0xbd, 0x21, 0x80, 0xdd, 0xbd,
    0x09, 0xf7, 0xa4, 0xbb, 0xea, 0x67, 0x43, 0x3d, 0xdc, 0xea, 0x6f, 0xbd,
    0xda, 0x8e, 0x94, 0x3d, 0x24, 0xb9, 0xb0, 0xbc, 0x30, 0x7b, 0x30, 0xbe,
    0x35, 0x8f, 0x13, 0xbe, 0x0d, 0x83, 0xa8, 0xbd, 0x7c, 0x4f, 0x2c, 0xbe,
    0x6d, 0x28, 0x87, 0xbd, 0x36, 0x9c, 0x32, 0x3e, 0xe4, 0x4c, 0xa6, 0xbd,
    0xfa, 0xaf, 0x3e, 0x3d, 0x9c, 0xc1, 0xb4, 0x3d, 0x41, 0x98, 0x5f, 0xbe,
    0x00, 0x2e, 0xae, 0xbd, 0x2e, 0xd5, 0x97, 0xbe, 0xe6, 0xf4, 0xce, 0xbd,
    0x67, 0xa4, 0xde, 0xbd, 0xe4, 0x07, 0xd1, 0xbe, 0x82, 0xaf, 0x32, 0x3c,
    0xba, 0x2c, 0x36, 0xbe, 0x94, 0xac, 0xb1, 0xbd, 0x5b, 0x99, 0x24, 0xbe,
    0xed, 0x92, 0x3f, 0x3e, 0x12, 0x8d, 0x50, 0x3d, 0x5b, 0x82, 0x98, 0xbd,
