/**
 * TFLite / LiteRT model byte array.
 *
 * Auto-generated by model_to_tflite.py
 * Timestamp  : 2026-03-03 11:10 UTC
 * Source     : model.tflite
 * Model size : 5,400 bytes
 * Quantized  : no (float32)
 *
 * Usage (Arduino / TFLite Micro):
 *
 *   #include "model.h"
 *   const tflite::Model* model = tflite::GetModel(g_model);
 */

#ifndef MODEL_H
#define MODEL_H

/* 8-byte alignment required by TFLite Micro */
alignas(8) const unsigned char g_model[] = {
    0x1c, 0x00, 0x00, 0x00, 0x54, 0x46, 0x4c, 0x33, 0x14, 0x00, 0x20, 0x00,
    0x1c, 0x00, 0x18, 0x00, 0x14, 0x00, 0x10, 0x00, 0x0c, 0x00, 0x00, 0x00,
    0x08, 0x00, 0x04, 0x00, 0x14, 0x00, 0x00, 0x00, 0x1c, 0x00, 0x00, 0x00,
    0x1c, 0x00, 0x00, 0x00, 0x74, 0x00, 0x00, 0x00, 0xa4, 0x08, 0x00, 0x00,
    0xb4, 0x08, 0x00, 0x00, 0x74, 0x14, 0x00, 0x00, 0x03, 0x00, 0x00, 0x00,
    0x00, 0x00, 0x00, 0x00, 0x02, 0x00, 0x00, 0x00, 0x34, 0x00, 0x00, 0x00,
    0x04, 0x00, 0x00, 0x00, 0xdc, 0xff, 0xff, 0xff, 0x19, 0x00, 0x00, 0x00,
    0x04, 0x00, 0x00, 0x00, 0x13, 0x00, 0x00, 0x00, 0x43, 0x4f, 0x4e, 0x56,
    0x45, 0x52, 0x53, 0x49, 0x4f, 0x4e, 0x5f, 0x4d, 0x45, 0x54, 0x41, 0x44,
    0x41, 0x54, 0x41, 0x00, 0x08, 0x00, 0x0c, 0x00, 0x08, 0x00, 0x04, 0x00,
    0x08, 0x00, 0x00, 0x00, 0x18, 0x00, 0x00, 0x00, 0x04, 0x00, 0x00, 0x00,
    0x13, 0x00, 0x00, 0x00, 0x6d, 0x69, 0x6e, 0x5f, 0x72, 0x75, 0x6e, 0x74,
    0x69, 0x6d, 0x65, 0x5f, 0x76, 0x65, 0x72, 0x73, 0x69, 0x6f, 0x6e, 0x00,
    0x1a, 0x00, 0x00, 0x00, 0x2c, 0x08, 0x00, 0x00, 0x24, 0x08, 0x00, 0x00,
    0xd4, 0x07, 0x00, 0x00, 0xa4, 0x07, 0x00, 0x00, 0x74, 0x07, 0x00, 0x00,
    0x54, 0x07, 0x00, 0x00, 0x38, 0x07, 0x00, 0x00, 0x18, 0x07, 0x00, 0x00,
    0x08, 0x05, 0x00, 0x00, 0x78, 0x04, 0x00, 0x00, 0x68, 0x03, 0x00, 0x00,
    0x58, 0x01, 0x00, 0x00, 0x44, 0x01, 0x00, 0x00, 0xf4, 0x00, 0x00, 0x00,
    0xdc, 0x00, 0x00, 0x00, 0xd4, 0x00, 0x00, 0x00, 0xcc, 0x00, 0x00, 0x00,
    0xc4, 0x00, 0x00, 0x00, 0xbc, 0x00, 0x00, 0x00, 0xb4, 0x00, 0x00, 0x00,
    0xac, 0x00, 0x00, 0x00, 0xa4, 0x00, 0x00, 0x00, 0x9c, 0x00, 0x00, 0x00,
    0x94, 0x00, 0x00, 0x00, 0x74, 0x00, 0x00, 0x00, 0x04, 0x00, 0x00, 0x00,
    0x96, 0xf7, 0xff, 0xff, 0x04, 0x00, 0x00, 0x00, 0x60, 0x00, 0x00, 0x00,
    0x10, 0x00, 0x00, 0x00, 0x00, 0x00, 0x00, 0x00, 0x08, 0x00, 0x0e, 0x00,
    0x08, 0x00, 0x04, 0x00, 0x08, 0x00, 0x00, 0x00, 0x10, 0x00, 0x00, 0x00,
    0x24, 0x00, 0x00, 0x00, 0x00, 0x00, 0x06, 0x00, 0x08, 0x00, 0x04, 0x00,
    0x06, 0x00, 0x00, 0x00, 0x04, 0x00, 0x00, 0x00, 0x00, 0x00, 0x00, 0x00,
    0x0c, 0x00, 0x18, 0x00, 0x14, 0x00, 0x10, 0x00, 0x0c, 0x00, 0x04, 0x00,
    0x0c, 0x00, 0x00, 0x00, 0x17, 0x91, 0xc3, 0x24, 0x18, 0xea, 0x1c, 0x45,
    0x03, 0x00, 0x00, 0x00, 0x02, 0x00, 0x00, 0x00, 0x04, 0x00, 0x00, 0x00,
    0x06, 0x00, 0x00, 0x00, 0x32, 0x2e, 0x32, 0x30, 0x2e, 0x30, 0x00, 0x00,
    0x02, 0xf8, 0xff, 0xff, 0x04, 0x00, 0x00, 0x00, 0x10, 0x00, 0x00, 0x00,
    0x32, 0x2e, 0x30, 0x2e, 0x30, 0x00, 0x00, 0x00, 0x00, 0x00, 0x00, 0x00,
    0x00, 0x00, 0x00, 0x00, 0x08, 0xed, 0xff, 0xff, 0x0c, 0xed, 0xff, 0xff,
    0x10, 0xed, 0xff, 0xff, 0x14, 0xed, 0xff, 0xff, 0x18, 0xed, 0xff, 0xff,
    0x1c, 0xed, 0xff, 0xff, 0x20, 0xed, 0xff, 0xff, 0x24, 0xed, 0xff, 0xff,
    0x28, 0xed, 0xff, 0xff, 0x42, 0xf8, 0xff, 0xff, 0x04, 0x00, 0x00, 0x00,
    0x08, 0x00, 0x00, 0x00, 0x80, 0xc2, 0x3e, 0x24, 0x8b, 0x86, 0x88, 0x24,
    0x56, 0xf8, 0xff, 0xff, 0x04, 0x00, 0x00, 0x00, 0x40, 0x00, 0x00, 0x00,
    0x65, 0x51, 0x75, 0x3d, 0xca, 0x3b, 0x14, 0xbe, 0xca, 0x6a, 0x14, 0xbf,
    0xb3, 0xf6, 0x17, 0x3f, 0x40, 0xd6, 0xa6, 0xbd, 0x4b, 0x12, 0x6f, 0x3c,
    0x47, 0xa9, 0x00, 0x3d, 0xd9, 0x40, 0x07, 0x3f, 0x37, 0x34, 0x34, 0x3f,
    0x15, 0xdb, 0x2e, 0x3f, 0x49, 0x75, 0x2f, 0xbd, 0xf2, 0x74, 0xb7, 0x3c,
    0xf5, 0xa5, 0x28, 0xbe, 0x8e, 0xa7, 0x82, 0x3d, 0xd6, 0x25, 0x86, 0xbd,
    0x60, 0x49, 0x43, 0x3c, 0xa2, 0xf8, 0xff, 0xff, 0x04, 0x00, 0x00, 0x00,
    0x04, 0x00, 0x00, 0x00, 0x01, 0x00, 0x00, 0x00, 0xb2, 0xf8, 0xff, 0xff,
    0x04, 0x00, 0x00, 0x00, 0x00, 0x02, 0x00, 0x00, 0xac, 0x8b, 0x09, 0x3f,
    0x53, 0x1a, 0x2c, 0xbe, 0x92, 0x84, 0xf8, 0xbe, 0x34, 0xba, 0xc4, 0x3e,
    0x79, 0xae, 0xce, 0x3b, 0xf6, 0x28, 0xb1, 0x3e, 0x55, 0x31, 0x83, 0xbd,
    0x4c, 0x01, 0x1d, 0xbf, 0x68, 0xb6, 0x0b, 0x3e, 0x2a, 0x65, 0x60, 0xbc,
    0x86, 0x9e, 0xba, 0xbe, 0xde, 0xef, 0x5a, 0xbe, 0xb1, 0x7b, 0x2d, 0x3e,
    0x7a, 0x93, 0x25, 0xbe, 0x0e, 0xeb, 0xe5, 0x3d, 0x78, 0x30, 0x56, 0xbe,
    0x6f, 0x3d, 0x49, 0xbc, 0xc8, 0x32, 0xcd, 0x3e, 0xf9, 0x50, 0xcf, 0x3e,
    0x82, 0x77, 0x4d, 0xbe, 0x23, 0x6b, 0x01, 0xbe, 0x1f, 0x63, 0xa7, 0xbe,
    0x84, 0xf3, 0x94, 0xbe, 0xca, 0x20, 0x90, 0xbe, 0x80, 0x6c, 0xe9, 0x3e,
    0xb8, 0x83, 0xdc, 0xbd, 0x2f, 0x57, 0xcf, 0x3e, 0x50, 0x7b, 0xe6, 0xbe,
    0xe2, 0xf7, 0x9b, 0x3e, 0x74, 0xae, 0x2f, 0x3f, 0x69, 0xc0, 0x8e, 0x3e,
    0x9c, 0x9e, 0x9e, 0x3e, 0xeb, 0x53, 0x92, 0x3e, 0xc2, 0xf7, 0x15, 0x3e,
    0x99, 0x92, 0xd3, 0xbe, 0xfc, 0x5f, 0x21, 0x3f, 0xf2, 0x30, 0x32, 0xbd,
    0x87, 0xff, 0xf3, 0xbe, 0xe1, 0x1b, 0x68, 0xbe, 0x14, 0xc0, 0x0d, 0xbf,
    0x7c, 0x53, 0xce, 0x3e, 0xa9, 0xff, 0x98, 0xbe, 0x49, 0x9b, 0x23, 0xbd,
    0xb7, 0xef, 0x20, 0xbe, 0x88, 0xd1, 0xd2, 0xbc, 0x26, 0x0c, 0x03, 0x3f,
    0xf0, 0xa2, 0x05, 0xbd, 0xf0, 0x89, 0x71, 0xbb, 0x58, 0x9c, 0x0e, 0x3f,
    0x51, 0x52, 0x13, 0x3f, 0x46, 0xdd, 0x0b, 0x3f, 0xb9, 0x9e, 0xb6, 0x3d,
    0xa6, 0xaf, 0xc1, 0xbe, 0x93, 0xf4, 0x45, 0x3c, 0x44, 0x72, 0x07, 0x3e,
    0xca, 0xc1, 0x30, 0x3f, 0xca, 0xeb, 0x24, 0x3e, 0xd2, 0x7f, 0xd0, 0x3e,
    0x0e, 0x31, 0xe3, 0x3d, 0xad, 0x28, 0x73, 0x3e, 0x86, 0xdb, 0x8a, 0x3e,
    0x33, 0xed, 0x81, 0xbe, 0xa8, 0xb9, 0xe3, 0xbe, 0xa1, 0xb7, 0x0f, 0x3f,
    0x9b, 0xc3, 0x0d, 0xbd, 0x76, 0x01, 0x25, 0xbe, 0xba, 0x41, 0xa6, 0x3e,
    0x85, 0x68, 0x9f, 0x3e, 0x3c, 0xa9, 0x94, 0xbe, 0xa7, 0xef, 0x0c, 0xbe,
    0x0d, 0xd7, 0x5a, 0xbe, 0xe9, 0x9c, 0x08, 0x3f, 0x9c, 0x35, 0x29, 0x3c,
    0xcf, 0x07, 0x91, 0xbd, 0x35, 0xbb, 0x8c, 0xbe, 0xd2, 0x38, 0xec, 0x3e,
    0xc8, 0x65, 0xfd, 0x3e, 0xe5, 0x25, 0xfb, 0xbd, 0x83, 0x6d, 0xb2, 0xbe,
    0x3d, 0x08, 0xfe, 0xbe, 0x90, 0xf7, 0x1f, 0xbd, 0x19, 0xc1, 0x1f, 0x3f,
    0x2f, 0xee, 0x2e, 0x3e, 0x38, 0x5e, 0xb0, 0x3e, 0x91, 0xbc, 0x12, 0xbf,
    0xa2, 0x37, 0xab, 0x3d, 0x0e, 0x77, 0x98, 0x3e, 0x60, 0x01, 0xe8, 0x3c,
    0x03, 0x7c, 0xfc, 0x3e, 0x4d, 0xd6, 0x06, 0xbf, 0x93, 0x51, 0x47, 0x3e,
    0x7e, 0xfe, 0xe8, 0x3d, 0x55, 0x5b, 0xa6, 0x3e, 0x9c, 0x85, 0x25, 0x3f,
    0xa9, 0x28, 0x02, 0x3d, 0x80, 0x78, 0xb8, 0xbe, 0x03, 0x80, 0x0f, 0xbe,
    0x55, 0x2b, 0xc8, 0x3e, 0x36, 0xc7, 0x35, 0x3c, 0xf8, 0xcf, 0x0d, 0x3f,
    0x30, 0x64, 0x83, 0x3e, 0x60, 0x49, 0x26, 0x3b, 0xea, 0x55, 0xa5, 0x3e,
    0x4b, 0x7e, 0x5f, 0xbd, 0x78, 0x9d, 0x11, 0xbe, 0xbf, 0x06, 0x26, 0xbe,
    0xc9, 0x8e, 0xbe, 0x3e, 0xe1, 0x34, 0x26, 0x3e, 0x6b, 0xdf, 0x52, 0x3c,
    0x5d, 0x2a, 0x3f, 0xbe, 0x2e, 0x68, 0xca, 0x3e, 0x94, 0x74, 0xb6, 0xbe,
    0xb1, 0xba, 0x96, 0xbd, 0x86, 0x78, 0xa2, 0x3e, 0xe1, 0xb9, 0xc1, 0xbe,
    0x0c, 0x28, 0x99, 0x3e, 0xe9, 0xed, 0x97, 0xbe, 0xd1, 0x9f, 0x20, 0x3d,
    0xde, 0xb4, 0x2f, 0xbe, 0x88, 0xb8, 0x3d, 0xbe, 0x7c, 0xf3, 0x0f, 0xbf,
    0xef, 0x00, 0x18, 0xbe, 0x04, 0xa5, 0xd3, 0xbe, 0x1b, 0xcc, 0x3b, 0xbe,
    0x47, 0x56, 0xf7, 0x3e, 0x57, 0xe5, 0xba, 0x3e, 0xa4, 0xc0, 0xe6, 0xbe,
    0x33, 0x56, 0x8f, 0xbe, 0xbe, 0xfa, 0xff, 0xff, 0x04, 0x00, 0x00, 0x00,
    0x00, 0x01, 0x00, 0x00, 0x61, 0xd2, 0xe4, 0x3e, 0xa2, 0x2f, 0x08, 0x3f,
    0xa6, 0xfd, 0x64, 0xbd, 0xfa, 0x52, 0x28, 0xbf, 0xc2, 0x62, 0x25, 0x3f,
    0x18, 0x40, 0x51, 0xbe, 0x4e, 0x80, 0x5e, 0xbe, 0xfa, 0xbc, 0xc6, 0x3e,
    0x8a, 0x58, 0x95, 0x3d, 0xad, 0xc8, 0xf0, 0xba, 0xea, 0xed, 0xd1, 0xbe,
    0xa8, 0x93, 0x40, 0x3e, 0x46, 0x0f, 0x11, 0x3f, 0xfa, 0x46, 0x1f, 0xbe,
    0xe0, 0x81, 0xe0, 0x3e, 0xca, 0x11, 0x02, 0x3f, 0x64, 0x77, 0x00, 0xbf,
    0x9d, 0xbc, 0x46, 0xbe, 0x93, 0xff, 0x9c, 0x3e, 0x81, 0x1d, 0xff, 0xbe,
    0xad, 0xaf, 0xf6, 0xbc, 0x96, 0x29, 0x18, 0xbe, 0x82, 0x6e, 0x30, 0x3f,
    0x2e, 0x6a, 0xd4, 0x3e, 0x48, 0x1c, 0x22, 0x3f, 0xc5, 0x4c, 0xe8, 0xbe,
    0x4d, 0xb5, 0x2f, 0x3c, 0x64, 0xa9, 0x8f, 0xbb, 0x50, 0xf3, 0xfa, 0x3a,
    0xf5, 0xa3, 0x2f, 0xbe, 0x04, 0xd4, 0x8f, 0x3e, 0x92, 0xad, 0xc4, 0x3e,
    0x12, 0xad, 0x50, 0xbe, 0x60, 0x67, 0x00, 0x3f, 0xa9, 0x1f, 0xa9, 0xbd,
    0xe5, 0xa0, 0x1e, 0x3e, 0xda, 0x90, 0xb7, 0x3e, 0x7b, 0x48, 0x81, 0xbe,
    0x61, 0xed, 0xaf, 0x3e, 0x45, 0x88, 0xdf, 0xbe, 0xe2, 0x5a, 0x88, 0x3e,
    0x45, 0xbb, 0xb5, 0xbe, 0xb3, 0xfd, 0x3f, 0x3f, 0x82, 0x29, 0x6d, 0x3e,
    0x10, 0x13, 0x8c, 0xbc, 0xc2, 0xfa, 0x43, 0x3e, 0x24, 0xcc, 0xce, 0x3e,
    0x29, 0x0e, 0xe6, 0xbe, 0x67, 0x6a, 0x96, 0x3e, 0xfe, 0x52, 0xf5, 0x3e,
    0xd1, 0x98, 0xef, 0x3e, 0x02, 0xfa, 0xb6, 0xbd, 0x96, 0xfc, 0x03, 0xbe,
    0xbe, 0x96, 0x27, 0x3f, 0xbc, 0xc4, 0xc3, 0x3e, 0x7a, 0x40, 0xe7, 0xbe,
    0xbb, 0x28, 0x9f, 0xbe, 0xe7, 0x31, 0x54, 0xbe, 0x90, 0x55, 0x65, 0xbe,
    0xcd, 0x3c, 0x0c, 0x3f, 0x24, 0xf0, 0xc5, 0xbe, 0xc5, 0xd0, 0x51, 0xbe,
    0x1e, 0x6d, 0x28, 0xbe, 0x8b, 0x22, 0xeb, 0x3e, 0xca, 0xfb, 0xff, 0xff,
    0x04, 0x00, 0x00, 0x00, 0x80, 0x00, 0x00, 0x00, 0x4f, 0x3f, 0xfc, 0x3e,
    0xa5, 0x8e, 0x07, 0xbf, 0x07, 0x8d, 0x86, 0x3e, 0x2d, 0x58, 0x02, 0x3e,
    0x8d, 0x2d, 0xaf, 0x3d, 0xcb, 0x9d, 0x4f, 0xbe, 0x26, 0x52, 0xf1, 0x3e,
    0xfb, 0xe9, 0xcd, 0x3e, 0xf0, 0xe7, 0x88, 0x3d, 0xa1, 0xa8, 0x4e, 0xbe,
    0xe8, 0xeb, 0x25, 0xbf, 0xf4, 0x67, 0x82, 0x3d, 0xb0, 0xb4, 0x7c, 0x3e,
    0xa6, 0xef, 0x32, 0xbe, 0xf9, 0x5e, 0x8c, 0x3d, 0xa1, 0x37, 0x02, 0xbf,
    0x37, 0x9b, 0xd7, 0x3e, 0xe4, 0x95, 0x80, 0x3c, 0x86, 0x17, 0xc2, 0x3e,
    0xa2, 0xa8, 0xd9, 0x3c, 0x8d, 0x9a, 0xa9, 0xbe, 0xb0, 0xd4, 0xaf, 0x3e,
    0xb1, 0xc0, 0x14, 0x3f, 0xdc, 0xa8, 0x66, 0x3e, 0x62, 0x3c, 0x8c, 0x3e,
    0x83, 0xb6, 0x3d, 0xbe, 0xa1, 0xc3, 0xff, 0x3d, 0xae, 0xe1, 0xea, 0xbe,
    0xbd, 0x54, 0xe1, 0x3d, 0x50, 0x1d, 0x30, 0xbf, 0xdb, 0x9c, 0x11, 0x3f,
    0xe6, 0x48, 0x06, 0xbe, 0x56, 0xfc, 0xff, 0xff, 0x04, 0x00, 0x00, 0x00,
    0x00, 0x02, 0x00, 0x00, 0x57, 0x05, 0x98, 0x3e, 0x45, 0xac, 0xc5, 0xbe,
    0x96, 0xab, 0x48, 0x3e, 0x64, 0x31, 0xb8, 0xbe, 0x30, 0xfb, 0xcf, 0xbe,
    0xa7, 0xe4, 0x1e, 0xbe, 0xd9, 0x88, 0xc3, 0x3d, 0x2f, 0xe4, 0x66, 0x3d,
    0xbc, 0x81, 0x98, 0xbe, 0x2f, 0xd2, 0x36, 0xbe, 0x29, 0xf5, 0xc9, 0x3e,
    0x28, 0x94, 0x96, 0xbe, 0xf4, 0x9c, 0xbd, 0xbe, 0x71, 0x98, 0x15, 0xbb,
    0x0a, 0x14, 0x85, 0xbe, 0xe0, 0xf6, 0xf5, 0xbe, 0xe0, 0x7f, 0x03, 0x3e,
    0x6f, 0x70, 0x6d, 0xbe, 0x08, 0xb1, 0x5f, 0xbd, 0xe5, 0x17, 0xe9, 0x3e,
    0x22, 0x7c, 0x22, 0x3e, 0x79, 0x1e, 0x0e, 0x3f, 0x02, 0xd6, 0xfe, 0x3e,
    0x98, 0xcc, 0x92, 0xbe, 0x83, 0xf2, 0x47, 0xbe, 0x74, 0xe0, 0xab, 0xbe,
    0xdc, 0x7d, 0x86, 0x3d, 0x5c, 0x7f, 0x36, 0x3e, 0x91, 0x14, 0xa0, 0x3e,
    0x4b, 0x97, 0xe7, 0x3d, 0xea, 0x03, 0x31, 0xbe, 0x89, 0xdb, 0x3c, 0x3c,
    0xec, 0x04, 0xc3, 0xbd, 0xef, 0x74, 0xf0, 0xbd, 0x45, 0xec, 0x66, 0xbd,
    0x2f, 0xaf, 0x77, 0x3e, 0xd7, 0x9f, 0xe4, 0x3e, 0xa8, 0x0f, 0x86, 0xbe,
    0x3e, 0x96, 0xce, 0xbe, 0xef, 0xd3, 0x72, 0x3e, 0x5f, 0xb7, 0xb5, 0xbe,
    0xeb, 0xfb, 0x74, 0xbe, 0xba, 0xcb, 0x13, 0x3c, 0xc6, 0xa3, 0x89, 0xbe,
    0x72, 0x0a, 0xb7, 0x3e, 0xf9, 0xfe, 0xac, 0xbe, 0x28, 0xa8, 0x02, 0xbe,
    0x58, 0xd1, 0xf4, 0x3d, 0x7a, 0x7d, 0x34, 0xbe, 0x5d, 0xc5, 0x6d, 0x3e,
    0x8e, 0x73, 0x10, 0x3e, 0xeb, 0x7e, 0x41, 0x3e, 0x20, 0xca, 0xb6, 0x3e,
    0x0b, 0x4a, 0xc8, 0xbe, 0x90, 0x64, 0xe1, 0x3c, 0xf4, 0x5d, 0x21, 0x3e,
    0x53, 0x98, 0x2d, 0x3e, 0x8e, 0xa8, 0xd9, 0x3e, 0xf2, 0x85, 0x26, 0xbe,
    0x27, 0x99, 0x1d, 0x3d, 0x94, 0xc8, 0x32, 0xbd, 0xe3, 0x8d, 0xa3, 0xbd,
    0x81, 0x33, 0x10, 0x3f, 0xa1, 0xaa, 0xd8, 0x3e, 0x50, 0x43, 0x8e, 0xbb,
    0x56, 0x7a, 0x19, 0xbe, 0x6b, 0x8d, 0xab, 0xbd, 0x37, 0xac, 0xd7, 0x3e,
    0x86, 0xca, 0x39, 0x3e, 0xee, 0xce, 0x27, 0x3c, 0x1a, 0x54, 0x5c, 0xbd,
    0xbd, 0x94, 0xef, 0x3e, 0xa0, 0xc9, 0xe5, 0x3e, 0x40, 0x20, 0x1f, 0x37,
    0x9c, 0x55, 0x6e, 0xbc, 0xf1, 0x7f, 0x35, 0x3d, 0x92, 0xb4, 0xa9, 0x3e,
    0x54, 0x83, 0x7f, 0xbe, 0xdc, 0x9e, 0x83, 0x3e, 0x18, 0xb3, 0x82, 0x3e,
    0xfb, 0x0e, 0x97, 0x3e, 0x5d, 0x26, 0xb2, 0x3e, 0x0f, 0x46, 0x20, 0x3f,
    0x29, 0xf1, 0xd7, 0xbe, 0x14, 0x6b, 0x54, 0x3d, 0xa1, 0xab, 0xe9, 0xbc,
    0x36, 0x21, 0xef, 0xbc, 0x3c, 0x52, 0xf6, 0xbd, 0xe2, 0x7f, 0xb1, 0xbc,
    0x8b, 0xaf, 0xae, 0xbd, 0x02, 0x7e, 0xef, 0x3e, 0x9b, 0xc5, 0xf7, 0xbe,
    0xe5, 0x01, 0xf3, 0xbe, 0x07, 0x32, 0x0e, 0xbe, 0x98, 0x05, 0x26, 0x3d,
    0x52, 0xf1, 0x2f, 0xbe, 0xde, 0xab, 0xb9, 0xbe, 0xc2, 0x69, 0x6f, 0x3d,
    0x71, 0x98, 0xa3, 0xbe, 0xf7, 0x1c, 0x69, 0x3e, 0x65, 0x3b, 0x40, 0xbe,
    0x91, 0x5d, 0xb0, 0xbc, 0x59, 0xdb, 0x1e, 0xbe, 0x34, 0x6e, 0x8a, 0xbd,
    0x20, 0x50, 0x5e, 0x3e, 0x9e, 0xc1, 0x2b, 0x3e, 0xea, 0x77, 0x31, 0xbd,
    0x13, 0x96, 0x7f, 0xbd, 0x51, 0xa2, 0x88, 0xbd, 0x56, 0xc6, 0x75, 0xbe,
    0xce, 0xd1, 0x8b, 0xbe, 0xf7, 0xcc, 0x5a, 0x3e, 0x32, 0x4d, 0x1e, 0x3d,
    0xfa, 0xf2, 0x2a, 0x3d, 0x6b, 0xb9, 0xc8, 0xbd, 0xd7, 0x4d, 0x8a, 0x3e,
    0x57, 0x28, 0x75, 0xbd, 0x54, 0x7a, 0xee, 0x3e, 0xfb, 0x55, 0xa1, 0xbe,
    0x14, 0x5b, 0x03, 0xbe, 0x87, 0x74, 0x4e, 0xbe, 0x43, 0x01, 0x08, 0x3f,
    0xb1, 0xfd, 0x6d, 0xbe, 0x77, 0x46, 0x63, 0xbe, 0x5d, 0x83, 0x9d, 0xbc,
    0x31, 0xef, 0x1c, 0x3f, 0x22, 0x32, 0xec, 0xbd, 0x25, 0xdf, 0x9d, 0x3e,
    0x62, 0xfe, 0xff, 0xff, 0x04, 0x00, 0x00, 0x00, 0x10, 0x00, 0x00, 0x00,
    0x01, 0x00, 0x00, 0x00, 0x01, 0x00, 0x00, 0x00, 0x0a, 0x00, 0x00, 0x00,
    0x02, 0x00, 0x00, 0x00, 0x7e, 0xfe, 0xff, 0xff, 0x04, 0x00, 0x00, 0x00,
    0x0c, 0x00, 0x00, 0x00, 0x01, 0x00, 0x00, 0x00, 0x08, 0x00, 0x00, 0x00,
    0x08, 0x00, 0x00, 0x00, 0x96, 0xfe, 0xff, 0xff, 0x04, 0x00, 0x00, 0x00,
    0x10, 0x00, 0x00, 0x00, 0xd3, 0x0b, 0x75, 0xbd, 0x34, 0x80, 0x24, 0x3e,
    0x5f, 0xc0, 0xf2, 0x3b, 0xf4, 0xe6, 0x9e, 0xbd, 0xb2, 0xfe, 0xff, 0xff,
    0x04, 0x00, 0x00, 0x00, 0x20, 0x00, 0x00, 0x00, 0x33, 0xc0, 0x16, 0xbe,
    0x51, 0xa9, 0x26, 0x3e, 0xfa, 0x2c, 0x34, 0x3e, 0x3a, 0x4c, 0x33, 0x3e,
    0x8e, 0x8f, 0x5e, 0xbd, 0xf2, 0xa0, 0x74, 0x3e, 0xed, 0xc8, 0x58, 0xbc,
    0x32, 0x06, 0xe9, 0x3d, 0xde, 0xfe, 0xff, 0xff, 0x04, 0x00, 0x00, 0x00,
    0x20, 0x00, 0x00, 0x00, 0x41, 0x7b, 0x9a, 0x3d, 0xc8, 0x63, 0xa9, 0x3a,
    0x9e, 0xeb, 0x9e, 0x3d, 0xf6, 0x06, 0x93, 0x3d, 0xb0, 0xd1, 0xad, 0xbd,
    0xbc, 0x6c, 0x2a, 0x3e, 0x0c, 0xfe, 0xd4, 0xbc, 0xc8, 0xad, 0x60, 0x3e,
    0x0a, 0xff, 0xff, 0xff, 0x04, 0x00, 0x00, 0x00, 0x40, 0x00, 0x00, 0x00,
    0xae, 0x56, 0x47, 0x3d, 0xf8, 0xcc, 0x02, 0x3c, 0x87, 0x1d, 0x58, 0x3b,
    0xfe, 0xd3, 0x95, 0x3d, 0x65, 0xa7, 0x01, 0x3d, 0x5a, 0xe6, 0x5d, 0xbb,
    0xcc, 0xc5, 0x30, 0x3e, 0xff, 0xcb, 0x60, 0x3d, 0x11, 0x6b, 0x72, 0x3e,
    0xcb, 0x60, 0xd6, 0xbd, 0x68, 0xec, 0x2b, 0x3e, 0x24, 0x30, 0x19, 0xbc,
    0x36, 0x3b, 0x17, 0x3c, 0x2d, 0xef, 0xa2, 0xbd, 0x65, 0x04, 0xe7, 0xbc,
    0x8e, 0x7a, 0x48, 0x3d, 0x40, 0xf4, 0xff, 0xff, 0x44, 0xf4, 0xff, 0xff,
    0x0f, 0x00, 0x00, 0x00, 0x4d, 0x4c, 0x49, 0x52, 0x20, 0x43, 0x6f, 0x6e,
    0x76, 0x65, 0x72, 0x74, 0x65, 0x64, 0x2e, 0x00, 0x01, 0x00, 0x00, 0x00,
    0x14, 0x00, 0x00, 0x00, 0x00, 0x00, 0x0e, 0x00, 0x18, 0x00, 0x14, 0x00,
    0x10, 0x00, 0x0c, 0x00, 0x08, 0x00, 0x04, 0x00, 0x0e, 0x00, 0x00, 0x00,
    0x14, 0x00, 0x00, 0x00, 0x1c, 0x00, 0x00, 0x00, 0x7c, 0x02, 0x00, 0x00,
    0x80, 0x02, 0x00, 0x00, 0x84, 0x02, 0x00, 0x00, 0x04, 0x00, 0x00, 0x00,
    0x6d, 0x61, 0x69, 0x6e, 0x00, 0x00, 0x00, 0x00, 0x09, 0x00, 0x00, 0x00,
    0x20, 0x02, 0x00, 0x00, 0xe8, 0x01, 0x00, 0x00, 0x88, 0x01, 0x00, 0x00,
    0x30, 0x01, 0x00, 0x00, 0x08, 0x01, 0x00, 0x00, 0xd4, 0x00, 0x00, 0x00,
    0x94, 0x00, 0x00, 0x00, 0x60, 0x00, 0x00, 0x00, 0x14, 0x00, 0x00, 0x00,
    0x00, 0x00, 0x0e, 0x00, 0x1a, 0x00, 0x14, 0x00, 0x10, 0x00, 0x0c, 0x00,
    0x0b, 0x00, 0x04, 0x00, 0x0e, 0x00, 0x00, 0x00, 0x1c, 0x00, 0x00, 0x00,
    0x00, 0x00, 0x00, 0x09, 0x1c, 0x00, 0x00, 0x00, 0x20, 0x00, 0x00, 0x00,
    0x04, 0x00, 0x00, 0x00, 0x00, 0x00, 0x06, 0x00, 0x08, 0x00, 0x04, 0x00,
    0x06, 0x00, 0x00, 0x00, 0x00, 0x00, 0x80, 0x3f, 0x01, 0x00, 0x00, 0x00,
    0x16, 0x00, 0x00, 0x00, 0x01, 0x00, 0x00, 0x00, 0x15, 0x00, 0x00, 0x00,
    0x00, 0x00, 0x0e, 0x00, 0x14, 0x00, 0x00, 0x00, 0x10, 0x00, 0x0c, 0x00,
    0x0b, 0x00, 0x04, 0x00, 0x0e, 0x00, 0x00, 0x00, 0x10, 0x00, 0x00, 0x00,
    0x00, 0x00, 0x00, 0x08, 0x0c, 0x00, 0x00, 0x00, 0x10, 0x00, 0x00, 0x00,
    0x2c, 0xf5, 0xff, 0xff, 0x01, 0x00, 0x00, 0x00, 0x15, 0x00, 0x00, 0x00,
    0x03, 0x00, 0x00, 0x00, 0x14, 0x00, 0x00, 0x00, 0x09, 0x00, 0x00, 0x00,
    0x04, 0x00, 0x00, 0x00, 0x9a, 0xfe, 0xff, 0xff, 0x18, 0x00, 0x00, 0x00,
    0x00, 0x00, 0x00, 0x08, 0x18, 0x00, 0x00, 0x00, 0x1c, 0x00, 0x00, 0x00,
    0x00, 0x00, 0x06, 0x00, 0x08, 0x00, 0x07, 0x00, 0x06, 0x00, 0x00, 0x00,
    0x00, 0x00, 0x00, 0x01, 0x01, 0x00, 0x00, 0x00, 0x14, 0x00, 0x00, 0x00,
    0x03, 0x00, 0x00, 0x00, 0x13, 0x00, 0x00, 0x00, 0x0a, 0x00, 0x00, 0x00,
    0x01, 0x00, 0x00, 0x00, 0x66, 0xff, 0xff, 0xff, 0x14, 0x00, 0x00, 0x00,
    0x00, 0x00, 0x00, 0x1b, 0x10, 0x00, 0x00, 0x00, 0x14, 0x00, 0x00, 0x00,
    0x03, 0x00, 0x00, 0x00, 0x9c, 0xf5, 0xff, 0xff, 0x01, 0x00, 0x00, 0x00,
    0x13, 0x00, 0x00, 0x00, 0x02, 0x00, 0x00, 0x00, 0x12, 0x00, 0x00, 0x00,
    0x0b, 0x00, 0x00, 0x00, 0x36, 0xff, 0xff, 0xff, 0x0c, 0x00, 0x00, 0x00,
    0x10, 0x00, 0x00, 0x00, 0x01, 0x00, 0x00, 0x00, 0x01, 0x00, 0x00, 0x00,
    0x12, 0x00, 0x00, 0x00, 0x02, 0x00, 0x00, 0x00, 0x11, 0x00, 0x00, 0x00,
    0x05, 0x00, 0x00, 0x00, 0xba, 0xff, 0xff, 0xff, 0x14, 0x00, 0x00, 0x00,
    0x00, 0x00, 0x00, 0x01, 0x20, 0x00, 0x00, 0x00, 0x24, 0x00, 0x00, 0x00,
    0x02, 0x00, 0x00, 0x00, 0xac, 0xff, 0xff, 0xff, 0x00, 0x00, 0x00, 0x01,
    0x01, 0x00, 0x00, 0x00, 0x01, 0x00, 0x00, 0x00, 0x00, 0x00, 0x00, 0x01,
    0x01, 0x00, 0x00, 0x00, 0x11, 0x00, 0x00, 0x00, 0x03, 0x00, 0x00, 0x00,
    0x10, 0x00, 0x00, 0x00, 0x07, 0x00, 0x00, 0x00, 0x02, 0x00, 0x00, 0x00,
    0x00, 0x00, 0x0e, 0x00, 0x18, 0x00, 0x14, 0x00, 0x10, 0x00, 0x0c, 0x00,
    0x0b, 0x00, 0x04, 0x00, 0x0e, 0x00, 0x00, 0x00, 0x20, 0x00, 0x00, 0x00,
    0x00, 0x00, 0x00, 0x01, 0x2c, 0x00, 0x00, 0x00, 0x30, 0x00, 0x00, 0x00,
    0x02, 0x00, 0x00, 0x00, 0x0c, 0x00, 0x14, 0x00, 0x13, 0x00, 0x0c, 0x00,
    0x08, 0x00, 0x07, 0x00, 0x0c, 0x00, 0x00, 0x00, 0x00, 0x00, 0x00, 0x01,
    0x01, 0x00, 0x00, 0x00, 0x01, 0x00, 0x00, 0x00, 0x00, 0x00, 0x00, 0x01,
    0x01, 0x00, 0x00, 0x00, 0x10, 0x00, 0x00, 0x00, 0x03, 0x00, 0x00, 0x00,
    0x0f, 0x00, 0x00, 0x00, 0x08, 0x00, 0x00, 0x00, 0x03, 0x00, 0x00, 0x00,
    0x00, 0x00, 0x0a, 0x00, 0x10, 0x00, 0x0c, 0x00, 0x08, 0x00, 0x04, 0x00,
    0x0a, 0x00, 0x00, 0x00, 0x0c, 0x00, 0x00, 0x00, 0x10, 0x00, 0x00, 0x00,
    0x01, 0x00, 0x00, 0x00, 0x01, 0x00, 0x00, 0x00, 0x0f, 0x00, 0x00, 0x00,
    0x02, 0x00, 0x00, 0x00, 0x0e, 0x00, 0x00, 0x00, 0x06, 0x00, 0x00, 0x00,
    0x00, 0x00, 0x0e, 0x00, 0x16, 0x00, 0x00, 0x00, 0x10, 0x00, 0x0c, 0x00,
    0x0b, 0x00, 0x04, 0x00, 0x0e, 0x00, 0x00, 0x00, 0x1c, 0x00, 0x00, 0x00,
    0x00, 0x00, 0x00, 0x08, 0x1c, 0x00, 0x00, 0x00, 0x20, 0x00, 0x00, 0x00,
    0x00, 0x00, 0x0a, 0x00, 0x08, 0x00, 0x00, 0x00, 0x00, 0x00, 0x07, 0x00,
    0x0a, 0x00, 0x00, 0x00, 0x00, 0x00, 0x00, 0x01, 0x01, 0x00, 0x00, 0x00,
    0x0e, 0x00, 0x00, 0x00, 0x03, 0x00, 0x00, 0x00, 0x00, 0x00, 0x00, 0x00,
    0x0c, 0x00, 0x00, 0x00, 0x0d, 0x00, 0x00, 0x00, 0x01, 0x00, 0x00, 0x00,
    0x16, 0x00, 0x00, 0x00, 0x01, 0x00, 0x00, 0x00, 0x00, 0x00, 0x00, 0x00,
    0x17, 0x00, 0x00, 0x00, 0xd8, 0x08, 0x00, 0x00, 0x84, 0x08, 0x00, 0x00,
    0x48, 0x08, 0x00, 0x00, 0x0c, 0x08, 0x00, 0x00, 0xd0, 0x07, 0x00, 0x00,
    0x90, 0x07, 0x00, 0x00, 0x38, 0x07, 0x00, 0x00, 0xf0, 0x06, 0x00, 0x00,
    0xa8, 0x06, 0x00, 0x00, 0x68, 0x06, 0x00, 0x00, 0x28, 0x06, 0x00, 0x00,
    0xe8, 0x05, 0x00, 0x00, 0x94, 0x05, 0x00, 0x00, 0x44, 0x05, 0x00, 0x00,
    0xcc, 0x04, 0x00, 0x00, 0x60, 0x04, 0x00, 0x00, 0x6c, 0x03, 0x00, 0x00,
    0x78, 0x02, 0x00, 0x00, 0xac, 0x01, 0x00, 0x00, 0x48, 0x01, 0x00, 0x00,
    0xb4, 0x00, 0x00, 0x00, 0x40, 0x00, 0x00, 0x00, 0x04, 0x00, 0x00, 0x00,
    0x9a, 0xf7, 0xff, 0xff, 0x00, 0x00, 0x00, 0x01, 0x10, 0x00, 0x00, 0x00,
    0x10, 0x00, 0x00, 0x00, 0x17, 0x00, 0x00, 0x00, 0x18, 0x00, 0x00, 0x00,
    0x84, 0xf7, 0xff, 0xff, 0x08, 0x00, 0x00, 0x00, 0x49, 0x64, 0x65, 0x6e,
    0x74, 0x69, 0x74, 0x79, 0x00, 0x00, 0x00, 0x00, 0x02, 0x00, 0x00, 0x00,
    0x01, 0x00, 0x00, 0x00, 0x04, 0x00, 0x00, 0x00, 0xd2, 0xf7, 0xff, 0xff,
    0x00, 0x00, 0x00, 0x01, 0x10, 0x00, 0x00, 0x00, 0x10, 0x00, 0x00, 0x00,
    0x16, 0x00, 0x00, 0x00, 0x50, 0x00, 0x00, 0x00, 0xbc, 0xf7, 0xff, 0xff,
    0x42, 0x00, 0x00, 0x00, 0x73, 0x65, 0x71, 0x75, 0x65, 0x6e, 0x74, 0x69,
    0x61, 0x6c, 0x5f, 0x39, 0x5f, 0x31, 0x2f, 0x64, 0x65, 0x6e, 0x73, 0x65,
    0x5f, 0x32, 0x39, 0x5f, 0x31, 0x2f, 0x4d, 0x61, 0x74, 0x4d, 0x75, 0x6c,
    0x3b, 0x73, 0x65, 0x71, 0x75, 0x65, 0x6e, 0x74, 0x69, 0x61, 0x6c, 0x5f,
    0x39, 0x5f, 0x31, 0x2f, 0x64, 0x65, 0x6e, 0x73, 0x65, 0x5f, 0x32, 0x39,
    0x5f, 0x31, 0x2f, 0x42, 0x69, 0x61, 0x73, 0x41, 0x64, 0x64, 0x00, 0x00,
    0x02, 0x00, 0x00, 0x00, 0x01, 0x00, 0x00, 0x00, 0x04, 0x00, 0x00, 0x00,
    0x42, 0xf8, 0xff, 0xff, 0x00, 0x00, 0x00, 0x01, 0x10, 0x00, 0x00, 0x00,
    0x10, 0x00, 0x00, 0x00, 0x15, 0x00, 0x00, 0x00, 0x70, 0x00, 0x00, 0x00,
    0x2c, 0xf8, 0xff, 0xff, 0x61, 0x00, 0x00, 0x00, 0x73, 0x65, 0x71, 0x75,
    0x65, 0x6e, 0x74, 0x69, 0x61, 0x6c, 0x5f, 0x39, 0x5f, 0x31, 0x2f, 0x64,
    0x65, 0x6e, 0x73, 0x65, 0x5f, 0x32, 0x38, 0x5f, 0x31, 0x2f, 0x4d, 0x61,
    0x74, 0x4d, 0x75, 0x6c, 0x3b, 0x73, 0x65, 0x71, 0x75, 0x65, 0x6e, 0x74,
    0x69, 0x61, 0x6c, 0x5f, 0x39, 0x5f, 0x31, 0x2f, 0x64, 0x65, 0x6e, 0x73,
    0x65, 0x5f, 0x32, 0x38, 0x5f, 0x31, 0x2f, 0x52, 0x65, 0x6c, 0x75, 0x3b,
    0x73, 0x65, 0x71, 0x75, 0x65, 0x6e, 0x74, 0x69, 0x61, 0x6c, 0x5f, 0x39,
    0x5f, 0x31, 0x2f, 0x64, 0x65, 0x6e, 0x73, 0x65, 0x5f, 0x32, 0x38, 0x5f,
    0x31, 0x2f, 0x42, 0x69, 0x61, 0x73, 0x41, 0x64, 0x64, 0x00, 0x00, 0x00,
    0x02, 0x00, 0x00, 0x00, 0x01, 0x00, 0x00, 0x00, 0x10, 0x00, 0x00, 0x00,
    0xd2, 0xf8, 0xff, 0xff, 0x00, 0x00, 0x00, 0x01, 0x10, 0x00, 0x00, 0x00,
    0x10, 0x00, 0x00, 0x00, 0x14, 0x00, 0x00, 0x00, 0x40, 0x00, 0x00, 0x00,
    0xbc, 0xf8, 0xff, 0xff, 0x30, 0x00, 0x00, 0x00, 0x73, 0x65, 0x71, 0x75,
    0x65, 0x6e, 0x74, 0x69, 0x61, 0x6c, 0x5f, 0x39, 0x5f, 0x31, 0x2f, 0x67,
    0x6c, 0x6f, 0x62, 0x61, 0x6c, 0x5f, 0x61, 0x76, 0x65, 0x72, 0x61, 0x67,
    0x65, 0x5f, 0x70, 0x6f, 0x6f, 0x6c, 0x69, 0x6e, 0x67, 0x31, 0x64, 0x5f,
    0x39, 0x5f, 0x31, 0x2f, 0x4d, 0x65, 0x61, 0x6e, 0x00, 0x00, 0x00, 0x00,
    0x02, 0x00, 0x00, 0x00, 0x01, 0x00, 0x00, 0x00, 0x08, 0x00, 0x00, 0x00,
    0x32, 0xf9, 0xff, 0xff, 0x00, 0x00, 0x00, 0x01, 0x10, 0x00, 0x00, 0x00,
    0x10, 0x00, 0x00, 0x00, 0x13, 0x00, 0x00, 0x00, 0xa4, 0x00, 0x00, 0x00,
    0x1c, 0xf9, 0xff, 0xff, 0x94, 0x00, 0x00, 0x00, 0x73, 0x65, 0x71, 0x75,
    0x65, 0x6e, 0x74, 0x69, 0x61, 0x6c, 0x5f, 0x39, 0x5f, 0x31, 0x2f, 0x63,
    0x6f, 0x6e, 0x76, 0x31, 0x64, 0x5f, 0x31, 0x39, 0x5f, 0x31, 0x2f, 0x52,
    0x65, 0x6c, 0x75, 0x3b, 0x73, 0x65, 0x71, 0x75, 0x65, 0x6e, 0x74, 0x69,
    0x61, 0x6c, 0x5f, 0x39, 0x5f, 0x31, 0x2f, 0x63, 0x6f, 0x6e, 0x76, 0x31,
    0x64, 0x5f, 0x31, 0x39, 0x5f, 0x31, 0x2f, 0x42, 0x69, 0x61, 0x73, 0x41,
    0x64, 0x64, 0x3b, 0x73, 0x65, 0x71, 0x75, 0x65, 0x6e, 0x74, 0x69, 0x61,
    0x6c, 0x5f, 0x39, 0x5f, 0x31, 0x2f, 0x63, 0x6f, 0x6e, 0x76, 0x31, 0x64,
    0x5f, 0x31, 0x39, 0x5f, 0x31, 0x2f, 0x63, 0x6f, 0x6e, 0x76, 0x6f, 0x6c,
    0x75, 0x74, 0x69, 0x6f, 0x6e, 0x2f, 0x53, 0x71, 0x75, 0x65, 0x65, 0x7a,
    0x65, 0x3b, 0x73, 0x65, 0x71, 0x75, 0x65, 0x6e, 0x74, 0x69, 0x61, 0x6c,
    0x5f, 0x39, 0x5f, 0x31, 0x2f, 0x63, 0x6f, 0x6e, 0x76, 0x31, 0x64, 0x5f,
    0x31, 0x39, 0x5f, 0x31, 0x2f, 0x53, 0x71, 0x75, 0x65, 0x65, 0x7a, 0x65,
    0x00, 0x00, 0x00, 0x00, 0x03, 0x00, 0x00, 0x00, 0x01, 0x00, 0x00, 0x00,
    0x08, 0x00, 0x00, 0x00, 0x08, 0x00, 0x00, 0x00, 0xfa, 0xf9, 0xff, 0xff,
    0x00, 0x00, 0x00, 0x01, 0x10, 0x00, 0x00, 0x00, 0x10, 0x00, 0x00, 0x00,
    0x12, 0x00, 0x00, 0x00, 0xc8, 0x00, 0x00, 0x00, 0xe4, 0xf9, 0xff, 0xff,
    0xbb, 0x00, 0x00, 0x00, 0x73, 0x65, 0x71, 0x75, 0x65, 0x6e, 0x74, 0x69,
    0x61, 0x6c, 0x5f, 0x39, 0x5f, 0x31, 0x2f, 0x63, 0x6f, 0x6e, 0x76, 0x31,
    0x64, 0x5f, 0x31, 0x39, 0x5f, 0x31, 0x2f, 0x52, 0x65, 0x6c, 0x75, 0x3b,
    0x73, 0x65, 0x71, 0x75, 0x65, 0x6e, 0x74, 0x69, 0x61, 0x6c, 0x5f, 0x39,
    0x5f, 0x31, 0x2f, 0x63, 0x6f, 0x6e, 0x76, 0x31, 0x64, 0x5f, 0x31, 0x39,
    0x5f, 0x31, 0x2f, 0x42, 0x69, 0x61, 0x73, 0x41, 0x64, 0x64, 0x3b, 0x73,
    0x65, 0x71, 0x75, 0x65, 0x6e, 0x74, 0x69, 0x61, 0x6c, 0x5f, 0x39, 0x5f,
    0x31, 0x2f, 0x63, 0x6f, 0x6e, 0x76, 0x31, 0x64, 0x5f, 0x31, 0x39, 0x5f,
    0x31, 0x2f, 0x63, 0x6f, 0x6e, 0x76, 0x6f, 0x6c, 0x75, 0x74, 0x69, 0x6f,
    0x6e, 0x2f, 0x53, 0x71, 0x75, 0x65, 0x65, 0x7a, 0x65, 0x3b, 0x73, 0x65,
    0x71, 0x75, 0x65, 0x6e, 0x74, 0x69, 0x61, 0x6c, 0x5f, 0x39, 0x5f, 0x31,
    0x2f, 0x63, 0x6f, 0x6e, 0x76, 0x31, 0x64, 0x5f, 0x31, 0x39, 0x5f, 0x31,
    0x2f, 0x53, 0x71, 0x75, 0x65, 0x65, 0x7a, 0x65, 0x3b, 0x73, 0x65, 0x71,
    0x75, 0x65, 0x6e, 0x74, 0x69, 0x61, 0x6c, 0x5f, 0x39, 0x5f, 0x31, 0x2f,
    0x63, 0x6f, 0x6e, 0x76, 0x31, 0x64, 0x5f, 0x31, 0x39, 0x5f, 0x31, 0x2f,
    0x63, 0x6f, 0x6e, 0x76, 0x6f, 0x6c, 0x75, 0x74, 0x69, 0x6f, 0x6e, 0x00,
    0x04, 0x00, 0x00, 0x00, 0x01, 0x00, 0x00, 0x00, 0x01, 0x00, 0x00, 0x00,
    0x08, 0x00, 0x00, 0x00, 0x08, 0x00, 0x00, 0x00, 0xea, 0xfa, 0xff, 0xff,
    0x00, 0x00, 0x00, 0x01, 0x10, 0x00, 0x00, 0x00, 0x10, 0x00, 0x00, 0x00,
    0x11, 0x00, 0x00, 0x00, 0xc8, 0x00, 0x00, 0x00, 0xd4, 0xfa, 0xff, 0xff,
    0xbb, 0x00, 0x00, 0x00, 0x73, 0x65, 0x71, 0x75, 0x65, 0x6e, 0x74, 0x69,
    0x61, 0x6c, 0x5f, 0x39, 0x5f, 0x31, 0x2f, 0x63, 0x6f, 0x6e, 0x76, 0x31,
    0x64, 0x5f, 0x31, 0x38, 0x5f, 0x31, 0x2f, 0x52, 0x65, 0x6c, 0x75, 0x3b,
    0x73, 0x65, 0x71, 0x75, 0x65, 0x6e, 0x74, 0x69, 0x61, 0x6c, 0x5f, 0x39,
    0x5f, 0x31, 0x2f, 0x63, 0x6f, 0x6e, 0x76, 0x31, 0x64, 0x5f, 0x31, 0x38,
    0x5f, 0x31, 0x2f, 0x42, 0x69, 0x61, 0x73, 0x41, 0x64, 0x64, 0x3b, 0x73,
    0x65, 0x71, 0x75, 0x65, 0x6e, 0x74, 0x69, 0x61, 0x6c, 0x5f, 0x39, 0x5f,
    0x31, 0x2f, 0x63, 0x6f, 0x6e, 0x76, 0x31, 0x64, 0x5f, 0x31, 0x38, 0x5f,
    0x31, 0x2f, 0x63, 0x6f, 0x6e, 0x76, 0x6f, 0x6c, 0x75, 0x74, 0x69, 0x6f,
    0x6e, 0x2f, 0x53, 0x71, 0x75, 0x65, 0x65, 0x7a, 0x65, 0x3b, 0x73, 0x65,
    0x71, 0x75, 0x65, 0x6e, 0x74, 0x69, 0x61, 0x6c, 0x5f, 0x39, 0x5f, 0x31,
    0x2f, 0x63, 0x6f, 0x6e, 0x76, 0x31, 0x64, 0x5f, 0x31, 0x38, 0x5f, 0x31,
    0x2f, 0x53, 0x71, 0x75, 0x65, 0x65, 0x7a, 0x65, 0x3b, 0x73, 0x65, 0x71,
    0x75, 0x65, 0x6e, 0x74, 0x69, 0x61, 0x6c, 0x5f, 0x39, 0x5f, 0x31, 0x2f,
    0x63, 0x6f, 0x6e, 0x76, 0x31, 0x64, 0x5f, 0x31, 0x38, 0x5f, 0x31, 0x2f,
    0x63, 0x6f, 0x6e, 0x76, 0x6f, 0x6c, 0x75, 0x74, 0x69, 0x6f, 0x6e, 0x00,
    0x04, 0x00, 0x00, 0x00, 0x01, 0x00, 0x00, 0x00, 0x01, 0x00, 0x00, 0x00,
    0x09, 0x00, 0x00, 0x00, 0x08, 0x00, 0x00, 0x00, 0xda, 0xfb, 0xff, 0xff,
    0x00, 0x00, 0x00, 0x01, 0x10, 0x00, 0x00, 0x00, 0x10, 0x00, 0x00, 0x00,
    0x10, 0x00, 0x00, 0x00, 0x40, 0x00, 0x00, 0x00, 0xc4, 0xfb, 0xff, 0xff,
    0x31, 0x00, 0x00, 0x00, 0x73, 0x65, 0x71, 0x75, 0x65, 0x6e, 0x74, 0x69,
    0x61, 0x6c, 0x5f, 0x39, 0x5f, 0x31, 0x2f, 0x63, 0x6f, 0x6e, 0x76, 0x31,
    0x64, 0x5f, 0x31, 0x38, 0x5f, 0x31, 0x2f, 0x63, 0x6f, 0x6e, 0x76, 0x6f,
    0x6c, 0x75, 0x74, 0x69, 0x6f, 0x6e, 0x2f, 0x45, 0x78, 0x70, 0x61, 0x6e,
    0x64, 0x44, 0x69, 0x6d, 0x73, 0x00, 0x00, 0x00, 0x04, 0x00, 0x00, 0x00,
    0x01, 0x00, 0x00, 0x00, 0x01, 0x00, 0x00, 0x00, 0x0a, 0x00, 0x00, 0x00,
    0x02, 0x00, 0x00, 0x00, 0x42, 0xfc, 0xff, 0xff, 0x00, 0x00, 0x00, 0x01,
    0x10, 0x00, 0x00, 0x00, 0x10, 0x00, 0x00, 0x00, 0x0f, 0x00, 0x00, 0x00,
    0x50, 0x00, 0x00, 0x00, 0x2c, 0xfc, 0xff, 0xff, 0x42, 0x00, 0x00, 0x00,
    0x73, 0x65, 0x71, 0x75, 0x65, 0x6e, 0x74, 0x69, 0x61, 0x6c, 0x5f, 0x39,
    0x5f, 0x31, 0x2f, 0x64, 0x65, 0x6e, 0x73, 0x65, 0x5f, 0x32, 0x37, 0x5f,
    0x31, 0x2f, 0x4d, 0x61, 0x74, 0x4d, 0x75, 0x6c, 0x3b, 0x73, 0x65, 0x71,
    0x75, 0x65, 0x6e, 0x74, 0x69, 0x61, 0x6c, 0x5f, 0x39, 0x5f, 0x31, 0x2f,
    0x64, 0x65, 0x6e, 0x73, 0x65, 0x5f, 0x32, 0x37, 0x5f, 0x31, 0x2f, 0x42,
    0x69, 0x61, 0x73, 0x41, 0x64, 0x64, 0x00, 0x00, 0x03, 0x00, 0x00, 0x00,
    0x01, 0x00, 0x00, 0x00, 0x0a, 0x00, 0x00, 0x00, 0x02, 0x00, 0x00, 0x00,
    0xb6, 0xfc, 0xff, 0xff, 0x00, 0x00, 0x00, 0x01, 0x10, 0x00, 0x00, 0x00,
    0x10, 0x00, 0x00, 0x00, 0x0e, 0x00, 0x00, 0x00, 0x30, 0x00, 0x00, 0x00,
    0xa0, 0xfc, 0xff, 0xff, 0x21, 0x00, 0x00, 0x00, 0x73, 0x65, 0x71, 0x75,
    0x65, 0x6e, 0x74, 0x69, 0x61, 0x6c, 0x5f, 0x39, 0x5f, 0x31, 0x2f, 0x64,
    0x65, 0x6e, 0x73, 0x65, 0x5f, 0x32, 0x37, 0x5f, 0x31, 0x2f, 0x42, 0x69,
    0x61, 0x73, 0x41, 0x64, 0x64, 0x00, 0x00, 0x00, 0x01, 0x00, 0x00, 0x00,
    0x02, 0x00, 0x00, 0x00, 0x02, 0xfd, 0xff, 0xff, 0x00, 0x00, 0x00, 0x01,
    0x10, 0x00, 0x00, 0x00, 0x10, 0x00, 0x00, 0x00, 0x0d, 0x00, 0x00, 0x00,
    0x30, 0x00, 0x00, 0x00, 0xec, 0xfc, 0xff, 0xff, 0x20, 0x00, 0x00, 0x00,
    0x73, 0x65, 0x71, 0x75, 0x65, 0x6e, 0x74, 0x69, 0x61, 0x6c, 0x5f, 0x39,
    0x5f, 0x31, 0x2f, 0x64, 0x65, 0x6e, 0x73, 0x65, 0x5f, 0x32, 0x37, 0x5f,
    0x31, 0x2f, 0x4d, 0x61, 0x74, 0x4d, 0x75, 0x6c, 0x00, 0x00, 0x00, 0x00,
    0x02, 0x00, 0x00, 0x00, 0x02, 0x00, 0x00, 0x00, 0x08, 0x00, 0x00, 0x00,
    0x86, 0xfe, 0xff, 0xff, 0x00, 0x00, 0x00, 0x01, 0x14, 0x00, 0x00, 0x00,
    0x14, 0x00, 0x00, 0x00, 0x0c, 0x00, 0x00, 0x00, 0x00, 0x00, 0x00, 0x02,
    0x20, 0x00, 0x00, 0x00, 0x40, 0xfd, 0xff, 0xff, 0x10, 0x00, 0x00, 0x00,
    0x61, 0x72, 0x69, 0x74, 0x68, 0x2e, 0x63, 0x6f, 0x6e, 0x73, 0x74, 0x61,
    0x6e, 0x74, 0x31, 0x30, 0x00, 0x00, 0x00, 0x00, 0x00, 0x00, 0x00, 0x00,
    0x8e, 0xfd, 0xff, 0xff, 0x00, 0x00, 0x00, 0x01, 0x10, 0x00, 0x00, 0x00,
    0x10, 0x00, 0x00, 0x00, 0x0b, 0x00, 0x00, 0x00, 0x1c, 0x00, 0x00, 0x00,
    0x78, 0xfd, 0xff, 0xff, 0x0f, 0x00, 0x00, 0x00, 0x61, 0x72, 0x69, 0x74,
    0x68, 0x2e, 0x63, 0x6f, 0x6e, 0x73, 0x74, 0x61, 0x6e, 0x74, 0x39, 0x00,
    0x02, 0x00, 0x00, 0x00, 0x10, 0x00, 0x00, 0x00, 0x08, 0x00, 0x00, 0x00,
    0xca, 0xfd, 0xff, 0xff, 0x00, 0x00, 0x00, 0x01, 0x10, 0x00, 0x00, 0x00,
    0x10, 0x00, 0x00, 0x00, 0x0a, 0x00, 0x00, 0x00, 0x1c, 0x00, 0x00, 0x00,
    0xb4, 0xfd, 0xff, 0xff, 0x0f, 0x00, 0x00, 0x00, 0x61, 0x72, 0x69, 0x74,
    0x68, 0x2e, 0x63, 0x6f, 0x6e, 0x73, 0x74, 0x61, 0x6e, 0x74, 0x38, 0x00,
    0x02, 0x00, 0x00, 0x00, 0x04, 0x00, 0x00, 0x00, 0x10, 0x00, 0x00, 0x00,
    0x06, 0xfe, 0xff, 0xff, 0x00, 0x00, 0x00, 0x01, 0x10, 0x00, 0x00, 0x00,
    0x10, 0x00, 0x00, 0x00, 0x09, 0x00, 0x00, 0x00, 0x1c, 0x00, 0x00, 0x00,
    0xf0, 0xfd, 0xff, 0xff, 0x0f, 0x00, 0x00, 0x00, 0x61, 0x72, 0x69, 0x74,
    0x68, 0x2e, 0x63, 0x6f, 0x6e, 0x73, 0x74, 0x61, 0x6e, 0x74, 0x37, 0x00,
    0x04, 0x00, 0x00, 0x00, 0x08, 0x00, 0x00, 0x00, 0x01, 0x00, 0x00, 0x00,
    0x02, 0x00, 0x00, 0x00, 0x02, 0x00, 0x00, 0x00, 0x4a, 0xfe, 0xff, 0xff,
    0x00, 0x00, 0x00, 0x01, 0x10, 0x00, 0x00, 0x00, 0x10, 0x00, 0x00, 0x00,
    0x08, 0x00, 0x00, 0x00, 0x1c, 0x00, 0x00, 0x00, 0x34, 0xfe, 0xff, 0xff,
    0x0f, 0x00, 0x00, 0x00, 0x61, 0x72, 0x69, 0x74, 0x68, 0x2e, 0x63, 0x6f,
    0x6e, 0x73, 0x74, 0x61, 0x6e, 0x74, 0x36, 0x00, 0x04, 0x00, 0x00, 0x00,
    0x08, 0x00, 0x00, 0x00, 0x01, 0x00, 0x00, 0x00, 0x02, 0x00, 0x00, 0x00,
    0x08, 0x00, 0x00, 0x00, 0xc2, 0xff, 0xff, 0xff, 0x00, 0x00, 0x00, 0x01,
    0x14, 0x00, 0x00, 0x00, 0x14, 0x00, 0x00, 0x00, 0x07, 0x00, 0x00, 0x00,
    0x00, 0x00, 0x00, 0x02, 0x1c, 0x00, 0x00, 0x00, 0x7c, 0xfe, 0xff, 0xff,
    0x0f, 0x00, 0x00, 0x00, 0x61, 0x72, 0x69, 0x74, 0x68, 0x2e, 0x63, 0x6f,
    0x6e, 0x73, 0x74, 0x61, 0x6e, 0x74, 0x35, 0x00, 0x01, 0x00, 0x00, 0x00,
    0x04, 0x00, 0x00, 0x00, 0x00, 0x00, 0x16, 0x00, 0x1c, 0x00, 0x18, 0x00,
    0x17, 0x00, 0x10, 0x00, 0x0c, 0x00, 0x08, 0x00, 0x00, 0x00, 0x00, 0x00,
    0x00, 0x00, 0x07, 0x00, 0x16, 0x00, 0x00, 0x00, 0x00, 0x00, 0x00, 0x01,
    0x14, 0x00, 0x00, 0x00, 0x14, 0x00, 0x00, 0x00, 0x06, 0x00, 0x00, 0x00,
    0x00, 0x00, 0x00, 0x02, 0x1c, 0x00, 0x00, 0x00, 0xd0, 0xfe, 0xff, 0xff,
    0x0f, 0x00, 0x00, 0x00, 0x61, 0x72, 0x69, 0x74, 0x68, 0x2e, 0x63, 0x6f,
    0x6e, 0x73, 0x74, 0x61, 0x6e, 0x74, 0x34, 0x00, 0x01, 0x00, 0x00, 0x00,
    0x03, 0x00, 0x00, 0x00, 0x1e, 0xff, 0xff, 0xff, 0x00, 0x00, 0x00, 0x01,
    0x10, 0x00, 0x00, 0x00, 0x10, 0x00, 0x00, 0x00, 0x05, 0x00, 0x00, 0x00,
    0x1c, 0x00, 0x00, 0x00, 0x08, 0xff, 0xff, 0xff, 0x0f, 0x00, 0x00, 0x00,
    0x61, 0x72, 0x69, 0x74, 0x68, 0x2e, 0x63, 0x6f, 0x6e, 0x73, 0x74, 0x61,
    0x6e, 0x74, 0x33, 0x00, 0x01, 0x00, 0x00, 0x00, 0x04, 0x00, 0x00, 0x00,
    0x56, 0xff, 0xff, 0xff, 0x00, 0x00, 0x00, 0x01, 0x10, 0x00, 0x00, 0x00,
    0x10, 0x00, 0x00, 0x00, 0x04, 0x00, 0x00, 0x00, 0x1c, 0x00, 0x00, 0x00,
    0x40, 0xff, 0xff, 0xff, 0x0f, 0x00, 0x00, 0x00, 0x61, 0x72, 0x69, 0x74,
    0x68, 0x2e, 0x63, 0x6f, 0x6e, 0x73, 0x74, 0x61, 0x6e, 0x74, 0x32, 0x00,
    0x01, 0x00, 0x00, 0x00, 0x08, 0x00, 0x00, 0x00, 0x8e, 0xff, 0xff, 0xff,
    0x00, 0x00, 0x00, 0x01, 0x10, 0x00, 0x00, 0x00, 0x10, 0x00, 0x00, 0x00,
    0x03, 0x00, 0x00, 0x00, 0x1c, 0x00, 0x00, 0x00, 0x78, 0xff, 0xff, 0xff,
    0x0f, 0x00, 0x00, 0x00, 0x61, 0x72, 0x69, 0x74, 0x68, 0x2e, 0x63, 0x6f,
    0x6e, 0x73, 0x74, 0x61, 0x6e, 0x74, 0x31, 0x00, 0x01, 0x00, 0x00, 0x00,
    0x08, 0x00, 0x00, 0x00, 0xc6, 0xff, 0xff, 0xff, 0x00, 0x00, 0x00, 0x01,
    0x10, 0x00, 0x00, 0x00, 0x10, 0x00, 0x00, 0x00, 0x02, 0x00, 0x00, 0x00,
    0x1c, 0x00, 0x00, 0x00, 0xb0, 0xff, 0xff, 0xff, 0x0e, 0x00, 0x00, 0x00,
    0x61, 0x72, 0x69, 0x74, 0x68, 0x2e, 0x63, 0x6f, 0x6e, 0x73, 0x74, 0x61,
    0x6e, 0x74, 0x00, 0x00, 0x01, 0x00, 0x00, 0x00, 0x10, 0x00, 0x00, 0x00,
    0x00, 0x00, 0x16, 0x00, 0x18, 0x00, 0x14, 0x00, 0x00, 0x00, 0x10, 0x00,
    0x0c, 0x00, 0x08, 0x00, 0x00, 0x00, 0x00, 0x00, 0x00, 0x00, 0x07, 0x00,
    0x16, 0x00, 0x00, 0x00, 0x00, 0x00, 0x00, 0x01, 0x14, 0x00, 0x00, 0x00,
    0x14, 0x00, 0x00, 0x00, 0x01, 0x00, 0x00, 0x00, 0x14, 0x00, 0x00, 0x00,
    0x04, 0x00, 0x04, 0x00, 0x04, 0x00, 0x00, 0x00, 0x01, 0x00, 0x00, 0x00,
    0x78, 0x00, 0x00, 0x00, 0x03, 0x00, 0x00, 0x00, 0x01, 0x00, 0x00, 0x00,
    0x0a, 0x00, 0x00, 0x00, 0x08, 0x00, 0x00, 0x00, 0x05, 0x00, 0x00, 0x00,
    0x5c, 0x00, 0x00, 0x00, 0x40, 0x00, 0x00, 0x00, 0x24, 0x00, 0x00, 0x00,
    0x14, 0x00, 0x00, 0x00, 0x04, 0x00, 0x00, 0x00, 0xdc, 0xff, 0xff, 0xff,
    0x19, 0x00, 0x00, 0x00, 0x00, 0x00, 0x00, 0x19, 0xe8, 0xff, 0xff, 0xff,
    0x28, 0x00, 0x00, 0x00, 0x00, 0x00, 0x00, 0x28, 0xf4, 0xff, 0xff, 0xff,
    0x03, 0x00, 0x00, 0x00, 0x00, 0x00, 0x00, 0x03, 0x0c, 0x00, 0x0c, 0x00,
    0x0b, 0x00, 0x00, 0x00, 0x00, 0x00, 0x04, 0x00, 0x0c, 0x00, 0x00, 0x00,
    0x16, 0x00, 0x00, 0x00, 0x00, 0x00, 0x00, 0x16, 0x0c, 0x00, 0x10, 0x00,
    0x0f, 0x00, 0x00, 0x00, 0x08, 0x00, 0x04, 0x00, 0x0c, 0x00, 0x00, 0x00,
    0x09, 0x00, 0x00, 0x00, 0x05, 0x00, 0x00, 0x00, 0x00, 0x00, 0x00, 0x09
};

const unsigned int g_model_len = sizeof(g_model);

#endif /* MODEL_H */
