const unsigned char model[] = {
0x1c,0x00,0x00,0x00,0x54,0x46,0x4c,0x33,0x14,0x00,0x20,0x00,
0x1c,0x00,0x18,0x00,0x14,0x00,0x10,0x00,0x0c,0x00,0x00,0x00,
0x08,0x00,0x04,0x00,0x14,0x00,0x00,0x00,0x1c,0x00,0x00,0x00,
0x8c,0x00,0x00,0x00,0xe4,0x00,0x00,0x00,0xc0,0x1a,0x00,0x00,
0xd0,0x1a,0x00,0x00,0x40,0x27,0x00,0x00,0x03,0x00,0x00,0x00,
0x01,0x00,0x00,0x00,0x04,0x00,0x00,0x00,0x5a,0xe3,0xff,0xff,
0x0c,0x00,0x00,0x00,0x1c,0x00,0x00,0x00,0x3c,0x00,0x00,0x00,
0x0f,0x00,0x00,0x00,0x73,0x65,0x72,0x76,0x69,0x6e,0x67,0x5f,
0x64,0x65,0x66,0x61,0x75,0x6c,0x74,0x00,0x01,0x00,0x00,0x00,
0x04,0x00,0x00,0x00,0x90,0xff,0xff,0xff,0x16,0x00,0x00,0x00,
0x04,0x00,0x00,0x00,0x08,0x00,0x00,0x00,0x6f,0x75,0x74,0x70,
0x75,0x74,0x5f,0x30,0x00,0x00,0x00,0x00,0x01,0x00,0x00,0x00,
0x04,0x00,0x00,0x00,0x12,0xe5,0xff,0xff,0x04,0x00,0x00,0x00,
0x0c,0x00,0x00,0x00,0x6b,0x65,0x72,0x61,0x73,0x5f,0x74,0x65,
0x6e,0x73,0x6f,0x72,0x00,0x00,0x00,0x00,0x02,0x00,0x00,0x00,
0x34,0x00,0x00,0x00,0x04,0x00,0x00,0x00,0xdc,0xff,0xff,0xff,
0x19,0x00,0x00,0x00,0x04,0x00,0x00,0x00,0x13,0x00,0x00,0x00,
0x43,0x4f,0x4e,0x56,0x45,0x52,0x53,0x49,0x4f,0x4e,0x5f,0x4d,
0x45,0x54,0x41,0x44,0x41,0x54,0x41,0x00,0x08,0x00,0x0c,0x00,
0x08,0x00,0x04,0x00,0x08,0x00,0x00,0x00,0x18,0x00,0x00,0x00,
0x04,0x00,0x00,0x00,0x13,0x00,0x00,0x00,0x6d,0x69,0x6e,0x5f,
0x72,0x75,0x6e,0x74,0x69,0x6d,0x65,0x5f,0x76,0x65,0x72,0x73,
0x69,0x6f,0x6e,0x00,0x1a,0x00,0x00,0x00,0xd8,0x19,0x00,0x00,
0xd0,0x19,0x00,0x00,0x40,0x19,0x00,0x00,0xf0,0x18,0x00,0x00,
0xa0,0x18,0x00,0x00,0x84,0x18,0x00,0x00,0x68,0x18,0x00,0x00,
0x4c,0x18,0x00,0x00,0x3c,0x0c,0x00,0x00,0xac,0x0a,0x00,0x00,
0x1c,0x09,0x00,0x00,0x0c,0x01,0x00,0x00,0xf8,0x00,0x00,0x00,
0xe4,0x00,0x00,0x00,0xdc,0x00,0x00,0x00,0xd4,0x00,0x00,0x00,
0xcc,0x00,0x00,0x00,0xc4,0x00,0x00,0x00,0xbc,0x00,0x00,0x00,
0xb4,0x00,0x00,0x00,0xac,0x00,0x00,0x00,0xa4,0x00,0x00,0x00,
0x9c,0x00,0x00,0x00,0x94,0x00,0x00,0x00,0x74,0x00,0x00,0x00,
0x04,0x00,0x00,0x00,0xf6,0xe5,0xff,0xff,0x04,0x00,0x00,0x00,
0x60,0x00,0x00,0x00,0x0c,0x00,0x00,0x00,0x08,0x00,0x0e,0x00,
0x08,0x00,0x04,0x00,0x08,0x00,0x00,0x00,0x10,0x00,0x00,0x00,
0x28,0x00,0x00,0x00,0x00,0x00,0x06,0x00,0x08,0x00,0x04,0x00,
0x06,0x00,0x00,0x00,0x04,0x00,0x00,0x00,0x01,0x00,0x00,0x00,
0xea,0x03,0x00,0x00,0x0c,0x00,0x18,0x00,0x14,0x00,0x10,0x00,
0x0c,0x00,0x04,0x00,0x0c,0x00,0x00,0x00,0x43,0x98,0x3c,0xf9,
0xfa,0x83,0x63,0xc8,0x02,0x00,0x00,0x00,0x02,0x00,0x00,0x00,
0x04,0x00,0x00,0x00,0x06,0x00,0x00,0x00,0x32,0x2e,0x32,0x30,
0x2e,0x30,0x00,0x00,0x62,0xe6,0xff,0xff,0x04,0x00,0x00,0x00,
0x10,0x00,0x00,0x00,0x31,0x2e,0x31,0x30,0x2e,0x30,0x00,0x00,
0x00,0x00,0x00,0x00,0x00,0x00,0x00,0x00,0xc8,0xda,0xff,0xff,
0xcc,0xda,0xff,0xff,0xd0,0xda,0xff,0xff,0xd4,0xda,0xff,0xff,
0xd8,0xda,0xff,0xff,0xdc,0xda,0xff,0xff,0xe0,0xda,0xff,0xff,
0xe4,0xda,0xff,0xff,0xe8,0xda,0xff,0xff,0xec,0xda,0xff,0xff,
0xa6,0xe6,0xff,0xff,0x04,0x00,0x00,0x00,0x04,0x00,0x00,0x00,
0xfd,0xff,0xff,0xff,0xb6,0xe6,0xff,0xff,0x04,0x00,0x00,0x00,
0x04,0x00,0x00,0x00,0x01,0x00,0x00,0x00,0xc6,0xe6,0xff,0xff,
0x04,0x00,0x00,0x00,0x00,0x08,0x00,0x00,0xcf,0x10,0x9e,0xbe,
0x95,0x2e,0xfe,0x3e,0xd6,0x43,0xa7,0xbe,0x8a,0x74,0xdf,0xbc,
0x51,0xdb,0xbc,0x3e,0xe9,0x43,0xe0,0xbd,0x5a,0xaa,0xa6,0xbe,
0xc8,0xfd,0x04,0x3e,0xfb,0xb5,0x21,0xbe,0x97,0xc3,0xb5,0x3d,
0x64,0xfc,0xde,0x3e,0x99,0xf9,0xae,0x3d,0xec,0x4c,0x9f,0xbd,
0x54,0x9d,0xf4,0x3b,0x72,0x9d,0x2c,0xbc,0x66,0x96,0x6a,0x3e,
0x00,0x8f,0x0d,0x3d,0xbe,0x1a,0xde,0xbe,0x49,0x7e,0x8f,0xbe,
0xe9,0x8b,0xfc,0xbc,0x12,0xb1,0x3b,0x3d,0x78,0x86,0x04,0x3e,
0xf2,0x74,0xa2,0xbe,0x28,0xa8,0xcf,0xbe,0x08,0x5a,0xd4,0xbd,
0xb2,0x30,0xcb,0x3e,0x96,0x42,0xc0,0xbc,0x9a,0x7f,0x80,0x3e,
0xcf,0xfb,0x91,0xbe,0x1e,0x7d,0xc8,0x3e,0x63,0xf5,0x65,0x3d,
0x1b,0x50,0x62,0xbe,0x95,0x86,0x2c,0xbe,0x60,0x53,0xc1,0xbe,
0x79,0x22,0x4e,0x3e,0xa7,0x76,0x8e,0x3d,0x8e,0xab,0x18,0xbf,
0xf0,0x6e,0x81,0x3e,0xaf,0xc8,0x91,0x3e,0x58,0x80,0x07,0xbf,
0xdf,0xca,0x26,0x3d,0xf9,0x76,0x83,0x3e,0x09,0x4d,0x94,0xbe,
0x4f,0x64,0x72,0x3e,0x3c,0xd9,0x6f,0x3e,0x51,0xb1,0xa7,0xbd,
0x59,0xea,0xee,0xbe,0x76,0xd7,0xb4,0x3d,0x31,0xa6,0xf1,0x3d,
0x08,0xad,0xca,0xbb,0xc4,0xcd,0x94,0xbd,0x38,0xa0,0x86,0xbe,
0xdc,0x65,0xd9,0xbe,0xb0,0xc5,0x35,0x3e,0xc3,0x2a,0x4f,0xbd,
0x69,0x18,0xbc,0xbe,0x16,0xe6,0x43,0x3e,0x42,0x7d,0xe5,0x3e,
0xce,0x75,0x7f,0xbe,0xcf,0x03,0x8a,0xbc,0xa3,0x52,0x20,0xbe,
0x84,0xd8,0x6a,0x3d,0x4e,0x2f,0xb2,0xbd,0x96,0x48,0x59,0x3d,
0x36,0x92,0x91,0x3e,0xec,0x27,0xc8,0x3e,0x28,0xb8,0xa9,0xbe,
0xaa,0x95,0x53,0x3e,0x9f,0x68,0xd2,0x3e,0x5f,0x9a,0xa6,0xbe,
0x7a,0x70,0x54,0x3e,0xfb,0x9f,0x1a,0x3e,0x1e,0x06,0xab,0xbe,
0x91,0x7c,0x81,0x3d,0x12,0xbc,0x7e,0xbe,0x78,0x45,0x71,0xbe,
0xa4,0x07,0x00,0x3e,0x1e,0xc7,0x9b,0x3e,0x81,0x6c,0x0c,0xbe,
0x08,0x6e,0x17,0xbd,0x13,0x4c,0x91,0x3c,0xc4,0xac,0x62,0xbe,
0x5c,0x4d,0x37,0x3e,0x8e,0x62,0xae,0x3e,0x85,0x50,0xbc,0xbd,
0x84,0xe4,0xf2,0x3e,0xcc,0x11,0x1a,0x3d,0x93,0x3a,0x07,0xbe,
0x7a,0x60,0x46,0x3e,0x85,0x45,0x6a,0x3e,0xfb,0x64,0x2e,0x3e,
0x4e,0xc4,0xae,0x3e,0xdb,0x59,0x96,0xbe,0x91,0x72,0xf2,0x3e,
0x5e,0xbb,0xaf,0xbe,0x89,0x79,0x18,0x3e,0x7b,0x9f,0x9b,0x3d,
0x1d,0x36,0xb8,0x3e,0xe8,0x8e,0xcf,0xbd,0x9b,0x48,0x57,0x3e,
0x71,0x4e,0xe5,0x3e,0xac,0xca,0x6c,0x3e,0xea,0xc7,0x37,0x3e,
0x96,0x09,0x25,0x3d,0x20,0x2c,0x9c,0x3e,0x83,0xfc,0x1d,0xbe,
0x29,0xb7,0xc7,0x3c,0x7e,0x42,0x15,0xbc,0xa1,0x2d,0x1b,0x3e,
0x07,0x60,0x30,0x3e,0x95,0xfc,0xd9,0x3e,0xfe,0x02,0x2f,0x3e,
0x40,0x67,0x8d,0xbe,0x1e,0x64,0x5f,0x3e,0xd6,0xf5,0x7e,0x3d,
0x51,0x61,0xe3,0x3e,0xcc,0x46,0x0c,0xbe,0xfb,0x66,0x6c,0x3d,
0x46,0xfa,0x80,0x3d,0xfd,0xa9,0xd5,0x3e,0x00,0x46,0xc5,0x3b,
0xf2,0x71,0xb0,0x3d,0x04,0x4e,0xf9,0x3d,0xe0,0x24,0xae,0xbe,
0xcb,0xe0,0xd4,0x3c,0x99,0xc1,0x96,0xbe,0xdb,0x6d,0xd7,0x3e,
0xb4,0x53,0xa3,0x3d,0xcc,0x59,0xf6,0x3d,0x5e,0xd4,0x8c,0xbe,
0xa9,0x46,0xa7,0xbe,0x08,0xa3,0xa7,0xbe,0x3e,0x2e,0x87,0xbe,
0xce,0x2f,0xa1,0xbe,0xb0,0x46,0x8a,0x3d,0x56,0xcb,0x42,0x3e,
0xf2,0x14,0x5b,0xbe,0x91,0x7b,0x03,0xbe,0xf8,0x85,0x5d,0x3d,
0xda,0x3f,0xb5,0x3e,0x3d,0x0c,0x88,0x3e,0x94,0xfd,0x08,0x3e,
0xc3,0x9e,0x8b,0xbe,0x07,0xdd,0x74,0xbe,0x53,0x0f,0xa3,0x3e,
0xa8,0x41,0xd3,0xbd,0xc9,0xc4,0xaa,0x3e,0x1c,0x40,0xc5,0xbd,
0x63,0xb5,0x83,0x3e,0xc9,0x3e,0x6c,0xbd,0x43,0xdd,0x8b,0x3e,
0x75,0x97,0x1a,0x3e,0x22,0x78,0x21,0xbd,0x28,0x9e,0x0d,0xbe,
0xdd,0x06,0xb8,0xbe,0x5f,0xdd,0x4c,0x3e,0x36,0x02,0x4a,0x3d,
0x97,0x7f,0x76,0xbe,0x07,0x34,0x0d,0xbe,0xa1,0x9a,0x7e,0xbe,
0x3f,0x1d,0xa4,0xbe,0x4e,0xb8,0xc1,0xbe,0x06,0xa3,0xb4,0xbe,
0xbd,0x17,0x77,0x3e,0x51,0xfd,0x15,0x3e,0xea,0xbd,0x61,0x3d,
0x3d,0x92,0x84,0xbe,0x75,0x16,0x62,0xbe,0x73,0x58,0xc4,0xba,
0xc2,0x89,0x62,0xbe,0x62,0xa0,0x40,0xbe,0x69,0xb4,0x2b,0x3e,
0x2d,0x10,0x21,0x3e,0x19,0xa3,0x86,0xbe,0xd4,0x1d,0x1a,0xbe,
0x77,0x08,0x6f,0x3d,0x4d,0xb4,0x13,0xbe,0x11,0xa3,0x05,0xbe,
0xb0,0x41,0x86,0x3e,0xf7,0x24,0xf7,0x3c,0x26,0xd7,0xb7,0xbd,
0x8f,0x5f,0x53,0x3e,0x98,0xa9,0xc5,0x3c,0x67,0xb8,0x67,0x3e,
0x7e,0x92,0x47,0x3e,0x10,0x74,0x1a,0x3e,0x80,0xfc,0x4c,0x3e,
0xc8,0x20,0x10,0x3e,0xcf,0x96,0x18,0x3e,0x75,0x82,0x03,0x3e,
0xb5,0xc0,0x2b,0x3d,0x81,0x8c,0x5a,0xbe,0xe1,0x54,0xdf,0x3d,
0x9a,0x43,0x51,0x3e,0xab,0x15,0x80,0x3e,0x3c,0xd8,0xb7,0x3e,
0xdd,0xa7,0x19,0x3e,0xa6,0x98,0x49,0xbe,0xed,0xfc,0x4f,0x3e,
0xf8,0x0e,0xe0,0x3e,0x90,0xd3,0xde,0xbc,0xc0,0x00,0x7d,0xbc,
0x31,0xe6,0x19,0x3f,0x34,0x37,0xaa,0xbe,0x19,0xba,0x2f,0xbc,
0x8e,0x8c,0xbd,0xbd,0xde,0xfd,0xd1,0x3e,0x80,0x9c,0x76,0x3e,
0x47,0xaa,0x8e,0xbe,0x5a,0xa9,0xac,0xbe,0x28,0x37,0xec,0x3e,
0x7f,0x62,0xc6,0x3e,0xd6,0x06,0x02,0xbf,0xaa,0xc4,0xd4,0x3e,
0xf6,0x4c,0x72,0xbe,0x31,0xa2,0x02,0x3e,0x38,0x3d,0xe5,0x3d,
0x11,0xf1,0x2e,0x3e,0x68,0xbf,0xe1,0xbe,0x90,0xb3,0xea,0x3b,
0x19,0xce,0x3a,0x3e,0x51,0x6d,0x9a,0x3e,0x4d,0x2e,0xcf,0xbe,
0x62,0xe6,0xc4,0x3d,0x74,0x0c,0xde,0x3d,0xb9,0x6a,0x0c,0xbe,
0x68,0x5a,0xd7,0x3e,0x9b,0xa6,0x72,0xbe,0x13,0x49,0x60,0x3e,
0x39,0xaa,0xf1,0x3e,0xc5,0xec,0x8f,0xbd,0xdd,0xeb,0x8c,0xbe,
0x42,0xd0,0x8f,0xbd,0x55,0x9f,0xb1,0x3e,0xb3,0x4e,0x20,0x3f,
0x36,0x27,0x05,0x3f,0x59,0x87,0x1f,0xbe,0x6a,0x96,0x8e,0x3e,
0x67,0x12,0x1f,0x3c,0xbc,0x3d,0xbf,0x3d,0x4b,0xb1,0x2f,0xbe,
0x99,0xe0,0xc5,0xbc,0x58,0x4e,0x02,0xbd,0xf3,0x19,0x9e,0xbd,
0x7c,0xea,0xd3,0xbe,0x52,0x01,0x3c,0x3e,0x0e,0x64,0xc2,0x3c,
0x44,0x33,0xf2,0xbe,0xaf,0x07,0x8c,0x3e,0xbb,0xcb,0xcd,0x3e,
0x8d,0x01,0x30,0xbe,0xb8,0x1b,0xc9,0x3d,0xf7,0x19,0xf5,0xbd,
0xd5,0xf3,0xad,0xbc,0xc6,0x88,0xb0,0x3d,0xce,0xa5,0x2a,0xbe,
0xe2,0xb0,0x57,0xbe,0xeb,0xaa,0x4a,0xbe,0xe5,0xca,0xc7,0x3e,
0x46,0x4a,0x80,0x3d,0xae,0x30,0x21,0xbf,0x4f,0x9e,0x6b,0xbd,
0x9f,0x06,0xca,0xbe,0x1d,0x96,0x07,0xbf,0x53,0x77,0x46,0xbe,
0x86,0x0d,0x4e,0x3e,0xa3,0x58,0xbe,0xbe,0xea,0x32,0xb1,0x3e,
0xb6,0x35,0x4c,0xbe,0x8e,0xc3,0x4f,0x3d,0x67,0x0e,0x0b,0xbf,
0xce,0x62,0x77,0x3d,0x14,0xc8,0xad,0xbd,0x36,0x40,0x18,0x3f,
0x4e,0x1e,0x4e,0x39,0xf7,0x9a,0x24,0x3e,0x6e,0x7c,0x2b,0xbd,
0x11,0xef,0xb7,0x3c,0x60,0xe3,0x87,0xbe,0x19,0x09,0x02,0x3f,
0x34,0x60,0xb9,0xbd,0x62,0x8f,0x60,0x3d,0x3f,0xb7,0x40,0x3e,
0xa0,0x7b,0xad,0x3e,0x27,0xd7,0x4d,0xbe,0xcc,0x29,0x50,0x3b,
0xbf,0x3e,0x07,0x3f,0xe5,0x84,0xfa,0x3e,0xab,0x1f,0x98,0x3d,
0x26,0x9e,0xc1,0x3c,0x76,0xfd,0x4b,0xbe,0x4d,0xb6,0xc1,0x3e,
0x4f,0x0b,0x09,0x3e,0x8b,0x37,0x74,0xbe,0xb9,0xfe,0x2b,0xbe,
0x51,0x23,0x91,0x3e,0x86,0x37,0x69,0x3e,0xa1,0xd7,0x3d,0xbd,
0x4b,0xc1,0x2d,0xbe,0x06,0xea,0xae,0xbe,0x54,0x73,0xa3,0x3e,
0x3d,0x3e,0x15,0x3d,0x58,0x69,0x36,0x3d,0x93,0x9b,0x3c,0x3e,
0x2f,0x89,0x43,0x3e,0xb1,0x32,0x06,0xbe,0x39,0x90,0x80,0x3e,
0x52,0xe4,0x25,0x3d,0x07,0x76,0x64,0xbe,0xa6,0x3b,0x6a,0xbc,
0x16,0x35,0x21,0xbe,0x38,0x2a,0x89,0xbd,0xbc,0x6a,0xa2,0xbe,
0x1c,0xf3,0x43,0xbe,0xcd,0xa0,0xbf,0x3d,0xcd,0x6e,0x49,0x3e,
0x31,0x9e,0x88,0xbd,0x83,0xb3,0x64,0x3e,0x84,0x83,0x43,0x3e,
0xe2,0xdf,0xe3,0x3e,0x66,0xf1,0x8f,0xbe,0x9f,0x88,0x59,0x3e,
0x4d,0x3b,0x66,0xbe,0x22,0x84,0xbf,0xbc,0xbd,0xec,0x84,0x3d,
0x5b,0xad,0xa1,0x3e,0x1c,0xa5,0x59,0xbe,0x7a,0xef,0xe0,0xb7,
0xa4,0x3a,0x0a,0x3e,0x00,0xb9,0xb2,0xbd,0x13,0xdb,0x17,0x3f,
0x02,0x49,0x53,0x3e,0x1d,0x87,0xaa,0x3e,0x1c,0xe4,0xaa,0xbd,
0xaf,0xe1,0x89,0xbd,0xf9,0xfa,0xbc,0x3e,0x74,0xaa,0x9b,0x3e,
0xa8,0xf9,0x0b,0xbe,0xe6,0xb1,0x71,0xbd,0x2a,0x4a,0x2a,0x3d,
0xf9,0x57,0x30,0xbe,0x60,0xc3,0x66,0x3e,0x5c,0x25,0x7c,0x3e,
0x8f,0x2f,0x0c,0xbf,0x43,0xa7,0x90,0xbc,0x04,0x26,0x9a,0x3e,
0x7a,0x52,0xb6,0x3c,0x17,0x35,0x93,0x3d,0xe2,0xa3,0x8d,0xbe,
0x47,0xe0,0xd3,0x3e,0xea,0x07,0x62,0xbe,0x04,0xe0,0x19,0xbe,
0xe2,0xd5,0xa8,0xbe,0xf2,0x5c,0xe1,0x3e,0x1f,0x1d,0x1b,0xbd,
0xec,0x37,0xa5,0x3e,0x24,0xa0,0xdf,0x3e,0x8e,0xcd,0x55,0x3e,
0x7c,0x48,0x0c,0x3e,0x2d,0x7d,0x07,0x3f,0xf7,0x01,0x43,0x3e,
0x39,0xf3,0xb0,0xbd,0x77,0x96,0xb5,0x3e,0x91,0x6d,0x9a,0x3c,
0x68,0x27,0x91,0xbe,0x00,0x1e,0x60,0xbc,0x91,0x32,0xbd,0x3e,
0x27,0xa2,0x93,0x3e,0xdb,0xc9,0x5a,0xbe,0x4f,0xbf,0x57,0x3d,
0x97,0x0b,0xf1,0x3d,0x29,0xb5,0x81,0xbe,0x10,0xf6,0xbc,0x3c,
0x09,0xe9,0x3f,0xbe,0x11,0x0c,0x93,0x3e,0x96,0xb9,0xed,0x3d,
0xcc,0x8a,0x85,0x3d,0x6d,0xe8,0x1f,0xbe,0xbe,0xa7,0xea,0xbd,
0x75,0x60,0x1d,0xbe,0xcc,0xd3,0x6c,0x3e,0xa5,0xa4,0x31,0xbe,
0x3e,0xdb,0x39,0xbe,0xae,0x42,0x7c,0x3e,0xc6,0x84,0x9f,0xbd,
0x10,0xe0,0x99,0xb7,0x25,0xf8,0x13,0xbe,0x2d,0x52,0x40,0xbe,
0xbf,0x31,0xf3,0x3e,0xc8,0x8f,0xbb,0x3d,0xba,0x87,0x36,0x3d,
0xea,0xb9,0xd4,0x3d,0xa0,0xa8,0x9d,0xbe,0x00,0x1a,0xe2,0x3d,
0xdb,0x8d,0x85,0x3e,0xd2,0xd2,0x7a,0xbe,0x2e,0xf2,0x54,0xbe,
0x44,0x9b,0x95,0x3e,0x73,0x2d,0x9b,0x3e,0x88,0x6a,0x86,0xbe,
0x3c,0x82,0xdd,0xba,0x08,0x5f,0x5b,0xbe,0xcc,0xfd,0x83,0x3d,
0x6b,0x55,0x9d,0xbe,0xa2,0x44,0xa9,0xbe,0x4d,0x25,0x53,0x3e,
0x66,0x35,0x78,0x3e,0x14,0xb3,0x2f,0xbe,0x7d,0xb2,0x6c,0x3a,
0xbe,0xa3,0xe7,0x3e,0xb2,0xc5,0x48,0xbe,0x36,0x59,0x42,0xbe,
0xf8,0x91,0x64,0xbe,0x1f,0x59,0xe8,0x3e,0x0e,0x9b,0xae,0xbe,
0xb8,0x70,0x38,0x3e,0x98,0x17,0xb2,0xbe,0x0a,0x76,0x29,0xbd,
0x38,0x86,0x6e,0x3d,0x46,0x4c,0x4b,0xbe,0x65,0xc2,0x48,0xbe,
0xc1,0x6f,0xeb,0x3e,0xb8,0x14,0x1e,0xbd,0x4d,0x6a,0xfc,0xbe,
0xc2,0xcf,0x3d,0xbe,0x44,0x1f,0x95,0x3e,0x61,0x43,0xc6,0xbe,
0xd6,0xbd,0x5e,0x3d,0x6e,0x39,0x5e,0x3d,0xb1,0x43,0xbc,0x3e,
0xc3,0xdf,0xfc,0xbe,0xdb,0x93,0x4a,0xbe,0xf2,0x68,0x73,0xbe,
0x61,0x96,0xab,0xbe,0xba,0xd3,0x00,0x3e,0x9b,0xeb,0x1e,0x3e,
0x31,0x85,0x50,0xbd,0x88,0xef,0xbf,0xbe,0x8c,0x02,0xee,0xbd,
0x8c,0x84,0x53,0x3e,0x58,0x89,0x2f,0xbd,0xd4,0x78,0x04,0x3d,
0x00,0x40,0xd3,0xba,0x50,0xc4,0xa4,0xbe,0xa5,0xdb,0xe8,0x3d,
0x7e,0xf6,0x06,0xbe,0xdb,0x34,0x94,0xbe,0x6a,0x8a,0x18,0x3e,
0x10,0xbb,0xab,0xbe,0xd3,0xa7,0xc1,0xbe,0xe4,0x68,0xb2,0xbe,
0xff,0x4e,0x78,0x3d,0x9a,0x72,0xad,0xbe,0x90,0xd9,0x8c,0x3e,
0xe6,0xe5,0xfc,0x3d,0x7e,0xbd,0x44,0xbe,0x06,0x7e,0x71,0xbe,
0xc4,0x6a,0x50,0xbe,0x4d,0xe7,0x28,0xbe,0xa5,0x51,0xc4,0xbd,
0xbd,0x6b,0x6b,0xbe,0xf8,0x92,0xa7,0xbd,0x25,0x59,0xbe,0xbc,
0x53,0x4a,0x59,0x3e,0x29,0xe2,0x9c,0xbe,0xc3,0x87,0x11,0xbe,
0xe8,0xe1,0xf4,0xbd,0x43,0xfb,0x79,0x3e,0x74,0x66,0x61,0x3d,
0x3e,0xea,0x9b,0xbe,0x3a,0x6b,0xd9,0x3d,0xcf,0xb8,0x77,0x3d,
0x30,0xe6,0x95,0xbe,0xf1,0xe8,0xe1,0x3c,0xe9,0xf8,0x99,0xbd,
0x30,0xbd,0x0f,0xbe,0xcb,0xe6,0x52,0xbe,0x92,0x24,0x7d,0xbe,
0x81,0x37,0x8d,0xbe,0x59,0xcc,0xbf,0x3e,0x00,0x38,0xe2,0xba,
0x64,0x75,0x4c,0xbe,0xfd,0x01,0xa2,0xbe,0x5a,0x8c,0x04,0x3e,
0x75,0xd4,0x88,0xbe,0x90,0x7e,0x11,0x3e,0x03,0x0f,0xb3,0x3e,
0x70,0xa0,0xd9,0xbc,0xfb,0x57,0x61,0xbe,0xc3,0x0e,0x5f,0xbe,
0x20,0xa1,0x05,0xbd,0x84,0x5c,0xd8,0xbd,0x9c,0x40,0x87,0xbe,
0x22,0x68,0x80,0xbe,0x58,0x72,0x7a,0xbe,0x50,0xfa,0x83,0xbd,
0x5d,0xca,0x7f,0xbe,0x80,0x21,0x94,0x3e,0x6a,0xed,0x06,0x3e,
0xc3,0xd9,0xd6,0x3e,0x07,0xdf,0xcb,0x3e,0x25,0x60,0x4d,0xbe,
0x9a,0xc9,0x03,0xbe,0x82,0x38,0x18,0xbd,0xe8,0xcd,0x4a,0x3e,
0x90,0xe9,0x13,0xbe,0xf4,0x03,0x24,0xbe,0xe1,0xe0,0xaa,0xbe,
0xe4,0xeb,0xb7,0x3d,0xf2,0x3e,0x8e,0x3d,0xef,0xa3,0x12,0xbe,
0x23,0x3a,0x6a,0xbd,0xd2,0xee,0xff,0xff,0x04,0x00,0x00,0x00,
0x80,0x01,0x00,0x00,0xe3,0xab,0x09,0xbf,0x98,0xd1,0x0f,0x3e,
0xfe,0xe4,0xec,0x3e,0x2a,0x36,0x99,0x3e,0x89,0x74,0x0b,0x3e,
0xe5,0x90,0xb8,0x3e,0x85,0x30,0x5b,0xbe,0x21,0xf0,0x22,0xbf,
0x77,0x1a,0xa9,0x3e,0x6e,0x0b,0xd6,0x3e,0x5c,0xda,0x10,0xbe,
0x57,0x80,0xb4,0xbd,0x2d,0x0c,0x18,0xbf,0x20,0x0b,0x06,0x3f,
0xed,0xad,0xc6,0x3e,0x93,0xbb,0x0a,0x3f,0x16,0x04,0x9a,0x3e,
0x33,0x69,0xb4,0xbe,0x39,0xf4,0x97,0xbe,0x3b,0xb0,0x54,0x3e,
0x62,0x44,0x00,0xbf,0x6a,0x1b,0x55,0x3e,0x25,0x9a,0x1c,0xbf,
0xe4,0x3e,0x90,0x3d,0x8c,0x9d,0xcf,0xbe,0x22,0xea,0x70,0x3e,
0x30,0xc4,0x27,0xbd,0x14,0xc8,0x82,0x3e,0x5a,0xa7,0x82,0x3e,
0x36,0x6b,0x24,0xbe,0xee,0x09,0x82,0xbe,0x04,0x29,0xb0,0xbe,
0xf0,0x85,0x01,0x3e,0x7f,0x0c,0x98,0xbe,0xc5,0xa0,0x90,0xbd,
0x07,0xc0,0x39,0xbe,0x3e,0xa9,0x94,0x3d,0xcb,0x60,0x8b,0x3e,
0x78,0xed,0xba,0x3e,0x7a,0x1e,0xfb,0x3c,0x29,0x0d,0x0d,0x3c,
0xe0,0xd0,0xcc,0xbe,0x9c,0xe2,0xab,0xbe,0xa2,0xd8,0x12,0x3d,
0xc9,0xf0,0x2b,0x3e,0x11,0x13,0xdb,0x3d,0xb7,0xa9,0xe9,0x3e,
0xf0,0x55,0x28,0xbe,0x3e,0xb0,0xc9,0xbe,0x1e,0x29,0x76,0xbd,
0x3b,0x13,0x66,0xbe,0x22,0x7a,0x8d,0x3e,0x88,0xc8,0x7f,0x3e,
0x27,0xa4,0xb1,0xbd,0x68,0xa0,0x4e,0x3e,0x57,0xb0,0xce,0xbd,
0x6d,0x46,0x9b,0xbe,0x66,0xb5,0x99,0xbe,0x8a,0x0b,0xea,0xbe,
0x94,0xd6,0xbd,0x3e,0xf6,0x4e,0xa9,0xbb,0xd9,0xce,0x81,0x3e,
0xba,0x0b,0x68,0xbe,0x3b,0x71,0xa5,0xbe,0x0b,0xe9,0xb5,0x3e,
0xef,0xc5,0xdb,0xbd,0x34,0x55,0x28,0xbe,0xf2,0xcc,0xfd,0xbc,
0x88,0x54,0xfa,0x3e,0xcd,0xbc,0xef,0xbd,0xb2,0xd4,0x7a,0x3e,
0x5e,0xac,0xff,0x3e,0xc5,0x59,0xb4,0x3e,0x4a,0x3b,0x6d,0x3e,
0x9e,0x7c,0x11,0xbe,0x20,0xe2,0xca,0xbe,0x62,0x81,0xc2,0x3e,
0x6e,0x75,0x02,0xbf,0xf1,0xe3,0xdc,0xbc,0xb6,0xe4,0x16,0x3e,
0xf2,0x31,0x1e,0xbf,0x22,0xbb,0x1d,0xbe,0x0b,0x25,0xd2,0x3e,
0x5f,0x00,0xdd,0xbe,0x95,0xab,0xf5,0xbe,0xd7,0x77,0xd1,0xbd,
0x9f,0xf0,0xc5,0x3d,0x6d,0x9d,0xab,0x3e,0x8d,0x75,0xe3,0x3e,
0xa7,0x0b,0x00,0xbe,0xa0,0x79,0xe1,0xbe,0x3f,0x5c,0x9c,0x3e,
0x71,0xcf,0xe1,0xbb,0x15,0x3b,0x5a,0x3e,0x4c,0x8b,0xc5,0x3d,
0x0a,0x19,0xeb,0x3e,0x5e,0xf0,0xff,0xff,0x04,0x00,0x00,0x00,
0x80,0x01,0x00,0x00,0xbe,0x79,0xda,0x3c,0xb6,0xe4,0x0a,0x3f,
0x56,0x98,0xb2,0xbe,0x3f,0x32,0x1f,0x3f,0x4a,0x2a,0x08,0xbd,
0xe5,0xdc,0x6d,0x3e,0xc4,0x0e,0xa0,0x3e,0xb9,0xcf,0xba,0x3d,
0x09,0x23,0x54,0xbe,0x71,0xf6,0xe2,0xbd,0x78,0x1f,0xb9,0x3e,
0xbe,0xee,0x59,0x3e,0x92,0x3d,0x43,0xbe,0x85,0xa6,0xbb,0xbd,
0xee,0xd1,0x00,0x3e,0xb3,0x49,0x17,0x3e,0x2f,0x87,0xf3,0xbd,
0xab,0x3a,0xc0,0x3e,0x7d,0xa6,0x91,0x3e,0x03,0x0b,0xfa,0x3e,
0x4c,0x08,0xde,0xbd,0xb4,0x51,0xb8,0x3e,0xfd,0x2c,0x7e,0xbe,
0xa9,0x36,0x0b,0x3f,0x0c,0x02,0x2a,0xbe,0x16,0x51,0x68,0xbe,
0x95,0x83,0xa5,0x3e,0xe2,0xaa,0x67,0x3e,0xb2,0x91,0xc2,0x3e,
0x01,0x71,0x30,0x3d,0x8f,0xa2,0x6b,0x3e,0x08,0x5b,0x24,0xbe,
0x11,0xc0,0x92,0x3e,0x4a,0xb6,0x26,0x3d,0xd6,0xc0,0x8a,0x3e,
0xf1,0xe6,0xa9,0xbe,0xd5,0xce,0x77,0xbe,0xb6,0xc8,0x14,0xbe,
0xe0,0x48,0x54,0xbe,0x25,0xe4,0x9c,0xbe,0xe8,0xce,0x4c,0xbe,
0x48,0x33,0xdd,0x39,0x83,0x2a,0x0e,0x3e,0x5a,0x98,0xed,0xbe,
0xe8,0x68,0xaf,0xbe,0x68,0x72,0x04,0xbf,0x7d,0xd9,0xfa,0xbd,
0x5d,0x36,0xe3,0xbe,0x8c,0xe4,0x87,0xbe,0x38,0xbd,0xe3,0x3e,
0x6b,0x27,0xa0,0xbd,0xb3,0x07,0xf9,0x3d,0x51,0xa5,0x94,0xbe,
0xa6,0x65,0xee,0xbd,0xe0,0x12,0xca,0x3d,0x59,0xad,0xdb,0x3d,
0x67,0xda,0xc4,0x3a,0xcd,0x29,0xd7,0xbe,0x3e,0xdc,0xa7,0x3e,
0xd7,0x6a,0x0c,0x3e,0x5c,0x70,0x48,0xbd,0x9c,0x49,0xa0,0x3d,
0x6a,0x38,0xb2,0x3e,0x8a,0x57,0x04,0xbf,0x2c,0x9f,0x98,0xbe,
0x8b,0x62,0x06,0xbf,0x21,0x13,0xae,0xbe,0x0e,0x5d,0x00,0x3e,
0xbd,0x11,0xa8,0x3c,0x40,0x91,0x04,0x3f,0x8f,0xae,0xb9,0xbe,
0xec,0x4c,0x04,0x3f,0xfe,0x0e,0xec,0xbd,0xca,0x06,0xee,0xbe,
0x29,0x1a,0xb7,0x3c,0x6a,0x00,0x27,0xbe,0x1d,0x8e,0x0c,0xbe,
0x51,0x12,0x7b,0xbd,0xd2,0x11,0xd9,0x3d,0xaa,0x88,0xf5,0xbe,
0xe2,0x4b,0x23,0xbe,0xe8,0x8b,0x9f,0xbe,0x56,0xbd,0xf4,0xbc,
0xa1,0xd2,0x3c,0xbb,0xe6,0x8d,0xc9,0x3e,0x06,0x19,0x01,0x3e,
0x1c,0xf2,0xce,0x3e,0x7f,0xaa,0xb7,0xbe,0xd2,0x74,0xf8,0xbc,
0xa9,0x37,0xac,0xbd,0x88,0x77,0xcd,0x3e,0x43,0x99,0xf4,0xbd,
0xec,0x07,0x9c,0x3e,0xdf,0x84,0x94,0x3e,0xd9,0x2e,0x8b,0x3e,
0xcb,0xbb,0xa9,0xbd,0xea,0xf1,0xff,0xff,0x04,0x00,0x00,0x00,
0x00,0x0c,0x00,0x00,0x1b,0x45,0xcb,0x3d,0xf0,0x5e,0x5e,0x3e,
0x88,0xcb,0x30,0xbe,0xd2,0x88,0x82,0x3d,0x2d,0xa4,0xa8,0xbd,
0xc3,0x5f,0x0a,0xbd,0x9b,0x88,0xe4,0x3d,0x9b,0xce,0x1b,0x3e,
0xb3,0x0b,0x0d,0x3e,0xb6,0xa3,0xfe,0xbd,0x06,0x00,0x72,0xbe,
0xb0,0x93,0xf9,0x3d,0x28,0xdc,0x9f,0x3c,0xfa,0xf4,0x6a,0x3e,
0x0b,0x1e,0xfb,0xbd,0x2d,0x88,0x70,0x3e,0xc8,0xbf,0x5c,0xbd,
0x12,0x17,0x63,0xbe,0x5b,0xea,0x0c,0xbd,0x84,0xb2,0x1f,0xbe,
0x5a,0x0b,0x73,0xbe,0x50,0x9c,0x10,0xbe,0x7a,0x1a,0x14,0xbd,
0xa4,0x8d,0xb6,0xbd,0x88,0x2d,0x85,0xbe,0x46,0x87,0x06,0x3d,
0x01,0x46,0x1b,0x3e,0x86,0xad,0x88,0xbd,0xe4,0x89,0x40,0xbd,
0x73,0x2e,0xef,0xbd,0xe8,0x28,0x3b,0x3e,0x40,0xd6,0x9c,0x3d,
0xf3,0x2e,0x2a,0xbe,0x45,0xaf,0x33,0xbe,0xfa,0x00,0x16,0x3e,
0x66,0x41,0x61,0xbe,0x97,0xfe,0x53,0x3e,0x54,0xf1,0x79,0xbc,
0x61,0x56,0x43,0xbe,0x7b,0x67,0x87,0xbe,0xb5,0x51,0x4f,0x3e,
0x00,0x8b,0xbf,0xbc,0x44,0x74,0x9e,0xbc,0xf6,0xd9,0x97,0xbc,
0x3c,0x99,0x02,0x3e,0x7a,0x3a,0x29,0xbe,0x18,0xf0,0x53,0xbe,
0x73,0x87,0xaa,0xbd,0x25,0xd8,0x81,0xbe,0x56,0x26,0x9d,0xbe,
0x4f,0x74,0xbe,0x3d,0x9d,0xad,0x80,0xbe,0xe1,0x6b,0x54,0x3e,
0xaf,0xbc,0x45,0x3e,0xe2,0x2a,0x9a,0x3e,0xf5,0xda,0xbe,0x3e,
0xcf,0x65,0x67,0xbe,0x8e,0x4f,0xf1,0x3d,0xe9,0x0a,0xe3,0x3d,
0x47,0xb1,0xcb,0xbd,0x37,0xbb,0x13,0xbd,0x5f,0xeb,0x25,0x3e,
0xf3,0xb8,0xa2,0x3e,0xd0,0x76,0xb3,0xbd,0x49,0x05,0x42,0xbe,
0xad,0x35,0x16,0x3e,0xb1,0xab,0x0f,0x3e,0x60,0x7a,0x43,0xbc,
0xcc,0x80,0xef,0x3b,0x18,0x53,0xfa,0xbd,0x3f,0x84,0x74,0x3e,
0x40,0x99,0x4a,0x3e,0xae,0x16,0x23,0xbe,0x17,0xd2,0x37,0x3e,
0xf1,0x14,0xca,0x3e,0x83,0x9e,0x56,0xbe,0xc9,0x0e,0x3e,0xbd,
0x3c,0xc1,0x95,0x3e,0x7e,0x72,0x00,0x3e,0x86,0x91,0x84,0x3e,
0xaf,0xdb,0x85,0xbe,0x84,0x55,0x7a,0xbe,0x50,0x47,0xa8,0xbd,
0x05,0xe2,0xd6,0xbc,0x29,0x79,0x62,0x3e,0xa7,0x12,0x04,0x3e,
0xf5,0x50,0x2c,0xbd,0x17,0xd2,0xcd,0x3e,0x80,0x8e,0x04,0xbe,
0x33,0xad,0xb2,0x3c,0x86,0x2b,0x4c,0x3e,0x58,0x23,0xd7,0x3c,
0x56,0x63,0x41,0x3e,0xb9,0xae,0x1e,0x3e,0x34,0xbb,0xad,0xbd,
0x9b,0xbe,0x96,0xbd,0x03,0x2f,0xad,0x3e,0x5f,0x82,0xc3,0x3e,
0x1d,0x8c,0x25,0x3e,0xad,0x37,0xc3,0x3e,0xcd,0x19,0x8d,0xbd,
0x08,0xbb,0x07,0xbe,0x93,0xc0,0x28,0xbe,0x24,0x67,0x8b,0xbe,
0xee,0xf7,0xf9,0xbd,0xe0,0x16,0x11,0x3e,0x33,0xec,0x2c,0x3d,
0xe9,0x85,0xba,0xbd,0x63,0x99,0x0d,0x3e,0xfd,0x8e,0xc3,0x3c,
0x84,0x95,0x47,0xbd,0xf4,0xc3,0xab,0x3c,0xa1,0x36,0x4f,0xbd,
0x6b,0x27,0xbe,0x3d,0x6d,0xc9,0x22,0x3e,0x50,0xbf,0x99,0x3e,
0xc7,0x4b,0x84,0x3e,0xbc,0x03,0x47,0x3e,0xd1,0x29,0xc8,0x3c,
0xc0,0x0e,0x89,0xbd,0xc0,0xe2,0x96,0x3e,0xc2,0x89,0x85,0x3e,
0x47,0xff,0x3f,0x3e,0x28,0x55,0x1d,0xbe,0x05,0x31,0x32,0x3e,
0xd5,0x7f,0x7e,0x3a,0x83,0x57,0xb3,0x3d,0x85,0x35,0x52,0xbe,
0x8d,0x4f,0x33,0x3d,0xee,0x9a,0xd7,0x3e,0x38,0x74,0xea,0xbd,
0x1d,0x88,0x3e,0x3e,0x65,0x15,0x76,0x3e,0x49,0xee,0x68,0x3e,
0x9e,0x79,0xcd,0x3d,0x64,0xee,0x70,0xbe,0xac,0x33,0x0c,0xbe,
0x74,0x21,0xa3,0x3e,0x86,0x03,0x1f,0x3e,0x05,0x35,0x8c,0x3e,
0xb9,0xc8,0x99,0x3d,0x51,0x1e,0xc0,0x3d,0x4c,0x08,0x70,0x3d,
0x04,0x3a,0xfe,0x3d,0xff,0x71,0x47,0xbe,0x06,0x45,0x3d,0xbe,
0xff,0x4d,0xf0,0xbd,0xdb,0x36,0x4b,0x3e,0xf6,0xd4,0x34,0x3e,
0x43,0xf3,0x99,0x3e,0x9e,0x68,0x74,0x3e,0xcd,0x8e,0x6a,0x3e,
0xdd,0x06,0x4b,0xbc,0xaf,0xcd,0xce,0x3d,0x96,0x52,0x9a,0x3c,
0x0e,0x80,0x30,0xbe,0x79,0x8a,0x34,0x3e,0xc3,0x65,0xbc,0x3e,
0xc1,0xed,0xed,0xbc,0x9f,0x4e,0x93,0x3e,0x30,0xf1,0xd6,0xbd,
0xe8,0x54,0x99,0xbe,0xe9,0xc9,0x86,0x3c,0xc5,0x10,0x6f,0xbe,
0x10,0x12,0x4e,0x3e,0xd8,0x18,0xb0,0xbc,0x8d,0x53,0xaa,0x3d,
0x8b,0xd1,0x6d,0x3d,0x44,0xbc,0x34,0x3e,0x5c,0xd1,0x2a,0x3c,
0x62,0x00,0x6b,0x3e,0x78,0xfe,0x59,0x3e,0xe5,0x03,0xa1,0x3e,
0xcf,0xd6,0x45,0x3e,0x4a,0x5e,0x84,0x3d,0x56,0xfa,0xc8,0xbd,
0xab,0x80,0x6f,0x3c,0x35,0x39,0x2d,0x3e,0xbd,0xfa,0x8f,0x3e,
0xfd,0xa5,0x01,0x3e,0x21,0xe2,0x18,0x3e,0x88,0x18,0x40,0x3e,
0x18,0xc9,0xcc,0xbd,0x74,0xb5,0xbb,0x3c,0xb7,0x75,0x67,0x3d,
0xbe,0x23,0x0f,0xbe,0x05,0xea,0xf3,0x3d,0x19,0x7f,0xc7,0xbd,
0x52,0xce,0x38,0x3e,0xf9,0x3d,0x67,0xbd,0xbe,0x3e,0x9d,0xbd,
0x4b,0x43,0x9b,0x3d,0x59,0x3b,0x10,0xbe,0x0b,0xd0,0x88,0xbe,
0x01,0xef,0x08,0xbe,0x57,0x5c,0x99,0xbe,0xc2,0x37,0x14,0x3e,
0xad,0xb9,0x72,0x3e,0x97,0xf2,0x12,0x3e,0x7d,0x09,0x6a,0x3e,
0xd9,0xb9,0xd6,0xbd,0xea,0x40,0x2f,0x3e,0xe6,0x83,0x23,0x3e,
0x2e,0x65,0x71,0xbe,0x8c,0xd9,0xac,0x3e,0x67,0xfc,0x43,0x3e,
0x04,0x0a,0x91,0x3e,0x43,0x09,0x43,0x3e,0x67,0xc8,0xb4,0x3d,
0xa0,0xa5,0xd7,0x3b,0xf6,0x9e,0x69,0xbe,0x6d,0x0a,0x0e,0x3d,
0x56,0x75,0x4b,0x3e,0x80,0xb4,0xa5,0x3d,0x1b,0x8f,0x77,0x3e,
0xbe,0x13,0x62,0x3e,0x3e,0x99,0x42,0xbe,0x0c,0x4d,0x05,0xbc,
0x01,0x19,0xde,0x3e,0xf2,0xd1,0x05,0xbe,0x23,0x46,0x2f,0x3e,
0xfb,0x00,0xcc,0x3e,0x88,0xa9,0xbf,0x3d,0xe1,0x59,0xa6,0x3d,
0x8d,0xfa,0x45,0xbe,0x06,0xfd,0x1c,0xbe,0xca,0x4a,0x39,0xbd,
0x93,0x3a,0xc9,0xbe,0xaf,0x33,0xf3,0xbb,0xb0,0x7d,0x93,0x3d,
0x4f,0x10,0x06,0xbe,0x3c,0x07,0x2b,0x3e,0xd9,0x07,0x4a,0x3e,
0x8e,0x7c,0xd1,0xbc,0xa4,0xa1,0xa6,0x3e,0xac,0xeb,0x16,0x3e,
0xb3,0x37,0x2f,0xbd,0x60,0x40,0xf9,0x3d,0xd2,0xe0,0xcc,0xbd,
0x3f,0x69,0x27,0x3d,0x42,0x42,0x54,0x3e,0x03,0x5c,0xd3,0x3e,
0x1f,0x4a,0x58,0xbd,0x58,0x9c,0x98,0x3d,0x7a,0xb5,0x22,0xba,
0x5f,0x95,0x6b,0x3e,0x20,0x26,0x42,0xbe,0x6f,0xf4,0x10,0xbe,
0x82,0x88,0x5c,0xbd,0x6e,0x11,0xb5,0x3d,0x97,0xf3,0x68,0xbe,
0xca,0x66,0x99,0x3d,0x72,0x42,0x98,0xbe,0x5f,0x9f,0x36,0xbd,
0xc4,0x70,0xab,0x3e,0x4f,0x58,0xa1,0xbd,0x43,0x0b,0x14,0x3e,
0xe3,0x24,0x2e,0x3e,0xd1,0x77,0x17,0x3b,0x97,0x7a,0xa8,0x3d,
0xbb,0x40,0xde,0x3d,0x37,0x4b,0x30,0x3e,0xa7,0x6d,0x58,0x3e,
0x63,0x23,0x70,0xbe,0xa7,0x6b,0xd4,0x3d,0x66,0x8a,0x91,0x3e,
0xf4,0x97,0x14,0x3d,0x01,0xfd,0x72,0x3e,0x25,0x84,0x8e,0xbe,
0x06,0xee,0xc3,0x3d,0x0c,0x5d,0x23,0x3d,0xc0,0x25,0x65,0x3e,
0xf9,0xfd,0x66,0x3e,0x96,0xf3,0x6c,0x3e,0x92,0xca,0x05,0xbe,
0x21,0xee,0x84,0x3e,0xdb,0xaf,0x88,0x3e,0x5a,0xfb,0xd4,0xbd,
0x7f,0x77,0x3e,0xbe,0xc9,0xbe,0x81,0xbe,0x42,0xc2,0x68,0x3e,
0x64,0x7d,0xe1,0x3d,0x11,0x36,0x44,0xbe,0x70,0x37,0x7b,0xbd,
0xcc,0x13,0x8d,0x3d,0x6e,0x50,0x05,0xbe,0xe2,0xd6,0x21,0x3e,
0xfe,0xda,0x90,0x3d,0x74,0xa0,0x1a,0xbc,0x3d,0xca,0x93,0xbd,
0x3c,0x77,0x47,0x3e,0xe7,0x71,0x37,0x3d,0xf3,0x1a,0x17,0x3e,
0x7f,0x2c,0x98,0xbd,0x79,0x1a,0x5b,0xbe,0x38,0xb4,0x03,0xbe,
0x07,0x28,0x3a,0xbd,0x34,0x25,0x8e,0xbd,0xf3,0x8a,0x38,0xbe,
0xff,0x41,0x77,0x3e,0x62,0xbd,0x4d,0x3d,0xb6,0xd5,0x2c,0xbe,
0x8d,0xcd,0xb3,0xbd,0x5a,0x99,0xfd,0x3c,0x27,0x2f,0xcd,0xbd,
0xe6,0x06,0x37,0x3e,0x38,0xca,0xb4,0x3d,0x33,0xae,0x12,0xbe,
0xc3,0xf2,0x1a,0x3e,0x2c,0xc0,0x42,0xbc,0x50,0x15,0xf7,0xbc,
0xe4,0x31,0x5f,0x3e,0x3a,0x47,0x19,0xbd,0xda,0x46,0x2f,0x3e,
0xad,0xd9,0x16,0x3d,0xe9,0xb3,0x93,0xbd,0x13,0x07,0xf1,0xbd,
0x27,0x25,0x98,0xbd,0xe0,0xb9,0x88,0x3d,0x5f,0x5e,0x89,0x3d,
0x34,0x72,0xab,0xbd,0x5b,0x1c,0x45,0xbe,0x27,0xe9,0x49,0xbe,
0x64,0x9c,0xea,0x3d,0x75,0x36,0xe1,0xbc,0xdc,0xad,0xdb,0x3d,
0x4b,0x4b,0x50,0xbe,0xad,0x3a,0x03,0x3d,0x76,0xc4,0xa9,0xbc,
0x42,0xb1,0xce,0x3d,0x1b,0x4a,0x42,0x3e,0x01,0xfb,0x32,0xbc,
0x9d,0x85,0x44,0xbe,0x04,0xba,0x62,0xbd,0x4f,0x62,0x63,0xbe,
0x52,0xc5,0x09,0xbe,0x00,0x03,0xaf,0xbd,0xc2,0x2e,0x7d,0xbe,
0x44,0x3c,0x4f,0xbe,0x8b,0x6b,0x96,0xbc,0x66,0xad,0xd4,0xbd,
0x68,0xb7,0xab,0x3e,0x29,0x05,0x44,0xbe,0x58,0x03,0x26,0x3e,
0x41,0x5a,0x61,0xbe,0xa2,0xb5,0x42,0x3e,0xce,0xdf,0x2c,0x3d,
0xf8,0x07,0xf6,0xbd,0x3e,0xe7,0x1b,0x3e,0xc0,0x8f,0xe7,0xbb,
0x17,0xf9,0x37,0x3e,0x48,0xc2,0x89,0xbd,0xf8,0x3f,0x94,0xbe,
0x0f,0x16,0xc9,0x3d,0xc9,0x5c,0xcc,0x3d,0xd3,0xe5,0x0b,0x3c,
0x60,0x34,0xab,0xbd,0x99,0xb6,0x53,0x3e,0xf0,0x20,0x7c,0x3e,
0xe6,0x98,0x22,0x3e,0x72,0x39,0xf6,0x3d,0x3a,0xfe,0x87,0xbd,
0xe2,0x4d,0xaf,0x3e,0x0a,0xef,0x56,0x3c,0x0f,0xc5,0x5e,0xbd,
0x7e,0x35,0xa1,0x3e,0x92,0xfd,0xc4,0x3d,0xda,0xae,0x95,0xbd,
0xe3,0xc8,0x8b,0xbc,0x63,0x86,0x90,0xbb,0xe9,0x0f,0xa1,0x3c,
0x48,0xee,0x89,0xbd,0x14,0x2a,0x7c,0x3e,0x8a,0x3f,0x60,0xbd,
0x8a,0x6d,0xeb,0x3d,0x31,0xa1,0xcc,0x3e,0x07,0xfa,0x9f,0xbd,
0xe2,0x8f,0x51,0xbe,0x3c,0x03,0xbc,0x3e,0xda,0x63,0x91,0xbe,
0x2c,0x6a,0x88,0x3e,0x87,0x73,0x74,0x3e,0x6e,0x15,0xb5,0x3d,
0x6f,0x38,0x12,0x3d,0xa0,0x55,0xce,0x3d,0x3a,0x01,0x34,0x3e,
0xd4,0x82,0x01,0x3e,0x80,0x1c,0xf2,0xbc,0x9e,0x52,0x4a,0x3d,
0xf2,0xba,0x73,0xbd,0xd0,0x8e,0xc1,0x3d,0xdf,0xc7,0x2d,0xbe,
0xc4,0x1c,0x3d,0xbe,0x01,0x8e,0xcc,0x3d,0xdc,0x15,0x5e,0x3e,
0xdc,0xd7,0x67,0xbe,0x80,0x09,0x16,0x3c,0x78,0x2d,0xac,0xbd,
0xe1,0xfe,0x56,0xbd,0x24,0xb9,0xa4,0x3d,0x50,0xc6,0x06,0xbd,
0x2e,0x20,0x44,0x3b,0x8c,0xf7,0x12,0xbe,0xd4,0x1e,0x4d,0x3e,
0xf0,0xc8,0xb7,0x3c,0xa2,0x6c,0x0e,0x3d,0x30,0xb7,0x49,0x3e,
0xd8,0xec,0xaa,0x3d,0xc0,0x73,0x31,0xbe,0x1b,0x64,0x23,0xbe,
0x70,0x3a,0x61,0x3e,0x14,0x3c,0x5d,0xbe,0xac,0x59,0x69,0xbe,
0xa0,0x32,0xee,0xbc,0x98,0xea,0x7d,0xbe,0x33,0x55,0x56,0xbe,
0x20,0xdf,0x58,0xbd,0x1f,0xc2,0x58,0xbe,0x14,0xe3,0x31,0xbe,
0x00,0x96,0x4e,0x3c,0x5a,0xa3,0xae,0x3d,0x66,0xeb,0x07,0x3e,
0x58,0xcc,0x7f,0xbe,0xc8,0x39,0x51,0xbd,0x54,0x16,0x36,0xbe,
0x63,0xa1,0xc5,0xbb,0xf4,0x56,0x5d,0xbe,0x28,0xc0,0x27,0x3e,
0x20,0x69,0x9e,0xbd,0x90,0xed,0x25,0xbd,0xb2,0x00,0x05,0xbe,
0x3a,0x66,0x0a,0x3e,0xbf,0x9b,0xbf,0x3e,0x66,0x0f,0xa7,0x3e,
0xa2,0x06,0x1b,0xbe,0xae,0xdd,0x88,0x3e,0x57,0xe4,0x6f,0x3d,
0xd3,0x68,0x5b,0x3d,0xd2,0x8d,0x33,0xbc,0xae,0x62,0x13,0x3e,
0x2e,0xbf,0x64,0x3e,0x49,0x22,0x67,0x3e,0xd9,0xc3,0xb5,0xbd,
0x72,0xe1,0xff,0x3a,0x58,0xca,0xfb,0x3d,0xc7,0x2e,0x47,0xbe,
0x90,0xa6,0x5a,0x3e,0x60,0x63,0x58,0xbe,0x42,0xec,0x8b,0x3e,
0x23,0x45,0xfa,0x3d,0x0f,0x81,0x5f,0x3e,0xd5,0x68,0xd8,0x3d,
0x2d,0x75,0x21,0x3d,0x62,0xa3,0x0e,0x3d,0x1c,0xdf,0x90,0x3d,
0x84,0xb1,0x55,0x3e,0xf3,0x72,0xa1,0x3e,0xee,0x54,0x95,0xbd,
0xc3,0xf5,0x9e,0x39,0xf0,0x00,0x53,0x3d,0xef,0x4f,0xea,0x3d,
0x90,0x52,0x65,0x3d,0xe4,0x5c,0xd8,0x3d,0x7e,0x12,0x09,0xbe,
0xa8,0x35,0xbd,0x3e,0xed,0x56,0x8e,0x3e,0x97,0x6a,0x11,0x3e,
0x4b,0x61,0x3f,0x3d,0xcb,0xa2,0xc5,0xbb,0x5a,0x6e,0xe6,0xbd,
0x4b,0x7f,0x8c,0x3e,0x8c,0x57,0xc9,0xbc,0x9a,0xee,0x53,0xbd,
0xf1,0xaa,0xa6,0x3d,0x46,0xf9,0xa7,0xbc,0x2c,0x6c,0x42,0x3e,
0xef,0x02,0x2d,0xbe,0xed,0x0a,0x20,0xbe,0x1b,0x0c,0x90,0xbd,
0xcf,0xea,0x51,0x3e,0xc4,0x4a,0x84,0xbe,0xb6,0xb5,0x66,0xbe,
0x91,0x0e,0x9f,0x3e,0x6e,0x81,0x14,0x3d,0xee,0xaf,0x9b,0x3e,
0xe0,0x8d,0x1c,0x3d,0x3e,0x9a,0x17,0x3e,0x3e,0xe5,0x6d,0xbd,
0x5c,0xda,0x09,0xbe,0x30,0xb7,0x12,0x3e,0xf0,0xb5,0x93,0xbe,
0x85,0x3b,0x25,0xbe,0x19,0xb9,0x4b,0xbc,0x1c,0x88,0xe3,0x3d,
0x57,0xc4,0x10,0x3e,0x29,0xec,0x7f,0x3d,0x86,0xfd,0x8f,0x3e,
0x84,0xa5,0x51,0xbe,0x6f,0x48,0xa5,0x3e,0xab,0xd2,0x99,0x3e,
0xeb,0xce,0x1a,0x3e,0xbe,0x01,0x16,0xbe,0x42,0x3a,0x2e,0xbe,
0x13,0x62,0xc9,0x3c,0xf4,0x77,0xe4,0x3d,0xd2,0x3e,0x29,0x3e,
0x65,0xcf,0xa9,0xbe,0xd7,0x07,0xc9,0xbc,0xca,0x81,0x3e,0x3e,
0xb3,0x0e,0x71,0x3d,0xda,0xe6,0xc5,0xba,0xa5,0x66,0x4f,0x3d,
0xbc,0x6f,0x38,0x3e,0x17,0x68,0x4d,0x3e,0x8e,0x03,0xc3,0x3d,
0x23,0x44,0xe3,0xbc,0x68,0x98,0x5c,0xbe,0xfe,0x24,0xb5,0xbc,
0x2f,0xd0,0xa3,0xbd,0xa3,0x3b,0xa9,0xbc,0x21,0x8a,0x6b,0x3d,
0xb7,0x27,0x52,0xbe,0x9d,0x18,0x33,0x3d,0x88,0x3c,0x53,0xbd,
0xeb,0x2d,0x27,0xbe,0xc2,0xd4,0xa6,0xbe,0x6a,0x21,0x71,0x3e,
0x22,0xc4,0x13,0xbe,0x80,0xe8,0x93,0x3e,0x16,0x5d,0xbe,0x3e,
0xd3,0x0b,0x9d,0xbd,0x32,0x88,0xfd,0x3c,0x54,0x01,0x9d,0x3d,
0xeb,0xab,0x7f,0x3e,0x72,0x4f,0x96,0x3e,0xec,0xc9,0x87,0xbe,
0x3d,0xe9,0xa9,0x3b,0x51,0xfe,0x6a,0x3e,0xd3,0xa9,0x36,0x3e,
0xa8,0x5c,0x39,0xbd,0xe5,0x50,0x49,0xbd,0xdd,0x1a,0x29,0xbe,
0x09,0x21,0x88,0xbd,0x11,0xe2,0x3f,0x3d,0x80,0xea,0x8d,0xbc,
0x87,0x67,0xc4,0x3e,0xfe,0x92,0x3a,0x3d,0x9a,0x4f,0x83,0x3d,
0xb1,0x29,0x4d,0x3e,0xe5,0xea,0x02,0xbe,0xa3,0x16,0xe8,0x3c,
0xf7,0xcb,0xa7,0xbc,0x3f,0x79,0x62,0x3c,0x8a,0xc6,0xcd,0x3d,
0x46,0x97,0xb0,0x3d,0x71,0xef,0xeb,0x3b,0xbf,0xdd,0x7f,0xbe,
0xaa,0xf0,0xa3,0x3d,0x6d,0xc2,0x84,0x3e,0x59,0x57,0x85,0x3e,
0xdc,0x44,0xc2,0x3d,0x77,0x40,0x00,0x3f,0x08,0x22,0x3d,0x3e,
0x90,0x3e,0x05,0xbd,0xee,0xc1,0x06,0xbe,0xd9,0xa7,0x56,0x3d,
0x0a,0x77,0x82,0x3e,0xf5,0xa7,0x8f,0xbe,0xdb,0xcb,0x93,0x3e,
0xa3,0x64,0x86,0x3e,0xd7,0xb9,0xea,0x3d,0x24,0x7d,0xf6,0xbd,
0x6b,0x37,0x5b,0xbe,0xc0,0x0e,0x1e,0x3e,0x06,0x3f,0xac,0x3c,
0x10,0xc8,0x46,0x3e,0x6d,0x96,0x18,0xbd,0xce,0xae,0x25,0x3d,
0x64,0x53,0x78,0xbe,0xe2,0x50,0x2e,0xbc,0xb3,0x73,0x02,0x3e,
0xd0,0x01,0xda,0xbc,0xf4,0x78,0x6f,0x3e,0x57,0xa9,0x1b,0xbe,
0x92,0x89,0x31,0x3e,0x9d,0x67,0x9e,0xbd,0x89,0x30,0x4f,0xbe,
0x1f,0x91,0x7c,0x3d,0x6f,0x76,0x29,0xbe,0xe8,0xc4,0x58,0x3e,
0x86,0xcc,0x22,0x3e,0x79,0x1b,0x0c,0xbe,0x16,0x6f,0x48,0x3e,
0x8f,0xef,0xd6,0xbc,0x8c,0xb3,0x4f,0xbe,0xdf,0x3b,0x02,0x3e,
0x56,0x67,0x00,0xbe,0x18,0x27,0xf8,0x3d,0x6f,0xc4,0x3e,0x3c,
0x07,0x3e,0x38,0x3e,0x4b,0xae,0x19,0xbe,0x22,0x1d,0x29,0xbe,
0xcd,0x86,0x78,0xbd,0x5a,0x4c,0x9c,0xbc,0xff,0xa1,0x37,0x3e,
0x4f,0x60,0x83,0xbe,0x61,0xc0,0x22,0xbe,0x05,0x28,0x41,0xbe,
0xc3,0xe0,0x7a,0xbe,0x61,0x59,0x68,0xbd,0xac,0x7d,0x79,0xbe,
0xfd,0x6e,0x7c,0xbe,0xfc,0x37,0x61,0xbd,0xfc,0xb2,0x0d,0x3e,
0x6f,0x8e,0x94,0xbd,0x96,0x86,0x7f,0xbe,0xb9,0x69,0x0a,0xbe,
0x49,0x1a,0x80,0xbe,0x2e,0x64,0x20,0xbe,0x27,0xf1,0x17,0x3d,
0x3b,0x3d,0x0b,0x3e,0x3a,0xe4,0xba,0xbd,0xf3,0x4a,0xd7,0x3d,
0xd7,0x54,0x64,0x3e,0x31,0x1f,0x6c,0x3e,0x48,0x14,0xc0,0x3c,
0xd2,0x15,0x90,0xbd,0xf7,0x8a,0x6e,0x3d,0xc1,0x1e,0x86,0x3d,
0xb4,0x61,0x17,0x3e,0x0e,0x9c,0xe6,0x3d,0xbf,0x1b,0x1e,0x3d,
0xb9,0xd9,0x7f,0xbc,0x4e,0xe2,0x14,0xbd,0xcb,0x3a,0x05,0x3e,
0x49,0xbe,0x9d,0x3c,0x66,0x48,0x61,0x3d,0x19,0xb0,0x28,0xbe,
0x75,0x0f,0x0c,0xbe,0xe2,0x83,0x17,0x3d,0x59,0x1c,0xfe,0xbc,
0x86,0xf1,0x44,0x3e,0x37,0x3b,0x3a,0x3e,0xef,0x2a,0x93,0x3c,
0x8a,0xc7,0xd5,0x3d,0xe1,0xf4,0xbb,0x3d,0x6e,0x54,0x22,0xbd,
0xaf,0x6d,0x71,0xbe,0x31,0x21,0xc3,0x3d,0x21,0x44,0x25,0x3e,
0xe2,0xb9,0x03,0xbe,0x08,0x4c,0x86,0x3e,0x87,0x82,0x52,0x3e,
0xff,0x38,0x6f,0xbe,0xa3,0x6f,0xb4,0xbd,0x20,0x18,0x4c,0x3e,
0x37,0x55,0x7b,0x3c,0x40,0xe0,0xe0,0x3e,0x5e,0x08,0x8c,0x3a,
0x74,0x89,0x40,0x3e,0x68,0xa3,0x68,0xbd,0xc6,0x9c,0xa5,0xbd,
0xe3,0xe1,0x8e,0x3d,0x5e,0xbf,0x4a,0x3d,0x6e,0xb0,0xa6,0x3d,
0x36,0xc3,0xa4,0xbc,0x3e,0xa3,0x88,0xbd,0x98,0x8c,0x28,0x3d,
0x52,0x7b,0x20,0xbe,0x34,0xd6,0xe6,0x3d,0x51,0x4d,0x47,0x3e,
0x18,0x1f,0x55,0x3d,0xc2,0x8d,0x90,0xbe,0x34,0x43,0xb2,0xbd,
0x7a,0xae,0x7f,0x3c,0x26,0x28,0xae,0xbe,0x7e,0xac,0x13,0x3e,
0x11,0xbf,0xab,0x3d,0x51,0xaa,0x58,0x3d,0xaa,0x18,0x3f,0x3e,
0xb6,0x0a,0x43,0x3d,0x51,0xa1,0xa8,0xbd,0xfb,0x15,0xd9,0x3e,
0xe6,0x40,0x6d,0xbd,0x4a,0x1f,0x3b,0x3e,0xde,0x52,0xe4,0x3e,
0x79,0x02,0x8b,0x3d,0xae,0x5f,0x7f,0xbc,0xb5,0x86,0x90,0xbc,
0xd5,0x79,0x99,0x3d,0x58,0xc5,0x12,0xbe,0xb6,0xa6,0xab,0xbe,
0x19,0x75,0x23,0xbe,0x16,0x58,0x64,0x3e,0xf8,0x77,0xcf,0xbd,
0x9c,0x41,0xc5,0x3e,0xcc,0x52,0x23,0xbe,0x2f,0xdb,0x84,0x3e,
0xc1,0xc5,0xd7,0x3e,0xb5,0xd1,0x10,0xbd,0xca,0x3b,0x47,0x3e,
0xc9,0x02,0x69,0x3d,0x2e,0x04,0x33,0x3e,0x7d,0xcc,0xfd,0xbd,
0x9c,0x81,0x1c,0xbe,0xed,0xad,0x0a,0xbe,0x36,0x49,0x8e,0xbe,
0xd3,0xc4,0xe1,0xbe,0xdb,0xf9,0x3d,0x3e,0x82,0xc1,0x7b,0x3e,
0xbc,0xdf,0x24,0x3d,0x22,0x4a,0xd0,0x3e,0x6e,0x3b,0x22,0x3e,
0x0e,0x7d,0xea,0xbc,0x9c,0xbc,0x7e,0x3e,0x89,0x87,0x1a,0xbe,
0xa0,0x1f,0xef,0x3d,0x1e,0x72,0xb1,0x3e,0xf6,0xc7,0x6b,0x3e,
0x60,0x08,0x6f,0x3e,0x93,0xb6,0x95,0xbe,0xf9,0x0c,0xb9,0x3e,
0x56,0xf7,0xaa,0xbd,0xa0,0x14,0x06,0xbf,0x18,0x9a,0x95,0x3e,
0x1e,0x02,0x72,0x3e,0xd7,0x16,0x9e,0x3d,0xd0,0xcc,0x27,0x3e,
0x4d,0x4c,0x94,0x3e,0xd0,0x35,0xaa,0x3e,0xf5,0x16,0x0b,0xbe,
0x5e,0x01,0x53,0xbe,0x5c,0x5e,0x18,0xbe,0x0a,0x6f,0xaa,0xbd,
0x12,0x94,0xaa,0xbb,0x34,0x0d,0x40,0x3e,0x3b,0x67,0xa2,0xbd,
0x71,0x21,0x29,0x3d,0xd7,0x84,0x2b,0x3d,0x71,0xb2,0xdc,0xbe,
0x17,0xab,0x4c,0x3e,0x2c,0x5f,0x29,0x3e,0xff,0xd2,0xad,0x3e,
0x94,0x6a,0x66,0xbe,0x9d,0x9b,0x55,0xbd,0xa3,0x50,0x0e,0x3e,
0x57,0x72,0xe2,0xbd,0xe6,0x88,0xe8,0x3d,0x5b,0x10,0xe9,0x3d,
0x35,0x1b,0xf6,0x3d,0x61,0x52,0x78,0x3e,0x4c,0xc4,0x99,0x3e,
0x70,0xd4,0x9e,0xbe,0x40,0x38,0x5b,0x3d,0x72,0x95,0x6f,0x3e,
0x02,0xb8,0x88,0xbd,0x52,0xb4,0xc2,0x3d,0x9a,0x03,0xc2,0x3c,
0x90,0xba,0xad,0x3d,0xad,0xe9,0x20,0x3e,0xcd,0x60,0xdf,0xbd,
0x8c,0xa7,0x83,0x3d,0x2c,0x9d,0x6b,0x3e,0xe1,0xd4,0x19,0xbe,
0x1a,0x60,0xf8,0xbc,0x77,0x79,0x4c,0xbe,0xcc,0x87,0xef,0x3d,
0x5f,0x6d,0x9b,0x3e,0xf6,0xfd,0xff,0xff,0x04,0x00,0x00,0x00,
0x0c,0x00,0x00,0x00,0xff,0xff,0xff,0xff,0x08,0x00,0x00,0x00,
0x10,0x00,0x00,0x00,0x0e,0xfe,0xff,0xff,0x04,0x00,0x00,0x00,
0x0c,0x00,0x00,0x00,0xff,0xff,0xff,0xff,0x06,0x00,0x00,0x00,
0x10,0x00,0x00,0x00,0x26,0xfe,0xff,0xff,0x04,0x00,0x00,0x00,
0x0c,0x00,0x00,0x00,0xba,0xc8,0xd9,0x3d,0x8a,0x48,0x5c,0xbb,
0x30,0xdf,0x0f,0xbe,0x3e,0xfe,0xff,0xff,0x04,0x00,0x00,0x00,
0x40,0x00,0x00,0x00,0xdf,0x77,0x3b,0x3e,0x9f,0xe3,0x6e,0x3e,
0x65,0x58,0x42,0x3c,0xa6,0x1a,0xff,0x3d,0x25,0x46,0x91,0xbd,
0xf1,0xbf,0x31,0xbd,0xf3,0x4a,0x37,0x3e,0xaf,0xb6,0xaf,0x3d,
0xb4,0x3a,0x74,0x3d,0x9e,0xe5,0x3c,0x3e,0x77,0xa6,0x27,0x3d,
0x68,0xfd,0xc0,0x3b,0x0b,0x14,0x76,0x3d,0x2e,0x74,0xc7,0x3c,
0x74,0xe7,0xe1,0xbc,0xce,0x07,0xac,0xbd,0x8a,0xfe,0xff,0xff,
0x04,0x00,0x00,0x00,0x40,0x00,0x00,0x00,0x3a,0xb2,0x8d,0xbc,
0xfb,0x2e,0x30,0xbb,0xae,0x8f,0x09,0x3e,0x6d,0x6d,0x90,0x3d,
0x89,0xc2,0x13,0xbd,0x27,0xe0,0x0e,0x3d,0x71,0x6c,0xef,0xbc,
0x8f,0x10,0xfd,0xbc,0x2d,0x71,0x29,0xbc,0x88,0xbe,0x23,0x3e,
0x7f,0xbe,0xaa,0xbc,0xcb,0xe6,0x27,0x3e,0xe5,0xcc,0xd3,0xbc,
0xa5,0xdd,0x7c,0x3d,0xd2,0x3d,0x4a,0x3c,0xdf,0xe3,0xaa,0x3d,
0xd6,0xfe,0xff,0xff,0x04,0x00,0x00,0x00,0x80,0x00,0x00,0x00,
0x57,0x5f,0x35,0x3d,0x33,0x8b,0x26,0x3d,0xf8,0x0a,0x2d,0x3e,
0x16,0xb0,0xe2,0x3d,0xf0,0x75,0x98,0xbd,0x95,0x38,0xe8,0x3d,
0x97,0x93,0xa0,0x3c,0x76,0x63,0x9a,0xbc,0x21,0x55,0x4b,0x3c,
0x35,0xa6,0xf3,0xbc,0xec,0xf0,0x3f,0xbd,0xce,0x47,0xbb,0xbc,
0xbb,0xa2,0x9d,0x3d,0x76,0xb8,0xed,0x3d,0x56,0xb2,0x05,0x3e,
0x16,0x22,0xb5,0x3d,0xca,0x79,0xea,0x3d,0x8a,0xfc,0x04,0xbe,
0xe0,0xf4,0x0c,0xbc,0xd6,0x58,0x1e,0x3e,0x3a,0xd3,0x6c,0x3d,
0xa4,0xd1,0x02,0x3e,0xcd,0x0b,0x83,0xbd,0x2b,0xdc,0x6f,0xbd,
0xa7,0xfa,0xa0,0xbd,0x23,0x4f,0xe2,0x3d,0x0f,0x6f,0x0a,0x3e,
0x57,0x2c,0x0d,0xbd,0x07,0x11,0x04,0xbd,0xbf,0xc6,0x5b,0xbc,
0x00,0x00,0x00,0x00,0xa6,0xfe,0x06,0xbc,0xac,0xf3,0xff,0xff,
0xb0,0xf3,0xff,0xff,0x0f,0x00,0x00,0x00,0x4d,0x4c,0x49,0x52,
0x20,0x43,0x6f,0x6e,0x76,0x65,0x72,0x74,0x65,0x64,0x2e,0x00,
0x01,0x00,0x00,0x00,0x14,0x00,0x00,0x00,0x00,0x00,0x0e,0x00,
0x18,0x00,0x14,0x00,0x10,0x00,0x0c,0x00,0x08,0x00,0x04,0x00,
0x0e,0x00,0x00,0x00,0x14,0x00,0x00,0x00,0x1c,0x00,0x00,0x00,
0x90,0x02,0x00,0x00,0x94,0x02,0x00,0x00,0x98,0x02,0x00,0x00,
0x04,0x00,0x00,0x00,0x6d,0x61,0x69,0x6e,0x00,0x00,0x00,0x00,
0x0a,0x00,0x00,0x00,0x48,0x02,0x00,0x00,0xe4,0x01,0x00,0x00,
0xac,0x01,0x00,0x00,0x70,0x01,0x00,0x00,0x28,0x01,0x00,0x00,
0x00,0x01,0x00,0x00,0xcc,0x00,0x00,0x00,0x88,0x00,0x00,0x00,
0x40,0x00,0x00,0x00,0x04,0x00,0x00,0x00,0x92,0xff,0xff,0xff,
0x1c,0x00,0x00,0x00,0x00,0x00,0x00,0x09,0x1c,0x00,0x00,0x00,
0x20,0x00,0x00,0x00,0x05,0x00,0x00,0x00,0x00,0x00,0x06,0x00,
0x08,0x00,0x04,0x00,0x06,0x00,0x00,0x00,0x00,0x00,0x80,0x3f,
0x01,0x00,0x00,0x00,0x16,0x00,0x00,0x00,0x01,0x00,0x00,0x00,
0x15,0x00,0x00,0x00,0x86,0xfe,0xff,0xff,0x14,0x00,0x00,0x00,
0x00,0x00,0x00,0x08,0x10,0x00,0x00,0x00,0x14,0x00,0x00,0x00,
0x04,0x00,0x00,0x00,0x80,0xf4,0xff,0xff,0x01,0x00,0x00,0x00,
0x15,0x00,0x00,0x00,0x03,0x00,0x00,0x00,0x14,0x00,0x00,0x00,
0x09,0x00,0x00,0x00,0x04,0x00,0x00,0x00,0x00,0x00,0x0e,0x00,
0x1a,0x00,0x14,0x00,0x10,0x00,0x0c,0x00,0x0b,0x00,0x04,0x00,
0x0e,0x00,0x00,0x00,0x1c,0x00,0x00,0x00,0x00,0x00,0x00,0x08,
0x1c,0x00,0x00,0x00,0x20,0x00,0x00,0x00,0x04,0x00,0x00,0x00,
0x00,0x00,0x06,0x00,0x08,0x00,0x07,0x00,0x06,0x00,0x00,0x00,
0x00,0x00,0x00,0x01,0x01,0x00,0x00,0x00,0x14,0x00,0x00,0x00,
0x03,0x00,0x00,0x00,0x13,0x00,0x00,0x00,0x0a,0x00,0x00,0x00,
0x01,0x00,0x00,0x00,0x0a,0xff,0xff,0xff,0x14,0x00,0x00,0x00,
0x00,0x00,0x00,0x1b,0x10,0x00,0x00,0x00,0x14,0x00,0x00,0x00,
0x03,0x00,0x00,0x00,0x04,0xf5,0xff,0xff,0x01,0x00,0x00,0x00,
0x13,0x00,0x00,0x00,0x02,0x00,0x00,0x00,0x12,0x00,0x00,0x00,
0x0b,0x00,0x00,0x00,0x6a,0xff,0xff,0xff,0x0c,0x00,0x00,0x00,
0x10,0x00,0x00,0x00,0x02,0x00,0x00,0x00,0x01,0x00,0x00,0x00,
0x12,0x00,0x00,0x00,0x02,0x00,0x00,0x00,0x11,0x00,0x00,0x00,
0x05,0x00,0x00,0x00,0x5e,0xff,0xff,0xff,0x14,0x00,0x00,0x00,
0x00,0x00,0x00,0x01,0x20,0x00,0x00,0x00,0x24,0x00,0x00,0x00,
0x01,0x00,0x00,0x00,0x50,0xff,0xff,0xff,0x00,0x00,0x00,0x01,
0x01,0x00,0x00,0x00,0x01,0x00,0x00,0x00,0x00,0x00,0x00,0x01,
0x01,0x00,0x00,0x00,0x11,0x00,0x00,0x00,0x03,0x00,0x00,0x00,
0x10,0x00,0x00,0x00,0x07,0x00,0x00,0x00,0x02,0x00,0x00,0x00,
0x42,0xff,0xff,0xff,0x10,0x00,0x00,0x00,0x00,0x00,0x00,0x34,
0x0c,0x00,0x00,0x00,0x10,0x00,0x00,0x00,0x98,0xf5,0xff,0xff,
0x01,0x00,0x00,0x00,0x10,0x00,0x00,0x00,0x02,0x00,0x00,0x00,
0x0f,0x00,0x00,0x00,0x0c,0x00,0x00,0x00,0x00,0x00,0x0a,0x00,
0x10,0x00,0x0c,0x00,0x08,0x00,0x04,0x00,0x0a,0x00,0x00,0x00,
0x0c,0x00,0x00,0x00,0x10,0x00,0x00,0x00,0x02,0x00,0x00,0x00,
0x01,0x00,0x00,0x00,0x0f,0x00,0x00,0x00,0x02,0x00,0x00,0x00,
0x0e,0x00,0x00,0x00,0x06,0x00,0x00,0x00,0x00,0x00,0x0e,0x00,
0x18,0x00,0x14,0x00,0x10,0x00,0x0c,0x00,0x0b,0x00,0x04,0x00,
0x0e,0x00,0x00,0x00,0x20,0x00,0x00,0x00,0x00,0x00,0x00,0x01,
0x2c,0x00,0x00,0x00,0x30,0x00,0x00,0x00,0x01,0x00,0x00,0x00,
0x0c,0x00,0x14,0x00,0x13,0x00,0x0c,0x00,0x08,0x00,0x07,0x00,
0x0c,0x00,0x00,0x00,0x00,0x00,0x00,0x01,0x01,0x00,0x00,0x00,
0x01,0x00,0x00,0x00,0x00,0x00,0x00,0x01,0x01,0x00,0x00,0x00,
0x0e,0x00,0x00,0x00,0x03,0x00,0x00,0x00,0x0d,0x00,0x00,0x00,
0x08,0x00,0x00,0x00,0x03,0x00,0x00,0x00,0x00,0x00,0x0e,0x00,
0x14,0x00,0x00,0x00,0x10,0x00,0x0c,0x00,0x0b,0x00,0x04,0x00,
0x0e,0x00,0x00,0x00,0x10,0x00,0x00,0x00,0x00,0x00,0x00,0x34,
0x0c,0x00,0x00,0x00,0x10,0x00,0x00,0x00,0x64,0xf6,0xff,0xff,
0x01,0x00,0x00,0x00,0x0d,0x00,0x00,0x00,0x02,0x00,0x00,0x00,
0x00,0x00,0x00,0x00,0x0c,0x00,0x00,0x00,0x01,0x00,0x00,0x00,
0x16,0x00,0x00,0x00,0x01,0x00,0x00,0x00,0x00,0x00,0x00,0x00,
0x17,0x00,0x00,0x00,0x44,0x09,0x00,0x00,0xf0,0x08,0x00,0x00,
0x9c,0x08,0x00,0x00,0x60,0x08,0x00,0x00,0x24,0x08,0x00,0x00,
0xe4,0x07,0x00,0x00,0x8c,0x07,0x00,0x00,0x44,0x07,0x00,0x00,
0xfc,0x06,0x00,0x00,0xbc,0x06,0x00,0x00,0x7c,0x06,0x00,0x00,
0x3c,0x06,0x00,0x00,0xfc,0x05,0x00,0x00,0x7c,0x05,0x00,0x00,
0xa4,0x04,0x00,0x00,0xf8,0x03,0x00,0x00,0x78,0x03,0x00,0x00,
0x98,0x02,0x00,0x00,0xe4,0x01,0x00,0x00,0x74,0x01,0x00,0x00,
0xe0,0x00,0x00,0x00,0x60,0x00,0x00,0x00,0x04,0x00,0x00,0x00,
0x2e,0xf7,0xff,0xff,0x00,0x00,0x00,0x01,0x14,0x00,0x00,0x00,
0x1c,0x00,0x00,0x00,0x1c,0x00,0x00,0x00,0x17,0x00,0x00,0x00,
0x34,0x00,0x00,0x00,0x02,0x00,0x00,0x00,0xff,0xff,0xff,0xff,
0x03,0x00,0x00,0x00,0x14,0xf7,0xff,0xff,0x1b,0x00,0x00,0x00,
0x53,0x74,0x61,0x74,0x65,0x66,0x75,0x6c,0x50,0x61,0x72,0x74,
0x69,0x74,0x69,0x6f,0x6e,0x65,0x64,0x43,0x61,0x6c,0x6c,0x5f,
0x31,0x3a,0x30,0x00,0x02,0x00,0x00,0x00,0x01,0x00,0x00,0x00,
0x03,0x00,0x00,0x00,0x86,0xf7,0xff,0xff,0x00,0x00,0x00,0x01,
0x14,0x00,0x00,0x00,0x1c,0x00,0x00,0x00,0x1c,0x00,0x00,0x00,
0x16,0x00,0x00,0x00,0x58,0x00,0x00,0x00,0x02,0x00,0x00,0x00,
0xff,0xff,0xff,0xff,0x03,0x00,0x00,0x00,0x6c,0xf7,0xff,0xff,
0x3c,0x00,0x00,0x00,0x73,0x65,0x71,0x75,0x65,0x6e,0x74,0x69,
0x61,0x6c,0x5f,0x31,0x2f,0x64,0x65,0x6e,0x73,0x65,0x5f,0x31,
0x5f,0x32,0x2f,0x4d,0x61,0x74,0x4d,0x75,0x6c,0x3b,0x73,0x65,
0x71,0x75,0x65,0x6e,0x74,0x69,0x61,0x6c,0x5f,0x31,0x2f,0x64,
0x65,0x6e,0x73,0x65,0x5f,0x31,0x5f,0x32,0x2f,0x42,0x69,0x61,
0x73,0x41,0x64,0x64,0x00,0x00,0x00,0x00,0x02,0x00,0x00,0x00,
0x01,0x00,0x00,0x00,0x03,0x00,0x00,0x00,0x02,0xf8,0xff,0xff,
0x00,0x00,0x00,0x01,0x14,0x00,0x00,0x00,0x1c,0x00,0x00,0x00,
0x1c,0x00,0x00,0x00,0x15,0x00,0x00,0x00,0x6c,0x00,0x00,0x00,
0x02,0x00,0x00,0x00,0xff,0xff,0xff,0xff,0x20,0x00,0x00,0x00,
0xe8,0xf7,0xff,0xff,0x52,0x00,0x00,0x00,0x73,0x65,0x71,0x75,
0x65,0x6e,0x74,0x69,0x61,0x6c,0x5f,0x31,0x2f,0x64,0x65,0x6e,
0x73,0x65,0x5f,0x31,0x2f,0x4d,0x61,0x74,0x4d,0x75,0x6c,0x3b,
0x73,0x65,0x71,0x75,0x65,0x6e,0x74,0x69,0x61,0x6c,0x5f,0x31,
0x2f,0x64,0x65,0x6e,0x73,0x65,0x5f,0x31,0x2f,0x52,0x65,0x6c,
0x75,0x3b,0x73,0x65,0x71,0x75,0x65,0x6e,0x74,0x69,0x61,0x6c,
0x5f,0x31,0x2f,0x64,0x65,0x6e,0x73,0x65,0x5f,0x31,0x2f,0x42,
0x69,0x61,0x73,0x41,0x64,0x64,0x00,0x00,0x02,0x00,0x00,0x00,
0x01,0x00,0x00,0x00,0x20,0x00,0x00,0x00,0x92,0xf8,0xff,0xff,
0x00,0x00,0x00,0x01,0x14,0x00,0x00,0x00,0x1c,0x00,0x00,0x00,
0x1c,0x00,0x00,0x00,0x14,0x00,0x00,0x00,0x48,0x00,0x00,0x00,
0x02,0x00,0x00,0x00,0xff,0xff,0xff,0xff,0x10,0x00,0x00,0x00,
0x78,0xf8,0xff,0xff,0x2c,0x00,0x00,0x00,0x73,0x65,0x71,0x75,
0x65,0x6e,0x74,0x69,0x61,0x6c,0x5f,0x31,0x2f,0x67,0x6c,0x6f,
0x62,0x61,0x6c,0x5f,0x61,0x76,0x65,0x72,0x61,0x67,0x65,0x5f,
0x70,0x6f,0x6f,0x6c,0x69,0x6e,0x67,0x31,0x64,0x5f,0x31,0x2f,
0x4d,0x65,0x61,0x6e,0x00,0x00,0x00,0x00,0x02,0x00,0x00,0x00,
0x01,0x00,0x00,0x00,0x10,0x00,0x00,0x00,0xfe,0xf8,0xff,0xff,
0x00,0x00,0x00,0x01,0x14,0x00,0x00,0x00,0x20,0x00,0x00,0x00,
0x20,0x00,0x00,0x00,0x13,0x00,0x00,0x00,0x88,0x00,0x00,0x00,
0x03,0x00,0x00,0x00,0xff,0xff,0xff,0xff,0x06,0x00,0x00,0x00,
0x10,0x00,0x00,0x00,0xe8,0xf8,0xff,0xff,0x69,0x00,0x00,0x00,
0x73,0x65,0x71,0x75,0x65,0x6e,0x74,0x69,0x61,0x6c,0x5f,0x31,
0x2f,0x63,0x6f,0x6e,0x76,0x31,0x64,0x5f,0x31,0x5f,0x32,0x2f,
0x52,0x65,0x6c,0x75,0x3b,0x73,0x65,0x71,0x75,0x65,0x6e,0x74,
0x69,0x61,0x6c,0x5f,0x31,0x2f,0x63,0x6f,0x6e,0x76,0x31,0x64,
0x5f,0x31,0x5f,0x32,0x2f,0x42,0x69,0x61,0x73,0x41,0x64,0x64,
0x3b,0x73,0x65,0x71,0x75,0x65,0x6e,0x74,0x69,0x61,0x6c,0x5f,
0x31,0x2f,0x63,0x6f,0x6e,0x76,0x31,0x64,0x5f,0x31,0x5f,0x32,
0x2f,0x63,0x6f,0x6e,0x76,0x6f,0x6c,0x75,0x74,0x69,0x6f,0x6e,
0x2f,0x53,0x71,0x75,0x65,0x65,0x7a,0x65,0x3b,0x00,0x00,0x00,
0x03,0x00,0x00,0x00,0x01,0x00,0x00,0x00,0x06,0x00,0x00,0x00,
0x10,0x00,0x00,0x00,0xae,0xf9,0xff,0xff,0x00,0x00,0x00,0x01,
0x14,0x00,0x00,0x00,0x24,0x00,0x00,0x00,0x24,0x00,0x00,0x00,
0x12,0x00,0x00,0x00,0xb0,0x00,0x00,0x00,0x04,0x00,0x00,0x00,
0xff,0xff,0xff,0xff,0x01,0x00,0x00,0x00,0x06,0x00,0x00,0x00,
0x10,0x00,0x00,0x00,0x9c,0xf9,0xff,0xff,0x8d,0x00,0x00,0x00,
0x73,0x65,0x71,0x75,0x65,0x6e,0x74,0x69,0x61,0x6c,0x5f,0x31,
0x2f,0x63,0x6f,0x6e,0x76,0x31,0x64,0x5f,0x31,0x5f,0x32,0x2f,
0x52,0x65,0x6c,0x75,0x3b,0x73,0x65,0x71,0x75,0x65,0x6e,0x74,
0x69,0x61,0x6c,0x5f,0x31,0x2f,0x63,0x6f,0x6e,0x76,0x31,0x64,
0x5f,0x31,0x5f,0x32,0x2f,0x42,0x69,0x61,0x73,0x41,0x64,0x64,
0x3b,0x73,0x65,0x71,0x75,0x65,0x6e,0x74,0x69,0x61,0x6c,0x5f,
0x31,0x2f,0x63,0x6f,0x6e,0x76,0x31,0x64,0x5f,0x31,0x5f,0x32,
0x2f,0x63,0x6f,0x6e,0x76,0x6f,0x6c,0x75,0x74,0x69,0x6f,0x6e,
0x2f,0x53,0x71,0x75,0x65,0x65,0x7a,0x65,0x3b,0x3b,0x73,0x65,
0x71,0x75,0x65,0x6e,0x74,0x69,0x61,0x6c,0x5f,0x31,0x2f,0x63,
0x6f,0x6e,0x76,0x31,0x64,0x5f,0x31,0x5f,0x32,0x2f,0x63,0x6f,
0x6e,0x76,0x6f,0x6c,0x75,0x74,0x69,0x6f,0x6e,0x00,0x00,0x00,
0x04,0x00,0x00,0x00,0x01,0x00,0x00,0x00,0x01,0x00,0x00,0x00,
0x06,0x00,0x00,0x00,0x10,0x00,0x00,0x00,0x8a,0xfa,0xff,0xff,
0x00,0x00,0x00,0x01,0x14,0x00,0x00,0x00,0x24,0x00,0x00,0x00,
0x24,0x00,0x00,0x00,0x11,0x00,0x00,0x00,0x50,0x00,0x00,0x00,
0x04,0x00,0x00,0x00,0xff,0xff,0xff,0xff,0x01,0x00,0x00,0x00,
0x08,0x00,0x00,0x00,0x10,0x00,0x00,0x00,0x78,0xfa,0xff,0xff,
0x2e,0x00,0x00,0x00,0x73,0x65,0x71,0x75,0x65,0x6e,0x74,0x69,
0x61,0x6c,0x5f,0x31,0x2f,0x63,0x6f,0x6e,0x76,0x31,0x64,0x5f,
0x31,0x5f,0x32,0x2f,0x63,0x6f,0x6e,0x76,0x6f,0x6c,0x75,0x74,
0x69,0x6f,0x6e,0x2f,0x45,0x78,0x70,0x61,0x6e,0x64,0x44,0x69,
0x6d,0x73,0x00,0x00,0x04,0x00,0x00,0x00,0x01,0x00,0x00,0x00,
0x01,0x00,0x00,0x00,0x08,0x00,0x00,0x00,0x10,0x00,0x00,0x00,
0x06,0xfb,0xff,0xff,0x00,0x00,0x00,0x01,0x14,0x00,0x00,0x00,
0x20,0x00,0x00,0x00,0x20,0x00,0x00,0x00,0x10,0x00,0x00,0x00,
0x80,0x00,0x00,0x00,0x03,0x00,0x00,0x00,0xff,0xff,0xff,0xff,
0x08,0x00,0x00,0x00,0x10,0x00,0x00,0x00,0xf0,0xfa,0xff,0xff,
0x63,0x00,0x00,0x00,0x73,0x65,0x71,0x75,0x65,0x6e,0x74,0x69,
0x61,0x6c,0x5f,0x31,0x2f,0x63,0x6f,0x6e,0x76,0x31,0x64,0x5f,
0x31,0x2f,0x52,0x65,0x6c,0x75,0x3b,0x73,0x65,0x71,0x75,0x65,
0x6e,0x74,0x69,0x61,0x6c,0x5f,0x31,0x2f,0x63,0x6f,0x6e,0x76,
0x31,0x64,0x5f,0x31,0x2f,0x42,0x69,0x61,0x73,0x41,0x64,0x64,
0x3b,0x73,0x65,0x71,0x75,0x65,0x6e,0x74,0x69,0x61,0x6c,0x5f,
0x31,0x2f,0x63,0x6f,0x6e,0x76,0x31,0x64,0x5f,0x31,0x2f,0x63,
0x6f,0x6e,0x76,0x6f,0x6c,0x75,0x74,0x69,0x6f,0x6e,0x2f,0x53,
0x71,0x75,0x65,0x65,0x7a,0x65,0x3b,0x00,0x03,0x00,0x00,0x00,
0x01,0x00,0x00,0x00,0x08,0x00,0x00,0x00,0x10,0x00,0x00,0x00,
0xae,0xfb,0xff,0xff,0x00,0x00,0x00,0x01,0x14,0x00,0x00,0x00,
0x24,0x00,0x00,0x00,0x24,0x00,0x00,0x00,0x0f,0x00,0x00,0x00,
0xa8,0x00,0x00,0x00,0x04,0x00,0x00,0x00,0xff,0xff,0xff,0xff,
0x01,0x00,0x00,0x00,0x08,0x00,0x00,0x00,0x10,0x00,0x00,0x00,
0x9c,0xfb,0xff,0xff,0x85,0x00,0x00,0x00,0x73,0x65,0x71,0x75,
0x65,0x6e,0x74,0x69,0x61,0x6c,0x5f,0x31,0x2f,0x63,0x6f,0x6e,
0x76,0x31,0x64,0x5f,0x31,0x2f,0x52,0x65,0x6c,0x75,0x3b,0x73,
0x65,0x71,0x75,0x65,0x6e,0x74,0x69,0x61,0x6c,0x5f,0x31,0x2f,
0x63,0x6f,0x6e,0x76,0x31,0x64,0x5f,0x31,0x2f,0x42,0x69,0x61,
0x73,0x41,0x64,0x64,0x3b,0x73,0x65,0x71,0x75,0x65,0x6e,0x74,
0x69,0x61,0x6c,0x5f,0x31,0x2f,0x63,0x6f,0x6e,0x76,0x31,0x64,
0x5f,0x31,0x2f,0x63,0x6f,0x6e,0x76,0x6f,0x6c,0x75,0x74,0x69,
0x6f,0x6e,0x2f,0x53,0x71,0x75,0x65,0x65,0x7a,0x65,0x3b,0x3b,
0x73,0x65,0x71,0x75,0x65,0x6e,0x74,0x69,0x61,0x6c,0x5f,0x31,
0x2f,0x63,0x6f,0x6e,0x76,0x31,0x64,0x5f,0x31,0x2f,0x63,0x6f,
0x6e,0x76,0x6f,0x6c,0x75,0x74,0x69,0x6f,0x6e,0x00,0x00,0x00,
0x04,0x00,0x00,0x00,0x01,0x00,0x00,0x00,0x01,0x00,0x00,0x00,
0x08,0x00,0x00,0x00,0x10,0x00,0x00,0x00,0x82,0xfc,0xff,0xff,
0x00,0x00,0x00,0x01,0x14,0x00,0x00,0x00,0x24,0x00,0x00,0x00,
0x24,0x00,0x00,0x00,0x0e,0x00,0x00,0x00,0x50,0x00,0x00,0x00,
0x04,0x00,0x00,0x00,0xff,0xff,0xff,0xff,0x01,0x00,0x00,0x00,
0x0a,0x00,0x00,0x00,0x02,0x00,0x00,0x00,0x70,0xfc,0xff,0xff,
0x2c,0x00,0x00,0x00,0x73,0x65,0x71,0x75,0x65,0x6e,0x74,0x69,
0x61,0x6c,0x5f,0x31,0x2f,0x63,0x6f,0x6e,0x76,0x31,0x64,0x5f,
0x31,0x2f,0x63,0x6f,0x6e,0x76,0x6f,0x6c,0x75,0x74,0x69,0x6f,
0x6e,0x2f,0x45,0x78,0x70,0x61,0x6e,0x64,0x44,0x69,0x6d,0x73,
0x00,0x00,0x00,0x00,0x04,0x00,0x00,0x00,0x01,0x00,0x00,0x00,
0x01,0x00,0x00,0x00,0x0a,0x00,0x00,0x00,0x02,0x00,0x00,0x00,
0x4a,0xfe,0xff,0xff,0x00,0x00,0x00,0x01,0x14,0x00,0x00,0x00,
0x14,0x00,0x00,0x00,0x0d,0x00,0x00,0x00,0x00,0x00,0x00,0x02,
0x20,0x00,0x00,0x00,0xd8,0xfc,0xff,0xff,0x10,0x00,0x00,0x00,
0x61,0x72,0x69,0x74,0x68,0x2e,0x63,0x6f,0x6e,0x73,0x74,0x61,
0x6e,0x74,0x31,0x31,0x00,0x00,0x00,0x00,0x00,0x00,0x00,0x00,
0x86,0xfe,0xff,0xff,0x00,0x00,0x00,0x01,0x14,0x00,0x00,0x00,
0x14,0x00,0x00,0x00,0x0c,0x00,0x00,0x00,0x00,0x00,0x00,0x02,
0x20,0x00,0x00,0x00,0x14,0xfd,0xff,0xff,0x10,0x00,0x00,0x00,
0x61,0x72,0x69,0x74,0x68,0x2e,0x63,0x6f,0x6e,0x73,0x74,0x61,
0x6e,0x74,0x31,0x30,0x00,0x00,0x00,0x00,0x00,0x00,0x00,0x00,
0xc6,0xfd,0xff,0xff,0x00,0x00,0x00,0x01,0x10,0x00,0x00,0x00,
0x10,0x00,0x00,0x00,0x0b,0x00,0x00,0x00,0x1c,0x00,0x00,0x00,
0x4c,0xfd,0xff,0xff,0x0f,0x00,0x00,0x00,0x61,0x72,0x69,0x74,
0x68,0x2e,0x63,0x6f,0x6e,0x73,0x74,0x61,0x6e,0x74,0x39,0x00,
0x02,0x00,0x00,0x00,0x20,0x00,0x00,0x00,0x10,0x00,0x00,0x00,
0x02,0xfe,0xff,0xff,0x00,0x00,0x00,0x01,0x10,0x00,0x00,0x00,
0x10,0x00,0x00,0x00,0x0a,0x00,0x00,0x00,0x1c,0x00,0x00,0x00,
0x88,0xfd,0xff,0xff,0x0f,0x00,0x00,0x00,0x61,0x72,0x69,0x74,
0x68,0x2e,0x63,0x6f,0x6e,0x73,0x74,0x61,0x6e,0x74,0x38,0x00,
0x02,0x00,0x00,0x00,0x03,0x00,0x00,0x00,0x20,0x00,0x00,0x00,
0x3e,0xfe,0xff,0xff,0x00,0x00,0x00,0x01,0x10,0x00,0x00,0x00,
0x10,0x00,0x00,0x00,0x09,0x00,0x00,0x00,0x1c,0x00,0x00,0x00,
0xc4,0xfd,0xff,0xff,0x0f,0x00,0x00,0x00,0x61,0x72,0x69,0x74,
0x68,0x2e,0x63,0x6f,0x6e,0x73,0x74,0x61,0x6e,0x74,0x37,0x00,
0x04,0x00,0x00,0x00,0x10,0x00,0x00,0x00,0x01,0x00,0x00,0x00,
0x03,0x00,0x00,0x00,0x02,0x00,0x00,0x00,0x82,0xfe,0xff,0xff,
0x00,0x00,0x00,0x01,0x10,0x00,0x00,0x00,0x10,0x00,0x00,0x00,
0x08,0x00,0x00,0x00,0x1c,0x00,0x00,0x00,0x08,0xfe,0xff,0xff,
0x0f,0x00,0x00,0x00,0x61,0x72,0x69,0x74,0x68,0x2e,0x63,0x6f,
0x6e,0x73,0x74,0x61,0x6e,0x74,0x36,0x00,0x04,0x00,0x00,0x00,
0x10,0x00,0x00,0x00,0x01,0x00,0x00,0x00,0x03,0x00,0x00,0x00,
0x10,0x00,0x00,0x00,0xc2,0xff,0xff,0xff,0x00,0x00,0x00,0x01,
0x14,0x00,0x00,0x00,0x14,0x00,0x00,0x00,0x07,0x00,0x00,0x00,
0x00,0x00,0x00,0x02,0x1c,0x00,0x00,0x00,0x50,0xfe,0xff,0xff,
0x0f,0x00,0x00,0x00,0x61,0x72,0x69,0x74,0x68,0x2e,0x63,0x6f,
0x6e,0x73,0x74,0x61,0x6e,0x74,0x35,0x00,0x01,0x00,0x00,0x00,
0x03,0x00,0x00,0x00,0x00,0x00,0x16,0x00,0x1c,0x00,0x18,0x00,
0x17,0x00,0x10,0x00,0x0c,0x00,0x08,0x00,0x00,0x00,0x00,0x00,
0x00,0x00,0x07,0x00,0x16,0x00,0x00,0x00,0x00,0x00,0x00,0x01,
0x14,0x00,0x00,0x00,0x14,0x00,0x00,0x00,0x06,0x00,0x00,0x00,
0x00,0x00,0x00,0x02,0x1c,0x00,0x00,0x00,0xa4,0xfe,0xff,0xff,
0x0f,0x00,0x00,0x00,0x61,0x72,0x69,0x74,0x68,0x2e,0x63,0x6f,
0x6e,0x73,0x74,0x61,0x6e,0x74,0x34,0x00,0x01,0x00,0x00,0x00,
0x03,0x00,0x00,0x00,0x56,0xff,0xff,0xff,0x00,0x00,0x00,0x01,
0x10,0x00,0x00,0x00,0x10,0x00,0x00,0x00,0x05,0x00,0x00,0x00,
0x1c,0x00,0x00,0x00,0xdc,0xfe,0xff,0xff,0x0f,0x00,0x00,0x00,
0x61,0x72,0x69,0x74,0x68,0x2e,0x63,0x6f,0x6e,0x73,0x74,0x61,
0x6e,0x74,0x33,0x00,0x01,0x00,0x00,0x00,0x03,0x00,0x00,0x00,
0x8e,0xff,0xff,0xff,0x00,0x00,0x00,0x01,0x10,0x00,0x00,0x00,
0x10,0x00,0x00,0x00,0x04,0x00,0x00,0x00,0x1c,0x00,0x00,0x00,
0x14,0xff,0xff,0xff,0x0f,0x00,0x00,0x00,0x61,0x72,0x69,0x74,
0x68,0x2e,0x63,0x6f,0x6e,0x73,0x74,0x61,0x6e,0x74,0x32,0x00,
0x01,0x00,0x00,0x00,0x10,0x00,0x00,0x00,0xc6,0xff,0xff,0xff,
0x00,0x00,0x00,0x01,0x10,0x00,0x00,0x00,0x10,0x00,0x00,0x00,
0x03,0x00,0x00,0x00,0x1c,0x00,0x00,0x00,0x4c,0xff,0xff,0xff,
0x0f,0x00,0x00,0x00,0x61,0x72,0x69,0x74,0x68,0x2e,0x63,0x6f,
0x6e,0x73,0x74,0x61,0x6e,0x74,0x31,0x00,0x01,0x00,0x00,0x00,
0x10,0x00,0x00,0x00,0x00,0x00,0x16,0x00,0x18,0x00,0x14,0x00,
0x00,0x00,0x10,0x00,0x0c,0x00,0x08,0x00,0x00,0x00,0x00,0x00,
0x00,0x00,0x07,0x00,0x16,0x00,0x00,0x00,0x00,0x00,0x00,0x01,
0x10,0x00,0x00,0x00,0x10,0x00,0x00,0x00,0x02,0x00,0x00,0x00,
0x1c,0x00,0x00,0x00,0x9c,0xff,0xff,0xff,0x0e,0x00,0x00,0x00,
0x61,0x72,0x69,0x74,0x68,0x2e,0x63,0x6f,0x6e,0x73,0x74,0x61,
0x6e,0x74,0x00,0x00,0x01,0x00,0x00,0x00,0x20,0x00,0x00,0x00,
0x00,0x00,0x16,0x00,0x1c,0x00,0x18,0x00,0x00,0x00,0x14,0x00,
0x10,0x00,0x0c,0x00,0x00,0x00,0x00,0x00,0x08,0x00,0x07,0x00,
0x16,0x00,0x00,0x00,0x00,0x00,0x00,0x01,0x14,0x00,0x00,0x00,
0x24,0x00,0x00,0x00,0x24,0x00,0x00,0x00,0x01,0x00,0x00,0x00,
0x40,0x00,0x00,0x00,0x03,0x00,0x00,0x00,0xff,0xff,0xff,0xff,
0x0a,0x00,0x00,0x00,0x02,0x00,0x00,0x00,0x04,0x00,0x04,0x00,
0x04,0x00,0x00,0x00,0x1e,0x00,0x00,0x00,0x73,0x65,0x72,0x76,
0x69,0x6e,0x67,0x5f,0x64,0x65,0x66,0x61,0x75,0x6c,0x74,0x5f,
0x6b,0x65,0x72,0x61,0x73,0x5f,0x74,0x65,0x6e,0x73,0x6f,0x72,
0x3a,0x30,0x00,0x00,0x03,0x00,0x00,0x00,0x01,0x00,0x00,0x00,
0x0a,0x00,0x00,0x00,0x02,0x00,0x00,0x00,0x06,0x00,0x00,0x00,
0x60,0x00,0x00,0x00,0x44,0x00,0x00,0x00,0x34,0x00,0x00,0x00,
0x24,0x00,0x00,0x00,0x14,0x00,0x00,0x00,0x04,0x00,0x00,0x00,
0xc4,0xff,0xff,0xff,0x19,0x00,0x00,0x00,0x00,0x00,0x00,0x19,
0xd0,0xff,0xff,0xff,0x09,0x00,0x00,0x00,0x00,0x00,0x00,0x09,
0xdc,0xff,0xff,0xff,0x28,0x00,0x00,0x00,0x00,0x00,0x00,0x28,
0xe8,0xff,0xff,0xff,0x16,0x00,0x00,0x00,0x00,0x00,0x00,0x16,
0xf4,0xff,0xff,0xff,0x03,0x00,0x00,0x00,0x00,0x00,0x00,0x03,
0x0c,0x00,0x0c,0x00,0x0b,0x00,0x00,0x00,0x00,0x00,0x04,0x00,
0x0c,0x00,0x00,0x00,0x46,0x00,0x00,0x00,0x00,0x00,0x00,0x46,

};
const unsigned int model_len = 10212;
