const unsigned char model[] = {
0x1c,0x00,0x00,0x00,0x54,0x46,0x4c,0x33,0x14,0x00,0x20,0x00,
0x1c,0x00,0x18,0x00,0x14,0x00,0x10,0x00,0x0c,0x00,0x00,0x00,
0x08,0x00,0x04,0x00,0x14,0x00,0x00,0x00,0x1c,0x00,0x00,0x00,
0x8c,0x00,0x00,0x00,0xe4,0x00,0x00,0x00,0xc0,0x1a,0x00,0x00,
0xd0,0x1a,0x00,0x00,0x40,0x27,0x00,0x00,0x03,0x00,0x00,0x00,
0x01,0x00,0x00,0x00,0x04,0x00,0x00,0x00,0x5a,0xe3,0xff,0xff,
0x0c,0x00,0x00,0x00,0x1c,0x00,0x00,0x00,0x3c,0x00,0x00,0x00,
0x0f,0x00,0x00,0x00,0x73,0x65,0x72,0x76,0x69,0x6e,0x67,0x5f,
0x64,0x65,0x66,0x61,0x75,0x6c,0x74,0x00,0x01,0x00,0x00,0x00,
0x04,0x00,0x00,0x00,0x90,0xff,0xff,0xff,0x16,0x00,0x00,0x00,
0x04,0x00,0x00,0x00,0x08,0x00,0x00,0x00,0x6f,0x75,0x74,0x70,
0x75,0x74,0x5f,0x30,0x00,0x00,0x00,0x00,0x01,0x00,0x00,0x00,
0x04,0x00,0x00,0x00,0x12,0xe5,0xff,0xff,0x04,0x00,0x00,0x00,
0x0c,0x00,0x00,0x00,0x6b,0x65,0x72,0x61,0x73,0x5f,0x74,0x65,
0x6e,0x73,0x6f,0x72,0x00,0x00,0x00,0x00,0x02,0x00,0x00,0x00,
0x34,0x00,0x00,0x00,0x04,0x00,0x00,0x00,0xdc,0xff,0xff,0xff,
0x19,0x00,0x00,0x00,0x04,0x00,0x00,0x00,0x13,0x00,0x00,0x00,
0x43,0x4f,0x4e,0x56,0x45,0x52,0x53,0x49,0x4f,0x4e,0x5f,0x4d,
0x45,0x54,0x41,0x44,0x41,0x54,0x41,0x00,0x08,0x00,0x0c,0x00,
0x08,0x00,0x04,0x00,0x08,0x00,0x00,0x00,0x18,0x00,0x00,0x00,
0x04,0x00,0x00,0x00,0x13,0x00,0x00,0x00,0x6d,0x69,0x6e,0x5f,
0x72,0x75,0x6e,0x74,0x69,0x6d,0x65,0x5f,0x76,0x65,0x72,0x73,
0x69,0x6f,0x6e,0x00,0x1a,0x00,0x00,0x00,0xd8,0x19,0x00,0x00,
0xd0,0x19,0x00,0x00,0x40,0x19,0x00,0x00,0xf0,0x18,0x00,0x00,
0xa0,0x18,0x00,0x00,0x84,0x18,0x00,0x00,0x68,0x18,0x00,0x00,
0x4c,0x18,0x00,0x00,0x3c,0x0c,0x00,0x00,0xac,0x0a,0x00,0x00,
0x1c,0x09,0x00,0x00,0x0c,0x01,0x00,0x00,0xf8,0x00,0x00,0x00,
0xe4,0x00,0x00,0x00,0xdc,0x00,0x00,0x00,0xd4,0x00,0x00,0x00,
0xcc,0x00,0x00,0x00,0xc4,0x00,0x00,0x00,0xbc,0x00,0x00,0x00,
0xb4,0x00,0x00,0x00,0xac,0x00,0x00,0x00,0xa4,0x00,0x00,0x00,
0x9c,0x00,0x00,0x00,0x94,0x00,0x00,0x00,0x74,0x00,0x00,0x00,
0x04,0x00,0x00,0x00,0xf6,0xe5,0xff,0xff,0x04,0x00,0x00,0x00,
0x60,0x00,0x00,0x00,0x0c,0x00,0x00,0x00,0x08,0x00,0x0e,0x00,
0x08,0x00,0x04,0x00,0x08,0x00,0x00,0x00,0x10,0x00,0x00,0x00,
0x28,0x00,0x00,0x00,0x00,0x00,0x06,0x00,0x08,0x00,0x04,0x00,
0x06,0x00,0x00,0x00,0x04,0x00,0x00,0x00,0x01,0x00,0x00,0x00,
0xea,0x03,0x00,0x00,0x0c,0x00,0x18,0x00,0x14,0x00,0x10,0x00,
0x0c,0x00,0x04,0x00,0x0c,0x00,0x00,0x00,0x43,0x98,0x3c,0xf9,
0xfa,0x83,0x63,0xc8,0x02,0x00,0x00,0x00,0x02,0x00,0x00,0x00,
0x04,0x00,0x00,0x00,0x06,0x00,0x00,0x00,0x32,0x2e,0x32,0x30,
0x2e,0x30,0x00,0x00,0x62,0xe6,0xff,0xff,0x04,0x00,0x00,0x00,
0x10,0x00,0x00,0x00,0x31,0x2e,0x31,0x30,0x2e,0x30,0x00,0x00,
0x00,0x00,0x00,0x00,0x00,0x00,0x00,0x00,0xc8,0xda,0xff,0xff,
0xcc,0xda,0xff,0xff,0xd0,0xda,0xff,0xff,0xd4,0xda,0xff,0xff,
0xd8,0xda,0xff,0xff,0xdc,0xda,0xff,0xff,0xe0,0xda,0xff,0xff,
0xe4,0xda,0xff,0xff,0xe8,0xda,0xff,0xff,0xec,0xda,0xff,0xff,
0xa6,0xe6,0xff,0xff,0x04,0x00,0x00,0x00,0x04,0x00,0x00,0x00,
0xfd,0xff,0xff,0xff,0xb6,0xe6,0xff,0xff,0x04,0x00,0x00,0x00,
0x04,0x00,0x00,0x00,0x01,0x00,0x00,0x00,0xc6,0xe6,0xff,0xff,
0x04,0x00,0x00,0x00,0x00,0x08,0x00,0x00,0x6e,0xa4,0x83,0xbe,
0x92,0x21,0x30,0xbe,0x98,0x91,0x58,0xbe,0xfe,0xe3,0xc3,0xbd,
0xb1,0xd4,0xba,0xbd,0x4b,0xc3,0x43,0xbe,0xe0,0xac,0x1d,0xbe,
0xb1,0xc1,0x79,0xbd,0xe8,0x03,0xa1,0xbe,0xa5,0x5a,0x8c,0xbe,
0xc3,0x94,0x6e,0x3e,0xae,0xb4,0x40,0x3e,0xa4,0x26,0x17,0x3e,
0x40,0xd4,0xea,0xbd,0x80,0x8e,0x8a,0xbe,0xec,0x46,0xc7,0x3e,
0xe1,0x66,0x45,0xbe,0xfa,0xec,0x50,0x3e,0x25,0x5f,0x98,0xbe,
0x38,0xde,0x66,0xbe,0x0c,0xcb,0x52,0x3e,0x1e,0x85,0x12,0x3e,
0x8a,0x4b,0x99,0x3d,0x42,0x68,0x12,0x3e,0x70,0xd0,0x8d,0x3e,
0x67,0x06,0x86,0xbd,0x42,0xad,0x6a,0x3e,0xe3,0xe1,0xde,0xbd,
0xe4,0x58,0x55,0x3d,0xea,0x75,0xab,0xbe,0xf0,0x65,0x1d,0x3d,
0x9e,0xf8,0x2e,0xbe,0xfb,0xc4,0x48,0xbe,0xe0,0xfe,0xa8,0xbd,
0xd3,0x24,0x63,0xbe,0x23,0xcd,0x18,0x3e,0x99,0x88,0x50,0xbe,
0x7e,0xe1,0x34,0x3e,0xdc,0x3e,0x62,0x3e,0x80,0x2d,0x77,0x3b,
0xce,0xc3,0x27,0x3e,0x15,0x98,0x79,0x3e,0xd8,0xa6,0x12,0x3d,
0xc3,0x32,0x99,0xbe,0x3b,0xe2,0xa5,0xbe,0x9f,0xb0,0xc3,0xbe,
0xef,0x01,0x9e,0xbe,0x59,0x52,0x10,0x3e,0x93,0x3e,0x5f,0x3c,
0xf4,0x92,0xd5,0x3d,0xd7,0x8f,0x7e,0x3e,0x64,0x6b,0xf6,0x3d,
0x4d,0x7c,0xae,0xbe,0x70,0x43,0xd3,0x3c,0x9d,0x91,0x40,0xbe,
0xc2,0x63,0x50,0x3e,0x7b,0x44,0xd1,0x39,0x37,0x28,0x9d,0xbe,
0x00,0xb6,0x8f,0xbe,0xd3,0x0d,0x32,0xbe,0x5e,0x57,0x72,0xbd,
0x73,0xe3,0x17,0xbe,0x08,0xe9,0x8d,0x3d,0x9b,0x09,0xd0,0xbd,
0x8f,0x7a,0x52,0x3e,0x6b,0x0b,0x9b,0x3e,0x93,0xb5,0xa5,0x3d,
0x37,0x7a,0xec,0x3e,0x1d,0xc7,0xdf,0xbe,0x62,0x66,0xd1,0xbd,
0x7d,0x32,0x0a,0xbe,0x30,0x45,0x8c,0x3e,0x51,0xcc,0x2a,0xbe,
0x20,0x0e,0xd6,0x3e,0xe2,0xf0,0x71,0xbe,0xf9,0x67,0x00,0xbe,
0xd2,0x26,0x74,0x3d,0x7f,0x83,0xb9,0xbe,0x7a,0xd6,0x7c,0x3e,
0x10,0xb9,0x89,0x3e,0x17,0x5e,0x09,0x3e,0x11,0xc1,0x9f,0xbe,
0xea,0x10,0x8f,0x3d,0xb8,0xd1,0xa6,0xbc,0xf8,0x55,0xac,0x3e,
0xce,0x5d,0xdf,0x3d,0xf0,0x0d,0x09,0xbe,0x97,0xf3,0x87,0x3b,
0x06,0x0f,0x7d,0x3d,0xb0,0x70,0xeb,0xbe,0xd2,0xd1,0x49,0x3e,
0x3e,0xe5,0xc4,0xbe,0x60,0x75,0xbe,0x3e,0x17,0x5e,0x59,0xbd,
0x0d,0x19,0x98,0xbe,0xbd,0x47,0xad,0x3a,0x56,0x3c,0x1b,0xbe,
0x30,0x24,0x13,0x3d,0x8f,0xbd,0x5f,0xbe,0x9f,0xa5,0x41,0xbd,
0x75,0xa3,0x83,0xbd,0x5c,0x4b,0x9b,0x3e,0xd6,0x97,0x7f,0x3e,
0x7a,0x03,0x4e,0x3e,0xcc,0x78,0x15,0x3e,0xd9,0xcd,0xdc,0xbd,
0x62,0x79,0x02,0xbc,0x64,0xd3,0x05,0x3d,0x30,0xf5,0x16,0x3e,
0x4c,0xdd,0xc3,0x3d,0x93,0x9a,0x5a,0x3d,0x60,0x87,0xf4,0xbd,
0x34,0x5a,0xdf,0x3e,0x67,0x67,0x8d,0xbe,0x58,0xd3,0xcf,0xbc,
0x9d,0x8a,0xf8,0xbd,0x73,0xcf,0xcf,0x3d,0x43,0x1a,0x84,0x3e,
0x87,0x5b,0x9d,0xbe,0x82,0x82,0x94,0xbe,0x4c,0x6e,0xc4,0x3d,
0x04,0x84,0xef,0xbe,0x30,0xed,0x8e,0x3e,0xad,0x8a,0x84,0xbe,
0x19,0xc2,0x5a,0x3e,0xa7,0x45,0x89,0x3e,0x6f,0x83,0x08,0xbf,
0xfa,0x19,0x42,0x3e,0x27,0x2e,0xc2,0x3d,0x1e,0xd3,0x16,0x3e,
0xa3,0x24,0x18,0xbe,0x98,0x54,0x46,0xbe,0x6f,0xb9,0xec,0x3e,
0xd6,0x47,0x71,0x3e,0x28,0xdf,0x1d,0x3e,0x95,0x54,0xbc,0x3d,
0xe4,0xa3,0xf4,0x3e,0x93,0x66,0x66,0xbe,0x5c,0x10,0xb0,0x3e,
0x8c,0x4b,0xb8,0x3e,0xa0,0x50,0xd5,0xbc,0x20,0x4f,0xaf,0xbe,
0x77,0xa8,0x3c,0xbe,0xa3,0x0f,0x03,0x3e,0x2f,0x3a,0xee,0xbd,
0x16,0xac,0x75,0x3e,0x21,0x85,0xec,0x3d,0xa2,0x19,0x2c,0x3e,
0x23,0x37,0xe0,0xbe,0x00,0x3b,0x19,0xbe,0xd2,0x37,0x62,0x3e,
0x73,0x04,0x7a,0x3e,0x17,0xee,0x6d,0xbe,0xde,0x2a,0x80,0x3e,
0x2f,0xdd,0x32,0x3c,0x4f,0x71,0x70,0xbe,0x5e,0x08,0xf8,0x3d,
0xad,0xa8,0x4a,0xbe,0x90,0x28,0xc5,0x3e,0x17,0x72,0x8e,0x3e,
0x15,0xe9,0x02,0xbd,0xc2,0xbd,0x11,0x3e,0x89,0xb8,0x48,0x3d,
0x4b,0xc5,0x11,0x3d,0xb0,0x7c,0x10,0xbe,0xfa,0x61,0x1c,0xbe,
0x63,0xbf,0x9a,0x3e,0x40,0xc3,0xb2,0xbc,0xca,0xcf,0x05,0xbe,
0xc1,0x7a,0x84,0xbe,0x00,0xcb,0xab,0x3e,0x37,0xac,0x27,0xbe,
0xdc,0xd3,0x3c,0xbe,0x51,0xc2,0x76,0xbd,0x5c,0xb9,0x89,0x3e,
0x60,0xee,0xad,0x3c,0x7f,0x34,0x86,0xbd,0xe2,0x7d,0x47,0x3e,
0x13,0xfb,0xd5,0xbd,0xff,0x36,0xc1,0x3e,0xc6,0x8d,0xb9,0xbd,
0x31,0x56,0x7c,0x3d,0xd4,0xfd,0xa0,0xbe,0x23,0x2a,0xba,0xbc,
0x30,0xaf,0xfa,0xbe,0x9d,0xe3,0x70,0x3e,0xa5,0x85,0x90,0xbe,
0x79,0xbc,0xd4,0x3d,0x5a,0xd0,0xde,0xbe,0x1b,0x22,0x58,0x3e,
0xba,0xaa,0x93,0x3d,0x9c,0x72,0x6d,0x3d,0xa9,0xbb,0x10,0x3d,
0x6f,0x77,0xa0,0xbe,0xeb,0xec,0x39,0xbd,0x4f,0xe6,0xe0,0x3c,
0x6c,0xd9,0x7d,0x3d,0x2e,0x46,0x8b,0xbd,0x6b,0x6c,0xf9,0xbb,
0x8e,0x0a,0x04,0x3e,0xf6,0x06,0xba,0x3e,0xb0,0xf2,0x13,0x3e,
0xfa,0x4e,0xf6,0x3e,0x97,0xad,0x57,0xbe,0x91,0xdf,0x93,0x3e,
0xca,0xa2,0x2e,0x3e,0x09,0x88,0x37,0xbe,0x4a,0x91,0xf0,0x3d,
0xeb,0xfc,0x87,0x3d,0xde,0x3b,0x65,0x3e,0x5f,0xce,0x4f,0x3d,
0x23,0x0d,0x43,0xbe,0x8b,0xec,0x89,0xbe,0x29,0x67,0xa1,0x3b,
0x77,0xc5,0x94,0x3e,0x7e,0x6c,0x6c,0x3e,0x8f,0x70,0xc8,0xbd,
0xc3,0xcb,0x6e,0x3e,0xfd,0x2e,0x36,0x3e,0x12,0x14,0x4b,0x3e,
0x58,0x5c,0x1e,0xbe,0x0a,0x32,0xaf,0xbb,0x4d,0x7a,0x12,0x3e,
0x8c,0x7c,0xaa,0xbe,0x39,0x5b,0x8b,0xbe,0x98,0x35,0xad,0xbe,
0xb2,0x7a,0xbf,0xbe,0x11,0xc6,0xc0,0x3e,0xbe,0xc0,0x74,0x3e,
0x64,0x57,0xc4,0x3b,0xaa,0x9c,0x5c,0x3e,0x25,0x6c,0x8c,0x3e,
0xea,0x1d,0xaf,0xbe,0x1c,0x6a,0x86,0x3d,0x70,0x9f,0x1e,0x3d,
0x08,0xc6,0x0c,0x3e,0x63,0xd6,0x6d,0x3e,0xb5,0x39,0x2d,0x3d,
0x30,0x73,0x0e,0x3f,0xe7,0xc4,0xd1,0x3e,0x99,0xd3,0x08,0x3c,
0xbf,0xaa,0xa3,0x3e,0xa0,0x4c,0x3b,0x3e,0x7e,0xd0,0x19,0x3f,
0xb1,0x7e,0xb2,0xbd,0xf0,0xa0,0xda,0x3c,0xf9,0xbf,0x92,0x3e,
0xc5,0x58,0x81,0x3e,0x1d,0x08,0xc1,0xbd,0xef,0x4c,0xfa,0x3e,
0x9d,0xc4,0x24,0xbe,0x25,0x29,0xa4,0xbe,0xd3,0xc5,0xfb,0x3c,
0x5f,0x1a,0xe5,0x3d,0x98,0x19,0xa1,0x3e,0xac,0x3d,0x28,0xbe,
0x7e,0x88,0xef,0xbd,0x9e,0x9f,0x44,0x3e,0x0a,0xa8,0x9c,0xbd,
0xb3,0xf3,0xcd,0x3d,0x18,0x12,0x9e,0xbe,0xdc,0x51,0x99,0x3d,
0x98,0x39,0x4b,0xbe,0x0d,0x82,0x7d,0xbe,0x89,0x26,0x28,0x3e,
0x96,0xc3,0x0c,0x3e,0x1b,0x94,0xc5,0xbe,0xed,0xf4,0xa8,0x3e,
0xd1,0x69,0x14,0x3d,0x59,0x09,0x0d,0x3c,0x4a,0x45,0x65,0x3e,
0x6e,0xae,0xd3,0x3e,0x34,0x63,0xeb,0x3e,0xa0,0x7f,0x92,0x3d,
0x85,0x01,0xb9,0x3e,0xa1,0xa9,0x04,0xbe,0x95,0xc8,0x40,0x3e,
0x41,0xd2,0xe2,0x3c,0x22,0xdc,0xe4,0xbc,0x82,0x7d,0x4b,0xbe,
0x0b,0x0f,0xc9,0xbd,0x72,0x1f,0x06,0x3d,0x7d,0x5e,0xb3,0xbd,
0x99,0x8c,0x7c,0xbd,0x6b,0x15,0x93,0x3e,0x3b,0x36,0x09,0xbe,
0x68,0xe8,0x31,0xbd,0x7a,0x99,0x39,0xbe,0x8a,0x78,0x86,0x3e,
0xe4,0x8d,0x82,0xbd,0x8c,0xe7,0xca,0xbe,0xb6,0x3d,0x6f,0x3e,
0x17,0x19,0xb2,0x3e,0x15,0x2d,0x8c,0xbe,0x39,0xd0,0x4d,0xbe,
0x21,0x66,0xb6,0x3e,0xb7,0xc9,0x8c,0xbe,0xb6,0x42,0x8e,0x3e,
0xde,0xfb,0x91,0xbe,0xf0,0xa3,0x5d,0x3c,0x47,0x6b,0x07,0x3e,
0xfb,0x3c,0x89,0x3d,0x64,0x0d,0x25,0x3f,0x78,0xfc,0x5b,0x3e,
0x6b,0xd1,0x2c,0x3e,0x44,0x28,0x98,0x3d,0x34,0xea,0xd3,0x3e,
0x7f,0x4a,0x85,0xbe,0xf9,0xaf,0xc3,0x3e,0x82,0x71,0x8b,0x3e,
0x0a,0x26,0xa7,0xbd,0x49,0x3d,0x21,0xbe,0x56,0x22,0x7c,0x3e,
0x3a,0x9b,0x1d,0xbf,0x47,0x67,0xf0,0x3e,0xe6,0x19,0xfb,0x3d,
0xbe,0x7a,0xe7,0x3e,0x43,0xc0,0x36,0xbe,0xa3,0xae,0x15,0xbf,
0xdd,0x4f,0x66,0xbe,0xab,0x0e,0x9b,0xbe,0xc0,0x5a,0x1e,0x3c,
0x13,0x57,0xba,0xbe,0x67,0x67,0xcb,0x3e,0x09,0xe4,0x8c,0x3e,
0x94,0x17,0x04,0x3e,0xde,0x25,0x34,0x3d,0x80,0x71,0x07,0x3e,
0x6a,0xe1,0x23,0xbe,0xa7,0xfe,0xed,0x3e,0x84,0x35,0x14,0xbe,
0x6c,0x3f,0x8a,0x3e,0x83,0x1e,0x10,0x3e,0x85,0xc3,0x8f,0x3d,
0x87,0xba,0xd6,0x3e,0x24,0xe3,0x05,0x3f,0x0a,0x2e,0xaf,0x3d,
0xae,0x41,0xef,0xbd,0x3f,0x4b,0xae,0x3e,0x58,0xe0,0xbd,0xbe,
0x56,0xa8,0xbf,0x3e,0xb7,0x39,0x8b,0x3e,0x0d,0x10,0x8b,0x3e,
0xd1,0x58,0x64,0xbe,0x2a,0x6b,0xd7,0x3e,0x64,0x93,0xc2,0xbe,
0x21,0x94,0xd7,0x3d,0x7e,0xda,0x40,0x3e,0x4d,0x77,0xaf,0x3e,
0x97,0xf3,0xa0,0x3b,0x05,0x34,0x10,0xbd,0xbd,0x44,0x88,0x3d,
0x1c,0xb3,0xaf,0x3d,0x8b,0x11,0x18,0xbe,0xee,0x74,0x2e,0x3e,
0x84,0x45,0xa3,0x3d,0x14,0x71,0xde,0x3d,0x63,0x1d,0x9c,0x3e,
0x19,0x12,0x24,0xbe,0x2a,0xc8,0x6e,0xbe,0x50,0x42,0xf0,0xbd,
0x96,0xd5,0xd7,0xbd,0xb4,0x62,0xfd,0xbd,0xa0,0xf6,0xc2,0x3c,
0x5a,0xa6,0xe7,0xbd,0x10,0x00,0xa3,0xbe,0x2e,0x15,0x43,0x3e,
0x05,0x4e,0x4b,0xbe,0x3d,0x34,0x91,0x3e,0xce,0x8c,0x42,0x3e,
0x09,0xa9,0xe2,0xbd,0xe3,0x51,0xaf,0x3e,0x46,0xdc,0x4f,0xbd,
0xaa,0x70,0xa3,0x3e,0x0e,0x55,0x8b,0x3c,0xb4,0x49,0xcd,0x3d,
0xb0,0xd1,0xd6,0xbd,0x97,0x7d,0xcb,0xbd,0x7b,0x0b,0x73,0xbe,
0x44,0xf2,0x9e,0x3d,0x0c,0x1f,0xc0,0x3e,0x60,0x0b,0xa3,0xbe,
0x05,0x79,0xc7,0x3e,0xdc,0x4e,0x19,0x3e,0x50,0xb2,0x91,0x3e,
0x08,0x23,0x34,0xbd,0x3b,0x42,0xfc,0x3e,0x0c,0x29,0xc2,0xbc,
0xd0,0x6b,0xef,0xbd,0x19,0x14,0x83,0xbe,0x85,0xd4,0x94,0xbe,
0x4c,0xcb,0xe7,0x3c,0xa7,0xb4,0x05,0x3f,0xcf,0x66,0x89,0x3c,
0x8e,0xb5,0xf2,0x3d,0xf9,0x5b,0x75,0x3e,0x8f,0x5b,0x4a,0xbe,
0x18,0x6c,0x07,0x3d,0xee,0x21,0x43,0xbe,0x1a,0xfa,0xfc,0x3d,
0xdb,0xcb,0x8d,0xbe,0xd7,0x30,0x95,0x3e,0x20,0x95,0xb4,0x3e,
0xdf,0xde,0x8f,0x3e,0x24,0xd4,0x06,0xbe,0xa7,0xef,0x98,0xbe,
0x6a,0xe4,0x95,0x3c,0xde,0xce,0x0c,0x3e,0x7c,0x76,0x89,0x3e,
0xc7,0xf8,0x2c,0x3e,0x9c,0x95,0x53,0x3e,0xac,0x49,0x81,0xbe,
0x65,0x9a,0xab,0xbe,0xd1,0x35,0x48,0x3d,0x60,0x47,0xc0,0x3e,
0xf5,0xb0,0x3c,0xbd,0x97,0xdf,0x02,0x3f,0x30,0xe2,0xde,0xbc,
0x93,0x8d,0x82,0x3e,0xa7,0x59,0x85,0xbc,0x07,0x63,0x97,0xbe,
0x58,0x72,0x98,0xbe,0xde,0x30,0xa2,0xbd,0x74,0x78,0x96,0xbd,
0xb4,0x94,0xb6,0x3d,0x2f,0x88,0x7d,0xbe,0xbf,0xb1,0x25,0x3e,
0xbc,0xae,0x30,0x3e,0x1d,0xa8,0xd0,0x3e,0x4e,0x99,0x4f,0x3e,
0xe9,0x2d,0xe0,0xbe,0x6f,0xae,0x29,0xbe,0xa9,0x76,0x20,0x3e,
0x74,0xed,0x8b,0xbe,0xd5,0x91,0xb9,0x3e,0x5b,0x14,0x6d,0xbe,
0xd7,0xb1,0xae,0x3e,0x07,0x39,0x75,0x3e,0xf6,0x03,0x6b,0x3d,
0x90,0x7c,0xa9,0xbe,0x06,0xfc,0x1f,0xbd,0xbb,0x66,0x08,0xbf,
0x78,0xe6,0x88,0x3e,0xd5,0xaf,0xc6,0xbe,0xc3,0x37,0x3e,0x3e,
0x31,0x52,0xd2,0x3d,0xa3,0x7a,0xdb,0xbc,0xf5,0x0e,0xdc,0xbd,
0x00,0x74,0x37,0x3a,0x6d,0x31,0x92,0x3e,0xd1,0x0c,0x39,0xbe,
0x34,0xd3,0x87,0xbe,0x19,0x15,0xaf,0x3e,0x8c,0x68,0xd1,0xbd,
0x58,0xd7,0xb4,0x3d,0x8e,0x35,0x27,0x3e,0x0d,0x84,0x5f,0xbe,
0x6f,0x37,0x8a,0xbe,0x6c,0x75,0xfc,0x3d,0x6a,0x84,0x2f,0xbe,
0x92,0xd8,0xad,0xbe,0x9a,0x5d,0x87,0xbe,0x2a,0xf4,0x97,0xbe,
0xf8,0x90,0x34,0x3d,0x90,0x9a,0x3c,0x3d,0x97,0xe6,0xab,0x3e,
0x2c,0x58,0xc5,0xbd,0x84,0xea,0x5f,0xbe,0xc8,0xa6,0x45,0x3d,
0x77,0xe9,0x93,0x3e,0xb0,0x12,0x9e,0x3c,0x34,0x3a,0xc7,0xbd,
0xf9,0xc4,0x31,0xbe,0x98,0x04,0x3f,0x3d,0x06,0x15,0x27,0x3e,
0xe0,0x0c,0x0f,0xbd,0x87,0x6e,0x03,0xbe,0x48,0xd8,0xd2,0x3d,
0xcf,0xe2,0x6f,0xbe,0x2e,0xdf,0x83,0xbe,0x19,0xa7,0x33,0xbe,
0xf3,0x47,0x02,0xbe,0xcf,0x5d,0x08,0xbd,0x41,0xf4,0x2a,0x3d,
0x41,0x7c,0x4c,0xbe,0x25,0xaa,0xa0,0x3e,0x2d,0xe3,0xf3,0xbd,
0x0b,0x6c,0x4f,0x3e,0xb7,0x08,0xed,0xbe,0x5e,0x28,0xa9,0x3e,
0x72,0x09,0x98,0x3e,0x5b,0x97,0x8a,0x3e,0x05,0x27,0xc0,0xbc,
0xaa,0x63,0xb2,0x3e,0x48,0x4d,0xa3,0x3e,0x54,0xf7,0xa3,0x3e,
0xfc,0x30,0x67,0x3e,0x90,0x27,0x09,0xbd,0x98,0x12,0x9d,0x3e,
0x85,0xc7,0x25,0x3e,0xe9,0x98,0x82,0x3e,0x4b,0x8b,0xba,0x3d,
0xa1,0xb6,0x19,0xbe,0x90,0x94,0xb2,0xbe,0x75,0x1b,0xa1,0x3d,
0xb5,0x66,0x0f,0xbe,0x4e,0x9c,0x54,0xbc,0xa8,0x34,0x27,0xbd,
0x4f,0x3d,0x66,0xbe,0x73,0xcf,0x80,0x3e,0x1e,0xb4,0xa0,0xbe,
0x8e,0xc8,0x98,0x3e,0xd2,0xee,0xff,0xff,0x04,0x00,0x00,0x00,
0x80,0x01,0x00,0x00,0x20,0xd2,0xb9,0xbe,0x5e,0xc9,0x96,0xbe,
0xe5,0xca,0xb1,0x3e,0xdb,0xab,0x21,0xbe,0x68,0x7f,0xaf,0xbe,
0x6f,0x0e,0x02,0x3f,0xb8,0x3a,0xb8,0xbe,0xe0,0x1d,0xbc,0x3d,
0x1b,0x7e,0x80,0x3e,0x65,0x7a,0xac,0xbe,0x19,0x3e,0xea,0xbd,
0x41,0x6b,0x4b,0xbe,0xc1,0xa9,0x61,0x3e,0xbb,0x9c,0x8e,0x3e,
0xb4,0x1d,0xb7,0xbc,0x6e,0xc4,0xf2,0xbe,0x44,0x0a,0x0f,0xbf,
0x22,0xde,0x4c,0x3e,0x7a,0xc5,0xd8,0xbe,0xfb,0xed,0x16,0x3f,
0x44,0x54,0xd7,0xbe,0x6e,0xca,0x59,0x3e,0xbc,0xdd,0x9c,0xbd,
0xe8,0x62,0x8c,0xbd,0xca,0x66,0xea,0x3e,0xaf,0xff,0x67,0x3e,
0xe2,0xb3,0xc8,0x3e,0x1f,0x75,0x10,0x3f,0x9c,0x34,0xf0,0xbd,
0x68,0x9d,0x80,0xbe,0x6d,0x50,0xdf,0xbe,0x9c,0x73,0x8e,0x3e,
0xcd,0x11,0x17,0x3f,0x4b,0x91,0xb8,0x3e,0xdb,0x00,0x2f,0x3d,
0x35,0xc8,0x0f,0xbd,0x82,0x0c,0x86,0xbe,0xbc,0x4b,0x14,0xbe,
0x5f,0xd0,0x0e,0x3e,0xa1,0x9e,0x8b,0xbe,0x01,0x93,0xa1,0x3e,
0x19,0xda,0x95,0xbe,0xa2,0x06,0xc7,0x3e,0x5d,0x08,0xc2,0xbe,
0xf8,0x1c,0xc0,0x3d,0x17,0x8d,0x9e,0x3e,0xa7,0xad,0xd4,0x3e,
0x37,0x5e,0x8a,0xbe,0x0f,0x66,0xaf,0xbc,0x82,0x77,0x5a,0xbe,
0x97,0x47,0x5d,0x3e,0x61,0x15,0x78,0x3e,0xce,0x95,0x25,0x3c,
0xad,0x16,0x61,0x3e,0xeb,0x5c,0xc8,0x3e,0xf5,0x07,0x32,0xbe,
0x54,0x6e,0x9f,0x3d,0x40,0xc3,0xf7,0xbd,0xc6,0x53,0x42,0xbe,
0xa6,0x3d,0xb7,0xbe,0xc3,0xa0,0x57,0xbe,0x05,0xcf,0x94,0x3e,
0xba,0x8c,0xa0,0x3d,0xcc,0x2e,0x88,0x3e,0xfd,0x25,0xd9,0xbe,
0xdb,0x91,0x9b,0xbd,0xd0,0x18,0x6c,0xbe,0xec,0xdd,0x64,0xbd,
0x67,0x0e,0xdd,0x3e,0x83,0x8c,0x28,0x3e,0x42,0xe5,0x88,0x3e,
0x55,0x1b,0xed,0xbe,0x96,0x1a,0x1a,0xbf,0x32,0x71,0xd1,0x3e,
0x0c,0x07,0x7e,0xbe,0xa4,0x76,0x4b,0xbe,0x62,0x80,0x17,0x3d,
0x1c,0xd2,0x48,0xbe,0x97,0xad,0xb2,0x3e,0xe9,0xc9,0x97,0x3d,
0x19,0x68,0x98,0x3e,0x8b,0x3f,0xc7,0xbc,0x6d,0x18,0x92,0x3e,
0x30,0x2f,0x14,0x3e,0x05,0x2d,0x34,0xbb,0x7e,0xb4,0x10,0xbf,
0xf4,0x31,0x6e,0xbe,0xa9,0x08,0x5f,0x3e,0x07,0x3a,0xb9,0xbe,
0x87,0xec,0xef,0x3e,0x9d,0x9a,0xef,0x3c,0x28,0x0f,0xfb,0xbe,
0x60,0x99,0x1f,0xbc,0xa5,0x20,0xcc,0xbe,0xde,0x4b,0xfb,0xbc,
0xd2,0xeb,0x80,0xbc,0x5e,0xf0,0xff,0xff,0x04,0x00,0x00,0x00,
0x80,0x01,0x00,0x00,0x93,0x74,0x74,0x3e,0x3d,0x15,0xf3,0xbe,
0xb4,0xd9,0xe9,0xba,0x60,0x5e,0x8f,0xbe,0x93,0x8b,0x71,0xbe,
0x37,0x6c,0x19,0x3d,0xe5,0x2f,0xcc,0x3c,0x02,0xb2,0x31,0xbe,
0x75,0x2b,0x5d,0x3e,0x60,0x23,0xc4,0xbe,0xfc,0x9f,0x76,0xbe,
0x4f,0xf8,0x81,0xbe,0x1f,0xa3,0x81,0xbe,0xe1,0xd5,0xf6,0xbe,
0x83,0x7d,0xc9,0xbd,0x23,0x62,0x06,0x3e,0x42,0xa2,0x59,0x3e,
0x98,0xa1,0xe4,0xbe,0x06,0xd9,0x87,0x3e,0x91,0x63,0x68,0x3e,
0x10,0x0e,0xb1,0x3e,0x32,0x1d,0x5b,0x3c,0xed,0xa4,0xae,0x3e,
0xe1,0xb7,0xbc,0xbd,0xfb,0xd8,0x0c,0x3e,0xa8,0xfd,0x79,0x3e,
0x41,0x88,0x4a,0x3e,0xb0,0x20,0x83,0x3e,0x9c,0xbf,0xb7,0xbc,
0x03,0xdd,0xb2,0xbd,0x64,0x8a,0x72,0x3e,0xbf,0x16,0x3d,0x3e,
0xce,0x5e,0x94,0x3e,0xcb,0x38,0xb6,0xbe,0xc3,0xac,0xcf,0x3e,
0xdf,0xe0,0x9b,0xbe,0x8c,0x68,0x8c,0xbc,0xa8,0xe9,0xce,0xbe,
0x3e,0x87,0x7a,0x3e,0x2e,0x14,0x82,0xbd,0xd6,0x03,0x69,0xbe,
0x06,0xb6,0x30,0xbe,0x25,0xa5,0xef,0xbe,0x96,0x9c,0xd5,0xbe,
0xbe,0x91,0xa7,0x3d,0xab,0x8f,0x96,0x3a,0xec,0xed,0x6b,0xbe,
0xb8,0x7b,0x95,0x3d,0x16,0x84,0x14,0x3e,0x80,0xed,0xff,0xbe,
0xa9,0xf2,0xbd,0x3c,0x51,0x1b,0xc3,0xbe,0xd5,0x40,0x25,0xbe,
0x2e,0x62,0xcb,0x3d,0xfa,0x5b,0x07,0x3e,0x19,0x0d,0xde,0x3d,
0x5e,0xdf,0xd0,0x3d,0xdd,0x36,0x85,0x3e,0x3b,0xb3,0xe0,0x3d,
0x9b,0x98,0xa1,0x3d,0x6b,0xc9,0x73,0xbe,0xe6,0x1c,0x44,0x3e,
0x54,0x54,0xee,0xbd,0x3a,0xc5,0x1d,0x3f,0xd4,0x30,0x8d,0x3c,
0x12,0x85,0xc1,0x3e,0x74,0x1d,0x5d,0xbd,0x19,0x46,0x63,0x3e,
0xca,0xff,0x92,0x3e,0x57,0x74,0x81,0xbe,0x7b,0x9e,0x17,0x3e,
0xc7,0x2a,0x45,0x3e,0xf9,0xe5,0x87,0xbc,0x90,0x3f,0x48,0xbe,
0xb4,0xd1,0x15,0x3d,0x7a,0x73,0xa9,0xbd,0x35,0xd4,0x66,0xbd,
0x6b,0xfe,0xe3,0xbe,0x21,0xe8,0x97,0xbe,0x22,0x59,0x11,0x3f,
0x2c,0x86,0x1e,0xbc,0xa7,0x16,0x9e,0x3e,0x6d,0x71,0x23,0xbe,
0x68,0xe1,0xd9,0x3e,0xba,0xa5,0x90,0x3e,0x0b,0x21,0x82,0xbd,
0x6b,0x33,0xaa,0x3d,0x97,0x66,0x71,0xbe,0x4b,0xfe,0x28,0x3e,
0xa9,0x22,0x97,0xbe,0x51,0x69,0x74,0x3e,0x9f,0x0a,0x75,0xbe,
0x20,0xb8,0xb3,0xbd,0xd6,0x7b,0x26,0x3e,0xeb,0x66,0x6e,0x3e,
0x03,0x50,0x80,0x3e,0xea,0xf1,0xff,0xff,0x04,0x00,0x00,0x00,
0x00,0x0c,0x00,0x00,0x4e,0x25,0xf6,0xbe,0x44,0xa9,0x3a,0xbe,
0x1b,0x20,0xb8,0x3d,0x43,0x62,0x1e,0xbe,0xa6,0xc0,0xcd,0x3e,
0x3a,0xd7,0x00,0x3e,0x21,0xc4,0x5c,0xbe,0xd0,0xcf,0x8a,0x3e,
0x27,0x0a,0x93,0xbe,0xad,0xbe,0xa4,0x3d,0x70,0x9d,0x98,0x3e,
0x33,0xc1,0x92,0x3e,0xe2,0x23,0xd7,0xbd,0x39,0xf0,0xa3,0x3e,
0x3c,0x77,0x16,0x3d,0x71,0xb8,0x8e,0xbd,0x95,0x73,0x35,0xbd,
0x3f,0x9b,0x0e,0xbd,0x80,0x2d,0x91,0xbe,0x5e,0xbb,0x5a,0xbe,
0xce,0x93,0xc4,0x3e,0x01,0x30,0x50,0xbe,0xc4,0xb6,0x52,0xbe,
0x9a,0xb9,0x19,0xbd,0xef,0x15,0x51,0xbe,0xaf,0xd4,0xaa,0xbd,
0xa8,0x28,0xb5,0xbd,0x85,0xec,0x1c,0x3e,0xa4,0x77,0x95,0xbe,
0x8d,0x69,0x2c,0x3e,0x99,0x03,0x27,0x3d,0x4a,0xbb,0x1a,0x3e,
0x0c,0x99,0x5b,0xbe,0x33,0xa8,0x37,0xbe,0xb2,0x0e,0x6a,0xb9,
0x18,0x77,0xd5,0x3d,0x2e,0x2d,0xdb,0x3e,0x89,0x58,0x4f,0xbe,
0x65,0x16,0x43,0xbe,0x76,0xc7,0x48,0x3d,0x3d,0xd6,0x65,0xbe,
0x8d,0x4f,0x07,0x3e,0xf5,0x9d,0xc3,0x3d,0x17,0x07,0x3e,0xbd,
0xea,0xbb,0xd2,0xbe,0x51,0xed,0x93,0x3c,0xe1,0xc3,0x26,0x3e,
0x26,0xe2,0x56,0x3e,0x80,0x3d,0x1e,0xbe,0xe0,0x12,0xc4,0x3c,
0x60,0x9b,0xed,0xbd,0x64,0xf3,0x0e,0xbe,0x70,0x16,0x7e,0x3e,
0x28,0x69,0x3f,0xbe,0x90,0xc1,0x94,0x3d,0x00,0xb9,0x56,0xbd,
0xf8,0xed,0x71,0xbe,0xf8,0xaa,0xbd,0xbd,0xc0,0x4d,0xc7,0xbd,
0x00,0xf4,0x86,0xba,0xa4,0x0d,0x39,0x3e,0xd8,0x05,0x4e,0xbe,
0x28,0xc9,0x7a,0xbe,0x30,0x00,0xae,0x3d,0x84,0xe8,0x42,0x3e,
0xc0,0x4c,0x38,0x3e,0xc0,0x2f,0xad,0xbd,0xe0,0x0d,0x2c,0xbe,
0x4c,0xb9,0x0a,0xbe,0x08,0x28,0xba,0xbd,0xe0,0xa0,0x28,0x3e,
0xf8,0x88,0x63,0xbe,0x70,0xf9,0x27,0xbd,0x38,0xf4,0x2f,0x3e,
0x80,0xc5,0x94,0xbc,0xa0,0x17,0xa8,0x3d,0x50,0x3c,0xac,0xbd,
0x08,0x5e,0xb2,0xbd,0x10,0xca,0x61,0xbd,0x84,0x0a,0x56,0x3e,
0x48,0x17,0xe2,0xbd,0x30,0x5d,0x3c,0xbd,0x00,0x64,0x21,0xbe,
0x00,0x92,0x44,0xbe,0x6c,0x18,0x41,0x3e,0x18,0x9d,0x4f,0x3e,
0x90,0xc9,0x42,0xbd,0xe8,0xf4,0x01,0xbe,0x14,0x5a,0x7e,0xbe,
0xe0,0x5f,0x8f,0xbc,0xd8,0xa9,0xbb,0x3d,0xa0,0x3f,0x8b,0x3d,
0x70,0x9a,0x44,0x3d,0xd8,0x49,0x1c,0xbe,0x70,0xea,0x78,0xbe,
0x10,0x5e,0x45,0x3d,0x56,0x2e,0x0e,0xbf,0x01,0xc8,0x0f,0xbe,
0x9a,0xa8,0x8c,0xbe,0x47,0x80,0x07,0x3c,0xc3,0xd3,0x91,0x3e,
0x58,0x50,0xdd,0xbc,0xac,0x74,0xdc,0xbe,0x7d,0xe7,0x1c,0x3c,
0xfe,0x08,0x02,0xbf,0xbd,0x82,0x8c,0x3e,0x57,0x0b,0xe3,0xbd,
0x45,0xb7,0x20,0xbe,0xb5,0x61,0x13,0xbe,0xb4,0xa8,0x7b,0xbd,
0xd7,0x4a,0xdd,0x3d,0x90,0xa9,0x01,0x3e,0xfb,0xb7,0xc1,0xbe,
0x42,0xb3,0x24,0xbe,0xad,0xef,0x84,0xbc,0xe2,0x39,0x6c,0x3e,
0x7d,0xc8,0x57,0x3e,0xbf,0x7c,0x98,0xbe,0x35,0xec,0x46,0xbe,
0x7a,0x3e,0x89,0x3e,0xca,0x73,0xe3,0xbe,0x51,0xa6,0x35,0x3e,
0x47,0x26,0xa9,0x3e,0x0d,0x99,0x36,0xbc,0x7d,0x68,0x0c,0xbe,
0xe9,0x67,0xa4,0x3e,0xfd,0x21,0xb6,0x3c,0x2d,0x50,0x5c,0x3a,
0x5d,0x39,0xb6,0xbe,0x93,0xf1,0xd4,0xbe,0x5b,0xb2,0x0f,0x3e,
0x9e,0x13,0x28,0x3e,0x94,0xdf,0xd9,0x3e,0x65,0xdd,0x37,0xbe,
0x6c,0x7d,0xdd,0xbe,0xeb,0xe0,0x8e,0xbd,0x05,0xde,0xd3,0xbe,
0x74,0x52,0x9b,0xbb,0x4d,0xc1,0x13,0x3e,0x5b,0xa8,0x72,0xbd,
0x55,0x38,0xf3,0xbe,0x31,0x26,0x9e,0x3e,0x2b,0x48,0x37,0xbe,
0x85,0xfc,0xdc,0xbd,0x74,0xee,0xd3,0x3e,0x2f,0x09,0xb2,0x3c,
0x83,0xb4,0xe1,0x3d,0x1c,0xd3,0x5c,0xbe,0xdf,0x0b,0xfb,0xbe,
0x69,0x88,0x85,0xbe,0x49,0x02,0x2c,0x3e,0x27,0xd1,0x0e,0x3e,
0x4f,0x83,0x46,0xbd,0xa6,0xd7,0xf5,0xbd,0x14,0xae,0x85,0x3d,
0x0c,0x4c,0x8b,0xbe,0x99,0x5f,0xb9,0x3e,0xe1,0x3f,0xa0,0x3c,
0xb7,0x4b,0x32,0x3e,0x08,0x75,0x03,0xbe,0x87,0x8b,0x7a,0x3e,
0x47,0x6f,0xa9,0x3d,0x3b,0xc5,0x79,0x3e,0xea,0xf9,0xb3,0xbe,
0xe2,0xd4,0xbb,0xbe,0x31,0x75,0xbf,0xbe,0xfd,0xbd,0x94,0x3e,
0x96,0x7f,0x49,0x3e,0x5e,0xa8,0x91,0x3d,0xb3,0x61,0xef,0xbe,
0x0a,0xb3,0x79,0xbe,0x38,0x6f,0x21,0xbe,0x0f,0x03,0xb1,0x3c,
0x05,0xf5,0x88,0xbe,0x85,0xc6,0x3e,0xbe,0xa5,0xc0,0xb2,0xbe,
0xe1,0x8e,0x56,0x3c,0x07,0x89,0x13,0x3e,0x26,0x82,0xab,0x3e,
0x86,0xe3,0xd9,0xbd,0x19,0x5d,0xac,0xbe,0x1d,0x1d,0xbf,0xbe,
0xb3,0xfb,0xc9,0x3e,0x34,0x15,0x39,0x3e,0x4b,0xc0,0x9f,0x3d,
0xba,0xaf,0x97,0xbe,0xf9,0x14,0xf3,0x3d,0x32,0x20,0xa8,0xbd,
0x14,0xfd,0xa6,0x3e,0x2d,0xa8,0x14,0xbe,0x8d,0x41,0x81,0xbe,
0xac,0x4c,0x5e,0xbe,0xfd,0xb1,0x01,0xbc,0x81,0xb6,0x20,0x3e,
0x13,0x51,0x4a,0x3e,0x1f,0x27,0x64,0xbd,0xd7,0x79,0xeb,0x3e,
0xe6,0x58,0x41,0xbe,0xad,0xbe,0xa1,0xbe,0x62,0x82,0xb5,0xbd,
0x80,0x75,0x02,0x3d,0xa6,0xfd,0x28,0x3d,0x1f,0x1a,0x1d,0x3e,
0x85,0xb8,0x1a,0x3e,0x27,0x60,0x98,0xbd,0xc2,0x9d,0xef,0x3d,
0x06,0xc0,0x38,0xbe,0x74,0x57,0x3e,0xbe,0x7c,0xe9,0x07,0xbe,
0x13,0x27,0x91,0xbe,0x3a,0xa3,0xe9,0x3d,0x6b,0x25,0x5d,0x3e,
0xb4,0x7b,0xd7,0x3e,0xb5,0xa8,0x17,0x3e,0x0a,0xd7,0x14,0xbe,
0x3f,0x9c,0xb5,0x3d,0x9f,0x45,0x07,0x3e,0x01,0x0d,0x60,0x3e,
0xc5,0xc7,0xcb,0xbd,0x6a,0xe0,0xcf,0x3d,0xf4,0xf7,0x34,0xbe,
0x64,0x01,0x56,0x3d,0x45,0x61,0xcd,0xbd,0x58,0x0f,0x1c,0x3c,
0xfd,0x7a,0xd5,0x3d,0xa6,0xee,0x18,0xbe,0x47,0x6a,0x56,0xbe,
0x2b,0xb7,0x8c,0x3e,0x65,0x24,0x82,0x3e,0x35,0x3a,0x1f,0x3e,
0xec,0xeb,0x5b,0xbc,0x5d,0x40,0x74,0x3d,0x17,0xb3,0xe3,0x3d,
0x9a,0xd5,0x0a,0x3e,0x75,0x9d,0xbb,0xbd,0x1c,0xcb,0xbe,0x3d,
0x41,0x95,0xe0,0xbd,0x42,0x5e,0x17,0xbd,0x44,0xd3,0x29,0x3e,
0x4b,0x4a,0x00,0xbe,0x13,0x95,0xab,0x3d,0xb4,0x16,0x01,0x3e,
0x8f,0xb1,0x57,0xbe,0xff,0x5f,0x29,0xbc,0xef,0x38,0x14,0xbe,
0x33,0xe0,0x44,0x3c,0xa8,0x13,0x10,0xbe,0xd7,0x59,0x25,0x3c,
0xa4,0xbb,0x18,0x3b,0xa7,0x6a,0x06,0xbe,0xcd,0x47,0x24,0x3e,
0x7d,0xd3,0x55,0xbe,0x1f,0x0d,0xa5,0x3b,0x40,0x4c,0x63,0xbe,
0xb5,0xbc,0xf5,0xbc,0xfc,0x26,0x19,0x3e,0xba,0xec,0x6e,0x3e,
0x63,0xe5,0x6b,0xbe,0x5d,0x81,0xbf,0x3d,0x31,0x01,0xa0,0xbd,
0x92,0x18,0x7b,0x3e,0xfd,0xcc,0x36,0x3e,0xc7,0x9d,0x6f,0x3e,
0x4d,0x5b,0x2b,0xbe,0x2c,0xb9,0x1c,0xbd,0x35,0xf7,0x41,0x3e,
0xc5,0xb4,0xd4,0xbd,0x3d,0x87,0x4d,0xbe,0x32,0x24,0xc8,0x3d,
0xe1,0x46,0x41,0xbd,0xe0,0xa9,0x76,0x3d,0x09,0x5b,0x51,0xbe,
0xf5,0x25,0x39,0xbe,0xa3,0xf6,0x67,0xbe,0x06,0x83,0x50,0xbe,
0x62,0xa6,0x3e,0x3c,0xbc,0x45,0x4a,0xbe,0xdb,0x47,0x5d,0x3d,
0x13,0xc7,0x01,0x3d,0x49,0x15,0x1b,0xbe,0xfb,0x36,0x90,0x3d,
0xc9,0xbe,0x1c,0xbe,0x76,0x10,0xf8,0xbd,0x5a,0x71,0x36,0xbe,
0xff,0xa1,0x34,0x3e,0xca,0xb1,0x18,0xbd,0x0e,0x25,0x17,0xbe,
0xbb,0xa9,0xc6,0x3d,0x64,0x53,0x56,0xbd,0x65,0x72,0x3a,0xbe,
0x90,0x90,0xb2,0xba,0xe2,0x4a,0x39,0x3e,0x46,0x6e,0x2e,0x3e,
0x98,0x06,0xbe,0xbd,0x37,0xb1,0xa9,0x3c,0x49,0x36,0x92,0xbe,
0x1e,0x21,0x16,0x3e,0x31,0x8f,0xa1,0xbd,0x41,0x39,0x51,0x3d,
0xaa,0x8c,0x0b,0x3c,0x3e,0xd7,0x15,0x3d,0xbc,0x3b,0x50,0x3e,
0x13,0xa1,0xd0,0xbc,0xca,0xa8,0x14,0xbd,0xa3,0xcb,0x15,0xbd,
0x9d,0x1c,0x58,0x3e,0x7b,0xce,0xcc,0x3d,0x50,0xca,0x4b,0xbe,
0x0e,0x3f,0x11,0xbe,0x28,0xaf,0x64,0x3b,0xff,0x02,0x0c,0xbe,
0x7e,0x48,0xe8,0x3d,0x2e,0x01,0x98,0x3c,0x2d,0x4f,0xdd,0x3d,
0x46,0x9d,0x40,0x3e,0x10,0x3d,0x12,0xbe,0x74,0x20,0x50,0x3e,
0xf6,0x9f,0x9c,0x3d,0x51,0xc5,0x1f,0xbe,0x52,0xbd,0xd2,0x3d,
0x31,0xc3,0x3f,0x3e,0x18,0x12,0xa3,0x3d,0xb5,0x08,0xbc,0x3d,
0x6e,0xcb,0x1f,0xbe,0xed,0x5f,0xcc,0x3d,0xb8,0x0d,0xbb,0x3b,
0xd2,0xe9,0x0d,0xbe,0x96,0x59,0x7e,0xbe,0xb7,0x7b,0x38,0xbe,
0xde,0x31,0xb9,0xbd,0x5d,0xc0,0x09,0xbe,0xb6,0xcb,0x18,0x3e,
0x0c,0xe7,0x99,0x3b,0x8a,0x24,0x0c,0xbe,0x77,0x0b,0xcd,0xb9,
0xce,0xa0,0x76,0xbe,0x71,0x59,0x1b,0x3e,0xce,0x55,0x8f,0xbd,
0xc3,0x64,0x4f,0x3e,0x6f,0xc8,0x58,0xbe,0x3c,0xb9,0x79,0xbe,
0xa6,0x01,0x04,0x3d,0x36,0x6b,0x34,0xbe,0xce,0x00,0x5d,0xbe,
0x0b,0x23,0x6a,0x3e,0x6f,0xc0,0x95,0xbd,0xaa,0x54,0xe5,0x3c,
0x07,0x53,0x38,0xbe,0xaa,0xac,0x80,0xbc,0x08,0xf2,0xfa,0xbd,
0xa6,0x57,0x61,0x3d,0xb0,0xee,0x30,0x3e,0xbc,0xbe,0x16,0xbe,
0xfd,0x0c,0x49,0xbe,0xe9,0xce,0xa0,0xbd,0x3a,0xfd,0x19,0xbe,
0x3d,0x8d,0x33,0xbe,0x9e,0xc5,0x06,0xbe,0xa1,0x38,0x5b,0x3d,
0xb3,0xd9,0x6e,0xbe,0x94,0x49,0xd1,0xbd,0xdf,0x20,0x68,0x3e,
0xe1,0x5a,0x24,0xbc,0xfd,0x34,0x7d,0xbe,0xf0,0x1d,0x80,0xbe,
0x28,0xc5,0x38,0x3d,0xc5,0x05,0x10,0xbe,0x93,0x35,0x16,0x3e,
0x2a,0x20,0x79,0xbe,0x68,0xeb,0xc1,0x3d,0xd5,0x32,0x27,0xbe,
0xd3,0xa2,0x67,0x3e,0x3d,0xe5,0xc1,0xbd,0x0e,0x36,0x67,0xbe,
0xf9,0x41,0x9d,0x3d,0x44,0xc7,0x68,0xbe,0x40,0xed,0x5d,0x3e,
0x4c,0x3e,0x22,0xbb,0x2c,0xd3,0xfb,0x3c,0x8f,0xac,0x97,0x3c,
0x2c,0x63,0x7a,0xbe,0x9b,0x47,0x9f,0x3d,0x29,0x18,0x38,0x3e,
0x43,0xf3,0xa3,0xbd,0xef,0x38,0xa1,0xbe,0x24,0xa7,0x77,0xbe,
0x69,0x3a,0xa1,0xbd,0xbc,0x88,0xab,0x3a,0x4c,0xa1,0x6b,0x3e,
0x61,0x1b,0x4e,0xbd,0x24,0x0b,0xa7,0xbe,0x26,0xde,0x83,0x3e,
0x08,0x47,0xd5,0xbd,0xd9,0xe1,0xd7,0x3c,0xd5,0xef,0x8d,0x3e,
0x8b,0x98,0x74,0xbc,0x10,0x20,0x74,0x3d,0x24,0x6c,0xd1,0x3c,
0x73,0x17,0x7e,0xbe,0x0e,0x34,0x54,0xbd,0x52,0x11,0xb9,0xbe,
0xd2,0xff,0x84,0xbe,0xfb,0xaa,0x28,0xbe,0x27,0x16,0xa6,0x3e,
0x98,0xe0,0x0e,0x3d,0x24,0x4f,0x92,0xbd,0xe8,0x65,0x18,0xbe,
0x31,0xab,0x7e,0x3c,0x30,0x7b,0x1b,0xbd,0x7d,0x7d,0x05,0x3e,
0x03,0x1c,0x07,0x3e,0xa9,0x9d,0x58,0x3d,0xf4,0xf3,0x95,0xbe,
0x70,0xbd,0x4e,0x3e,0x7a,0xfa,0x67,0x3c,0x25,0x2d,0x22,0xbe,
0x99,0xd0,0xca,0xbe,0x76,0x76,0xc1,0xbe,0x56,0xc5,0xc3,0x3d,
0x1c,0x25,0x84,0x3e,0xee,0x37,0x11,0x3e,0xa4,0x6f,0xbc,0xbc,
0x4c,0xb0,0x88,0xbe,0x95,0x11,0x9a,0x3d,0xe2,0x77,0x91,0xbe,
0x22,0xd5,0x83,0x3e,0xc6,0x2f,0xac,0x3e,0x23,0xeb,0x08,0xbe,
0x9a,0xa7,0x47,0xbd,0x74,0xdc,0xcd,0x3d,0x63,0x53,0xf9,0x3d,
0x31,0x6b,0x5c,0x3e,0xbb,0xdd,0x8c,0x3e,0x16,0xdb,0xa5,0x3e,
0x53,0xdf,0x89,0x3e,0xb7,0xe8,0x8c,0xbd,0x19,0x10,0x57,0xbe,
0x02,0x51,0x90,0x3e,0xc2,0xce,0x66,0x3e,0xe1,0xe6,0x2a,0x3e,
0xc4,0x90,0x21,0x3e,0xd2,0x36,0x41,0xbe,0x2c,0xc3,0x80,0xbe,
0x12,0xec,0x24,0xbd,0xae,0x2a,0x67,0xbd,0x00,0x5c,0x44,0xbe,
0x7f,0x7c,0x08,0xbd,0x7c,0x82,0x74,0x3e,0xaf,0xfd,0x70,0x3e,
0xb7,0xb3,0x4a,0x3d,0x0f,0xe8,0x4c,0x3e,0x10,0x6f,0xff,0xbc,
0xbc,0xd7,0xd0,0xbe,0x35,0x31,0x87,0x3e,0x0d,0x48,0x89,0x3d,
0x83,0x4d,0x59,0x3e,0x63,0x61,0x7b,0x3e,0xe6,0x04,0x91,0xbe,
0x54,0x49,0x6d,0x3d,0xb4,0xc4,0x00,0xba,0x1e,0xda,0xb5,0xbd,
0x77,0x22,0x69,0xbe,0x9c,0x6c,0x94,0x3e,0x83,0x5f,0x8a,0xbd,
0xac,0x72,0xc1,0x3e,0x0b,0x3f,0xa7,0x3d,0xc3,0xf3,0xb8,0x3e,
0xaf,0xf6,0x0f,0x3e,0x4d,0xb0,0x31,0xbe,0x78,0xd5,0x80,0x3e,
0xe6,0x58,0x9d,0x3e,0xe6,0x2b,0x80,0x3e,0xee,0xb8,0xdf,0xbd,
0x81,0x43,0xc3,0xbd,0x6a,0x75,0x45,0xbd,0xc9,0xbf,0x2b,0x3c,
0x01,0xef,0x9c,0x3e,0x32,0xc1,0x82,0x3d,0xc1,0x75,0x06,0x3e,
0xe7,0x30,0x02,0x3d,0xa4,0xeb,0x49,0xbe,0x90,0xe4,0x7e,0xbe,
0xa6,0x5e,0x5a,0xbd,0xfd,0xb9,0x4e,0x3e,0x3e,0x39,0xa0,0x3e,
0x53,0x1e,0xce,0xbc,0xd5,0x5a,0x80,0x3d,0x4d,0x51,0x51,0xbd,
0xe0,0x90,0x8c,0xbe,0x1f,0x52,0x7d,0x3e,0xae,0x8d,0x7b,0x3e,
0x3a,0xd4,0x40,0xbd,0xc6,0x2d,0xc6,0x3d,0x7d,0xff,0xa8,0x3e,
0x31,0xd2,0xe7,0x3d,0xac,0x0a,0x8d,0x3c,0x68,0x32,0x6c,0xbe,
0xa7,0xee,0x9e,0xbd,0x97,0xf1,0xbc,0x3d,0x7d,0x2c,0xc3,0xbd,
0x83,0xdb,0xfd,0x3e,0x32,0xff,0x4c,0x3e,0x7d,0xd6,0xbd,0xbe,
0xe1,0x16,0x96,0x3e,0x8f,0xbd,0x82,0x3d,0x44,0x59,0x28,0x3e,
0x79,0x31,0x8e,0x3e,0xb9,0x78,0x0f,0xbc,0x00,0xd8,0xed,0xbd,
0x05,0x10,0x8e,0x3e,0x85,0xe7,0x0c,0xbc,0x9f,0x16,0x20,0x3e,
0xa2,0x84,0xa9,0xbe,0xa3,0x15,0x97,0xbc,0xa6,0xed,0x3e,0xbe,
0x0a,0xa5,0xb0,0xbd,0x05,0x04,0x31,0x3e,0xb1,0xdf,0x27,0x3e,
0x68,0xdf,0xa5,0xbe,0xb9,0x54,0x39,0xbe,0xd1,0x94,0xa5,0xbd,
0x25,0xd7,0xee,0x3d,0x41,0xa9,0x49,0xbd,0xad,0xa1,0xd0,0xbd,
0xeb,0xb6,0x54,0xba,0xb6,0x54,0xb3,0xbd,0x2b,0x88,0x34,0xbe,
0xac,0x7b,0x28,0x3d,0x53,0xa2,0x05,0xbd,0xe3,0x55,0x46,0x3d,
0xd7,0x10,0x6d,0x3e,0xac,0xd0,0x42,0xbe,0xd6,0x65,0x03,0x3d,
0x0e,0x2c,0x5e,0x3e,0x2a,0x50,0x9f,0x3d,0x8f,0x40,0xa7,0x3e,
0x30,0xe4,0x3e,0xbe,0xcc,0xef,0x3a,0xbd,0xa4,0xca,0x08,0xbe,
0x78,0x51,0x80,0x3e,0x24,0xb6,0x83,0x3e,0xf6,0x75,0xab,0xbe,
0x6a,0xe3,0x79,0xbe,0x05,0x4e,0x0a,0xbe,0xe6,0xb7,0x96,0x3c,
0xbb,0xb0,0x26,0x3e,0x07,0x4e,0x82,0x3e,0x73,0x45,0x8f,0x3e,
0x0d,0x90,0x8e,0x3e,0x35,0x9f,0x71,0x3e,0x32,0x3a,0x53,0xbc,
0x58,0xa6,0xf5,0xbd,0xd0,0x38,0x4e,0x3d,0xda,0x4e,0xaf,0x3c,
0x24,0xc9,0xb7,0x3d,0x3f,0xb1,0x3c,0xbe,0x07,0xf4,0x90,0x3c,
0x60,0xbf,0x8b,0xbd,0x2c,0xce,0xa9,0x3c,0xb8,0xd8,0x72,0xbe,
0xe6,0x19,0xed,0xbd,0xa7,0xcb,0x47,0xbc,0x43,0x22,0xeb,0xbd,
0x79,0xf4,0x93,0x3e,0xe1,0x4f,0x74,0x3e,0xf4,0x68,0xbf,0xbc,
0xfb,0x78,0xb8,0xbd,0xa8,0x86,0x5b,0xbd,0x7f,0x45,0x3c,0x3b,
0xca,0xfb,0x8c,0x3e,0x56,0xef,0xb8,0xbe,0x4e,0x84,0x92,0x3c,
0xb2,0x1e,0x7f,0x3d,0x88,0xb3,0x77,0xbe,0x38,0x58,0x1f,0x3e,
0x6b,0x43,0x1e,0xbe,0x83,0xce,0x3c,0x3c,0x72,0x32,0xe2,0xbd,
0x92,0x4f,0x92,0x3e,0xd8,0x93,0xce,0xbc,0x4e,0xab,0x6e,0xbd,
0x51,0xfd,0x0b,0xbe,0x4c,0x20,0xa2,0x3d,0x20,0x27,0xdf,0xbd,
0xa0,0xff,0x30,0x3e,0xfd,0x10,0x82,0x3e,0x88,0xd5,0x07,0x3e,
0x46,0x40,0x07,0xbe,0xd3,0x02,0xc5,0xbc,0x1b,0xee,0x6f,0x3e,
0x1c,0x7e,0xb4,0x3b,0xd7,0x73,0x43,0x3e,0x55,0xd7,0x76,0x3d,
0x09,0x38,0x59,0xbe,0x36,0x38,0x8e,0x3e,0xc4,0xf9,0x60,0xbe,
0xc3,0x75,0x5d,0x3e,0x30,0x56,0xf7,0xbd,0x9b,0xc4,0x5e,0x3d,
0xa3,0x55,0xa2,0x3e,0xbb,0x27,0x0f,0xbe,0x53,0xac,0x37,0x3e,
0xd6,0xe6,0xaa,0x3e,0x14,0x78,0xf8,0x3d,0xe3,0x23,0x4e,0x3e,
0xff,0xd9,0xfd,0x3d,0x30,0xac,0x36,0x3e,0xc3,0xe5,0x90,0x3d,
0x72,0x36,0x21,0x3d,0xeb,0x0d,0x55,0xbe,0xc0,0x5d,0x90,0x3e,
0x51,0x1a,0x5d,0x3e,0x65,0x35,0x0f,0x3e,0x73,0xc1,0x2c,0x3e,
0x6c,0x4e,0x44,0xbe,0x40,0x0f,0x5f,0x3e,0xdf,0xbd,0x1b,0x3d,
0x74,0x5b,0x17,0xbe,0xe9,0xbe,0xa1,0x3e,0x1a,0xb6,0x09,0xbe,
0x64,0xd0,0x97,0x3c,0x65,0x89,0x05,0xbc,0x0f,0x61,0x92,0x3d,
0xea,0xf0,0x69,0xbe,0x68,0x5e,0x0f,0x3e,0xf5,0x43,0x20,0xbe,
0x51,0x93,0x75,0x3e,0xe1,0xe9,0x23,0xbe,0x9a,0x42,0x08,0x3e,
0x92,0x97,0x8d,0x3d,0x88,0x52,0x3f,0xbe,0xcd,0x9a,0x9c,0xbc,
0xf4,0x05,0x5a,0x3e,0x45,0xb2,0xa7,0x3d,0x71,0x4b,0x2d,0x3e,
0x50,0xf2,0x84,0x3d,0x79,0x27,0xad,0x3d,0x80,0xc4,0xbe,0x3d,
0x85,0xc6,0x88,0x3d,0x32,0xb1,0x63,0x3e,0x29,0xa8,0x05,0xbe,
0x7b,0xff,0x44,0x3e,0x1a,0xc3,0x7b,0xbe,0x6b,0xdc,0x45,0x3e,
0xfb,0x15,0x17,0x3e,0x52,0x76,0xf2,0x3d,0xba,0xda,0x5e,0xbe,
0xfe,0xc7,0xcf,0xbd,0x21,0xb2,0xec,0x3c,0xcd,0x4a,0x6d,0x3e,
0xca,0xd1,0x1f,0xbd,0x10,0x73,0x41,0x3e,0x3d,0x31,0xee,0x3d,
0x0e,0x1d,0x29,0xbe,0x25,0xa2,0x3e,0x3e,0x65,0x59,0x14,0x3e,
0x91,0x9f,0xc9,0x3d,0x67,0xbd,0x07,0x3e,0x7c,0xc8,0x08,0xbe,
0x1b,0xe8,0x8e,0x3e,0xe1,0x8d,0x2c,0x3e,0x63,0x9b,0x02,0xbe,
0xca,0xee,0x1d,0x3e,0x1f,0x68,0xc1,0xbc,0xa5,0x32,0xe1,0x3d,
0xca,0x7b,0x40,0x3c,0x54,0x75,0x98,0x3e,0x3e,0x57,0x02,0x3c,
0xe4,0x8c,0xf2,0xbc,0x95,0x22,0xea,0x3d,0xc7,0x41,0x21,0x3e,
0x8d,0xaa,0x2b,0xbe,0x69,0x8b,0x47,0x3d,0x2a,0x89,0xfe,0x3d,
0xac,0x68,0x76,0x3e,0xe8,0xc4,0x10,0x3e,0x9f,0xe8,0xad,0xbe,
0xac,0x7b,0x7e,0x3e,0xeb,0xf2,0x0b,0x3e,0x35,0x50,0xc7,0x3e,
0x19,0x88,0xc9,0x3e,0x38,0x81,0x63,0xbe,0x45,0x6a,0x92,0xbe,
0xc8,0x5a,0x39,0xbe,0xc0,0x5c,0x3d,0xbd,0x22,0xe4,0x91,0xbe,
0xa3,0x09,0xa4,0xbd,0xd5,0xac,0x81,0xbd,0x4d,0x25,0xbc,0x3e,
0x3c,0xc3,0x8b,0x3e,0x98,0xe1,0x9e,0x3e,0xc4,0x98,0x7f,0x3e,
0x78,0x04,0x95,0xbe,0x5d,0x96,0x03,0xbe,0x56,0x0d,0x6b,0x3c,
0xab,0xcf,0x4f,0x3e,0xf2,0xea,0x23,0x3e,0x6d,0x9d,0x91,0xbd,
0xb9,0x74,0x4c,0xbe,0x35,0xae,0x98,0x3c,0x7c,0xa6,0x93,0xbd,
0xe6,0xfa,0x9a,0xbe,0xc2,0x16,0xe8,0x3d,0xc8,0x4c,0x20,0x3e,
0x0e,0xd5,0x22,0x3e,0xc0,0x24,0xbf,0x3e,0x47,0x88,0xef,0x3d,
0x3e,0xd5,0x75,0xbd,0xa4,0xcd,0xa0,0xbc,0x1e,0x6e,0xd3,0x3d,
0xbe,0x85,0x8b,0x3e,0x89,0x47,0xa4,0x3e,0xc1,0x66,0xf4,0xbc,
0xa3,0x65,0xa9,0xbd,0x4f,0x05,0x7c,0xbe,0xf4,0x2d,0x64,0x3e,
0x1a,0x57,0x5f,0x3d,0xc8,0x22,0x91,0x3d,0x4a,0x56,0x53,0xbd,
0x3d,0xc3,0x9e,0x3e,0x28,0xd0,0x92,0x3d,0x83,0xc6,0x2c,0x3e,
0x4b,0xf9,0xb5,0x3e,0x1b,0xca,0xd2,0xbd,0xf2,0x34,0x5d,0xbe,
0xd5,0xc5,0x05,0x3e,0x4f,0xf8,0xab,0x3e,0x7b,0x33,0x8c,0x3e,
0x36,0x91,0x23,0x3e,0x91,0x68,0xfe,0xbd,0x4f,0xa7,0x63,0xbd,
0x63,0x1d,0x16,0x3d,0x3d,0x36,0xbc,0x3d,0x6a,0x70,0xd9,0x3d,
0x4b,0xb4,0x9b,0x3e,0x02,0xeb,0xa2,0xbc,0x7f,0x65,0x3a,0xbc,
0x11,0x29,0xca,0x3d,0xf5,0x63,0x9a,0xbc,0x45,0x5d,0x5e,0x3e,
0xe1,0xf5,0x27,0x3e,0xb8,0xa0,0x39,0x3e,0xd0,0x93,0xa9,0x3b,
0x7a,0x7a,0x01,0xbd,0xd4,0x79,0x9b,0x3e,0xd2,0x32,0x42,0x3d,
0x16,0xa1,0x47,0xbe,0x84,0xaf,0x7b,0x3e,0x2e,0x91,0x98,0x3e,
0x13,0x93,0x24,0xbe,0xb3,0x4b,0x7b,0x3e,0x2d,0x1f,0xe6,0x3d,
0x35,0x4c,0xba,0x3d,0x6b,0xbf,0xa8,0x3e,0x60,0x54,0x7b,0x3e,
0xd7,0x2e,0x2b,0x3e,0x11,0x22,0xe1,0x3d,0xfe,0x4b,0xed,0xbd,
0x22,0x6d,0xa3,0xbc,0xfc,0x37,0x8d,0x3e,0xb4,0xe1,0x89,0x3e,
0xbe,0x14,0x73,0x3e,0xed,0x0c,0x3b,0xbe,0xcf,0xe9,0x79,0x3e,
0x95,0x0b,0x1e,0x3e,0x0d,0x61,0x89,0x3d,0x7d,0xb0,0xcc,0x3d,
0x61,0x3c,0x3d,0xbe,0xf6,0xfd,0xff,0xff,0x04,0x00,0x00,0x00,
0x0c,0x00,0x00,0x00,0xff,0xff,0xff,0xff,0x08,0x00,0x00,0x00,
0x10,0x00,0x00,0x00,0x0e,0xfe,0xff,0xff,0x04,0x00,0x00,0x00,
0x0c,0x00,0x00,0x00,0xff,0xff,0xff,0xff,0x06,0x00,0x00,0x00,
0x10,0x00,0x00,0x00,0x26,0xfe,0xff,0xff,0x04,0x00,0x00,0x00,
0x0c,0x00,0x00,0x00,0x19,0xf7,0xaf,0x3d,0x27,0x1a,0x0c,0xbc,
0x2f,0xac,0xf5,0xbd,0x3e,0xfe,0xff,0xff,0x04,0x00,0x00,0x00,
0x40,0x00,0x00,0x00,0x98,0x71,0x9f,0x3b,0xb5,0xa4,0xbf,0x3b,
0x11,0xc6,0xd0,0x3d,0x37,0x6a,0xb7,0x3e,0x71,0x14,0x63,0x3e,
0x74,0x1c,0x77,0xbc,0x31,0x3b,0xa1,0x3b,0x59,0x00,0x32,0x3e,
0xce,0xb4,0x95,0x3b,0x48,0xb4,0x76,0x3e,0xc2,0xc0,0xc1,0x3d,
0x4d,0xfa,0x16,0x3e,0x58,0x9e,0xfa,0x3c,0x38,0x98,0x9a,0x3d,
0x6a,0x15,0x91,0xbd,0xd4,0xb7,0x9a,0xbd,0x8a,0xfe,0xff,0xff,
0x04,0x00,0x00,0x00,0x40,0x00,0x00,0x00,0x62,0x0f,0xc3,0x3d,
0x00,0x00,0x00,0x00,0x89,0xcd,0xdf,0x3d,0x4b,0x60,0x0d,0x3d,
0x83,0xf1,0x5a,0x3e,0x29,0xc5,0xac,0x3a,0x8e,0x29,0x12,0xbd,
0x44,0x9f,0x05,0xbc,0xdf,0x5b,0x08,0x3e,0x8f,0xb6,0xdb,0xbc,
0xd6,0x53,0x34,0x3e,0xc1,0x5d,0x1d,0x3e,0x2e,0x22,0xb6,0x3d,
0x84,0x1e,0x8d,0x3d,0x20,0x6c,0xad,0xbc,0xbc,0xc6,0xf9,0x3d,
0xd6,0xfe,0xff,0xff,0x04,0x00,0x00,0x00,0x80,0x00,0x00,0x00,
0x9f,0x98,0x15,0x3e,0x5c,0x48,0x47,0xbd,0x32,0x2b,0x0d,0xbd,
0x3a,0x11,0x15,0xbc,0x08,0x32,0xf0,0xbd,0x83,0x93,0xa1,0x3d,
0x8b,0x18,0x58,0x3c,0xdc,0x82,0xe5,0x3d,0xe1,0x88,0x31,0x3e,
0x06,0x8e,0xea,0xbd,0x5f,0x37,0x28,0xbc,0x4b,0xc6,0xf9,0xbd,
0xe3,0x7b,0x9c,0x3d,0xab,0x6b,0x23,0xbd,0xea,0x94,0xe1,0x3c,
0xf0,0x09,0xe4,0x3c,0x1b,0xdd,0x9a,0x3d,0xb5,0x22,0x7c,0x3d,
0xcc,0x89,0xf0,0x3b,0x69,0x49,0xf1,0x3d,0x2f,0x3a,0x64,0x3c,
0xc2,0x67,0xd7,0x3d,0x00,0x00,0x00,0x00,0x1b,0x2e,0x04,0xbe,
0x4b,0x81,0xbb,0x3d,0xb9,0x64,0xa6,0xbd,0x11,0x4a,0xa5,0x3d,
0x46,0x56,0x87,0x3d,0x00,0x00,0x00,0x00,0x00,0x00,0x00,0x00,
0xbe,0x3b,0x4b,0x3d,0x17,0x05,0x06,0x3e,0xac,0xf3,0xff,0xff,
0xb0,0xf3,0xff,0xff,0x0f,0x00,0x00,0x00,0x4d,0x4c,0x49,0x52,
0x20,0x43,0x6f,0x6e,0x76,0x65,0x72,0x74,0x65,0x64,0x2e,0x00,
0x01,0x00,0x00,0x00,0x14,0x00,0x00,0x00,0x00,0x00,0x0e,0x00,
0x18,0x00,0x14,0x00,0x10,0x00,0x0c,0x00,0x08,0x00,0x04,0x00,
0x0e,0x00,0x00,0x00,0x14,0x00,0x00,0x00,0x1c,0x00,0x00,0x00,
0x90,0x02,0x00,0x00,0x94,0x02,0x00,0x00,0x98,0x02,0x00,0x00,
0x04,0x00,0x00,0x00,0x6d,0x61,0x69,0x6e,0x00,0x00,0x00,0x00,
0x0a,0x00,0x00,0x00,0x48,0x02,0x00,0x00,0xe4,0x01,0x00,0x00,
0xac,0x01,0x00,0x00,0x70,0x01,0x00,0x00,0x28,0x01,0x00,0x00,
0x00,0x01,0x00,0x00,0xcc,0x00,0x00,0x00,0x88,0x00,0x00,0x00,
0x40,0x00,0x00,0x00,0x04,0x00,0x00,0x00,0x92,0xff,0xff,0xff,
0x1c,0x00,0x00,0x00,0x00,0x00,0x00,0x09,0x1c,0x00,0x00,0x00,
0x20,0x00,0x00,0x00,0x05,0x00,0x00,0x00,0x00,0x00,0x06,0x00,
0x08,0x00,0x04,0x00,0x06,0x00,0x00,0x00,0x00,0x00,0x80,0x3f,
0x01,0x00,0x00,0x00,0x16,0x00,0x00,0x00,0x01,0x00,0x00,0x00,
0x15,0x00,0x00,0x00,0x86,0xfe,0xff,0xff,0x14,0x00,0x00,0x00,
0x00,0x00,0x00,0x08,0x10,0x00,0x00,0x00,0x14,0x00,0x00,0x00,
0x04,0x00,0x00,0x00,0x80,0xf4,0xff,0xff,0x01,0x00,0x00,0x00,
0x15,0x00,0x00,0x00,0x03,0x00,0x00,0x00,0x14,0x00,0x00,0x00,
0x09,0x00,0x00,0x00,0x04,0x00,0x00,0x00,0x00,0x00,0x0e,0x00,
0x1a,0x00,0x14,0x00,0x10,0x00,0x0c,0x00,0x0b,0x00,0x04,0x00,
0x0e,0x00,0x00,0x00,0x1c,0x00,0x00,0x00,0x00,0x00,0x00,0x08,
0x1c,0x00,0x00,0x00,0x20,0x00,0x00,0x00,0x04,0x00,0x00,0x00,
0x00,0x00,0x06,0x00,0x08,0x00,0x07,0x00,0x06,0x00,0x00,0x00,
0x00,0x00,0x00,0x01,0x01,0x00,0x00,0x00,0x14,0x00,0x00,0x00,
0x03,0x00,0x00,0x00,0x13,0x00,0x00,0x00,0x0a,0x00,0x00,0x00,
0x01,0x00,0x00,0x00,0x0a,0xff,0xff,0xff,0x14,0x00,0x00,0x00,
0x00,0x00,0x00,0x1b,0x10,0x00,0x00,0x00,0x14,0x00,0x00,0x00,
0x03,0x00,0x00,0x00,0x04,0xf5,0xff,0xff,0x01,0x00,0x00,0x00,
0x13,0x00,0x00,0x00,0x02,0x00,0x00,0x00,0x12,0x00,0x00,0x00,
0x0b,0x00,0x00,0x00,0x6a,0xff,0xff,0xff,0x0c,0x00,0x00,0x00,
0x10,0x00,0x00,0x00,0x02,0x00,0x00,0x00,0x01,0x00,0x00,0x00,
0x12,0x00,0x00,0x00,0x02,0x00,0x00,0x00,0x11,0x00,0x00,0x00,
0x05,0x00,0x00,0x00,0x5e,0xff,0xff,0xff,0x14,0x00,0x00,0x00,
0x00,0x00,0x00,0x01,0x20,0x00,0x00,0x00,0x24,0x00,0x00,0x00,
0x01,0x00,0x00,0x00,0x50,0xff,0xff,0xff,0x00,0x00,0x00,0x01,
0x01,0x00,0x00,0x00,0x01,0x00,0x00,0x00,0x00,0x00,0x00,0x01,
0x01,0x00,0x00,0x00,0x11,0x00,0x00,0x00,0x03,0x00,0x00,0x00,
0x10,0x00,0x00,0x00,0x07,0x00,0x00,0x00,0x02,0x00,0x00,0x00,
0x42,0xff,0xff,0xff,0x10,0x00,0x00,0x00,0x00,0x00,0x00,0x34,
0x0c,0x00,0x00,0x00,0x10,0x00,0x00,0x00,0x98,0xf5,0xff,0xff,
0x01,0x00,0x00,0x00,0x10,0x00,0x00,0x00,0x02,0x00,0x00,0x00,
0x0f,0x00,0x00,0x00,0x0c,0x00,0x00,0x00,0x00,0x00,0x0a,0x00,
0x10,0x00,0x0c,0x00,0x08,0x00,0x04,0x00,0x0a,0x00,0x00,0x00,
0x0c,0x00,0x00,0x00,0x10,0x00,0x00,0x00,0x02,0x00,0x00,0x00,
0x01,0x00,0x00,0x00,0x0f,0x00,0x00,0x00,0x02,0x00,0x00,0x00,
0x0e,0x00,0x00,0x00,0x06,0x00,0x00,0x00,0x00,0x00,0x0e,0x00,
0x18,0x00,0x14,0x00,0x10,0x00,0x0c,0x00,0x0b,0x00,0x04,0x00,
0x0e,0x00,0x00,0x00,0x20,0x00,0x00,0x00,0x00,0x00,0x00,0x01,
0x2c,0x00,0x00,0x00,0x30,0x00,0x00,0x00,0x01,0x00,0x00,0x00,
0x0c,0x00,0x14,0x00,0x13,0x00,0x0c,0x00,0x08,0x00,0x07,0x00,
0x0c,0x00,0x00,0x00,0x00,0x00,0x00,0x01,0x01,0x00,0x00,0x00,
0x01,0x00,0x00,0x00,0x00,0x00,0x00,0x01,0x01,0x00,0x00,0x00,
0x0e,0x00,0x00,0x00,0x03,0x00,0x00,0x00,0x0d,0x00,0x00,0x00,
0x08,0x00,0x00,0x00,0x03,0x00,0x00,0x00,0x00,0x00,0x0e,0x00,
0x14,0x00,0x00,0x00,0x10,0x00,0x0c,0x00,0x0b,0x00,0x04,0x00,
0x0e,0x00,0x00,0x00,0x10,0x00,0x00,0x00,0x00,0x00,0x00,0x34,
0x0c,0x00,0x00,0x00,0x10,0x00,0x00,0x00,0x64,0xf6,0xff,0xff,
0x01,0x00,0x00,0x00,0x0d,0x00,0x00,0x00,0x02,0x00,0x00,0x00,
0x00,0x00,0x00,0x00,0x0c,0x00,0x00,0x00,0x01,0x00,0x00,0x00,
0x16,0x00,0x00,0x00,0x01,0x00,0x00,0x00,0x00,0x00,0x00,0x00,
0x17,0x00,0x00,0x00,0x44,0x09,0x00,0x00,0xf0,0x08,0x00,0x00,
0x9c,0x08,0x00,0x00,0x60,0x08,0x00,0x00,0x24,0x08,0x00,0x00,
0xe4,0x07,0x00,0x00,0x8c,0x07,0x00,0x00,0x44,0x07,0x00,0x00,
0xfc,0x06,0x00,0x00,0xbc,0x06,0x00,0x00,0x7c,0x06,0x00,0x00,
0x3c,0x06,0x00,0x00,0xfc,0x05,0x00,0x00,0x7c,0x05,0x00,0x00,
0xa4,0x04,0x00,0x00,0xf8,0x03,0x00,0x00,0x78,0x03,0x00,0x00,
0x98,0x02,0x00,0x00,0xe4,0x01,0x00,0x00,0x74,0x01,0x00,0x00,
0xe0,0x00,0x00,0x00,0x60,0x00,0x00,0x00,0x04,0x00,0x00,0x00,
0x2e,0xf7,0xff,0xff,0x00,0x00,0x00,0x01,0x14,0x00,0x00,0x00,
0x1c,0x00,0x00,0x00,0x1c,0x00,0x00,0x00,0x17,0x00,0x00,0x00,
0x34,0x00,0x00,0x00,0x02,0x00,0x00,0x00,0xff,0xff,0xff,0xff,
0x03,0x00,0x00,0x00,0x14,0xf7,0xff,0xff,0x1b,0x00,0x00,0x00,
0x53,0x74,0x61,0x74,0x65,0x66,0x75,0x6c,0x50,0x61,0x72,0x74,
0x69,0x74,0x69,0x6f,0x6e,0x65,0x64,0x43,0x61,0x6c,0x6c,0x5f,
0x31,0x3a,0x30,0x00,0x02,0x00,0x00,0x00,0x01,0x00,0x00,0x00,
0x03,0x00,0x00,0x00,0x86,0xf7,0xff,0xff,0x00,0x00,0x00,0x01,
0x14,0x00,0x00,0x00,0x1c,0x00,0x00,0x00,0x1c,0x00,0x00,0x00,
0x16,0x00,0x00,0x00,0x58,0x00,0x00,0x00,0x02,0x00,0x00,0x00,
0xff,0xff,0xff,0xff,0x03,0x00,0x00,0x00,0x6c,0xf7,0xff,0xff,
0x3c,0x00,0x00,0x00,0x73,0x65,0x71,0x75,0x65,0x6e,0x74,0x69,
0x61,0x6c,0x5f,0x31,0x2f,0x64,0x65,0x6e,0x73,0x65,0x5f,0x31,
0x5f,0x32,0x2f,0x4d,0x61,0x74,0x4d,0x75,0x6c,0x3b,0x73,0x65,
0x71,0x75,0x65,0x6e,0x74,0x69,0x61,0x6c,0x5f,0x31,0x2f,0x64,
0x65,0x6e,0x73,0x65,0x5f,0x31,0x5f,0x32,0x2f,0x42,0x69,0x61,
0x73,0x41,0x64,0x64,0x00,0x00,0x00,0x00,0x02,0x00,0x00,0x00,
0x01,0x00,0x00,0x00,0x03,0x00,0x00,0x00,0x02,0xf8,0xff,0xff,
0x00,0x00,0x00,0x01,0x14,0x00,0x00,0x00,0x1c,0x00,0x00,0x00,
0x1c,0x00,0x00,0x00,0x15,0x00,0x00,0x00,0x6c,0x00,0x00,0x00,
0x02,0x00,0x00,0x00,0xff,0xff,0xff,0xff,0x20,0x00,0x00,0x00,
0xe8,0xf7,0xff,0xff,0x52,0x00,0x00,0x00,0x73,0x65,0x71,0x75,
0x65,0x6e,0x74,0x69,0x61,0x6c,0x5f,0x31,0x2f,0x64,0x65,0x6e,
0x73,0x65,0x5f,0x31,0x2f,0x4d,0x61,0x74,0x4d,0x75,0x6c,0x3b,
0x73,0x65,0x71,0x75,0x65,0x6e,0x74,0x69,0x61,0x6c,0x5f,0x31,
0x2f,0x64,0x65,0x6e,0x73,0x65,0x5f,0x31,0x2f,0x52,0x65,0x6c,
0x75,0x3b,0x73,0x65,0x71,0x75,0x65,0x6e,0x74,0x69,0x61,0x6c,
0x5f,0x31,0x2f,0x64,0x65,0x6e,0x73,0x65,0x5f,0x31,0x2f,0x42,
0x69,0x61,0x73,0x41,0x64,0x64,0x00,0x00,0x02,0x00,0x00,0x00,
0x01,0x00,0x00,0x00,0x20,0x00,0x00,0x00,0x92,0xf8,0xff,0xff,
0x00,0x00,0x00,0x01,0x14,0x00,0x00,0x00,0x1c,0x00,0x00,0x00,
0x1c,0x00,0x00,0x00,0x14,0x00,0x00,0x00,0x48,0x00,0x00,0x00,
0x02,0x00,0x00,0x00,0xff,0xff,0xff,0xff,0x10,0x00,0x00,0x00,
0x78,0xf8,0xff,0xff,0x2c,0x00,0x00,0x00,0x73,0x65,0x71,0x75,
0x65,0x6e,0x74,0x69,0x61,0x6c,0x5f,0x31,0x2f,0x67,0x6c,0x6f,
0x62,0x61,0x6c,0x5f,0x61,0x76,0x65,0x72,0x61,0x67,0x65,0x5f,
0x70,0x6f,0x6f,0x6c,0x69,0x6e,0x67,0x31,0x64,0x5f,0x31,0x2f,
0x4d,0x65,0x61,0x6e,0x00,0x00,0x00,0x00,0x02,0x00,0x00,0x00,
0x01,0x00,0x00,0x00,0x10,0x00,0x00,0x00,0xfe,0xf8,0xff,0xff,
0x00,0x00,0x00,0x01,0x14,0x00,0x00,0x00,0x20,0x00,0x00,0x00,
0x20,0x00,0x00,0x00,0x13,0x00,0x00,0x00,0x88,0x00,0x00,0x00,
0x03,0x00,0x00,0x00,0xff,0xff,0xff,0xff,0x06,0x00,0x00,0x00,
0x10,0x00,0x00,0x00,0xe8,0xf8,0xff,0xff,0x69,0x00,0x00,0x00,
0x73,0x65,0x71,0x75,0x65,0x6e,0x74,0x69,0x61,0x6c,0x5f,0x31,
0x2f,0x63,0x6f,0x6e,0x76,0x31,0x64,0x5f,0x31,0x5f,0x32,0x2f,
0x52,0x65,0x6c,0x75,0x3b,0x73,0x65,0x71,0x75,0x65,0x6e,0x74,
0x69,0x61,0x6c,0x5f,0x31,0x2f,0x63,0x6f,0x6e,0x76,0x31,0x64,
0x5f,0x31,0x5f,0x32,0x2f,0x42,0x69,0x61,0x73,0x41,0x64,0x64,
0x3b,0x73,0x65,0x71,0x75,0x65,0x6e,0x74,0x69,0x61,0x6c,0x5f,
0x31,0x2f,0x63,0x6f,0x6e,0x76,0x31,0x64,0x5f,0x31,0x5f,0x32,
0x2f,0x63,0x6f,0x6e,0x76,0x6f,0x6c,0x75,0x74,0x69,0x6f,0x6e,
0x2f,0x53,0x71,0x75,0x65,0x65,0x7a,0x65,0x3b,0x00,0x00,0x00,
0x03,0x00,0x00,0x00,0x01,0x00,0x00,0x00,0x06,0x00,0x00,0x00,
0x10,0x00,0x00,0x00,0xae,0xf9,0xff,0xff,0x00,0x00,0x00,0x01,
0x14,0x00,0x00,0x00,0x24,0x00,0x00,0x00,0x24,0x00,0x00,0x00,
0x12,0x00,0x00,0x00,0xb0,0x00,0x00,0x00,0x04,0x00,0x00,0x00,
0xff,0xff,0xff,0xff,0x01,0x00,0x00,0x00,0x06,0x00,0x00,0x00,
0x10,0x00,0x00,0x00,0x9c,0xf9,0xff,0xff,0x8d,0x00,0x00,0x00,
0x73,0x65,0x71,0x75,0x65,0x6e,0x74,0x69,0x61,0x6c,0x5f,0x31,
0x2f,0x63,0x6f,0x6e,0x76,0x31,0x64,0x5f,0x31,0x5f,0x32,0x2f,
0x52,0x65,0x6c,0x75,0x3b,0x73,0x65,0x71,0x75,0x65,0x6e,0x74,
0x69,0x61,0x6c,0x5f,0x31,0x2f,0x63,0x6f,0x6e,0x76,0x31,0x64,
0x5f,0x31,0x5f,0x32,0x2f,0x42,0x69,0x61,0x73,0x41,0x64,0x64,
0x3b,0x73,0x65,0x71,0x75,0x65,0x6e,0x74,0x69,0x61,0x6c,0x5f,
0x31,0x2f,0x63,0x6f,0x6e,0x76,0x31,0x64,0x5f,0x31,0x5f,0x32,
0x2f,0x63,0x6f,0x6e,0x76,0x6f,0x6c,0x75,0x74,0x69,0x6f,0x6e,
0x2f,0x53,0x71,0x75,0x65,0x65,0x7a,0x65,0x3b,0x3b,0x73,0x65,
0x71,0x75,0x65,0x6e,0x74,0x69,0x61,0x6c,0x5f,0x31,0x2f,0x63,
0x6f,0x6e,0x76,0x31,0x64,0x5f,0x31,0x5f,0x32,0x2f,0x63,0x6f,
0x6e,0x76,0x6f,0x6c,0x75,0x74,0x69,0x6f,0x6e,0x00,0x00,0x00,
0x04,0x00,0x00,0x00,0x01,0x00,0x00,0x00,0x01,0x00,0x00,0x00,
0x06,0x00,0x00,0x00,0x10,0x00,0x00,0x00,0x8a,0xfa,0xff,0xff,
0x00,0x00,0x00,0x01,0x14,0x00,0x00,0x00,0x24,0x00,0x00,0x00,
0x24,0x00,0x00,0x00,0x11,0x00,0x00,0x00,0x50,0x00,0x00,0x00,
0x04,0x00,0x00,0x00,0xff,0xff,0xff,0xff,0x01,0x00,0x00,0x00,
0x08,0x00,0x00,0x00,0x10,0x00,0x00,0x00,0x78,0xfa,0xff,0xff,
0x2e,0x00,0x00,0x00,0x73,0x65,0x71,0x75,0x65,0x6e,0x74,0x69,
0x61,0x6c,0x5f,0x31,0x2f,0x63,0x6f,0x6e,0x76,0x31,0x64,0x5f,
0x31,0x5f,0x32,0x2f,0x63,0x6f,0x6e,0x76,0x6f,0x6c,0x75,0x74,
0x69,0x6f,0x6e,0x2f,0x45,0x78,0x70,0x61,0x6e,0x64,0x44,0x69,
0x6d,0x73,0x00,0x00,0x04,0x00,0x00,0x00,0x01,0x00,0x00,0x00,
0x01,0x00,0x00,0x00,0x08,0x00,0x00,0x00,0x10,0x00,0x00,0x00,
0x06,0xfb,0xff,0xff,0x00,0x00,0x00,0x01,0x14,0x00,0x00,0x00,
0x20,0x00,0x00,0x00,0x20,0x00,0x00,0x00,0x10,0x00,0x00,0x00,
0x80,0x00,0x00,0x00,0x03,0x00,0x00,0x00,0xff,0xff,0xff,0xff,
0x08,0x00,0x00,0x00,0x10,0x00,0x00,0x00,0xf0,0xfa,0xff,0xff,
0x63,0x00,0x00,0x00,0x73,0x65,0x71,0x75,0x65,0x6e,0x74,0x69,
0x61,0x6c,0x5f,0x31,0x2f,0x63,0x6f,0x6e,0x76,0x31,0x64,0x5f,
0x31,0x2f,0x52,0x65,0x6c,0x75,0x3b,0x73,0x65,0x71,0x75,0x65,
0x6e,0x74,0x69,0x61,0x6c,0x5f,0x31,0x2f,0x63,0x6f,0x6e,0x76,
0x31,0x64,0x5f,0x31,0x2f,0x42,0x69,0x61,0x73,0x41,0x64,0x64,
0x3b,0x73,0x65,0x71,0x75,0x65,0x6e,0x74,0x69,0x61,0x6c,0x5f,
0x31,0x2f,0x63,0x6f,0x6e,0x76,0x31,0x64,0x5f,0x31,0x2f,0x63,
0x6f,0x6e,0x76,0x6f,0x6c,0x75,0x74,0x69,0x6f,0x6e,0x2f,0x53,
0x71,0x75,0x65,0x65,0x7a,0x65,0x3b,0x00,0x03,0x00,0x00,0x00,
0x01,0x00,0x00,0x00,0x08,0x00,0x00,0x00,0x10,0x00,0x00,0x00,
0xae,0xfb,0xff,0xff,0x00,0x00,0x00,0x01,0x14,0x00,0x00,0x00,
0x24,0x00,0x00,0x00,0x24,0x00,0x00,0x00,0x0f,0x00,0x00,0x00,
0xa8,0x00,0x00,0x00,0x04,0x00,0x00,0x00,0xff,0xff,0xff,0xff,
0x01,0x00,0x00,0x00,0x08,0x00,0x00,0x00,0x10,0x00,0x00,0x00,
0x9c,0xfb,0xff,0xff,0x85,0x00,0x00,0x00,0x73,0x65,0x71,0x75,
0x65,0x6e,0x74,0x69,0x61,0x6c,0x5f,0x31,0x2f,0x63,0x6f,0x6e,
0x76,0x31,0x64,0x5f,0x31,0x2f,0x52,0x65,0x6c,0x75,0x3b,0x73,
0x65,0x71,0x75,0x65,0x6e,0x74,0x69,0x61,0x6c,0x5f,0x31,0x2f,
0x63,0x6f,0x6e,0x76,0x31,0x64,0x5f,0x31,0x2f,0x42,0x69,0x61,
0x73,0x41,0x64,0x64,0x3b,0x73,0x65,0x71,0x75,0x65,0x6e,0x74,
0x69,0x61,0x6c,0x5f,0x31,0x2f,0x63,0x6f,0x6e,0x76,0x31,0x64,
0x5f,0x31,0x2f,0x63,0x6f,0x6e,0x76,0x6f,0x6c,0x75,0x74,0x69,
0x6f,0x6e,0x2f,0x53,0x71,0x75,0x65,0x65,0x7a,0x65,0x3b,0x3b,
0x73,0x65,0x71,0x75,0x65,0x6e,0x74,0x69,0x61,0x6c,0x5f,0x31,
0x2f,0x63,0x6f,0x6e,0x76,0x31,0x64,0x5f,0x31,0x2f,0x63,0x6f,
0x6e,0x76,0x6f,0x6c,0x75,0x74,0x69,0x6f,0x6e,0x00,0x00,0x00,
0x04,0x00,0x00,0x00,0x01,0x00,0x00,0x00,0x01,0x00,0x00,0x00,
0x08,0x00,0x00,0x00,0x10,0x00,0x00,0x00,0x82,0xfc,0xff,0xff,
0x00,0x00,0x00,0x01,0x14,0x00,0x00,0x00,0x24,0x00,0x00,0x00,
0x24,0x00,0x00,0x00,0x0e,0x00,0x00,0x00,0x50,0x00,0x00,0x00,
0x04,0x00,0x00,0x00,0xff,0xff,0xff,0xff,0x01,0x00,0x00,0x00,
0x0a,0x00,0x00,0x00,0x02,0x00,0x00,0x00,0x70,0xfc,0xff,0xff,
0x2c,0x00,0x00,0x00,0x73,0x65,0x71,0x75,0x65,0x6e,0x74,0x69,
0x61,0x6c,0x5f,0x31,0x2f,0x63,0x6f,0x6e,0x76,0x31,0x64,0x5f,
0x31,0x2f,0x63,0x6f,0x6e,0x76,0x6f,0x6c,0x75,0x74,0x69,0x6f,
0x6e,0x2f,0x45,0x78,0x70,0x61,0x6e,0x64,0x44,0x69,0x6d,0x73,
0x00,0x00,0x00,0x00,0x04,0x00,0x00,0x00,0x01,0x00,0x00,0x00,
0x01,0x00,0x00,0x00,0x0a,0x00,0x00,0x00,0x02,0x00,0x00,0x00,
0x4a,0xfe,0xff,0xff,0x00,0x00,0x00,0x01,0x14,0x00,0x00,0x00,
0x14,0x00,0x00,0x00,0x0d,0x00,0x00,0x00,0x00,0x00,0x00,0x02,
0x20,0x00,0x00,0x00,0xd8,0xfc,0xff,0xff,0x10,0x00,0x00,0x00,
0x61,0x72,0x69,0x74,0x68,0x2e,0x63,0x6f,0x6e,0x73,0x74,0x61,
0x6e,0x74,0x31,0x31,0x00,0x00,0x00,0x00,0x00,0x00,0x00,0x00,
0x86,0xfe,0xff,0xff,0x00,0x00,0x00,0x01,0x14,0x00,0x00,0x00,
0x14,0x00,0x00,0x00,0x0c,0x00,0x00,0x00,0x00,0x00,0x00,0x02,
0x20,0x00,0x00,0x00,0x14,0xfd,0xff,0xff,0x10,0x00,0x00,0x00,
0x61,0x72,0x69,0x74,0x68,0x2e,0x63,0x6f,0x6e,0x73,0x74,0x61,
0x6e,0x74,0x31,0x30,0x00,0x00,0x00,0x00,0x00,0x00,0x00,0x00,
0xc6,0xfd,0xff,0xff,0x00,0x00,0x00,0x01,0x10,0x00,0x00,0x00,
0x10,0x00,0x00,0x00,0x0b,0x00,0x00,0x00,0x1c,0x00,0x00,0x00,
0x4c,0xfd,0xff,0xff,0x0f,0x00,0x00,0x00,0x61,0x72,0x69,0x74,
0x68,0x2e,0x63,0x6f,0x6e,0x73,0x74,0x61,0x6e,0x74,0x39,0x00,
0x02,0x00,0x00,0x00,0x20,0x00,0x00,0x00,0x10,0x00,0x00,0x00,
0x02,0xfe,0xff,0xff,0x00,0x00,0x00,0x01,0x10,0x00,0x00,0x00,
0x10,0x00,0x00,0x00,0x0a,0x00,0x00,0x00,0x1c,0x00,0x00,0x00,
0x88,0xfd,0xff,0xff,0x0f,0x00,0x00,0x00,0x61,0x72,0x69,0x74,
0x68,0x2e,0x63,0x6f,0x6e,0x73,0x74,0x61,0x6e,0x74,0x38,0x00,
0x02,0x00,0x00,0x00,0x03,0x00,0x00,0x00,0x20,0x00,0x00,0x00,
0x3e,0xfe,0xff,0xff,0x00,0x00,0x00,0x01,0x10,0x00,0x00,0x00,
0x10,0x00,0x00,0x00,0x09,0x00,0x00,0x00,0x1c,0x00,0x00,0x00,
0xc4,0xfd,0xff,0xff,0x0f,0x00,0x00,0x00,0x61,0x72,0x69,0x74,
0x68,0x2e,0x63,0x6f,0x6e,0x73,0x74,0x61,0x6e,0x74,0x37,0x00,
0x04,0x00,0x00,0x00,0x10,0x00,0x00,0x00,0x01,0x00,0x00,0x00,
0x03,0x00,0x00,0x00,0x02,0x00,0x00,0x00,0x82,0xfe,0xff,0xff,
0x00,0x00,0x00,0x01,0x10,0x00,0x00,0x00,0x10,0x00,0x00,0x00,
0x08,0x00,0x00,0x00,0x1c,0x00,0x00,0x00,0x08,0xfe,0xff,0xff,
0x0f,0x00,0x00,0x00,0x61,0x72,0x69,0x74,0x68,0x2e,0x63,0x6f,
0x6e,0x73,0x74,0x61,0x6e,0x74,0x36,0x00,0x04,0x00,0x00,0x00,
0x10,0x00,0x00,0x00,0x01,0x00,0x00,0x00,0x03,0x00,0x00,0x00,
0x10,0x00,0x00,0x00,0xc2,0xff,0xff,0xff,0x00,0x00,0x00,0x01,
0x14,0x00,0x00,0x00,0x14,0x00,0x00,0x00,0x07,0x00,0x00,0x00,
0x00,0x00,0x00,0x02,0x1c,0x00,0x00,0x00,0x50,0xfe,0xff,0xff,
0x0f,0x00,0x00,0x00,0x61,0x72,0x69,0x74,0x68,0x2e,0x63,0x6f,
0x6e,0x73,0x74,0x61,0x6e,0x74,0x35,0x00,0x01,0x00,0x00,0x00,
0x03,0x00,0x00,0x00,0x00,0x00,0x16,0x00,0x1c,0x00,0x18,0x00,
0x17,0x00,0x10,0x00,0x0c,0x00,0x08,0x00,0x00,0x00,0x00,0x00,
0x00,0x00,0x07,0x00,0x16,0x00,0x00,0x00,0x00,0x00,0x00,0x01,
0x14,0x00,0x00,0x00,0x14,0x00,0x00,0x00,0x06,0x00,0x00,0x00,
0x00,0x00,0x00,0x02,0x1c,0x00,0x00,0x00,0xa4,0xfe,0xff,0xff,
0x0f,0x00,0x00,0x00,0x61,0x72,0x69,0x74,0x68,0x2e,0x63,0x6f,
0x6e,0x73,0x74,0x61,0x6e,0x74,0x34,0x00,0x01,0x00,0x00,0x00,
0x03,0x00,0x00,0x00,0x56,0xff,0xff,0xff,0x00,0x00,0x00,0x01,
0x10,0x00,0x00,0x00,0x10,0x00,0x00,0x00,0x05,0x00,0x00,0x00,
0x1c,0x00,0x00,0x00,0xdc,0xfe,0xff,0xff,0x0f,0x00,0x00,0x00,
0x61,0x72,0x69,0x74,0x68,0x2e,0x63,0x6f,0x6e,0x73,0x74,0x61,
0x6e,0x74,0x33,0x00,0x01,0x00,0x00,0x00,0x03,0x00,0x00,0x00,
0x8e,0xff,0xff,0xff,0x00,0x00,0x00,0x01,0x10,0x00,0x00,0x00,
0x10,0x00,0x00,0x00,0x04,0x00,0x00,0x00,0x1c,0x00,0x00,0x00,
0x14,0xff,0xff,0xff,0x0f,0x00,0x00,0x00,0x61,0x72,0x69,0x74,
0x68,0x2e,0x63,0x6f,0x6e,0x73,0x74,0x61,0x6e,0x74,0x32,0x00,
0x01,0x00,0x00,0x00,0x10,0x00,0x00,0x00,0xc6,0xff,0xff,0xff,
0x00,0x00,0x00,0x01,0x10,0x00,0x00,0x00,0x10,0x00,0x00,0x00,
0x03,0x00,0x00,0x00,0x1c,0x00,0x00,0x00,0x4c,0xff,0xff,0xff,
0x0f,0x00,0x00,0x00,0x61,0x72,0x69,0x74,0x68,0x2e,0x63,0x6f,
0x6e,0x73,0x74,0x61,0x6e,0x74,0x31,0x00,0x01,0x00,0x00,0x00,
0x10,0x00,0x00,0x00,0x00,0x00,0x16,0x00,0x18,0x00,0x14,0x00,
0x00,0x00,0x10,0x00,0x0c,0x00,0x08,0x00,0x00,0x00,0x00,0x00,
0x00,0x00,0x07,0x00,0x16,0x00,0x00,0x00,0x00,0x00,0x00,0x01,
0x10,0x00,0x00,0x00,0x10,0x00,0x00,0x00,0x02,0x00,0x00,0x00,
0x1c,0x00,0x00,0x00,0x9c,0xff,0xff,0xff,0x0e,0x00,0x00,0x00,
0x61,0x72,0x69,0x74,0x68,0x2e,0x63,0x6f,0x6e,0x73,0x74,0x61,
0x6e,0x74,0x00,0x00,0x01,0x00,0x00,0x00,0x20,0x00,0x00,0x00,
0x00,0x00,0x16,0x00,0x1c,0x00,0x18,0x00,0x00,0x00,0x14,0x00,
0x10,0x00,0x0c,0x00,0x00,0x00,0x00,0x00,0x08,0x00,0x07,0x00,
0x16,0x00,0x00,0x00,0x00,0x00,0x00,0x01,0x14,0x00,0x00,0x00,
0x24,0x00,0x00,0x00,0x24,0x00,0x00,0x00,0x01,0x00,0x00,0x00,
0x40,0x00,0x00,0x00,0x03,0x00,0x00,0x00,0xff,0xff,0xff,0xff,
0x0a,0x00,0x00,0x00,0x02,0x00,0x00,0x00,0x04,0x00,0x04,0x00,
0x04,0x00,0x00,0x00,0x1e,0x00,0x00,0x00,0x73,0x65,0x72,0x76,
0x69,0x6e,0x67,0x5f,0x64,0x65,0x66,0x61,0x75,0x6c,0x74,0x5f,
0x6b,0x65,0x72,0x61,0x73,0x5f,0x74,0x65,0x6e,0x73,0x6f,0x72,
0x3a,0x30,0x00,0x00,0x03,0x00,0x00,0x00,0x01,0x00,0x00,0x00,
0x0a,0x00,0x00,0x00,0x02,0x00,0x00,0x00,0x06,0x00,0x00,0x00,
0x60,0x00,0x00,0x00,0x44,0x00,0x00,0x00,0x34,0x00,0x00,0x00,
0x24,0x00,0x00,0x00,0x14,0x00,0x00,0x00,0x04,0x00,0x00,0x00,
0xc4,0xff,0xff,0xff,0x19,0x00,0x00,0x00,0x00,0x00,0x00,0x19,
0xd0,0xff,0xff,0xff,0x09,0x00,0x00,0x00,0x00,0x00,0x00,0x09,
0xdc,0xff,0xff,0xff,0x28,0x00,0x00,0x00,0x00,0x00,0x00,0x28,
0xe8,0xff,0xff,0xff,0x16,0x00,0x00,0x00,0x00,0x00,0x00,0x16,
0xf4,0xff,0xff,0xff,0x03,0x00,0x00,0x00,0x00,0x00,0x00,0x03,
0x0c,0x00,0x0c,0x00,0x0b,0x00,0x00,0x00,0x00,0x00,0x04,0x00,
0x0c,0x00,0x00,0x00,0x46,0x00,0x00,0x00,0x00,0x00,0x00,0x46,

};
const unsigned int model_len = 10212;
