unsigned char model_tflite[] = {
  0x1c, 0x00, 0x00, 0x00, 0x54, 0x46, 0x4c, 0x33, 0x14, 0x00, 0x20, 0x00,
  0x1c, 0x00, 0x18, 0x00, 0x14, 0x00, 0x10, 0x00, 0x0c, 0x00, 0x00, 0x00,
  0x08, 0x00, 0x04, 0x00, 0x14, 0x00, 0x00, 0x00, 0x1c, 0x00, 0x00, 0x00,
  0x98, 0x00, 0x00, 0x00, 0xf0, 0x00, 0x00, 0x00, 0x5c, 0x08, 0x00, 0x00,
  0x6c, 0x08, 0x00, 0x00, 0x1c, 0x0e, 0x00, 0x00, 0x03, 0x00, 0x00, 0x00,
  0x01, 0x00, 0x00, 0x00, 0x10, 0x00, 0x00, 0x00, 0x00, 0x00, 0x0a, 0x00,
  0x10, 0x00, 0x0c, 0x00, 0x08, 0x00, 0x04, 0x00, 0x0a, 0x00, 0x00, 0x00,
  0x0c, 0x00, 0x00, 0x00, 0x1c, 0x00, 0x00, 0x00, 0x3c, 0x00, 0x00, 0x00,
  0x0f, 0x00, 0x00, 0x00, 0x73, 0x65, 0x72, 0x76, 0x69, 0x6e, 0x67, 0x5f,
  0x64, 0x65, 0x66, 0x61, 0x75, 0x6c, 0x74, 0x00, 0x01, 0x00, 0x00, 0x00,
  0x04, 0x00, 0x00, 0x00, 0x90, 0xff, 0xff, 0xff, 0x0a, 0x00, 0x00, 0x00,
  0x04, 0x00, 0x00, 0x00, 0x08, 0x00, 0x00, 0x00, 0x6f, 0x75, 0x74, 0x70,
  0x75, 0x74, 0x5f, 0x30, 0x00, 0x00, 0x00, 0x00, 0x01, 0x00, 0x00, 0x00,
  0x04, 0x00, 0x00, 0x00, 0x8a, 0xf7, 0xff, 0xff, 0x04, 0x00, 0x00, 0x00,
  0x0c, 0x00, 0x00, 0x00, 0x6b, 0x65, 0x72, 0x61, 0x73, 0x5f, 0x74, 0x65,
  0x6e, 0x73, 0x6f, 0x72, 0x00, 0x00, 0x00, 0x00, 0x02, 0x00, 0x00, 0x00,
  0x34, 0x00, 0x00, 0x00, 0x04, 0x00, 0x00, 0x00, 0xdc, 0xff, 0xff, 0xff,
  0x0d, 0x00, 0x00, 0x00, 0x04, 0x00, 0x00, 0x00, 0x13, 0x00, 0x00, 0x00,
  0x43, 0x4f, 0x4e, 0x56, 0x45, 0x52, 0x53, 0x49, 0x4f, 0x4e, 0x5f, 0x4d,
  0x45, 0x54, 0x41, 0x44, 0x41, 0x54, 0x41, 0x00, 0x08, 0x00, 0x0c, 0x00,
  0x08, 0x00, 0x04, 0x00, 0x08, 0x00, 0x00, 0x00, 0x0c, 0x00, 0x00, 0x00,
  0x04, 0x00, 0x00, 0x00, 0x13, 0x00, 0x00, 0x00, 0x6d, 0x69, 0x6e, 0x5f,
  0x72, 0x75, 0x6e, 0x74, 0x69, 0x6d, 0x65, 0x5f, 0x76, 0x65, 0x72, 0x73,
  0x69, 0x6f, 0x6e, 0x00, 0x0e, 0x00, 0x00, 0x00, 0x68, 0x07, 0x00, 0x00,
  0x60, 0x07, 0x00, 0x00, 0x10, 0x07, 0x00, 0x00, 0xf4, 0x06, 0x00, 0x00,
  0x24, 0x06, 0x00, 0x00, 0x14, 0x02, 0x00, 0x00, 0x04, 0x01, 0x00, 0x00,
  0xb4, 0x00, 0x00, 0x00, 0xac, 0x00, 0x00, 0x00, 0xa4, 0x00, 0x00, 0x00,
  0x9c, 0x00, 0x00, 0x00, 0x94, 0x00, 0x00, 0x00, 0x74, 0x00, 0x00, 0x00,
  0x04, 0x00, 0x00, 0x00, 0x3e, 0xf8, 0xff, 0xff, 0x04, 0x00, 0x00, 0x00,
  0x60, 0x00, 0x00, 0x00, 0x0c, 0x00, 0x00, 0x00, 0x08, 0x00, 0x0e, 0x00,
  0x08, 0x00, 0x04, 0x00, 0x08, 0x00, 0x00, 0x00, 0x10, 0x00, 0x00, 0x00,
  0x28, 0x00, 0x00, 0x00, 0x00, 0x00, 0x06, 0x00, 0x08, 0x00, 0x04, 0x00,
  0x06, 0x00, 0x00, 0x00, 0x04, 0x00, 0x00, 0x00, 0x01, 0x00, 0x00, 0x00,
  0xea, 0x03, 0x00, 0x00, 0x0c, 0x00, 0x18, 0x00, 0x14, 0x00, 0x10, 0x00,
  0x0c, 0x00, 0x04, 0x00, 0x0c, 0x00, 0x00, 0x00, 0x58, 0x96, 0xcc, 0xd2,
  0xee, 0x99, 0xab, 0xc2, 0x02, 0x00, 0x00, 0x00, 0x02, 0x00, 0x00, 0x00,
  0x04, 0x00, 0x00, 0x00, 0x06, 0x00, 0x00, 0x00, 0x32, 0x2e, 0x32, 0x30,
  0x2e, 0x30, 0x00, 0x00, 0xaa, 0xf8, 0xff, 0xff, 0x04, 0x00, 0x00, 0x00,
  0x10, 0x00, 0x00, 0x00, 0x31, 0x2e, 0x35, 0x2e, 0x30, 0x00, 0x00, 0x00,
  0x00, 0x00, 0x00, 0x00, 0x00, 0x00, 0x00, 0x00, 0xc4, 0xf3, 0xff, 0xff,
  0xc8, 0xf3, 0xff, 0xff, 0xcc, 0xf3, 0xff, 0xff, 0xd0, 0xf3, 0xff, 0xff,
  0xd6, 0xf8, 0xff, 0xff, 0x04, 0x00, 0x00, 0x00, 0x40, 0x00, 0x00, 0x00,
  0xb1, 0x8e, 0x1f, 0x3d, 0x23, 0x17, 0x3e, 0x3e, 0x40, 0x68, 0x2b, 0x3e,
  0x3b, 0x41, 0xc1, 0x3d, 0x38, 0x99, 0x99, 0x3e, 0x24, 0xa9, 0x13, 0x3e,
  0x97, 0xf7, 0xf4, 0x3e, 0x4f, 0xe3, 0xa3, 0x3e, 0x3f, 0xed, 0x32, 0x3e,
  0xf8, 0xfc, 0x29, 0x3e, 0xfb, 0x69, 0x6d, 0x3e, 0xdf, 0x59, 0xe5, 0x3e,
  0x93, 0x51, 0xc0, 0x3e, 0xbc, 0xf2, 0x25, 0x3f, 0x13, 0x3b, 0x6b, 0x3d,
  0xea, 0xb2, 0x4d, 0x3e, 0x22, 0xf9, 0xff, 0xff, 0x04, 0x00, 0x00, 0x00,
  0x00, 0x01, 0x00, 0x00, 0x51, 0xc4, 0xe1, 0x3e, 0x55, 0x00, 0x3c, 0xbf,
  0x6e, 0x21, 0xae, 0x3e, 0x05, 0x97, 0x27, 0xbf, 0x16, 0xe7, 0x14, 0xbd,
  0xd3, 0xf6, 0x1f, 0x3d, 0x92, 0xf9, 0x79, 0xbf, 0xeb, 0xf2, 0xac, 0xbe,
  0x4b, 0xce, 0x0a, 0xbf, 0x25, 0x6c, 0x81, 0x3f, 0x10, 0xb1, 0x54, 0xbc,
  0xf8, 0x00, 0xec, 0x3d, 0x3e, 0x43, 0xb4, 0xbd, 0x49, 0xd3, 0x01, 0xbf,
  0x9d, 0xd5, 0x11, 0x3f, 0x11, 0x4b, 0xf8, 0xbe, 0x4f, 0xd1, 0xaa, 0xbe,
  0x33, 0x40, 0x23, 0x3f, 0xb7, 0x2d, 0x29, 0x3f, 0xbc, 0xba, 0x49, 0x3f,
  0xdb, 0xee, 0x8a, 0xbe, 0x6b, 0x5a, 0xb1, 0x3c, 0xe9, 0x66, 0x6b, 0xbf,
  0x21, 0x2c, 0xa1, 0xbe, 0x54, 0x3a, 0xa4, 0xbd, 0x1c, 0x82, 0xb0, 0xbe,
  0x05, 0xff, 0x8f, 0xbf, 0xd1, 0x05, 0x81, 0xbd, 0x2f, 0xd5, 0xfc, 0x3e,
  0xa6, 0xe7, 0xee, 0xbe, 0xe0, 0x80, 0x63, 0x3f, 0xe2, 0x90, 0xff, 0xbe,
  0x36, 0xd4, 0x08, 0xbe, 0xaf, 0x6b, 0x86, 0x3b, 0xa8, 0xa0, 0x2f, 0xbf,
  0x5f, 0xe5, 0x92, 0xbe, 0x83, 0x92, 0x11, 0xbd, 0xc0, 0x8d, 0x60, 0x3f,
  0xeb, 0xa3, 0xca, 0xbd, 0xc7, 0xdc, 0x31, 0x3f, 0xb2, 0xa6, 0x5f, 0xbe,
  0x48, 0x17, 0x42, 0xbe, 0x4e, 0xd1, 0x2d, 0xbf, 0x08, 0x80, 0x02, 0xbe,
  0x32, 0xe4, 0xab, 0xbe, 0x27, 0x23, 0x2a, 0xbf, 0x13, 0xe9, 0x22, 0x3c,
  0x5b, 0x59, 0x0e, 0xbf, 0x1f, 0x97, 0x17, 0xbe, 0x77, 0x4e, 0x39, 0x3f,
  0x43, 0x18, 0x25, 0x3f, 0x3d, 0xe4, 0xea, 0x3e, 0x8b, 0x46, 0xe4, 0x3d,
  0xb1, 0xb4, 0x4a, 0x3e, 0x9d, 0x9c, 0x1a, 0x3f, 0xf4, 0xbc, 0x24, 0x3f,
  0xd4, 0xa3, 0x99, 0xbd, 0x49, 0xd3, 0x0d, 0x3f, 0x4d, 0x96, 0xb3, 0xbe,
  0xcc, 0xbf, 0x08, 0xbf, 0x5a, 0x3d, 0xff, 0x3d, 0xb9, 0x34, 0x49, 0xbf,
  0x0f, 0x40, 0x44, 0x3f, 0x31, 0x40, 0xca, 0xbd, 0x2e, 0xfa, 0xff, 0xff,
  0x04, 0x00, 0x00, 0x00, 0x00, 0x04, 0x00, 0x00, 0xb2, 0x71, 0xbf, 0x3e,
  0xdd, 0x4b, 0x61, 0xbe, 0x57, 0xa5, 0x4c, 0xbe, 0x73, 0x42, 0xe8, 0x3e,
  0xf8, 0xaf, 0x12, 0xbe, 0x59, 0x04, 0x7b, 0xbe, 0x0d, 0xc0, 0xfb, 0xbc,
  0x0b, 0x8d, 0x47, 0x3e, 0x7b, 0xd0, 0x9c, 0xbe, 0xdb, 0x83, 0x12, 0xbf,
  0x20, 0x88, 0xef, 0x3c, 0xf2, 0x20, 0x09, 0x3f, 0x83, 0xbe, 0x93, 0xbe,
  0x6b, 0xa7, 0xb6, 0x3e, 0x2c, 0x72, 0x6d, 0xbd, 0x7c, 0x6c, 0x38, 0x3f,
  0x35, 0xdf, 0x91, 0xbe, 0x19, 0x9c, 0x65, 0xbd, 0xd3, 0x2c, 0xd7, 0x3e,
  0xe1, 0xca, 0xa4, 0xbd, 0x4f, 0x69, 0xd8, 0x3e, 0x51, 0xd5, 0xfa, 0xbe,
  0x95, 0x78, 0xbf, 0xbe, 0x49, 0xbb, 0x46, 0xbe, 0x83, 0xeb, 0x5f, 0xbe,
  0x79, 0xa4, 0x10, 0x3e, 0x7f, 0xe2, 0xf6, 0xbe, 0xf7, 0xf6, 0x17, 0xbf,
  0x4f, 0x16, 0x2c, 0x3f, 0x13, 0x9b, 0x45, 0x3f, 0xec, 0xdf, 0xaf, 0xbb,
  0xdd, 0x4f, 0xac, 0xbe, 0xf4, 0x2e, 0xf3, 0xbe, 0x30, 0x08, 0xe3, 0xbe,
  0x08, 0x03, 0x11, 0x3e, 0x77, 0xbf, 0x91, 0xbe, 0x3e, 0x4b, 0xa1, 0x3e,
  0x02, 0x33, 0x06, 0xbd, 0x17, 0x98, 0x8a, 0xbe, 0xc6, 0x1a, 0x97, 0xbd,
  0x59, 0x76, 0xd2, 0xbe, 0xf6, 0xbe, 0xeb, 0x3e, 0x95, 0xcd, 0x7d, 0xbe,
  0x02, 0x44, 0x0b, 0xbf, 0x82, 0xc7, 0xc9, 0x3e, 0x2e, 0x90, 0x0b, 0x3f,
  0x38, 0x6b, 0xc7, 0x3d, 0xc4, 0x77, 0x00, 0xbe, 0xe6, 0xf8, 0xe9, 0x3e,
  0xe1, 0xca, 0x7f, 0x3e, 0xfa, 0x07, 0x51, 0xbe, 0xb6, 0xd6, 0x3b, 0x3f,
  0xc4, 0xfe, 0x39, 0x3e, 0xed, 0xee, 0x80, 0x3d, 0x35, 0xc8, 0x54, 0x3f,
  0x95, 0x26, 0x3b, 0x3f, 0xf9, 0xf7, 0x8d, 0xbb, 0x74, 0x0e, 0xc0, 0xbe,
  0x46, 0xd5, 0x26, 0xbe, 0x65, 0xa2, 0xa1, 0x3e, 0xf6, 0x88, 0xa1, 0x3c,
  0xad, 0xcb, 0x59, 0xbe, 0x69, 0xf9, 0xcd, 0x3d, 0x5f, 0x34, 0x43, 0x3f,
  0x4f, 0x94, 0x7c, 0x3e, 0x66, 0xab, 0x85, 0xbd, 0x53, 0xaf, 0xa0, 0xb9,
  0x17, 0x68, 0xe0, 0x3e, 0xa8, 0xa0, 0x75, 0x3e, 0x5a, 0x65, 0x99, 0xbe,
  0x1c, 0x64, 0x92, 0xbe, 0x66, 0x29, 0xd1, 0x3e, 0x20, 0xe3, 0x4c, 0xbe,
  0x65, 0x6f, 0x0c, 0x3f, 0xfd, 0x6e, 0x08, 0xbf, 0x70, 0x4a, 0x04, 0x3e,
  0x06, 0x23, 0xf6, 0x3e, 0xe3, 0xa5, 0x39, 0x3f, 0x15, 0x77, 0x25, 0x3e,
  0x7d, 0x16, 0x30, 0x3f, 0x56, 0xf7, 0xa5, 0x3c, 0x6e, 0x0a, 0xe3, 0x3b,
  0x33, 0x73, 0x46, 0xbe, 0xe5, 0x2c, 0x99, 0x3e, 0xfd, 0x7b, 0x96, 0xbe,
  0xe5, 0xa4, 0x32, 0xbe, 0xf1, 0xe9, 0x8a, 0xbb, 0xf1, 0x53, 0xc3, 0xbe,
  0xe6, 0x6f, 0x9b, 0x39, 0x4f, 0xfd, 0xa0, 0xbe, 0x51, 0x32, 0x7b, 0xbc,
  0xb7, 0x9d, 0xc5, 0xbc, 0x36, 0x80, 0xb5, 0x3a, 0xcd, 0x25, 0x71, 0xbe,
  0xf1, 0xa9, 0x8d, 0xbe, 0xc5, 0x8b, 0x6a, 0x3e, 0x25, 0x95, 0x99, 0xbc,
  0x1a, 0x26, 0x47, 0x3f, 0x53, 0x0f, 0x12, 0x3e, 0x30, 0x27, 0xd4, 0xbe,
  0x8f, 0x57, 0xb9, 0x3e, 0x7c, 0xfd, 0x86, 0x3f, 0xe7, 0xf5, 0x9a, 0x3f,
  0x5c, 0x5d, 0x66, 0xbd, 0x36, 0x1c, 0x4f, 0x3f, 0x92, 0xb5, 0x0b, 0x3f,
  0xe1, 0x63, 0x11, 0x3f, 0xd6, 0x12, 0x55, 0xbe, 0x33, 0xb7, 0xd7, 0x3d,
  0xb7, 0x9b, 0x4a, 0xbd, 0x30, 0xb9, 0x55, 0x3f, 0x49, 0x3d, 0xba, 0xbe,
  0x7c, 0xc9, 0x1f, 0xbf, 0x51, 0x41, 0xc4, 0xbe, 0x99, 0x27, 0xb6, 0x3e,
  0x32, 0xdc, 0xfe, 0xbe, 0x1b, 0x20, 0x32, 0x3f, 0xe7, 0x6c, 0x0b, 0xbf,
  0xa8, 0x72, 0x92, 0xbe, 0x5c, 0xe4, 0x69, 0xbd, 0xcc, 0xc1, 0x2b, 0xbe,
  0x74, 0xd8, 0x1c, 0x3f, 0xf1, 0xc4, 0x02, 0xbf, 0x13, 0xbb, 0x05, 0xbf,
  0x19, 0x62, 0x50, 0x3f, 0xe1, 0xe8, 0x7b, 0x3f, 0x00, 0x8b, 0x52, 0xbd,
  0x71, 0xd4, 0xa6, 0xbe, 0x47, 0xbb, 0x20, 0xbe, 0xae, 0x4f, 0xeb, 0x3e,
  0x01, 0x40, 0x17, 0x3c, 0x40, 0x49, 0x03, 0xbe, 0x5b, 0x0c, 0x8f, 0xbe,
  0xad, 0xd0, 0x76, 0x3e, 0x1e, 0x60, 0x8d, 0x3f, 0xb5, 0x80, 0xb6, 0x3d,
  0x5e, 0xe5, 0x1b, 0x3f, 0xa8, 0xd5, 0xeb, 0xbd, 0x30, 0xfa, 0x29, 0x3f,
  0xa4, 0xe8, 0x5a, 0x3e, 0x2a, 0x64, 0xcc, 0xbe, 0x79, 0x92, 0xe9, 0xbe,
  0x6f, 0x72, 0x10, 0x3f, 0x8f, 0xa2, 0x7d, 0xbe, 0xb4, 0xa2, 0xee, 0x3e,
  0xe1, 0xe2, 0x3d, 0xbe, 0x9e, 0x1e, 0xf3, 0xbe, 0x29, 0x5a, 0x07, 0x3e,
  0x45, 0x94, 0x98, 0xbe, 0x11, 0xb0, 0x9a, 0xbd, 0x84, 0xf6, 0x8a, 0xbe,
  0xc8, 0x9a, 0x8f, 0x3e, 0x41, 0x43, 0x88, 0xbd, 0xe0, 0x37, 0x9d, 0xbd,
  0x5b, 0x78, 0x30, 0xbd, 0xd0, 0x54, 0xdd, 0x3e, 0xd1, 0x43, 0x91, 0xbe,
  0x3a, 0xd5, 0x6e, 0x3e, 0xbc, 0xbd, 0x52, 0xbe, 0xb0, 0xcc, 0x18, 0x3f,
  0xe3, 0xe4, 0x99, 0x3e, 0x78, 0xbb, 0xaa, 0xbe, 0x1a, 0xb0, 0x4a, 0xbe,
  0x1c, 0xf5, 0xf9, 0x3e, 0xb5, 0x20, 0x9c, 0xbd, 0x29, 0xf5, 0x2f, 0xbe,
  0xcc, 0x09, 0x98, 0x3d, 0x66, 0x0a, 0x87, 0x3e, 0x9d, 0x8e, 0x27, 0xbe,
  0xd1, 0xae, 0x08, 0xbf, 0xb9, 0xe2, 0x30, 0xbe, 0xc3, 0x08, 0xa8, 0x3e,
  0xd8, 0x96, 0xff, 0xbc, 0xd8, 0xf9, 0x14, 0xbe, 0x67, 0xbe, 0x88, 0xbe,
  0x8c, 0x44, 0x26, 0x3f, 0xb9, 0xc1, 0xca, 0xbd, 0x57, 0xcb, 0xb7, 0xbe,
  0x96, 0x4c, 0x8d, 0x3e, 0xeb, 0xcc, 0xe0, 0xbe, 0xaf, 0x28, 0x34, 0x3f,
  0xd9, 0x25, 0x9e, 0xbe, 0x20, 0xc9, 0x00, 0xbf, 0x94, 0x8f, 0x02, 0xbf,
  0x50, 0x20, 0xc1, 0xbe, 0x53, 0x05, 0x9d, 0x3e, 0x53, 0x8d, 0x5c, 0xbe,
  0xfb, 0xf8, 0x95, 0xbe, 0xeb, 0x6f, 0x27, 0x3f, 0xc6, 0x14, 0x42, 0x3f,
  0xd2, 0xae, 0xe8, 0x3d, 0xe8, 0xe3, 0xa0, 0x3e, 0xbe, 0x77, 0xcb, 0x3e,
  0xd4, 0x23, 0x55, 0xbe, 0xeb, 0x44, 0x1e, 0xbf, 0xf3, 0x3b, 0xa8, 0x3e,
  0xf8, 0xd6, 0x11, 0xbe, 0xc5, 0x15, 0x82, 0xbe, 0x67, 0x26, 0x60, 0xbe,
  0x84, 0x1e, 0x63, 0x3e, 0x81, 0xa6, 0x88, 0x3d, 0x99, 0xeb, 0x87, 0xbe,
  0xf9, 0x87, 0x04, 0xbf, 0xb9, 0xab, 0x9b, 0x3e, 0xa9, 0x47, 0xd2, 0xbe,
  0xbd, 0x97, 0x94, 0x3e, 0xfe, 0xcd, 0x98, 0x3d, 0x97, 0x0c, 0x6d, 0x3e,
  0x2b, 0xc8, 0xfb, 0xbd, 0x9e, 0x98, 0xa1, 0x3e, 0xd9, 0xbc, 0xf0, 0xbd,
  0xa5, 0x95, 0x1d, 0x3e, 0x86, 0xbb, 0x99, 0xbe, 0x4a, 0xf1, 0x1e, 0x3f,
  0x8d, 0x5d, 0x93, 0x3f, 0x72, 0x9d, 0x43, 0xbe, 0x81, 0xcc, 0x59, 0x3f,
  0x47, 0xc6, 0x40, 0x3d, 0x3f, 0xf6, 0x3f, 0x3f, 0xa6, 0x0a, 0xc1, 0x3e,
  0xab, 0x7b, 0x98, 0xbe, 0x4a, 0xb2, 0xf5, 0xbe, 0xcf, 0x08, 0x16, 0x3f,
  0x08, 0x04, 0x00, 0x3f, 0x40, 0x77, 0x2c, 0x3e, 0xdf, 0xa9, 0x0d, 0xbe,
  0x39, 0x7c, 0xd2, 0xbe, 0xf5, 0x48, 0xe2, 0x3e, 0x4a, 0x66, 0x3e, 0xbe,
  0x2d, 0x18, 0x16, 0xbe, 0x28, 0xcf, 0x95, 0xbd, 0xf1, 0xd2, 0xe1, 0x3e,
  0xcb, 0x5e, 0xda, 0xbd, 0x7d, 0xa7, 0x82, 0xbe, 0x79, 0xff, 0xbd, 0xbe,
  0xc7, 0x79, 0xdc, 0x3e, 0xe7, 0xd1, 0x3a, 0xbe, 0xb7, 0x6b, 0x92, 0x3e,
  0xa9, 0xf0, 0x93, 0xbd, 0xae, 0xeb, 0xc0, 0xbd, 0xc7, 0x5d, 0x08, 0xbc,
  0x2c, 0x24, 0xab, 0xbe, 0x3b, 0x96, 0x6f, 0x3e, 0x03, 0x9d, 0xc0, 0x3e,
  0xee, 0xea, 0x61, 0x3f, 0xf7, 0x8b, 0x15, 0xbe, 0x9f, 0x2f, 0xd6, 0xbe,
  0x04, 0xc0, 0x2e, 0x3e, 0x7c, 0x8d, 0x2c, 0xbe, 0xcc, 0x9a, 0x8d, 0x3e,
  0xcd, 0x8d, 0x83, 0xbe, 0x8e, 0xb1, 0x78, 0xbc, 0xb9, 0x19, 0xdb, 0x3e,
  0xc1, 0x00, 0x87, 0x3f, 0xb0, 0xea, 0x9d, 0xbc, 0xa2, 0x0c, 0x55, 0x3e,
  0x3a, 0xfe, 0xff, 0xff, 0x04, 0x00, 0x00, 0x00, 0xc0, 0x00, 0x00, 0x00,
  0xcc, 0x95, 0x22, 0xbf, 0x7d, 0x77, 0x04, 0x3f, 0xe6, 0x89, 0x84, 0x3f,
  0x31, 0xe9, 0x83, 0xbf, 0x7e, 0x55, 0x2d, 0x3e, 0x7b, 0xdf, 0x8c, 0xbe,
  0xae, 0x52, 0x15, 0xbe, 0xfe, 0x86, 0xcf, 0x3e, 0x0f, 0x12, 0x2d, 0xbf,
  0x12, 0x1b, 0x4d, 0xbe, 0x78, 0xea, 0xa0, 0xbe, 0x22, 0x5a, 0x69, 0x3f,
  0xb8, 0x2c, 0x07, 0xbf, 0xf5, 0xda, 0x7d, 0xbf, 0x66, 0x48, 0xbe, 0xbe,
  0xc2, 0x61, 0xef, 0x3e, 0x78, 0xa5, 0x21, 0x3e, 0x4a, 0x35, 0x09, 0xbf,
  0x78, 0xdb, 0x00, 0xbe, 0x35, 0xc5, 0x74, 0xbe, 0x17, 0xca, 0x4f, 0x3d,
  0x2f, 0xaf, 0x7a, 0xbe, 0x53, 0xdb, 0x2d, 0xbf, 0x4f, 0x8e, 0xe6, 0xbe,
  0x12, 0xb2, 0xa5, 0xbe, 0x3c, 0x51, 0x86, 0x3f, 0xba, 0x54, 0x27, 0x3f,
  0xa3, 0x6e, 0x88, 0x3c, 0x0a, 0xb4, 0x03, 0x3f, 0xff, 0x33, 0x49, 0xbe,
  0x1b, 0x48, 0x29, 0x3f, 0x23, 0x42, 0x72, 0xbd, 0xb7, 0x2e, 0x45, 0xbf,
  0x7b, 0x77, 0x49, 0xbf, 0x03, 0x5f, 0x24, 0xbf, 0xfb, 0x68, 0x56, 0xbe,
  0x56, 0xbc, 0x76, 0xbf, 0x32, 0x17, 0x23, 0xbf, 0xd1, 0xc7, 0xe1, 0x3e,
  0x22, 0x7f, 0xca, 0xbe, 0xfd, 0x90, 0x59, 0x3f, 0xa7, 0x59, 0xf8, 0xbe,
  0x21, 0xf1, 0xb5, 0xbe, 0xb9, 0x5b, 0xfb, 0xbe, 0x4a, 0xf2, 0xf6, 0xbe,
  0x47, 0x52, 0x3c, 0x3f, 0x91, 0x78, 0x54, 0xbf, 0x18, 0x52, 0x39, 0xbf,
  0x06, 0xff, 0xff, 0xff, 0x04, 0x00, 0x00, 0x00, 0x0c, 0x00, 0x00, 0x00,
  0xc7, 0x9a, 0x49, 0xbe, 0x50, 0xe6, 0xea, 0xbe, 0x1e, 0x1c, 0x43, 0x3f,
  0x1e, 0xff, 0xff, 0xff, 0x04, 0x00, 0x00, 0x00, 0x40, 0x00, 0x00, 0x00,
  0xbd, 0x05, 0xb4, 0x3d, 0x55, 0x4e, 0xa9, 0x3e, 0xb3, 0x25, 0x7d, 0x3e,
  0x68, 0x30, 0x19, 0xbc, 0x74, 0x96, 0xce, 0x3d, 0xb4, 0x8a, 0x4d, 0xbd,
  0x34, 0x9c, 0x73, 0x3e, 0x30, 0xe7, 0xc3, 0x3e, 0x73, 0x83, 0xc8, 0x3d,
  0xf6, 0x99, 0x15, 0x3e, 0xbd, 0x0e, 0x96, 0x3e, 0x2e, 0x3e, 0x98, 0x3e,
  0x3a, 0xb7, 0x16, 0x3e, 0x04, 0x28, 0x5f, 0xbd, 0x43, 0xfa, 0x4d, 0x3e,
  0xd6, 0x2a, 0x81, 0x3e, 0x68, 0xfa, 0xff, 0xff, 0x6c, 0xfa, 0xff, 0xff,
  0x0f, 0x00, 0x00, 0x00, 0x4d, 0x4c, 0x49, 0x52, 0x20, 0x43, 0x6f, 0x6e,
  0x76, 0x65, 0x72, 0x74, 0x65, 0x64, 0x2e, 0x00, 0x01, 0x00, 0x00, 0x00,
  0x14, 0x00, 0x00, 0x00, 0x00, 0x00, 0x0e, 0x00, 0x18, 0x00, 0x14, 0x00,
  0x10, 0x00, 0x0c, 0x00, 0x08, 0x00, 0x04, 0x00, 0x0e, 0x00, 0x00, 0x00,
  0x14, 0x00, 0x00, 0x00, 0x1c, 0x00, 0x00, 0x00, 0x34, 0x01, 0x00, 0x00,
  0x38, 0x01, 0x00, 0x00, 0x3c, 0x01, 0x00, 0x00, 0x04, 0x00, 0x00, 0x00,
  0x6d, 0x61, 0x69, 0x6e, 0x00, 0x00, 0x00, 0x00, 0x04, 0x00, 0x00, 0x00,
  0xdc, 0x00, 0x00, 0x00, 0x94, 0x00, 0x00, 0x00, 0x50, 0x00, 0x00, 0x00,
  0x14, 0x00, 0x00, 0x00, 0x00, 0x00, 0x0e, 0x00, 0x1a, 0x00, 0x14, 0x00,
  0x10, 0x00, 0x0c, 0x00, 0x0b, 0x00, 0x04, 0x00, 0x0e, 0x00, 0x00, 0x00,
  0x1c, 0x00, 0x00, 0x00, 0x00, 0x00, 0x00, 0x09, 0x1c, 0x00, 0x00, 0x00,
  0x20, 0x00, 0x00, 0x00, 0x01, 0x00, 0x00, 0x00, 0x00, 0x00, 0x06, 0x00,
  0x08, 0x00, 0x04, 0x00, 0x06, 0x00, 0x00, 0x00, 0x00, 0x00, 0x80, 0x3f,
  0x01, 0x00, 0x00, 0x00, 0x0a, 0x00, 0x00, 0x00, 0x01, 0x00, 0x00, 0x00,
  0x09, 0x00, 0x00, 0x00, 0xce, 0xff, 0xff, 0xff, 0x10, 0x00, 0x00, 0x00,
  0x00, 0x00, 0x00, 0x08, 0x0c, 0x00, 0x00, 0x00, 0x10, 0x00, 0x00, 0x00,
  0x30, 0xfb, 0xff, 0xff, 0x01, 0x00, 0x00, 0x00, 0x09, 0x00, 0x00, 0x00,
  0x03, 0x00, 0x00, 0x00, 0x08, 0x00, 0x00, 0x00, 0x03, 0x00, 0x00, 0x00,
  0x02, 0x00, 0x00, 0x00, 0x00, 0x00, 0x0e, 0x00, 0x14, 0x00, 0x00, 0x00,
  0x10, 0x00, 0x0c, 0x00, 0x0b, 0x00, 0x04, 0x00, 0x0e, 0x00, 0x00, 0x00,
  0x10, 0x00, 0x00, 0x00, 0x00, 0x00, 0x00, 0x08, 0x10, 0x00, 0x00, 0x00,
  0x14, 0x00, 0x00, 0x00, 0xba, 0xff, 0xff, 0xff, 0x00, 0x00, 0x00, 0x01,
  0x01, 0x00, 0x00, 0x00, 0x08, 0x00, 0x00, 0x00, 0x03, 0x00, 0x00, 0x00,
  0x07, 0x00, 0x00, 0x00, 0x04, 0x00, 0x00, 0x00, 0x01, 0x00, 0x00, 0x00,
  0x00, 0x00, 0x0e, 0x00, 0x16, 0x00, 0x00, 0x00, 0x10, 0x00, 0x0c, 0x00,
  0x0b, 0x00, 0x04, 0x00, 0x0e, 0x00, 0x00, 0x00, 0x18, 0x00, 0x00, 0x00,
  0x00, 0x00, 0x00, 0x08, 0x18, 0x00, 0x00, 0x00, 0x1c, 0x00, 0x00, 0x00,
  0x00, 0x00, 0x06, 0x00, 0x08, 0x00, 0x07, 0x00, 0x06, 0x00, 0x00, 0x00,
  0x00, 0x00, 0x00, 0x01, 0x01, 0x00, 0x00, 0x00, 0x07, 0x00, 0x00, 0x00,
  0x03, 0x00, 0x00, 0x00, 0x00, 0x00, 0x00, 0x00, 0x05, 0x00, 0x00, 0x00,
  0x06, 0x00, 0x00, 0x00, 0x01, 0x00, 0x00, 0x00, 0x0a, 0x00, 0x00, 0x00,
  0x01, 0x00, 0x00, 0x00, 0x00, 0x00, 0x00, 0x00, 0x0b, 0x00, 0x00, 0x00,
  0xe8, 0x03, 0x00, 0x00, 0x94, 0x03, 0x00, 0x00, 0x40, 0x03, 0x00, 0x00,
  0x00, 0x03, 0x00, 0x00, 0xc0, 0x02, 0x00, 0x00, 0x74, 0x02, 0x00, 0x00,
  0x10, 0x02, 0x00, 0x00, 0x7c, 0x01, 0x00, 0x00, 0xe0, 0x00, 0x00, 0x00,
  0x60, 0x00, 0x00, 0x00, 0x04, 0x00, 0x00, 0x00, 0x5a, 0xfc, 0xff, 0xff,
  0x00, 0x00, 0x00, 0x01, 0x14, 0x00, 0x00, 0x00, 0x1c, 0x00, 0x00, 0x00,
  0x1c, 0x00, 0x00, 0x00, 0x0b, 0x00, 0x00, 0x00, 0x34, 0x00, 0x00, 0x00,
  0x02, 0x00, 0x00, 0x00, 0xff, 0xff, 0xff, 0xff, 0x03, 0x00, 0x00, 0x00,
  0x44, 0xfc, 0xff, 0xff, 0x1b, 0x00, 0x00, 0x00, 0x53, 0x74, 0x61, 0x74,
  0x65, 0x66, 0x75, 0x6c, 0x50, 0x61, 0x72, 0x74, 0x69, 0x74, 0x69, 0x6f,
  0x6e, 0x65, 0x64, 0x43, 0x61, 0x6c, 0x6c, 0x5f, 0x31, 0x3a, 0x30, 0x00,
  0x02, 0x00, 0x00, 0x00, 0x01, 0x00, 0x00, 0x00, 0x03, 0x00, 0x00, 0x00,
  0xb2, 0xfc, 0xff, 0xff, 0x00, 0x00, 0x00, 0x01, 0x14, 0x00, 0x00, 0x00,
  0x1c, 0x00, 0x00, 0x00, 0x1c, 0x00, 0x00, 0x00, 0x0a, 0x00, 0x00, 0x00,
  0x58, 0x00, 0x00, 0x00, 0x02, 0x00, 0x00, 0x00, 0xff, 0xff, 0xff, 0xff,
  0x03, 0x00, 0x00, 0x00, 0x9c, 0xfc, 0xff, 0xff, 0x3c, 0x00, 0x00, 0x00,
  0x73, 0x65, 0x71, 0x75, 0x65, 0x6e, 0x74, 0x69, 0x61, 0x6c, 0x5f, 0x31,
  0x2f, 0x64, 0x65, 0x6e, 0x73, 0x65, 0x5f, 0x32, 0x5f, 0x31, 0x2f, 0x4d,
  0x61, 0x74, 0x4d, 0x75, 0x6c, 0x3b, 0x73, 0x65, 0x71, 0x75, 0x65, 0x6e,
  0x74, 0x69, 0x61, 0x6c, 0x5f, 0x31, 0x2f, 0x64, 0x65, 0x6e, 0x73, 0x65,
  0x5f, 0x32, 0x5f, 0x31, 0x2f, 0x42, 0x69, 0x61, 0x73, 0x41, 0x64, 0x64,
  0x00, 0x00, 0x00, 0x00, 0x02, 0x00, 0x00, 0x00, 0x01, 0x00, 0x00, 0x00,
  0x03, 0x00, 0x00, 0x00, 0x2e, 0xfd, 0xff, 0xff, 0x00, 0x00, 0x00, 0x01,
  0x14, 0x00, 0x00, 0x00, 0x1c, 0x00, 0x00, 0x00, 0x1c, 0x00, 0x00, 0x00,
  0x09, 0x00, 0x00, 0x00, 0x74, 0x00, 0x00, 0x00, 0x02, 0x00, 0x00, 0x00,
  0xff, 0xff, 0xff, 0xff, 0x10, 0x00, 0x00, 0x00, 0x18, 0xfd, 0xff, 0xff,
  0x58, 0x00, 0x00, 0x00, 0x73, 0x65, 0x71, 0x75, 0x65, 0x6e, 0x74, 0x69,
  0x61, 0x6c, 0x5f, 0x31, 0x2f, 0x64, 0x65, 0x6e, 0x73, 0x65, 0x5f, 0x31,
  0x5f, 0x32, 0x2f, 0x4d, 0x61, 0x74, 0x4d, 0x75, 0x6c, 0x3b, 0x73, 0x65,
  0x71, 0x75, 0x65, 0x6e, 0x74, 0x69, 0x61, 0x6c, 0x5f, 0x31, 0x2f, 0x64,
  0x65, 0x6e, 0x73, 0x65, 0x5f, 0x31, 0x5f, 0x32, 0x2f, 0x52, 0x65, 0x6c,
  0x75, 0x3b, 0x73, 0x65, 0x71, 0x75, 0x65, 0x6e, 0x74, 0x69, 0x61, 0x6c,
  0x5f, 0x31, 0x2f, 0x64, 0x65, 0x6e, 0x73, 0x65, 0x5f, 0x31, 0x5f, 0x32,
  0x2f, 0x42, 0x69, 0x61, 0x73, 0x41, 0x64, 0x64, 0x00, 0x00, 0x00, 0x00,
  0x02, 0x00, 0x00, 0x00, 0x01, 0x00, 0x00, 0x00, 0x10, 0x00, 0x00, 0x00,
  0xc6, 0xfd, 0xff, 0xff, 0x00, 0x00, 0x00, 0x01, 0x14, 0x00, 0x00, 0x00,
  0x1c, 0x00, 0x00, 0x00, 0x1c, 0x00, 0x00, 0x00, 0x08, 0x00, 0x00, 0x00,
  0x6c, 0x00, 0x00, 0x00, 0x02, 0x00, 0x00, 0x00, 0xff, 0xff, 0xff, 0xff,
  0x10, 0x00, 0x00, 0x00, 0xb0, 0xfd, 0xff, 0xff, 0x52, 0x00, 0x00, 0x00,
  0x73, 0x65, 0x71, 0x75, 0x65, 0x6e, 0x74, 0x69, 0x61, 0x6c, 0x5f, 0x31,
  0x2f, 0x64, 0x65, 0x6e, 0x73, 0x65, 0x5f, 0x31, 0x2f, 0x4d, 0x61, 0x74,
  0x4d, 0x75, 0x6c, 0x3b, 0x73, 0x65, 0x71, 0x75, 0x65, 0x6e, 0x74, 0x69,
  0x61, 0x6c, 0x5f, 0x31, 0x2f, 0x64, 0x65, 0x6e, 0x73, 0x65, 0x5f, 0x31,
  0x2f, 0x52, 0x65, 0x6c, 0x75, 0x3b, 0x73, 0x65, 0x71, 0x75, 0x65, 0x6e,
  0x74, 0x69, 0x61, 0x6c, 0x5f, 0x31, 0x2f, 0x64, 0x65, 0x6e, 0x73, 0x65,
  0x5f, 0x31, 0x2f, 0x42, 0x69, 0x61, 0x73, 0x41, 0x64, 0x64, 0x00, 0x00,
  0x02, 0x00, 0x00, 0x00, 0x01, 0x00, 0x00, 0x00, 0x10, 0x00, 0x00, 0x00,
  0xa6, 0xfe, 0xff, 0xff, 0x00, 0x00, 0x00, 0x01, 0x10, 0x00, 0x00, 0x00,
  0x10, 0x00, 0x00, 0x00, 0x07, 0x00, 0x00, 0x00, 0x44, 0x00, 0x00, 0x00,
  0x30, 0xfe, 0xff, 0xff, 0x36, 0x00, 0x00, 0x00, 0x73, 0x65, 0x71, 0x75,
  0x65, 0x6e, 0x74, 0x69, 0x61, 0x6c, 0x5f, 0x31, 0x2f, 0x64, 0x65, 0x6e,
  0x73, 0x65, 0x5f, 0x31, 0x2f, 0x52, 0x65, 0x6c, 0x75, 0x3b, 0x73, 0x65,
  0x71, 0x75, 0x65, 0x6e, 0x74, 0x69, 0x61, 0x6c, 0x5f, 0x31, 0x2f, 0x64,
  0x65, 0x6e, 0x73, 0x65, 0x5f, 0x31, 0x2f, 0x42, 0x69, 0x61, 0x73, 0x41,
  0x64, 0x64, 0x00, 0x00, 0x01, 0x00, 0x00, 0x00, 0x10, 0x00, 0x00, 0x00,
  0x06, 0xff, 0xff, 0xff, 0x00, 0x00, 0x00, 0x01, 0x10, 0x00, 0x00, 0x00,
  0x10, 0x00, 0x00, 0x00, 0x06, 0x00, 0x00, 0x00, 0x28, 0x00, 0x00, 0x00,
  0x90, 0xfe, 0xff, 0xff, 0x1b, 0x00, 0x00, 0x00, 0x73, 0x65, 0x71, 0x75,
  0x65, 0x6e, 0x74, 0x69, 0x61, 0x6c, 0x5f, 0x31, 0x2f, 0x64, 0x65, 0x6e,
  0x73, 0x65, 0x5f, 0x31, 0x2f, 0x4d, 0x61, 0x74, 0x4d, 0x75, 0x6c, 0x00,
  0x02, 0x00, 0x00, 0x00, 0x10, 0x00, 0x00, 0x00, 0x04, 0x00, 0x00, 0x00,
  0x4e, 0xff, 0xff, 0xff, 0x00, 0x00, 0x00, 0x01, 0x10, 0x00, 0x00, 0x00,
  0x10, 0x00, 0x00, 0x00, 0x05, 0x00, 0x00, 0x00, 0x1c, 0x00, 0x00, 0x00,
  0xd8, 0xfe, 0xff, 0xff, 0x0f, 0x00, 0x00, 0x00, 0x61, 0x72, 0x69, 0x74,
  0x68, 0x2e, 0x63, 0x6f, 0x6e, 0x73, 0x74, 0x61, 0x6e, 0x74, 0x33, 0x00,
  0x02, 0x00, 0x00, 0x00, 0x10, 0x00, 0x00, 0x00, 0x10, 0x00, 0x00, 0x00,
  0x8a, 0xff, 0xff, 0xff, 0x00, 0x00, 0x00, 0x01, 0x10, 0x00, 0x00, 0x00,
  0x10, 0x00, 0x00, 0x00, 0x04, 0x00, 0x00, 0x00, 0x1c, 0x00, 0x00, 0x00,
  0x14, 0xff, 0xff, 0xff, 0x0f, 0x00, 0x00, 0x00, 0x61, 0x72, 0x69, 0x74,
  0x68, 0x2e, 0x63, 0x6f, 0x6e, 0x73, 0x74, 0x61, 0x6e, 0x74, 0x32, 0x00,
  0x02, 0x00, 0x00, 0x00, 0x03, 0x00, 0x00, 0x00, 0x10, 0x00, 0x00, 0x00,
  0xc6, 0xff, 0xff, 0xff, 0x00, 0x00, 0x00, 0x01, 0x10, 0x00, 0x00, 0x00,
  0x10, 0x00, 0x00, 0x00, 0x03, 0x00, 0x00, 0x00, 0x1c, 0x00, 0x00, 0x00,
  0x50, 0xff, 0xff, 0xff, 0x0f, 0x00, 0x00, 0x00, 0x61, 0x72, 0x69, 0x74,
  0x68, 0x2e, 0x63, 0x6f, 0x6e, 0x73, 0x74, 0x61, 0x6e, 0x74, 0x31, 0x00,
  0x01, 0x00, 0x00, 0x00, 0x03, 0x00, 0x00, 0x00, 0x00, 0x00, 0x16, 0x00,
  0x18, 0x00, 0x14, 0x00, 0x00, 0x00, 0x10, 0x00, 0x0c, 0x00, 0x08, 0x00,
  0x00, 0x00, 0x00, 0x00, 0x00, 0x00, 0x07, 0x00, 0x16, 0x00, 0x00, 0x00,
  0x00, 0x00, 0x00, 0x01, 0x10, 0x00, 0x00, 0x00, 0x10, 0x00, 0x00, 0x00,
  0x02, 0x00, 0x00, 0x00, 0x1c, 0x00, 0x00, 0x00, 0xa0, 0xff, 0xff, 0xff,
  0x0e, 0x00, 0x00, 0x00, 0x61, 0x72, 0x69, 0x74, 0x68, 0x2e, 0x63, 0x6f,
  0x6e, 0x73, 0x74, 0x61, 0x6e, 0x74, 0x00, 0x00, 0x01, 0x00, 0x00, 0x00,
  0x10, 0x00, 0x00, 0x00, 0x00, 0x00, 0x16, 0x00, 0x1c, 0x00, 0x18, 0x00,
  0x00, 0x00, 0x14, 0x00, 0x10, 0x00, 0x0c, 0x00, 0x00, 0x00, 0x00, 0x00,
  0x08, 0x00, 0x07, 0x00, 0x16, 0x00, 0x00, 0x00, 0x00, 0x00, 0x00, 0x01,
  0x14, 0x00, 0x00, 0x00, 0x20, 0x00, 0x00, 0x00, 0x20, 0x00, 0x00, 0x00,
  0x01, 0x00, 0x00, 0x00, 0x3c, 0x00, 0x00, 0x00, 0x02, 0x00, 0x00, 0x00,
  0xff, 0xff, 0xff, 0xff, 0x04, 0x00, 0x00, 0x00, 0x04, 0x00, 0x04, 0x00,
  0x04, 0x00, 0x00, 0x00, 0x1e, 0x00, 0x00, 0x00, 0x73, 0x65, 0x72, 0x76,
  0x69, 0x6e, 0x67, 0x5f, 0x64, 0x65, 0x66, 0x61, 0x75, 0x6c, 0x74, 0x5f,
  0x6b, 0x65, 0x72, 0x61, 0x73, 0x5f, 0x74, 0x65, 0x6e, 0x73, 0x6f, 0x72,
  0x3a, 0x30, 0x00, 0x00, 0x02, 0x00, 0x00, 0x00, 0x01, 0x00, 0x00, 0x00,
  0x04, 0x00, 0x00, 0x00, 0x02, 0x00, 0x00, 0x00, 0x20, 0x00, 0x00, 0x00,
  0x04, 0x00, 0x00, 0x00, 0xf4, 0xff, 0xff, 0xff, 0x19, 0x00, 0x00, 0x00,
  0x00, 0x00, 0x00, 0x19, 0x0c, 0x00, 0x0c, 0x00, 0x0b, 0x00, 0x00, 0x00,
  0x00, 0x00, 0x04, 0x00, 0x0c, 0x00, 0x00, 0x00, 0x09, 0x00, 0x00, 0x00,
  0x00, 0x00, 0x00, 0x09
};
unsigned int model_tflite_len = 3712;
