const unsigned char model[] = {
0x20,0x00,0x00,0x00,0x54,0x46,0x4c,0x33,0x00,0x00,0x00,0x00,
0x14,0x00,0x20,0x00,0x1c,0x00,0x18,0x00,0x14,0x00,0x10,0x00,
0x0c,0x00,0x00,0x00,0x08,0x00,0x04,0x00,0x14,0x00,0x00,0x00,
0x1c,0x00,0x00,0x00,0x98,0x00,0x00,0x00,0xf0,0x00,0x00,0x00,
0x38,0x0e,0x00,0x00,0x48,0x0e,0x00,0x00,0xa8,0x15,0x00,0x00,
0x03,0x00,0x00,0x00,0x01,0x00,0x00,0x00,0x10,0x00,0x00,0x00,
0x00,0x00,0x0a,0x00,0x10,0x00,0x0c,0x00,0x08,0x00,0x04,0x00,
0x0a,0x00,0x00,0x00,0x0c,0x00,0x00,0x00,0x1c,0x00,0x00,0x00,
0x3c,0x00,0x00,0x00,0x0f,0x00,0x00,0x00,0x73,0x65,0x72,0x76,
0x69,0x6e,0x67,0x5f,0x64,0x65,0x66,0x61,0x75,0x6c,0x74,0x00,
0x01,0x00,0x00,0x00,0x04,0x00,0x00,0x00,0x90,0xff,0xff,0xff,
0x0a,0x00,0x00,0x00,0x04,0x00,0x00,0x00,0x08,0x00,0x00,0x00,
0x6f,0x75,0x74,0x70,0x75,0x74,0x5f,0x30,0x00,0x00,0x00,0x00,
0x01,0x00,0x00,0x00,0x04,0x00,0x00,0x00,0xae,0xf1,0xff,0xff,
0x04,0x00,0x00,0x00,0x0f,0x00,0x00,0x00,0x6b,0x65,0x72,0x61,
0x73,0x5f,0x74,0x65,0x6e,0x73,0x6f,0x72,0x5f,0x33,0x32,0x00,
0x02,0x00,0x00,0x00,0x34,0x00,0x00,0x00,0x04,0x00,0x00,0x00,
0xdc,0xff,0xff,0xff,0x0d,0x00,0x00,0x00,0x04,0x00,0x00,0x00,
0x13,0x00,0x00,0x00,0x43,0x4f,0x4e,0x56,0x45,0x52,0x53,0x49,
0x4f,0x4e,0x5f,0x4d,0x45,0x54,0x41,0x44,0x41,0x54,0x41,0x00,
0x08,0x00,0x0c,0x00,0x08,0x00,0x04,0x00,0x08,0x00,0x00,0x00,
0x0c,0x00,0x00,0x00,0x04,0x00,0x00,0x00,0x13,0x00,0x00,0x00,
0x6d,0x69,0x6e,0x5f,0x72,0x75,0x6e,0x74,0x69,0x6d,0x65,0x5f,
0x76,0x65,0x72,0x73,0x69,0x6f,0x6e,0x00,0x0e,0x00,0x00,0x00,
0x44,0x0d,0x00,0x00,0x3c,0x0d,0x00,0x00,0xac,0x0c,0x00,0x00,
0x9c,0x0a,0x00,0x00,0x0c,0x0a,0x00,0x00,0xd4,0x09,0x00,0x00,
0xc4,0x04,0x00,0x00,0xb4,0x00,0x00,0x00,0xac,0x00,0x00,0x00,
0xa4,0x00,0x00,0x00,0x9c,0x00,0x00,0x00,0x94,0x00,0x00,0x00,
0x74,0x00,0x00,0x00,0x04,0x00,0x00,0x00,0x62,0xf2,0xff,0xff,
0x04,0x00,0x00,0x00,0x60,0x00,0x00,0x00,0x0c,0x00,0x00,0x00,
0x08,0x00,0x0e,0x00,0x08,0x00,0x04,0x00,0x08,0x00,0x00,0x00,
0x10,0x00,0x00,0x00,0x28,0x00,0x00,0x00,0x00,0x00,0x06,0x00,
0x08,0x00,0x04,0x00,0x06,0x00,0x00,0x00,0x04,0x00,0x00,0x00,
0x01,0x00,0x00,0x00,0xea,0x03,0x00,0x00,0x0c,0x00,0x18,0x00,
0x14,0x00,0x10,0x00,0x0c,0x00,0x04,0x00,0x0c,0x00,0x00,0x00,
0x65,0x03,0xce,0x40,0x21,0x28,0x36,0xfd,0x02,0x00,0x00,0x00,
0x02,0x00,0x00,0x00,0x04,0x00,0x00,0x00,0x06,0x00,0x00,0x00,
0x32,0x2e,0x32,0x30,0x2e,0x30,0x00,0x00,0xce,0xf2,0xff,0xff,
0x04,0x00,0x00,0x00,0x10,0x00,0x00,0x00,0x32,0x2e,0x31,0x37,
0x2e,0x30,0x00,0x00,0x00,0x00,0x00,0x00,0x00,0x00,0x00,0x00,
0x3c,0xec,0xff,0xff,0x40,0xec,0xff,0xff,0x44,0xec,0xff,0xff,
0x48,0xec,0xff,0xff,0xfa,0xf2,0xff,0xff,0x04,0x00,0x00,0x00,
0x00,0x04,0x00,0x00,0xda,0x0d,0x02,0x06,0x81,0x01,0xf5,0x04,
0xe8,0x05,0x03,0xf7,0xdc,0x01,0xe0,0xff,0xee,0x00,0xf6,0xea,
0xf1,0xe0,0xb6,0x06,0x0d,0x09,0x0a,0x01,0x08,0x07,0xe8,0x0b,
0xed,0xaf,0x09,0x10,0x02,0xfd,0x00,0x04,0xd6,0x05,0x03,0xfa,
0x81,0x0e,0xea,0xfc,0xd1,0xfe,0xf9,0xd4,0xfa,0xed,0xd5,0xff,
0xd3,0xfc,0x00,0x02,0xf9,0x01,0xd6,0x15,0xbf,0x0b,0xff,0x03,
0x6e,0xfe,0xfa,0xd0,0x00,0xcd,0xf6,0x01,0x3b,0x00,0xdc,0x02,
0x00,0x02,0x04,0x00,0xdd,0xca,0xe5,0xfe,0x10,0x3d,0x81,0x00,
0x05,0xd9,0x00,0x00,0x03,0x02,0x04,0x06,0xfa,0xc3,0x05,0x02,
0x8f,0x03,0x02,0xce,0x03,0x05,0x0d,0xa5,0x81,0x9d,0xc4,0x88,
0x0b,0x06,0x05,0xff,0xfa,0xfb,0x09,0x08,0x00,0x04,0x8f,0x04,
0x03,0xd7,0xf5,0xfc,0x7f,0xfe,0xdb,0x02,0xfe,0x00,0x00,0x0c,
0x9b,0xff,0x00,0xff,0xfe,0x00,0xfd,0xfd,0xf9,0x04,0x00,0x08,
0xf3,0xfe,0x04,0x00,0xfc,0x03,0xfd,0xfd,0xf6,0xfd,0xfe,0xee,
0xbc,0x01,0x07,0x98,0xff,0x81,0xee,0x01,0xf7,0xfe,0xe6,0x01,
0x00,0x01,0x00,0x00,0x12,0xe4,0x05,0x19,0x23,0x3c,0xd3,0xfb,
0xfe,0x84,0xff,0xef,0xfa,0x27,0xf6,0x3e,0xe7,0x13,0xec,0xfe,
0xde,0xfc,0xfd,0xff,0x1d,0xf5,0xfa,0x03,0xe1,0x03,0xfc,0xd0,
0x0d,0xfd,0x81,0x0f,0x76,0x41,0x0a,0xf0,0x10,0x10,0xd4,0x23,
0xc4,0xf9,0xff,0x00,0x7f,0x01,0xff,0xff,0x00,0x00,0x05,0xfc,
0x97,0x04,0xcb,0xfe,0xf3,0xfd,0xfd,0x00,0xc2,0xc0,0xbb,0x01,
0x05,0x19,0xf1,0x09,0xfc,0xf7,0x02,0xfe,0x01,0xfc,0xf9,0x01,
0x7f,0x02,0x04,0x01,0x9e,0x01,0x00,0x0b,0xc4,0x0d,0x0d,0x01,
0x86,0x01,0x04,0x8b,0xfd,0x01,0xff,0x00,0xf0,0xfc,0x01,0x03,
0x00,0x01,0x9e,0x00,0xfe,0x37,0x05,0x78,0xa2,0x00,0xea,0xff,
0xf5,0xff,0xff,0xff,0xdc,0xdc,0xf9,0x00,0xf5,0x00,0xff,0xf6,
0xf1,0xfd,0xfd,0xfb,0xf6,0xff,0xfd,0xde,0x0b,0xfd,0xf5,0x7f,
0x0b,0x07,0x12,0x05,0xe9,0xb9,0x04,0x02,0x8a,0x05,0x01,0xd1,
0xf7,0x07,0x0e,0xdb,0x81,0xd9,0xc9,0x84,0x0c,0x0a,0x0d,0xff,
0xfd,0xf3,0x04,0x04,0x01,0x01,0x8e,0x06,0x08,0x04,0x11,0x00,
0x03,0xf5,0x01,0x04,0x00,0x05,0x00,0xe6,0xcd,0x01,0x7f,0xfc,
0xff,0xf9,0xe0,0x00,0x3d,0x0c,0x1c,0x01,0x0c,0xeb,0x0a,0x00,
0x03,0x06,0x00,0x06,0x0e,0x03,0xfe,0xfb,0xee,0xb7,0x03,0x05,
0xe2,0x07,0x05,0xb3,0xd7,0x00,0x49,0xc5,0xdf,0xbe,0x81,0xe2,
0xd2,0x13,0xf5,0x00,0xfe,0xe0,0x15,0xfe,0xf5,0x03,0xe1,0xfe,
0xdd,0x02,0xf9,0x00,0x4a,0x02,0x2d,0xfd,0xff,0xf9,0xfe,0xfa,
0xb6,0x07,0x05,0xfb,0x01,0xf8,0xfc,0x02,0xff,0xe2,0xe1,0x21,
0xfa,0xff,0xf4,0x81,0x01,0xfc,0x01,0xff,0xbd,0x11,0xff,0xfc,
0x42,0x02,0xf8,0xb1,0xfe,0xb7,0xf1,0x00,0x35,0xff,0xf4,0x01,
0x00,0x03,0x05,0xff,0xe7,0xbf,0xe4,0xfd,0x07,0x1b,0x81,0xfd,
0x04,0xd9,0xfe,0xfb,0x04,0x0b,0xfe,0x75,0xd5,0x01,0x08,0x01,
0xfd,0x01,0x01,0xfc,0x05,0xff,0xf4,0x00,0xff,0x02,0xfd,0xfe,
0x17,0x04,0xff,0x01,0xe9,0x0d,0xfe,0xfe,0x1c,0xfb,0xff,0x7f,
0x10,0x08,0x14,0xfb,0x0c,0xee,0x01,0x00,0xfd,0x02,0x02,0xda,
0xc5,0xfe,0x7f,0xf7,0xfb,0xf3,0xd5,0xfd,0x30,0x0d,0x1b,0x00,
0x1c,0xee,0x01,0xff,0xff,0x05,0xfb,0xf0,0x00,0xf3,0xfd,0x7e,
0xde,0x03,0x01,0x00,0x00,0x01,0x01,0x85,0xd3,0xfe,0xfb,0xfc,
0x11,0xfd,0xfa,0x00,0x40,0x02,0xf5,0x00,0x0a,0xf2,0x03,0x00,
0xf3,0x1d,0x00,0x7f,0xda,0x02,0xfd,0xfb,0xb2,0x00,0xff,0x8c,
0x00,0x81,0xb1,0xfe,0x0f,0x01,0xf6,0xff,0x00,0xff,0xff,0x00,
0x09,0xdb,0xe4,0x15,0x09,0x29,0xbe,0xff,0x04,0xa9,0x00,0xfb,
0xea,0x03,0xfb,0x01,0x01,0x0a,0x03,0xa4,0x01,0xb9,0xf1,0xfe,
0xe7,0x01,0xf2,0x85,0x01,0x81,0xb1,0x01,0x08,0xe9,0x18,0x08,
0x0e,0x0a,0xd8,0x02,0xf9,0xca,0x01,0x03,0xd6,0x0a,0x00,0xf7,
0x7f,0xff,0x01,0xf6,0x00,0xcf,0xfc,0x03,0x16,0xff,0xe2,0x02,
0x00,0x02,0x03,0x00,0xf0,0xd5,0xe9,0x00,0x1f,0x36,0xa2,0x00,
0x04,0xd8,0x00,0xf3,0xc4,0x11,0x00,0xfd,0xf0,0xfc,0xff,0xdb,
0x00,0xd3,0xe6,0xe4,0x19,0x0b,0xdf,0x07,0x01,0x09,0x09,0x00,
0xe6,0xc2,0xe0,0xc3,0x16,0x34,0x81,0x00,0x10,0xc9,0x01,0xfa,
0x8d,0x05,0xf0,0x66,0x13,0xfe,0xfe,0x08,0xfc,0xfc,0x0e,0x00,
0xc9,0x0c,0xaf,0xff,0xff,0x00,0xfd,0xfd,0xed,0x81,0xc1,0x05,
0xee,0xf3,0xc8,0xfe,0x06,0xe5,0xfc,0x5b,0xfd,0xf7,0x07,0xe5,
0x0b,0x02,0xff,0xff,0xfc,0x02,0x00,0x0e,0x2f,0x09,0xef,0xfa,
0xf5,0xfb,0x11,0xfc,0xfe,0xfc,0x01,0xfc,0x7f,0xf0,0xf9,0x03,
0xf9,0xfb,0xfc,0xe1,0xf2,0xea,0xfc,0x02,0xa5,0x00,0xcf,0xff,
0xf8,0xfd,0x01,0xfd,0xee,0x81,0xf6,0x00,0xf8,0xff,0xff,0xf7,
0xfa,0xf0,0xe8,0xfd,0xf6,0xdf,0x07,0x8a,0x19,0x09,0xf7,0x02,
0xf0,0xff,0x01,0xfe,0x7f,0x00,0x0c,0x06,0x02,0x09,0x00,0x00,
0x15,0x00,0xe3,0x00,0x01,0x00,0x00,0x01,0xf3,0xef,0xf3,0xfd,
0xfa,0x01,0x01,0x00,0xff,0x02,0x02,0xfe,0x01,0x04,0x01,0xfe,
0x83,0x00,0xfc,0xff,0xff,0xfd,0x01,0xfc,0x81,0xfd,0x9b,0x02,
0x00,0x01,0xfc,0x00,0xfb,0x01,0x02,0xff,0x22,0x19,0xe5,0xfe,
0x03,0xf2,0x01,0xfb,0xe2,0x08,0xf7,0xfc,0xfa,0x14,0x06,0xfb,
0x03,0xf5,0x03,0x86,0x81,0xfe,0xda,0xeb,0x03,0xeb,0xb3,0x03,
0xff,0xda,0xe8,0xfa,0x0f,0x2c,0xce,0xfe,0x0a,0xe7,0x03,0x01,
0xfb,0xf8,0x02,0xfb,0x7f,0x01,0x02,0xff,0x01,0xfd,0xff,0x00,
0x00,0xf5,0xfb,0x00,0x02,0x00,0x02,0x01,0xf1,0xfd,0xf6,0x00,
0xd5,0xb1,0xfc,0x00,0xfb,0xfd,0x01,0xfa,0xfe,0xff,0x01,0x00,
0x7b,0xff,0x03,0x00,0x00,0x00,0x00,0xf7,0xf7,0x00,0xff,0xff,
0x00,0xff,0xff,0x00,0xee,0xfd,0xfb,0x00,0x00,0x81,0xff,0x01,
0x00,0x00,0x00,0x00,0x00,0x09,0x31,0x08,0x8f,0xc4,0x08,0x00,
0x01,0x00,0xff,0xd3,0xf2,0xfc,0x7f,0xe2,0x02,0xe1,0xb1,0x03,
0x59,0x01,0x18,0x00,0xe2,0xda,0x00,0xfe,0x0c,0x14,0x04,0x0b,
0xc6,0x23,0x04,0x07,0x2a,0x01,0x81,0xff,0xf5,0xa5,0xfa,0x04,
0x10,0xf4,0xe7,0x02,0xf6,0x02,0x05,0xf5,0x9d,0xc2,0xd8,0x00,
0x1d,0x09,0xd6,0xf4,0x00,0xf9,0xf4,0x05,0x06,0xf7,0xff,0xff,
0x04,0x00,0x00,0x00,0x00,0x05,0x00,0x00,0x3d,0xe2,0x03,0xc0,
0x88,0xd0,0xdc,0xbe,0xff,0x06,0xcd,0xc0,0x9f,0x6e,0x75,0x40,
0xce,0x88,0x2f,0x3f,0x0c,0x31,0x11,0x3f,0xb0,0x78,0x60,0xc0,
0xec,0x40,0x0d,0x3f,0x72,0xc8,0xc8,0x3f,0xee,0xc6,0x90,0x3e,
0x24,0xbd,0xe0,0x3f,0x7d,0xe0,0x8d,0x3e,0x17,0x6b,0x98,0xbe,
0x87,0x91,0x03,0x3f,0x1e,0xfb,0x90,0xc0,0x6b,0x8c,0x87,0x3e,
0x70,0x5e,0x7b,0x3e,0xbb,0x93,0x9e,0x3e,0x75,0xe0,0x90,0x3e,
0xb6,0x33,0x0e,0x40,0x7d,0x14,0xc7,0xc0,0x5f,0x11,0xd7,0xc0,
0x41,0xfd,0xbb,0x3e,0xec,0x8b,0x3e,0xbf,0xd1,0x3a,0xef,0x3e,
0x23,0x80,0x42,0x3e,0xd0,0xfa,0x87,0xbf,0x91,0xeb,0x44,0x3e,
0x6c,0xcf,0x51,0xc0,0xf5,0x8d,0x6f,0x3f,0xaf,0x9b,0x78,0x3f,
0xbf,0x63,0x2a,0xc0,0x01,0x1f,0x51,0x3f,0x0c,0x49,0x9d,0x3e,
0x69,0x0c,0x32,0x3f,0x37,0x09,0x8a,0xc0,0x65,0x76,0x8f,0xbf,
0x5c,0xe4,0x40,0x3f,0xa9,0xbe,0xe1,0x3e,0x35,0xd9,0xe9,0xbd,
0x1c,0x8e,0x75,0xc0,0x7f,0x99,0x93,0x3e,0x53,0xe0,0x38,0xc0,
0xcc,0x7a,0xb9,0x3e,0x63,0x7e,0x04,0xbf,0xaa,0x2d,0x8a,0xbf,
0xc0,0xed,0x24,0x3f,0x7f,0x89,0x7d,0x3e,0x74,0x87,0x88,0x3e,
0xc7,0x79,0xae,0x3e,0x25,0x00,0x5b,0x3f,0x58,0x41,0x46,0x3f,
0xf6,0xdb,0xbd,0x3e,0xde,0xc5,0x16,0x3f,0x7c,0x3a,0xbf,0x3e,
0x10,0x2f,0xd2,0x3e,0x75,0x06,0xa8,0x3e,0xd9,0x64,0xaf,0xc0,
0xce,0xfa,0x82,0xbe,0x44,0x6a,0x5f,0xbe,0xc4,0xa4,0x7c,0x3d,
0x30,0x2d,0xb1,0xbf,0xb4,0x7a,0xc1,0xbd,0xee,0x3a,0xc2,0xbe,
0x24,0x6c,0xf5,0x3e,0x0c,0xda,0xb6,0x3e,0x8e,0xd0,0xc6,0xbf,
0x32,0xd5,0x11,0xbf,0xe7,0xb2,0x7c,0xbf,0xbf,0x0b,0x89,0xbd,
0xe7,0x72,0xde,0x3e,0x08,0xb5,0xec,0x3d,0x8d,0x24,0x8f,0xc0,
0xc0,0x4f,0xa4,0x3e,0xb7,0x6c,0x66,0x3f,0x01,0x10,0x98,0x3e,
0x3f,0xac,0xa8,0x3e,0x55,0xc2,0xb9,0xbf,0x06,0x76,0x5f,0xc0,
0xce,0x0e,0x85,0x3e,0x4b,0x35,0x8c,0x3e,0xd9,0x6e,0xa9,0x3e,
0xf4,0xac,0xa0,0x3f,0x35,0xe4,0xf9,0xbf,0xa7,0xe2,0x27,0xbf,
0x1d,0xa2,0x68,0xbf,0x2e,0x0b,0xc3,0x3e,0xaa,0x36,0xc6,0x3e,
0xa6,0xd4,0x4a,0x3f,0xda,0x56,0x7a,0xc0,0xdf,0x3c,0x81,0x3f,
0x8c,0x13,0x82,0x3f,0xf3,0x56,0xa8,0xc0,0x5a,0x88,0x3b,0xc0,
0x74,0xd9,0x76,0x3f,0x91,0x17,0x9b,0x3f,0x4e,0xdb,0xf2,0xbf,
0x41,0x94,0x02,0xc0,0x7f,0xc2,0x07,0x3f,0x01,0xaa,0x2c,0xc0,
0xb9,0x09,0x39,0x3f,0xc9,0xea,0x40,0xc0,0xb7,0x33,0x95,0x3e,
0x76,0x2f,0x7d,0x3f,0xb3,0x4a,0xa9,0x3f,0x0a,0x43,0x5e,0x3e,
0xda,0x5f,0x2c,0xc0,0x54,0x8b,0xf0,0xbf,0xa1,0xa8,0x8a,0xc0,
0xe1,0xdd,0x8b,0x3f,0x76,0x43,0xcc,0x3e,0x74,0x41,0x4c,0x3e,
0x5b,0x61,0x44,0xc0,0x41,0xa1,0xa7,0x3e,0x0e,0x79,0xa4,0xc0,
0x23,0xd6,0x6f,0xc0,0x16,0xd3,0x2c,0x3e,0xf2,0x2f,0xf9,0x3e,
0x02,0x73,0xce,0x3e,0x83,0xa2,0x51,0x3e,0xbb,0x11,0x84,0xbf,
0xb8,0xd7,0x3d,0x40,0x83,0x90,0x49,0x3f,0x49,0xdc,0x00,0x3f,
0x14,0xca,0xb1,0x3f,0xf1,0xf1,0xa6,0x3f,0xa2,0x66,0xa5,0xc0,
0x33,0x2f,0x0a,0x3f,0x4f,0x42,0x7f,0xc0,0x1f,0x06,0xc2,0x3f,
0x0c,0xaf,0x28,0x3f,0xe0,0xd5,0x46,0xc0,0x6b,0x62,0x97,0x3f,
0xcf,0x6a,0x98,0x3f,0x8c,0xc8,0x7f,0xc0,0xe2,0x55,0x4e,0xbf,
0x2b,0x4f,0xa7,0x3f,0x8a,0x60,0xa5,0xc0,0xad,0x4c,0x8e,0xc0,
0x14,0x77,0xaf,0x3e,0x3a,0x3d,0xf1,0x3e,0x58,0x9e,0xc5,0x3d,
0x67,0x82,0x23,0x3f,0x59,0x7d,0xe9,0xbf,0xae,0xa1,0xbb,0x3e,
0x5b,0x18,0xf3,0xc0,0x25,0x2e,0xb7,0x3f,0x9f,0x33,0xa4,0x3f,
0x98,0x14,0xb6,0x3e,0xf8,0xea,0x22,0x3f,0x95,0x3f,0x25,0xc0,
0xf6,0x61,0x95,0x3e,0xfc,0x39,0x43,0xc0,0xd3,0xbd,0x71,0x3f,
0x32,0xef,0x4d,0xbe,0xe6,0x80,0x86,0xbe,0xb3,0xf5,0x5e,0x3f,
0xfa,0xb1,0xaf,0x3f,0x6a,0x6c,0xeb,0xbf,0xea,0x0c,0x72,0xbf,
0x08,0xab,0xe5,0xbc,0x86,0x72,0x5a,0xc0,0x8a,0x20,0x3b,0xc0,
0x5d,0xa6,0x20,0xbf,0x08,0x9a,0x8e,0xc0,0xf8,0xc5,0xa9,0xc0,
0x31,0x62,0x32,0x3e,0x73,0x34,0x87,0xc0,0x99,0x5a,0x96,0xc0,
0xdb,0xcc,0xd5,0xc0,0xab,0xf2,0xcf,0xbe,0xdb,0xe9,0x55,0xc0,
0x00,0xce,0x96,0xc0,0xf7,0xd5,0x08,0xc0,0x1b,0xe4,0x59,0xc0,
0xc2,0x6f,0x84,0xc0,0x0f,0x38,0x81,0xc0,0x6f,0x50,0x08,0xc0,
0xa9,0x79,0x84,0xbf,0x1f,0xbf,0x80,0xc0,0x06,0x2b,0x53,0xc0,
0x96,0xbf,0xe2,0xbf,0xb0,0xa2,0x31,0xc0,0xc5,0x14,0xd9,0xc0,
0x65,0xa4,0x85,0xc0,0x40,0x97,0xcf,0xbf,0xc5,0x6e,0xab,0xc0,
0x29,0xec,0x71,0xc0,0xe1,0x75,0x11,0xc0,0x39,0x91,0xa2,0xc0,
0xeb,0xf4,0x0e,0xc0,0x38,0x54,0x7f,0xbf,0x7c,0x1e,0xab,0xbe,
0x18,0x10,0x71,0xc0,0xe1,0x96,0x1f,0xc0,0x83,0xe0,0x95,0xbf,
0x0d,0xca,0x89,0xc0,0x29,0x23,0xa3,0xc0,0x9d,0xf4,0x04,0x3d,
0x80,0x66,0x8b,0xc0,0xc2,0x2b,0x94,0xc0,0xc0,0xf2,0xd4,0xc0,
0x15,0xa4,0x1a,0xbe,0xb1,0x69,0x3b,0xc0,0x7a,0x92,0x8f,0xc0,
0x07,0x3c,0xed,0xbf,0x39,0xfd,0x4b,0xc0,0xd1,0x61,0x86,0xc0,
0xe9,0xe5,0x82,0xc0,0x70,0x0c,0x05,0xc0,0x7a,0x09,0xa5,0xbf,
0xf9,0x63,0x81,0xc0,0x4b,0xbc,0x56,0xc0,0xb7,0x71,0xdd,0xbf,
0x45,0x64,0x2e,0xc0,0x55,0x7d,0xd7,0xc0,0x48,0xb3,0x94,0xc0,
0xb5,0xdd,0xbd,0xbf,0x28,0x4a,0xbe,0xc0,0xc6,0x53,0x66,0xc0,
0xb9,0x49,0x01,0xc0,0x56,0xc8,0xa7,0xc0,0xc2,0x6c,0x1b,0xc0,
0x8e,0x34,0xab,0xbe,0x6d,0xa3,0x8f,0xbe,0x43,0x71,0x6c,0xc0,
0x0e,0x7a,0x1e,0xc0,0x64,0xcb,0x65,0xbf,0x17,0x68,0x92,0xc0,
0x55,0x6f,0xa8,0xc0,0x01,0xa7,0x12,0x3e,0x69,0x8c,0x8a,0xc0,
0xff,0xf2,0x95,0xc0,0x02,0xb1,0xcf,0xc0,0xc1,0x07,0x3c,0xbf,
0xea,0xf5,0x64,0xc0,0x11,0x2f,0x8d,0xc0,0xf7,0xa6,0xf1,0xbf,
0xe7,0x06,0x4f,0xc0,0x47,0xf9,0x88,0xc0,0x58,0xbb,0x6a,0xc0,
0x8b,0x2e,0xee,0xbf,0x1e,0x6e,0xc0,0xbf,0x38,0xb9,0x5b,0xc0,
0x9a,0xee,0x47,0xc0,0x56,0x0f,0x05,0xc0,0x2b,0x21,0x56,0xc0,
0xef,0xe4,0xdf,0xc0,0xe9,0xf1,0x86,0xc0,0xec,0x3b,0xfa,0xbf,
0xa6,0x3c,0xbd,0xc0,0xdd,0x93,0x78,0xc0,0x51,0xe7,0x04,0xc0,
0x8e,0x5f,0xa2,0xc0,0xf2,0x62,0x25,0xc0,0xbe,0x8d,0x33,0xbf,
0x77,0xfc,0xb4,0x3d,0xaf,0xdf,0x5c,0xc0,0xaf,0x7c,0x1b,0xc0,
0x71,0x53,0x8c,0xbf,0x73,0xb1,0xa2,0xc0,0x6f,0x43,0x98,0xc0,
0xe4,0x56,0x82,0x3d,0x1b,0xa2,0x8d,0xc0,0x9c,0xea,0x9c,0xc0,
0x2f,0x54,0xc9,0xc0,0x5d,0x55,0xcd,0xbe,0x33,0x14,0x5a,0xc0,
0x42,0x35,0x8d,0xc0,0x33,0x9a,0xe5,0xbf,0x48,0x98,0x53,0xc0,
0xd5,0x14,0x85,0xc0,0x64,0xaa,0x6f,0xc0,0x67,0x8b,0x17,0xc0,
0x76,0x18,0x89,0xbf,0x0a,0xdd,0x57,0xc0,0x5f,0x3e,0x5e,0xc0,
0x93,0x12,0x00,0xc0,0x75,0xdf,0x46,0xc0,0x79,0xb4,0xd2,0xc0,
0xd3,0x90,0x87,0xc0,0x05,0x1a,0x00,0xc0,0x83,0x1b,0xc2,0xc0,
0xab,0x80,0x6f,0xc0,0x68,0xca,0xf6,0xbf,0xbd,0x8f,0xa7,0xc0,
0xc2,0x53,0x2a,0xc0,0x75,0x28,0x68,0xbf,0x07,0x28,0x97,0xbe,
0x7d,0x0e,0x65,0xc0,0x57,0xdd,0x4c,0xc0,0x2b,0x1a,0x38,0xbf,
0x2d,0x14,0x97,0xc0,0x32,0x95,0x91,0xc0,0x56,0x13,0xc4,0x3c,
0x04,0xf8,0x93,0xc0,0x14,0x3d,0x90,0xc0,0xef,0x8b,0xd3,0xc0,
0xdf,0xf1,0x12,0xbf,0xc1,0x44,0x4a,0xc0,0x67,0xc3,0x8e,0xc0,
0x07,0xe1,0x0c,0xc0,0x94,0x91,0x62,0xc0,0x94,0x1f,0x93,0xc0,
0xab,0xa0,0x85,0xc0,0x5d,0x81,0xe5,0xbf,0xb3,0xe9,0xaa,0xbf,
0x79,0x82,0x5a,0xc0,0xbf,0x40,0x4b,0xc0,0x07,0x99,0xbb,0xbf,
0xa2,0x5b,0x4a,0xc0,0xb4,0xd6,0xce,0xc0,0xc3,0xf5,0x96,0xc0,
0x5f,0xee,0xf6,0xbf,0x3d,0xc6,0xc2,0xc0,0xcb,0x43,0x75,0xc0,
0xea,0x57,0x19,0xc0,0x0b,0x27,0xa6,0xc0,0xb7,0xed,0x2a,0xc0,
0x9e,0xec,0xa7,0xbe,0x12,0xfc,0xff,0xff,0x04,0x00,0x00,0x00,
0x28,0x00,0x00,0x00,0xf7,0xd0,0x9a,0x3e,0xcb,0xf3,0x97,0x3d,
0x95,0x90,0xef,0x3d,0xf6,0xf3,0x27,0xbd,0x55,0x1d,0x7d,0x3e,
0x15,0x5d,0x20,0xc1,0x51,0x60,0x1f,0xc1,0x4f,0x54,0x1f,0xc1,
0x85,0x89,0x1f,0xc1,0x0e,0xc0,0x1e,0xc1,0x46,0xfc,0xff,0xff,
0x04,0x00,0x00,0x00,0x80,0x00,0x00,0x00,0x39,0x57,0x25,0xbf,
0x2e,0x4b,0xda,0x3e,0x4f,0x60,0x77,0x3d,0x69,0x76,0x06,0xbf,
0x8f,0x5c,0xd0,0xbd,0x5a,0xf6,0xd4,0x3d,0xc3,0x5f,0x94,0xbf,
0xe0,0x07,0xd1,0x3e,0x96,0x37,0xd4,0xbe,0x16,0xb8,0xa8,0x3e,
0x0d,0x49,0x9d,0xbe,0x4c,0x22,0x2f,0xbe,0x61,0xa4,0xa0,0x3e,
0x75,0x9a,0x34,0xbe,0x69,0x9d,0x18,0x3e,0x0c,0xb8,0xf2,0xbc,
0xb8,0x7b,0xdd,0x3d,0x08,0x81,0x32,0xbf,0x26,0x4e,0xea,0x3d,
0x9e,0x18,0xb3,0x3c,0xc3,0xb6,0x16,0x3d,0x91,0xad,0xc5,0xbd,
0x85,0x74,0xa0,0x3e,0xd4,0x5f,0xa7,0x3e,0xb3,0xaf,0xbb,0x3e,
0xfc,0x2f,0x47,0xbf,0x84,0xf9,0xa5,0x3e,0x9c,0xb1,0xec,0x3e,
0x37,0x36,0x0e,0xbe,0xcf,0x33,0x80,0x3e,0xcd,0x7f,0x39,0xbf,
0x02,0x1b,0x79,0x3d,0xd2,0xfc,0xff,0xff,0x04,0x00,0x00,0x00,
0x00,0x02,0x00,0x00,0xef,0xee,0x38,0xbf,0x4f,0x81,0xec,0x3e,
0xa3,0xfa,0x4a,0xbf,0x1a,0x62,0xb2,0xbb,0xd0,0xb6,0x48,0x3f,
0xb4,0x06,0x47,0x3d,0xf1,0x99,0xc4,0xbe,0xb0,0x8d,0x82,0xbc,
0xde,0x96,0x08,0xbd,0xb7,0xba,0x68,0xbe,0x54,0x37,0x05,0x3f,
0xaa,0x9e,0x61,0x3c,0x9e,0x0c,0x26,0x3f,0x0d,0x0f,0xdf,0x3e,
0xc5,0x68,0x45,0xbf,0x40,0x4b,0x77,0xbb,0x21,0xb3,0x37,0x3d,
0xad,0x80,0x91,0x3f,0xbf,0x44,0x9a,0x3d,0x33,0x66,0x93,0xbb,
0x87,0x47,0x27,0x3f,0x74,0xcb,0x8f,0x3e,0xff,0x19,0x32,0x3f,
0xe2,0x41,0x9a,0xbb,0xb2,0x3a,0x42,0x3d,0x89,0xcc,0x8d,0x3d,
0x9c,0x1a,0xd4,0x3e,0xf0,0xe2,0x06,0x3f,0xfe,0xcd,0x17,0xbf,
0x15,0x39,0xfe,0x3e,0x1c,0x9d,0x7a,0xbf,0xa3,0xbd,0x10,0xbc,
0xb7,0xb1,0xe4,0x3e,0x1b,0xba,0x25,0xbf,0x3a,0x35,0x29,0x3f,
0xc7,0xe7,0x26,0xbc,0x88,0x14,0x30,0xbf,0x10,0xc1,0xd9,0x3e,
0x1b,0xc1,0x85,0xbf,0x2a,0xf6,0x83,0xbb,0x24,0x65,0xdc,0xbe,
0x59,0x68,0xc6,0x3e,0xc6,0xc1,0x2a,0xbf,0xeb,0x55,0xc8,0xbb,
0xb6,0x0e,0x12,0x3f,0xa0,0x87,0x24,0x3f,0xf9,0x0f,0x53,0x3f,
0xac,0xec,0xb9,0x3b,0xc0,0x74,0x29,0x3f,0x7a,0x22,0x7f,0x3e,
0x26,0x0b,0x70,0x3f,0xc4,0x56,0x8b,0x3c,0x54,0x66,0x99,0xbe,
0x9e,0x92,0xab,0xbe,0xb3,0x5f,0xfe,0xbe,0x20,0xf5,0x0f,0x3c,
0x90,0x04,0x2f,0xbf,0x17,0xe0,0xea,0x3e,0x14,0x35,0x72,0xbf,
0xdc,0xba,0xe5,0xba,0x8a,0x37,0x18,0x3f,0x04,0x9c,0x06,0x3f,
0x20,0xda,0x6c,0x3f,0x09,0x30,0x0f,0xbb,0xf6,0x8d,0x0a,0x3f,
0xa5,0xd3,0x3e,0xbf,0x00,0x9b,0x4f,0x3f,0x9a,0xdc,0xd2,0x3a,
0xfd,0xce,0x0e,0x3f,0xdf,0xf3,0xfb,0x3e,0xd9,0x56,0x56,0x3f,
0x0b,0x4d,0x00,0xbb,0x68,0xbe,0x11,0x3f,0xae,0x00,0xb7,0x3e,
0x80,0x00,0x67,0x3f,0x94,0x61,0xeb,0x3c,0xe5,0xa5,0xef,0x3e,
0x0b,0xb3,0x2b,0xbf,0xd1,0x53,0x35,0x3f,0xd4,0x8d,0xf4,0x3b,
0x88,0x52,0x3a,0xbf,0x6f,0x06,0x44,0x3e,0x8e,0x1b,0x5a,0xbe,
0xbe,0x64,0x48,0x3e,0x8f,0x41,0x3a,0xbf,0xe5,0x63,0x03,0x3f,
0x66,0xb9,0x62,0xbf,0x82,0x0b,0x07,0xbc,0x3e,0xc1,0x3e,0xbf,
0xa6,0x88,0xba,0x3e,0x30,0x82,0x19,0xbf,0x55,0xef,0x60,0x3c,
0x71,0xe3,0x2e,0xbe,0xa9,0x8d,0x29,0x3f,0x05,0x8f,0x8f,0xbe,
0xc8,0x38,0xac,0x3e,0x0c,0x65,0x5b,0x3f,0xbc,0x8d,0x97,0xbc,
0x96,0x4f,0x26,0x3c,0x66,0x71,0x9d,0xbc,0xc0,0x73,0x5c,0x3d,
0xa2,0xcc,0x7a,0xbf,0xb5,0x4d,0x9d,0x3d,0xb1,0x12,0x36,0x3b,
0x61,0x7a,0x9f,0xbe,0x45,0x05,0x16,0x3f,0x6f,0xd0,0x8a,0xbf,
0x3e,0x8c,0x0a,0x3c,0xcf,0x28,0x8d,0xbc,0xfb,0x6a,0x9d,0xbe,
0x5d,0xb6,0x41,0xbd,0x98,0x4d,0x31,0xbe,0x4e,0x2a,0x10,0x3f,
0x19,0xaf,0x86,0x3e,0x41,0x14,0xa6,0xbe,0x01,0x61,0xf0,0xbb,
0xfe,0x7b,0x31,0xbe,0xdb,0x37,0x41,0x3f,0x94,0x2f,0xa3,0xbf,
0xef,0xeb,0x85,0xbc,0x00,0x7d,0xe2,0x3e,0xda,0x9e,0x21,0xbf,
0xd9,0xe3,0x2b,0x3f,0xe0,0xe4,0xaf,0x3a,0xda,0x4a,0x15,0x3f,
0x54,0x0b,0xd9,0x3e,0xbb,0x2c,0x35,0xbf,0x2b,0x5c,0x3c,0xbc,
0xde,0xfe,0xff,0xff,0x04,0x00,0x00,0x00,0x80,0x00,0x00,0x00,
0x8c,0x83,0x32,0xbe,0x09,0x27,0x56,0xbf,0xeb,0x39,0x61,0xbe,
0x63,0x0e,0x61,0xbf,0x5c,0xdd,0x8d,0xbf,0x28,0x58,0x33,0x3e,
0x6f,0x1d,0x46,0xbf,0xe2,0xbb,0x95,0x3e,0xb5,0xd8,0x28,0x3e,
0x8f,0xef,0xd9,0x3d,0x05,0x8b,0xd1,0x3e,0x0f,0x01,0xcc,0xbe,
0x7f,0xaf,0x5b,0xbf,0x42,0x52,0xcd,0x3c,0xbc,0x49,0xe1,0xbe,
0x9e,0x27,0xae,0x3d,0x5b,0xf8,0x2b,0x3e,0xf8,0xe2,0xa5,0x3d,
0x89,0x97,0x49,0xbe,0x07,0x21,0x37,0x3e,0x65,0x1c,0x76,0xbf,
0x27,0x29,0x69,0xbe,0x62,0x87,0xb7,0xbe,0xe4,0x35,0x96,0xbe,
0xb4,0x89,0x4c,0xbf,0x74,0xcb,0x7b,0xbf,0x8c,0x1a,0xbb,0xbe,
0x24,0x5a,0xec,0x3d,0x29,0xd7,0x88,0xbe,0x14,0x5a,0xda,0xbe,
0x4b,0x3a,0x27,0x3e,0x27,0x4f,0x4a,0xbf,0xbc,0xf8,0xff,0xff,
0xc0,0xf8,0xff,0xff,0x0f,0x00,0x00,0x00,0x4d,0x4c,0x49,0x52,
0x20,0x43,0x6f,0x6e,0x76,0x65,0x72,0x74,0x65,0x64,0x2e,0x00,
0x01,0x00,0x00,0x00,0x14,0x00,0x00,0x00,0x00,0x00,0x0e,0x00,
0x18,0x00,0x14,0x00,0x10,0x00,0x0c,0x00,0x08,0x00,0x04,0x00,
0x0e,0x00,0x00,0x00,0x14,0x00,0x00,0x00,0x1c,0x00,0x00,0x00,
0x40,0x01,0x00,0x00,0x44,0x01,0x00,0x00,0x48,0x01,0x00,0x00,
0x04,0x00,0x00,0x00,0x6d,0x61,0x69,0x6e,0x00,0x00,0x00,0x00,
0x04,0x00,0x00,0x00,0xe8,0x00,0x00,0x00,0x94,0x00,0x00,0x00,
0x50,0x00,0x00,0x00,0x14,0x00,0x00,0x00,0x00,0x00,0x0e,0x00,
0x1a,0x00,0x14,0x00,0x10,0x00,0x0c,0x00,0x0b,0x00,0x04,0x00,
0x0e,0x00,0x00,0x00,0x1c,0x00,0x00,0x00,0x00,0x00,0x00,0x09,
0x1c,0x00,0x00,0x00,0x20,0x00,0x00,0x00,0x01,0x00,0x00,0x00,
0x00,0x00,0x06,0x00,0x08,0x00,0x04,0x00,0x06,0x00,0x00,0x00,
0x00,0x00,0x80,0x3f,0x01,0x00,0x00,0x00,0x0a,0x00,0x00,0x00,
0x01,0x00,0x00,0x00,0x09,0x00,0x00,0x00,0xce,0xff,0xff,0xff,
0x10,0x00,0x00,0x00,0x00,0x00,0x00,0x08,0x0c,0x00,0x00,0x00,
0x10,0x00,0x00,0x00,0x84,0xf9,0xff,0xff,0x01,0x00,0x00,0x00,
0x09,0x00,0x00,0x00,0x03,0x00,0x00,0x00,0x08,0x00,0x00,0x00,
0x05,0x00,0x00,0x00,0x04,0x00,0x00,0x00,0x00,0x00,0x0e,0x00,
0x14,0x00,0x00,0x00,0x10,0x00,0x0c,0x00,0x0b,0x00,0x04,0x00,
0x0e,0x00,0x00,0x00,0x1c,0x00,0x00,0x00,0x00,0x00,0x00,0x08,
0x1c,0x00,0x00,0x00,0x20,0x00,0x00,0x00,0x0c,0x00,0x08,0x00,
0x07,0x00,0x00,0x00,0x00,0x00,0x06,0x00,0x0c,0x00,0x00,0x00,
0x00,0x00,0x01,0x01,0x01,0x00,0x00,0x00,0x08,0x00,0x00,0x00,
0x03,0x00,0x00,0x00,0x07,0x00,0x00,0x00,0x06,0x00,0x00,0x00,
0x03,0x00,0x00,0x00,0x00,0x00,0x0e,0x00,0x16,0x00,0x00,0x00,
0x10,0x00,0x0c,0x00,0x0b,0x00,0x04,0x00,0x0e,0x00,0x00,0x00,
0x18,0x00,0x00,0x00,0x00,0x00,0x00,0x08,0x18,0x00,0x00,0x00,
0x1c,0x00,0x00,0x00,0x00,0x00,0x06,0x00,0x08,0x00,0x07,0x00,
0x06,0x00,0x00,0x00,0x00,0x00,0x00,0x01,0x01,0x00,0x00,0x00,
0x07,0x00,0x00,0x00,0x03,0x00,0x00,0x00,0x00,0x00,0x00,0x00,
0x02,0x00,0x00,0x00,0x01,0x00,0x00,0x00,0x01,0x00,0x00,0x00,
0x0a,0x00,0x00,0x00,0x01,0x00,0x00,0x00,0x00,0x00,0x00,0x00,
0x0b,0x00,0x00,0x00,0x88,0x05,0x00,0x00,0x34,0x05,0x00,0x00,
0xdc,0x04,0x00,0x00,0xa0,0x04,0x00,0x00,0x64,0x04,0x00,0x00,
0x24,0x04,0x00,0x00,0x3c,0x02,0x00,0x00,0x84,0x01,0x00,0x00,
0xe4,0x00,0x00,0x00,0x60,0x00,0x00,0x00,0x04,0x00,0x00,0x00,
0xba,0xfa,0xff,0xff,0x00,0x00,0x00,0x01,0x14,0x00,0x00,0x00,
0x1c,0x00,0x00,0x00,0x1c,0x00,0x00,0x00,0x0b,0x00,0x00,0x00,
0x34,0x00,0x00,0x00,0x02,0x00,0x00,0x00,0xff,0xff,0xff,0xff,
0x0a,0x00,0x00,0x00,0xa4,0xfa,0xff,0xff,0x1b,0x00,0x00,0x00,
0x53,0x74,0x61,0x74,0x65,0x66,0x75,0x6c,0x50,0x61,0x72,0x74,
0x69,0x74,0x69,0x6f,0x6e,0x65,0x64,0x43,0x61,0x6c,0x6c,0x5f,
0x31,0x3a,0x30,0x00,0x02,0x00,0x00,0x00,0x01,0x00,0x00,0x00,
0x0a,0x00,0x00,0x00,0x12,0xfb,0xff,0xff,0x00,0x00,0x00,0x01,
0x14,0x00,0x00,0x00,0x1c,0x00,0x00,0x00,0x1c,0x00,0x00,0x00,
0x0a,0x00,0x00,0x00,0x5c,0x00,0x00,0x00,0x02,0x00,0x00,0x00,
0xff,0xff,0xff,0xff,0x0a,0x00,0x00,0x00,0xfc,0xfa,0xff,0xff,
0x40,0x00,0x00,0x00,0x73,0x65,0x71,0x75,0x65,0x6e,0x74,0x69,
0x61,0x6c,0x5f,0x32,0x5f,0x31,0x2f,0x64,0x65,0x6e,0x73,0x65,
0x5f,0x38,0x5f,0x31,0x2f,0x4d,0x61,0x74,0x4d,0x75,0x6c,0x3b,
0x73,0x65,0x71,0x75,0x65,0x6e,0x74,0x69,0x61,0x6c,0x5f,0x32,
0x5f,0x31,0x2f,0x64,0x65,0x6e,0x73,0x65,0x5f,0x38,0x5f,0x31,
0x2f,0x42,0x69,0x61,0x73,0x41,0x64,0x64,0x00,0x00,0x00,0x00,
0x02,0x00,0x00,0x00,0x01,0x00,0x00,0x00,0x0a,0x00,0x00,0x00,
0x92,0xfb,0xff,0xff,0x00,0x00,0x00,0x01,0x14,0x00,0x00,0x00,
0x1c,0x00,0x00,0x00,0x1c,0x00,0x00,0x00,0x09,0x00,0x00,0x00,
0x78,0x00,0x00,0x00,0x02,0x00,0x00,0x00,0xff,0xff,0xff,0xff,
0x20,0x00,0x00,0x00,0x7c,0xfb,0xff,0xff,0x5e,0x00,0x00,0x00,
0x73,0x65,0x71,0x75,0x65,0x6e,0x74,0x69,0x61,0x6c,0x5f,0x32,
0x5f,0x31,0x2f,0x64,0x65,0x6e,0x73,0x65,0x5f,0x37,0x5f,0x31,
0x2f,0x4d,0x61,0x74,0x4d,0x75,0x6c,0x3b,0x73,0x65,0x71,0x75,
0x65,0x6e,0x74,0x69,0x61,0x6c,0x5f,0x32,0x5f,0x31,0x2f,0x64,
0x65,0x6e,0x73,0x65,0x5f,0x37,0x5f,0x31,0x2f,0x52,0x65,0x6c,
0x75,0x3b,0x73,0x65,0x71,0x75,0x65,0x6e,0x74,0x69,0x61,0x6c,
0x5f,0x32,0x5f,0x31,0x2f,0x64,0x65,0x6e,0x73,0x65,0x5f,0x37,
0x5f,0x31,0x2f,0x42,0x69,0x61,0x73,0x41,0x64,0x64,0x00,0x00,
0x02,0x00,0x00,0x00,0x01,0x00,0x00,0x00,0x20,0x00,0x00,0x00,
0x2e,0xfc,0xff,0xff,0x00,0x00,0x00,0x01,0x14,0x00,0x00,0x00,
0x1c,0x00,0x00,0x00,0x1c,0x00,0x00,0x00,0x08,0x00,0x00,0x00,
0x78,0x00,0x00,0x00,0x02,0x00,0x00,0x00,0xff,0xff,0xff,0xff,
0x20,0x00,0x00,0x00,0x18,0xfc,0xff,0xff,0x5e,0x00,0x00,0x00,
0x73,0x65,0x71,0x75,0x65,0x6e,0x74,0x69,0x61,0x6c,0x5f,0x32,
0x5f,0x31,0x2f,0x64,0x65,0x6e,0x73,0x65,0x5f,0x36,0x5f,0x31,
0x2f,0x4d,0x61,0x74,0x4d,0x75,0x6c,0x3b,0x73,0x65,0x71,0x75,
0x65,0x6e,0x74,0x69,0x61,0x6c,0x5f,0x32,0x5f,0x31,0x2f,0x64,
0x65,0x6e,0x73,0x65,0x5f,0x36,0x5f,0x31,0x2f,0x52,0x65,0x6c,
0x75,0x3b,0x73,0x65,0x71,0x75,0x65,0x6e,0x74,0x69,0x61,0x6c,
0x5f,0x32,0x5f,0x31,0x2f,0x64,0x65,0x6e,0x73,0x65,0x5f,0x36,
0x5f,0x31,0x2f,0x42,0x69,0x61,0x73,0x41,0x64,0x64,0x00,0x00,
0x02,0x00,0x00,0x00,0x01,0x00,0x00,0x00,0x20,0x00,0x00,0x00,
0x00,0x00,0x16,0x00,0x1c,0x00,0x18,0x00,0x17,0x00,0x10,0x00,
0x0c,0x00,0x08,0x00,0x00,0x00,0x00,0x00,0x00,0x00,0x07,0x00,
0x16,0x00,0x00,0x00,0x00,0x00,0x00,0x01,0x20,0x00,0x00,0x00,
0xb4,0x01,0x00,0x00,0x07,0x00,0x00,0x00,0x00,0x00,0x00,0x09,
0xc0,0x01,0x00,0x00,0x0c,0x00,0x0c,0x00,0x00,0x00,0x00,0x00,
0x08,0x00,0x04,0x00,0x0c,0x00,0x00,0x00,0x08,0x00,0x00,0x00,
0x0c,0x01,0x00,0x00,0x20,0x00,0x00,0x00,0x00,0x00,0x00,0x00,
0x00,0x00,0x00,0x00,0x00,0x00,0x00,0x00,0x00,0x00,0x00,0x00,
0x00,0x00,0x00,0x00,0x00,0x00,0x00,0x00,0x00,0x00,0x00,0x00,
0x00,0x00,0x00,0x00,0x00,0x00,0x00,0x00,0x00,0x00,0x00,0x00,
0x00,0x00,0x00,0x00,0x00,0x00,0x00,0x00,0x00,0x00,0x00,0x00,
0x00,0x00,0x00,0x00,0x00,0x00,0x00,0x00,0x00,0x00,0x00,0x00,
0x00,0x00,0x00,0x00,0x00,0x00,0x00,0x00,0x00,0x00,0x00,0x00,
0x00,0x00,0x00,0x00,0x00,0x00,0x00,0x00,0x00,0x00,0x00,0x00,
0x00,0x00,0x00,0x00,0x00,0x00,0x00,0x00,0x00,0x00,0x00,0x00,
0x00,0x00,0x00,0x00,0x00,0x00,0x00,0x00,0x00,0x00,0x00,0x00,
0x00,0x00,0x00,0x00,0x00,0x00,0x00,0x00,0x00,0x00,0x00,0x00,
0x00,0x00,0x00,0x00,0x00,0x00,0x00,0x00,0x00,0x00,0x00,0x00,
0x00,0x00,0x00,0x00,0x00,0x00,0x00,0x00,0x00,0x00,0x00,0x00,
0x00,0x00,0x00,0x00,0x00,0x00,0x00,0x00,0x00,0x00,0x00,0x00,
0x00,0x00,0x00,0x00,0x00,0x00,0x00,0x00,0x00,0x00,0x00,0x00,
0x00,0x00,0x00,0x00,0x00,0x00,0x00,0x00,0x00,0x00,0x00,0x00,
0x00,0x00,0x00,0x00,0x00,0x00,0x00,0x00,0x00,0x00,0x00,0x00,
0x00,0x00,0x00,0x00,0x00,0x00,0x00,0x00,0x00,0x00,0x00,0x00,
0x00,0x00,0x00,0x00,0x00,0x00,0x00,0x00,0x00,0x00,0x00,0x00,
0x00,0x00,0x00,0x00,0x00,0x00,0x00,0x00,0x00,0x00,0x00,0x00,
0x00,0x00,0x00,0x00,0x00,0x00,0x00,0x00,0x00,0x00,0x00,0x00,
0x00,0x00,0x00,0x00,0x00,0x00,0x00,0x00,0x00,0x00,0x00,0x00,
0x00,0x00,0x00,0x00,0x20,0x00,0x00,0x00,0x6d,0xb8,0x15,0x3d,
0x37,0xcc,0x10,0x3d,0x05,0xce,0x03,0x3d,0xc6,0x0d,0x13,0x3d,
0xd0,0xe0,0x22,0x3d,0xd9,0x79,0xfa,0x3c,0x47,0x1d,0x5a,0x3c,
0x9c,0xf7,0xef,0x3c,0x72,0xf6,0x29,0x3d,0x62,0x91,0xf0,0x3c,
0x20,0x91,0xf0,0x3c,0x6f,0xa4,0xf9,0x3c,0xe6,0x49,0xb5,0x3c,
0x69,0xc1,0xac,0x3c,0x67,0x66,0x14,0x3d,0x22,0x5c,0x04,0x3d,
0xc8,0x64,0xed,0x3c,0x89,0x41,0x0b,0x3d,0x8e,0x41,0x1c,0x3d,
0x91,0x24,0x3f,0x3d,0x8b,0x5a,0x3d,0x3d,0x5c,0xad,0x12,0x3d,
0x87,0x3d,0xd3,0x3c,0xec,0xc7,0xdd,0x3c,0x0a,0xed,0xdd,0x3c,
0xd6,0x3a,0x66,0x3d,0x71,0x4d,0x32,0x3d,0x9e,0xd4,0x1d,0x3d,
0x21,0x17,0x47,0x3d,0x48,0xff,0x7a,0x3d,0xdf,0x43,0x9c,0x3c,
0xd4,0x90,0xbd,0x3c,0x11,0x00,0x00,0x00,0x74,0x66,0x6c,0x2e,
0x70,0x73,0x65,0x75,0x64,0x6f,0x5f,0x71,0x63,0x6f,0x6e,0x73,
0x74,0x00,0x00,0x00,0x02,0x00,0x00,0x00,0x20,0x00,0x00,0x00,
0x20,0x00,0x00,0x00,0x16,0xff,0xff,0xff,0x00,0x00,0x00,0x01,
0x10,0x00,0x00,0x00,0x10,0x00,0x00,0x00,0x06,0x00,0x00,0x00,
0x1c,0x00,0x00,0x00,0xa0,0xfe,0xff,0xff,0x0f,0x00,0x00,0x00,
0x61,0x72,0x69,0x74,0x68,0x2e,0x63,0x6f,0x6e,0x73,0x74,0x61,
0x6e,0x74,0x34,0x00,0x02,0x00,0x00,0x00,0x0a,0x00,0x00,0x00,
0x20,0x00,0x00,0x00,0x52,0xff,0xff,0xff,0x00,0x00,0x00,0x01,
0x10,0x00,0x00,0x00,0x10,0x00,0x00,0x00,0x05,0x00,0x00,0x00,
0x1c,0x00,0x00,0x00,0xdc,0xfe,0xff,0xff,0x0f,0x00,0x00,0x00,
0x61,0x72,0x69,0x74,0x68,0x2e,0x63,0x6f,0x6e,0x73,0x74,0x61,
0x6e,0x74,0x33,0x00,0x01,0x00,0x00,0x00,0x0a,0x00,0x00,0x00,
0x8a,0xff,0xff,0xff,0x00,0x00,0x00,0x01,0x10,0x00,0x00,0x00,
0x10,0x00,0x00,0x00,0x04,0x00,0x00,0x00,0x1c,0x00,0x00,0x00,
0x14,0xff,0xff,0xff,0x0f,0x00,0x00,0x00,0x61,0x72,0x69,0x74,
0x68,0x2e,0x63,0x6f,0x6e,0x73,0x74,0x61,0x6e,0x74,0x32,0x00,
0x01,0x00,0x00,0x00,0x20,0x00,0x00,0x00,0xc2,0xff,0xff,0xff,
0x00,0x00,0x00,0x01,0x10,0x00,0x00,0x00,0x10,0x00,0x00,0x00,
0x03,0x00,0x00,0x00,0x1c,0x00,0x00,0x00,0x4c,0xff,0xff,0xff,
0x0f,0x00,0x00,0x00,0x61,0x72,0x69,0x74,0x68,0x2e,0x63,0x6f,
0x6e,0x73,0x74,0x61,0x6e,0x74,0x31,0x00,0x02,0x00,0x00,0x00,
0x20,0x00,0x00,0x00,0x04,0x00,0x00,0x00,0x00,0x00,0x16,0x00,
0x18,0x00,0x14,0x00,0x00,0x00,0x10,0x00,0x0c,0x00,0x08,0x00,
0x00,0x00,0x00,0x00,0x00,0x00,0x07,0x00,0x16,0x00,0x00,0x00,
0x00,0x00,0x00,0x01,0x10,0x00,0x00,0x00,0x10,0x00,0x00,0x00,
0x02,0x00,0x00,0x00,0x1c,0x00,0x00,0x00,0xa0,0xff,0xff,0xff,
0x0e,0x00,0x00,0x00,0x61,0x72,0x69,0x74,0x68,0x2e,0x63,0x6f,
0x6e,0x73,0x74,0x61,0x6e,0x74,0x00,0x00,0x01,0x00,0x00,0x00,
0x20,0x00,0x00,0x00,0x00,0x00,0x16,0x00,0x1c,0x00,0x18,0x00,
0x00,0x00,0x14,0x00,0x10,0x00,0x0c,0x00,0x00,0x00,0x00,0x00,
0x08,0x00,0x07,0x00,0x16,0x00,0x00,0x00,0x00,0x00,0x00,0x01,
0x14,0x00,0x00,0x00,0x20,0x00,0x00,0x00,0x20,0x00,0x00,0x00,
0x01,0x00,0x00,0x00,0x40,0x00,0x00,0x00,0x02,0x00,0x00,0x00,
0xff,0xff,0xff,0xff,0x04,0x00,0x00,0x00,0x04,0x00,0x04,0x00,
0x04,0x00,0x00,0x00,0x21,0x00,0x00,0x00,0x73,0x65,0x72,0x76,
0x69,0x6e,0x67,0x5f,0x64,0x65,0x66,0x61,0x75,0x6c,0x74,0x5f,
0x6b,0x65,0x72,0x61,0x73,0x5f,0x74,0x65,0x6e,0x73,0x6f,0x72,
0x5f,0x33,0x32,0x3a,0x30,0x00,0x00,0x00,0x02,0x00,0x00,0x00,
0x01,0x00,0x00,0x00,0x04,0x00,0x00,0x00,0x02,0x00,0x00,0x00,
0x2c,0x00,0x00,0x00,0x10,0x00,0x00,0x00,0x0c,0x00,0x0c,0x00,
0x0b,0x00,0x00,0x00,0x00,0x00,0x04,0x00,0x0c,0x00,0x00,0x00,
0x19,0x00,0x00,0x00,0x00,0x00,0x00,0x19,0x0c,0x00,0x10,0x00,
0x0f,0x00,0x00,0x00,0x08,0x00,0x04,0x00,0x0c,0x00,0x00,0x00,
0x09,0x00,0x00,0x00,0x0c,0x00,0x00,0x00,0x00,0x00,0x00,0x09,

};
const unsigned int model_len = 5664;
