const unsigned char model[] = {
0x1c,0x00,0x00,0x00,0x54,0x46,0x4c,0x33,0x14,0x00,0x20,0x00,
0x1c,0x00,0x18,0x00,0x14,0x00,0x10,0x00,0x0c,0x00,0x00,0x00,
0x08,0x00,0x04,0x00,0x14,0x00,0x00,0x00,0x1c,0x00,0x00,0x00,
0x8c,0x00,0x00,0x00,0xe4,0x00,0x00,0x00,0x44,0x1b,0x00,0x00,
0x54,0x1b,0x00,0x00,0xc4,0x27,0x00,0x00,0x03,0x00,0x00,0x00,
0x01,0x00,0x00,0x00,0x04,0x00,0x00,0x00,0xd6,0xe2,0xff,0xff,
0x0c,0x00,0x00,0x00,0x1c,0x00,0x00,0x00,0x3c,0x00,0x00,0x00,
0x0f,0x00,0x00,0x00,0x73,0x65,0x72,0x76,0x69,0x6e,0x67,0x5f,
0x64,0x65,0x66,0x61,0x75,0x6c,0x74,0x00,0x01,0x00,0x00,0x00,
0x04,0x00,0x00,0x00,0x90,0xff,0xff,0xff,0x16,0x00,0x00,0x00,
0x04,0x00,0x00,0x00,0x08,0x00,0x00,0x00,0x6f,0x75,0x74,0x70,
0x75,0x74,0x5f,0x30,0x00,0x00,0x00,0x00,0x01,0x00,0x00,0x00,
0x04,0x00,0x00,0x00,0x8e,0xe4,0xff,0xff,0x04,0x00,0x00,0x00,
0x0c,0x00,0x00,0x00,0x6b,0x65,0x72,0x61,0x73,0x5f,0x74,0x65,
0x6e,0x73,0x6f,0x72,0x00,0x00,0x00,0x00,0x02,0x00,0x00,0x00,
0x34,0x00,0x00,0x00,0x04,0x00,0x00,0x00,0xdc,0xff,0xff,0xff,
0x19,0x00,0x00,0x00,0x04,0x00,0x00,0x00,0x13,0x00,0x00,0x00,
0x43,0x4f,0x4e,0x56,0x45,0x52,0x53,0x49,0x4f,0x4e,0x5f,0x4d,
0x45,0x54,0x41,0x44,0x41,0x54,0x41,0x00,0x08,0x00,0x0c,0x00,
0x08,0x00,0x04,0x00,0x08,0x00,0x00,0x00,0x18,0x00,0x00,0x00,
0x04,0x00,0x00,0x00,0x13,0x00,0x00,0x00,0x6d,0x69,0x6e,0x5f,
0x72,0x75,0x6e,0x74,0x69,0x6d,0x65,0x5f,0x76,0x65,0x72,0x73,
0x69,0x6f,0x6e,0x00,0x1a,0x00,0x00,0x00,0x5c,0x1a,0x00,0x00,
0x54,0x1a,0x00,0x00,0xc4,0x19,0x00,0x00,0x74,0x19,0x00,0x00,
0x24,0x19,0x00,0x00,0x04,0x19,0x00,0x00,0xe8,0x18,0x00,0x00,
0xcc,0x18,0x00,0x00,0xbc,0x0c,0x00,0x00,0x2c,0x0b,0x00,0x00,
0x1c,0x09,0x00,0x00,0x0c,0x01,0x00,0x00,0xf8,0x00,0x00,0x00,
0xe4,0x00,0x00,0x00,0xdc,0x00,0x00,0x00,0xd4,0x00,0x00,0x00,
0xcc,0x00,0x00,0x00,0xc4,0x00,0x00,0x00,0xbc,0x00,0x00,0x00,
0xb4,0x00,0x00,0x00,0xac,0x00,0x00,0x00,0xa4,0x00,0x00,0x00,
0x9c,0x00,0x00,0x00,0x94,0x00,0x00,0x00,0x74,0x00,0x00,0x00,
0x04,0x00,0x00,0x00,0x72,0xe5,0xff,0xff,0x04,0x00,0x00,0x00,
0x60,0x00,0x00,0x00,0x0c,0x00,0x00,0x00,0x08,0x00,0x0e,0x00,
0x08,0x00,0x04,0x00,0x08,0x00,0x00,0x00,0x10,0x00,0x00,0x00,
0x28,0x00,0x00,0x00,0x00,0x00,0x06,0x00,0x08,0x00,0x04,0x00,
0x06,0x00,0x00,0x00,0x04,0x00,0x00,0x00,0x01,0x00,0x00,0x00,
0xea,0x03,0x00,0x00,0x0c,0x00,0x18,0x00,0x14,0x00,0x10,0x00,
0x0c,0x00,0x04,0x00,0x0c,0x00,0x00,0x00,0x5c,0x2e,0xdf,0xfb,
0x7f,0x3d,0xe4,0x14,0x02,0x00,0x00,0x00,0x02,0x00,0x00,0x00,
0x04,0x00,0x00,0x00,0x06,0x00,0x00,0x00,0x32,0x2e,0x32,0x30,
0x2e,0x30,0x00,0x00,0xde,0xe5,0xff,0xff,0x04,0x00,0x00,0x00,
0x10,0x00,0x00,0x00,0x31,0x2e,0x31,0x30,0x2e,0x30,0x00,0x00,
0x00,0x00,0x00,0x00,0x00,0x00,0x00,0x00,0x44,0xda,0xff,0xff,
0x48,0xda,0xff,0xff,0x4c,0xda,0xff,0xff,0x50,0xda,0xff,0xff,
0x54,0xda,0xff,0xff,0x58,0xda,0xff,0xff,0x5c,0xda,0xff,0xff,
0x60,0xda,0xff,0xff,0x64,0xda,0xff,0xff,0x68,0xda,0xff,0xff,
0x22,0xe6,0xff,0xff,0x04,0x00,0x00,0x00,0x04,0x00,0x00,0x00,
0xfd,0xff,0xff,0xff,0x32,0xe6,0xff,0xff,0x04,0x00,0x00,0x00,
0x04,0x00,0x00,0x00,0x01,0x00,0x00,0x00,0x42,0xe6,0xff,0xff,
0x04,0x00,0x00,0x00,0x00,0x08,0x00,0x00,0x24,0x58,0xa8,0x3e,
0x3e,0xac,0x57,0xbe,0x3a,0x03,0xdf,0x3d,0xfc,0xda,0xeb,0xbe,
0xb3,0xdf,0xef,0xbd,0xab,0x7d,0xfd,0x3e,0xf4,0xcb,0x8b,0xbd,
0xe9,0x29,0x3d,0xbd,0x3e,0xdb,0x93,0xbd,0x28,0xfd,0x51,0x3e,
0x19,0x6a,0x0d,0xbf,0x74,0xa0,0x3a,0xbe,0x50,0x1f,0x65,0xbd,
0x58,0x17,0x85,0x3e,0x05,0x34,0x2e,0xbe,0xe5,0xdd,0x29,0xbd,
0x0e,0x0b,0x8d,0x3e,0xfd,0x63,0xae,0x3d,0x0c,0x9e,0xdf,0x3e,
0x6f,0xff,0xa1,0xbc,0x9b,0x49,0x9c,0xbe,0x21,0xdd,0xb4,0xbe,
0xde,0x07,0xe7,0xbe,0x38,0x49,0xb9,0x3e,0xf9,0xeb,0xba,0x3e,
0xa0,0x5f,0x13,0x3b,0x15,0xcf,0xf5,0x3d,0x64,0x3f,0x0b,0xbe,
0x00,0x1e,0x7a,0xba,0x36,0x48,0xe5,0xbe,0x2c,0xd1,0x66,0x3e,
0x69,0x56,0x46,0xbe,0x31,0x95,0x98,0x3e,0xd4,0x96,0x93,0xbe,
0x81,0xb4,0xe4,0x3e,0xf8,0x6d,0xb2,0x3e,0x93,0x47,0x80,0xbe,
0x61,0x54,0xa4,0xbe,0xe0,0x0f,0x29,0xbd,0x71,0x40,0x02,0xbe,
0x1a,0xbb,0x58,0xbe,0xa4,0x9e,0x86,0xbe,0x19,0x93,0x4d,0xbe,
0xca,0x4a,0x0e,0x3d,0x9c,0x14,0x14,0x3e,0x88,0xf0,0xc4,0xbe,
0x41,0xed,0x92,0x3e,0xb0,0x16,0x95,0x3d,0x76,0xb9,0x80,0xbc,
0x07,0xf0,0x8e,0x3e,0x00,0xe3,0x10,0x3e,0x9d,0x39,0x13,0x3f,
0x25,0x60,0x8d,0xbe,0x66,0x20,0x88,0xbd,0x3d,0x66,0xa4,0x3d,
0x71,0x03,0x11,0xbe,0x32,0x5c,0x67,0x3e,0x59,0xbd,0xb7,0xbd,
0xc3,0x1e,0x1d,0x3f,0xf0,0x29,0x8f,0x3e,0x04,0xfb,0x1d,0xbe,
0x13,0x5f,0xe1,0xbe,0xf3,0x40,0x1e,0x3d,0xb4,0xfa,0x59,0x3e,
0xfc,0xcf,0x48,0x3e,0xb4,0x5f,0x68,0xbe,0x7e,0x57,0x96,0xbe,
0x41,0xbf,0x5e,0xbe,0xdf,0xfe,0xd6,0x3d,0x28,0x7f,0xee,0x3e,
0xf4,0x6d,0xcb,0x3e,0xfd,0xf1,0x9e,0xbe,0x22,0xe8,0x04,0x3f,
0x83,0x3a,0x93,0x3e,0x28,0xec,0x8b,0x3e,0xcd,0xdf,0x28,0xbe,
0xee,0x1f,0x96,0x3e,0xd1,0x93,0x0e,0x3f,0xb8,0x26,0xdc,0xbd,
0x14,0x31,0x2a,0xbe,0xc7,0xbf,0x51,0x3e,0x42,0x81,0xc5,0xbe,
0x0e,0x9d,0x98,0x3e,0xf9,0x1f,0x38,0xbe,0x77,0xa6,0x23,0x3d,
0xa8,0xa2,0xef,0x3e,0x6e,0xd6,0xf9,0x3d,0x77,0x92,0x4b,0xbd,
0x73,0x0d,0xfe,0xbe,0x5b,0x44,0xa5,0x3e,0x08,0xbc,0x2e,0x3d,
0xb5,0x62,0x83,0xbe,0xf6,0xda,0x2b,0x3e,0x2b,0x49,0xc6,0x3c,
0xef,0x49,0xe7,0xbe,0xf3,0xfe,0xcc,0x3e,0xcd,0x9d,0xa8,0x3d,
0x2d,0x17,0x99,0x3e,0xc3,0x21,0x09,0x3d,0x46,0xdc,0xf9,0xbd,
0x53,0x8a,0xad,0x3e,0xb0,0x52,0x9c,0xbe,0xa7,0x11,0x1e,0xbe,
0xa2,0x8d,0x38,0xbd,0x4c,0x56,0x9a,0x3e,0x70,0x6a,0x51,0xbd,
0x23,0xe9,0xba,0xbe,0x26,0xdd,0xe7,0x3d,0x56,0xe4,0x96,0xbe,
0x5c,0xa1,0x89,0xbe,0x2f,0x10,0x0f,0xbe,0x3f,0x3d,0x8b,0x3d,
0x59,0xb4,0x4b,0x3e,0x6f,0xd4,0xb5,0x3e,0x24,0xa0,0x49,0x3d,
0xac,0x74,0x8d,0x3e,0x68,0x62,0x4e,0xbe,0x25,0xcd,0xe4,0xbd,
0xa8,0xbc,0x07,0x3f,0x98,0x1d,0x3f,0xbd,0x40,0xdf,0xae,0xbe,
0x84,0x0b,0x49,0xbe,0x8c,0x42,0x1d,0xbe,0xb3,0x5f,0xc2,0x3e,
0x10,0xca,0x1d,0xbe,0xc7,0x8e,0x8e,0x3e,0xef,0x0d,0xa4,0xbd,
0x3d,0xe5,0x4b,0x3e,0x52,0x63,0xa9,0xbe,0x82,0x03,0x38,0xbe,
0x25,0x93,0xa0,0xbd,0x3f,0xe6,0x51,0xbd,0x65,0xd3,0xac,0x3e,
0x3b,0x0f,0x19,0xbe,0x2e,0x0d,0xc2,0xbe,0xf4,0x32,0x70,0x3e,
0xd8,0x49,0x69,0xbd,0x59,0x90,0x5f,0x3e,0x36,0xc7,0x48,0x3e,
0x43,0x1b,0xeb,0x3d,0x28,0x95,0xa5,0x3d,0xcd,0x2f,0xbf,0x3d,
0x7d,0x27,0x1e,0xbe,0xdd,0xca,0x20,0x3e,0xd1,0x7a,0x6b,0xbb,
0xc7,0xb1,0x4d,0x3e,0xf3,0xa3,0x81,0x3e,0xd2,0x30,0xc0,0x3e,
0x65,0x50,0x1b,0xbe,0xcb,0xc6,0x47,0xbe,0x20,0x3b,0xa4,0x3e,
0xfc,0x8e,0xf3,0x3e,0x98,0x0c,0xec,0xbe,0xa3,0x67,0x0b,0x3d,
0x7b,0x63,0xde,0xbe,0x54,0x3f,0x72,0xbe,0x56,0xd6,0xc6,0x3d,
0x56,0x2b,0x53,0xbe,0xc5,0xc2,0xee,0x3e,0x8d,0xd7,0x0d,0x3d,
0x40,0x22,0x95,0x3d,0xd9,0x0c,0x08,0xbe,0x69,0x0d,0x97,0x3b,
0xe7,0x66,0x73,0xbe,0x28,0x3e,0x4b,0x3d,0x53,0x4b,0x11,0xbe,
0x6e,0x6b,0x5c,0x3d,0x64,0xb4,0x8a,0x3e,0xf2,0x64,0xd7,0x3d,
0xde,0xb8,0x40,0xbe,0x8f,0x66,0x87,0xbe,0x60,0x04,0x3f,0xbc,
0x58,0xb5,0x0c,0x3e,0xad,0xa8,0x2d,0xbe,0x28,0x0e,0x95,0x3d,
0x61,0x17,0xb8,0xbe,0x38,0x35,0x44,0xbe,0x8d,0x80,0xe8,0x3d,
0xb9,0x75,0x07,0xbe,0x20,0x96,0xb9,0xbe,0xfa,0xea,0x79,0x3e,
0x21,0x40,0x91,0xbe,0x0b,0x3c,0x9f,0x3e,0x6a,0x6d,0x95,0x3e,
0x67,0x89,0x45,0xbe,0xea,0xa9,0x66,0xbe,0xbe,0x19,0x8e,0xbe,
0x49,0x22,0x91,0x3d,0x07,0xf5,0xa8,0xbe,0x00,0xb2,0xd0,0x3d,
0x79,0x5d,0x1f,0x3d,0x98,0x42,0x08,0x3e,0xe7,0xb4,0x00,0x3e,
0x52,0x00,0xb4,0xbd,0xdc,0x77,0xb7,0xbe,0x97,0xcf,0x88,0xbe,
0x6f,0x59,0x66,0x3e,0x66,0x71,0xa7,0x3e,0x86,0x46,0x0c,0x3f,
0x4e,0x85,0x0d,0x3e,0x7f,0x76,0x1d,0x3e,0x7a,0x3d,0xfc,0xbb,
0xd1,0xe4,0xab,0xbc,0x8d,0xd7,0x84,0xbe,0xa4,0x2f,0xc5,0x3d,
0xc7,0x5f,0xa3,0x3e,0x08,0x79,0x1d,0x3e,0xda,0x35,0x29,0x3e,
0x1d,0xe5,0x54,0x3e,0x82,0x38,0x14,0x3f,0x70,0x06,0x95,0x3e,
0xa7,0x22,0x06,0x3f,0xa8,0x6e,0x94,0x3e,0x02,0xc0,0xe3,0xbe,
0x68,0xbe,0x0b,0xbe,0x00,0x4e,0x6d,0x3e,0x0f,0x3e,0x5d,0x3e,
0x45,0x22,0xef,0x3c,0xb4,0x72,0x36,0x3f,0xc2,0xef,0xd4,0x3e,
0xe0,0x29,0x17,0x3c,0xfb,0x3d,0x95,0xbe,0x95,0x84,0x91,0x3e,
0x46,0x1d,0x71,0xbc,0x71,0x31,0x24,0x3e,0x44,0xfa,0x01,0x3e,
0xe6,0x99,0xa1,0x3e,0xa2,0x9f,0xa7,0x3e,0x9a,0xd9,0x89,0xbe,
0x01,0x87,0x10,0xbe,0x7f,0x92,0x6f,0xbe,0x5b,0x3c,0xdc,0x3e,
0xa0,0x00,0xa4,0xbe,0xaa,0x7f,0x95,0xbe,0xa0,0xce,0x8a,0xbe,
0x76,0xe0,0x87,0xbe,0xc6,0x2b,0x15,0xbd,0xbd,0x51,0x63,0xbe,
0xab,0xd4,0x88,0x3e,0xa6,0x83,0x50,0xbe,0xb1,0x38,0x56,0x3e,
0xa1,0x5e,0x2a,0xbe,0xc6,0x17,0x43,0x3e,0x22,0x39,0xe0,0xbe,
0xe9,0xf4,0x16,0x3e,0x06,0x02,0xcd,0xbc,0xe5,0xd7,0x07,0xbd,
0xb2,0x33,0xac,0xbe,0xaa,0x0f,0x52,0x3d,0x2e,0x13,0x8a,0x3e,
0xee,0xd1,0xa8,0xbe,0xdb,0xcc,0x3d,0x3e,0xb4,0xe0,0x67,0x3d,
0x43,0xec,0xd7,0x3e,0x6e,0x78,0xed,0xbe,0xfe,0xc6,0x9e,0x3e,
0x60,0x27,0xef,0x3e,0x89,0xce,0xd4,0xbe,0x0b,0x5a,0x54,0xbe,
0x45,0xe3,0x25,0xbe,0x76,0x59,0x59,0xbe,0x9f,0x6a,0x22,0xbe,
0x2b,0xb4,0x28,0xbd,0x14,0x65,0x2f,0x3e,0x03,0xe7,0xe1,0xbe,
0x25,0x24,0x9a,0x3d,0x16,0x86,0x82,0xbe,0x3a,0x30,0xdf,0x3c,
0x06,0x04,0x53,0x3e,0xe2,0xae,0xdb,0x3e,0x7b,0x1a,0xf1,0xbe,
0x36,0x6b,0xf9,0x3e,0xad,0xc6,0x9b,0x3d,0xd9,0x95,0x2b,0xbe,
0x0d,0xcb,0x93,0xbe,0x78,0x61,0x47,0xbc,0x00,0x99,0x78,0x3c,
0x32,0x33,0x62,0xbe,0x16,0xc4,0x29,0x3e,0xd2,0xed,0x6f,0x3e,
0xa9,0x18,0x33,0x3e,0xed,0xcd,0xd5,0xbc,0x15,0xfe,0x68,0xbe,
0x81,0xc5,0x5a,0xbe,0x3e,0x45,0x3f,0x3e,0x37,0xd1,0x6f,0xbe,
0x88,0xe2,0xa0,0xbe,0xe6,0x6f,0xbf,0x3d,0xa6,0x93,0xf4,0x3d,
0x5c,0xbb,0x35,0x3e,0x3c,0x4b,0xe0,0x3e,0x7e,0x3a,0x80,0x3d,
0x29,0xda,0x25,0xbe,0x00,0xa3,0xda,0xbe,0xb7,0x3b,0x15,0xbe,
0x89,0xfc,0xc0,0x3e,0x62,0x5d,0xea,0xbe,0x6a,0xff,0x31,0xbe,
0x16,0x34,0x3c,0xbe,0x51,0xbe,0x00,0x3e,0xf4,0x0c,0x6b,0xbe,
0x35,0x89,0x7c,0x3c,0xc8,0x9f,0xd2,0x3d,0x2e,0x9b,0x1f,0x3e,
0x16,0x59,0x08,0xbe,0x48,0xcc,0xad,0x3d,0x11,0xf0,0x95,0x3d,
0xa2,0xe9,0x3f,0xbd,0x97,0x9f,0x87,0xbe,0x9c,0x17,0xec,0xbe,
0x90,0x03,0x0d,0xbf,0x5a,0xaa,0xe9,0xbd,0x55,0xe3,0x4d,0x3e,
0xe5,0x3f,0x4d,0x3e,0x96,0x14,0xb2,0x3e,0x98,0x3a,0x97,0xbe,
0x40,0xa2,0x1d,0x3c,0x94,0x0e,0x8c,0xbd,0x3b,0x69,0x09,0xbf,
0xf9,0xe4,0x31,0x3e,0x63,0x49,0xae,0xbe,0xdc,0xad,0x93,0xbc,
0xa2,0x73,0xcf,0xba,0x07,0xde,0x24,0x3d,0xa3,0x54,0xa3,0x3e,
0xc9,0x2f,0x43,0xbd,0x1d,0x9e,0xa8,0x3e,0x44,0x19,0x0f,0xbd,
0x49,0xa6,0x80,0x3e,0xbc,0x55,0x60,0x3e,0xf2,0x76,0x86,0x3b,
0xfb,0x89,0x84,0x3e,0xfc,0x5c,0xdf,0xbd,0x44,0x24,0x9b,0xbe,
0x17,0xf9,0xf6,0xbe,0x06,0xae,0x84,0xbe,0x88,0xd9,0x12,0xbe,
0x57,0x5c,0xa2,0x3e,0x98,0x98,0x3d,0x3d,0xe4,0xe8,0x4c,0xbe,
0xdb,0x5d,0x87,0x3e,0x24,0x36,0xc5,0x3d,0x14,0xe0,0xcd,0xbd,
0x0c,0xfa,0x4b,0xbe,0x03,0x65,0xa7,0xbe,0x52,0xa4,0xe2,0xbd,
0x74,0x5d,0xc6,0x3d,0x4a,0xb3,0x65,0x3e,0xf4,0x7f,0xb3,0xbd,
0x28,0xd3,0xca,0xbd,0x34,0x88,0x93,0x3d,0x95,0xf8,0x86,0x3e,
0x9e,0x4f,0x94,0x3e,0x6d,0x1b,0x8d,0x3d,0xf4,0x97,0x10,0x3e,
0x9c,0x06,0x24,0xbe,0x20,0x8b,0xcf,0xbd,0x43,0x01,0x89,0x3e,
0x30,0xf4,0x2a,0x3f,0xbe,0x06,0xce,0x3e,0x89,0xed,0xcf,0xbe,
0x5a,0xd5,0x09,0x3d,0x06,0x79,0x26,0xbe,0x42,0xd3,0x27,0xbe,
0x9e,0x69,0x08,0xbe,0x5f,0x22,0x7f,0xbc,0x6c,0xdf,0xe9,0x3e,
0x97,0x9c,0x84,0x3e,0x91,0xce,0xa9,0x3e,0xa3,0x0b,0x5d,0x3e,
0xef,0xe7,0x1f,0xbd,0xbd,0x31,0xb8,0xbe,0x43,0x87,0x8f,0xbe,
0x5e,0x8e,0x60,0x3e,0xe9,0xab,0x21,0xbe,0x55,0x60,0xfc,0x3d,
0x6b,0x09,0x56,0xbe,0x2b,0x06,0xfe,0x3d,0x40,0xc6,0x05,0xbf,
0x95,0x59,0x08,0xbd,0x20,0x02,0x04,0x3d,0x2c,0x56,0x98,0x3d,
0x94,0x7d,0xc7,0xbe,0x39,0x68,0xc7,0x3e,0x9b,0xfe,0x2f,0x3e,
0x0e,0x95,0x2b,0x3e,0x1b,0xd7,0xe0,0xbe,0xd7,0x22,0x72,0xbe,
0x27,0xef,0x4a,0xbd,0x9c,0x7c,0x1e,0xbb,0x3b,0x80,0xc8,0x3e,
0x22,0x0c,0x38,0x3e,0xe2,0xcf,0x26,0xbd,0xb0,0x75,0x93,0x3d,
0xa1,0x2d,0x0b,0x3e,0xa3,0x52,0xc7,0xbd,0xe1,0x1d,0x2b,0xbd,
0x64,0x7b,0xf9,0x3e,0xc3,0x0c,0xc8,0x3d,0x05,0xfd,0xd2,0x3e,
0x63,0xc1,0x85,0xbe,0xe8,0xcb,0x9d,0x3e,0x4c,0x45,0x62,0x3e,
0x34,0xb8,0x72,0x3e,0x05,0xd3,0x8c,0xbd,0x9b,0xc8,0x8f,0xbe,
0x40,0x8c,0xff,0x3c,0x92,0x75,0x8c,0x3e,0xd8,0xde,0x16,0x3e,
0x18,0x95,0x83,0x3e,0xf9,0xaa,0x86,0xbd,0xdd,0x4c,0xac,0x3d,
0x24,0xc6,0xae,0xbe,0xde,0x63,0xe9,0x3d,0x96,0x24,0x91,0x3e,
0x84,0x39,0x54,0xbd,0xa9,0x0d,0xaf,0xbd,0xcd,0xd1,0xaf,0x3e,
0x1e,0xe4,0xad,0xbc,0xea,0x6c,0x52,0xbd,0xfe,0x87,0xa3,0x3d,
0x7f,0x00,0x3a,0x3d,0x20,0x70,0x9f,0xbe,0xa2,0xf9,0x40,0xbe,
0xa1,0x79,0xbe,0xbd,0x21,0xb0,0x7e,0x3e,0x73,0x50,0x6b,0xbe,
0x6c,0x4b,0xa3,0x3e,0x93,0x44,0x85,0x3e,0xb6,0x3b,0xad,0xbe,
0x28,0x13,0x8d,0xbe,0xb1,0xe5,0x05,0xbe,0xcf,0x23,0xc3,0x3e,
0x19,0xdb,0x3f,0x3e,0x7e,0x65,0x42,0xbe,0x4e,0xbe,0x71,0x3e,
0xb4,0xa1,0x59,0x3e,0x1b,0xb2,0xde,0xbe,0x64,0x87,0xff,0xbe,
0x41,0xf5,0x42,0x3e,0x36,0xa5,0xfb,0x3e,0x89,0xef,0x9c,0x3d,
0x11,0x4b,0x0e,0x3f,0x29,0xf7,0x94,0x3e,0x33,0x83,0x81,0xbe,
0x5d,0xaf,0x05,0xbe,0x5d,0xb4,0xfa,0xbd,0xe9,0x3b,0x96,0x3d,
0x28,0x26,0x91,0x3d,0xc0,0xce,0xc7,0x3b,0x88,0x34,0x8f,0xbd,
0xbd,0x12,0x91,0xbe,0x2b,0x1f,0x11,0xbe,0xf0,0x30,0xa9,0x3c,
0x3f,0x84,0x5c,0xbe,0xf0,0x85,0x51,0x3d,0x49,0x0f,0x75,0xbe,
0xb0,0x07,0x3c,0xbd,0xa0,0xd4,0xbd,0x3d,0x68,0x9a,0x7c,0x3d,
0xca,0xd4,0x76,0x3e,0xb9,0xf3,0x04,0xbe,0x58,0x2d,0x6f,0x3d,
0xe0,0x14,0x34,0xbd,0xba,0x7f,0x41,0xbd,0x34,0x01,0xaf,0x3e,
0x65,0x16,0x39,0x3d,0x84,0x3e,0xc2,0x3d,0x12,0x12,0xd9,0x3d,
0xcb,0x2d,0x57,0xbd,0x10,0xcd,0xe7,0x3d,0x1a,0xf6,0x83,0x3e,
0x54,0x55,0xa5,0xbd,0x66,0x6d,0x9a,0xbe,0x2d,0x92,0xe9,0x3e,
0xef,0xae,0xa4,0x3e,0x0e,0x1d,0xf3,0x3d,0x94,0xd9,0x58,0x3d,
0xdc,0x9a,0xbe,0x3e,0x43,0x4d,0xd4,0x3c,0x4b,0x45,0xaf,0x3e,
0x16,0x7e,0x2b,0xbd,0x17,0xa3,0x02,0x3e,0x56,0x02,0xc0,0xbe,
0x87,0x99,0x85,0xbc,0xec,0x1c,0xab,0x3e,0xd5,0xc3,0xa7,0xbe,
0x7c,0x42,0x49,0x3d,0x54,0xe9,0xaf,0xbe,0xdc,0x58,0xae,0x3e,
0xc8,0x65,0xbf,0xbd,0xa0,0x89,0xc7,0xbe,0x86,0xff,0xea,0xbd,
0xac,0x2e,0x7f,0x3e,0x8e,0xd6,0x86,0xbd,0xda,0x68,0x9e,0x3e,
0xfa,0x5b,0x68,0xbe,0x5b,0xc1,0x9c,0x3d,0xb1,0x9b,0x8b,0xbe,
0x44,0x17,0x9c,0xbc,0x7d,0xa5,0x28,0x3e,0x33,0x4b,0x0a,0xbc,
0x9a,0x68,0x3d,0xbd,0xcd,0xee,0x8b,0xbe,0x66,0xf8,0x4e,0x3e,
0xb9,0x9d,0xc9,0xbc,0x6d,0x72,0x99,0xbe,0x40,0x29,0x01,0xbd,
0xea,0x71,0x4e,0x3e,0xfb,0x4f,0x83,0x3d,0xa2,0x39,0x64,0xbe,
0xd7,0x05,0x8c,0x3e,0x4e,0xee,0xff,0xff,0x04,0x00,0x00,0x00,
0x00,0x02,0x00,0x00,0x5f,0xb4,0xb1,0x3e,0xa6,0xc7,0x65,0xbe,
0xcb,0xe3,0x0e,0xbd,0xfa,0x0c,0x1e,0xbf,0x7d,0xf4,0x4d,0x3e,
0x9b,0xcb,0xb9,0x3e,0x8a,0x2b,0x08,0xbd,0x90,0x96,0xdf,0xbd,
0xb9,0x07,0x55,0x3e,0xbe,0x87,0x11,0xbe,0x9c,0x35,0x89,0xbe,
0x41,0x0c,0x21,0xbe,0x78,0x56,0xcc,0x3e,0x4d,0x89,0x22,0xbf,
0x7d,0xc0,0x52,0xbe,0x5d,0x58,0xeb,0x3e,0x63,0xeb,0xa6,0x3e,
0x72,0x1e,0xc0,0xbe,0x40,0x69,0x46,0xbe,0x96,0xca,0x87,0xbe,
0x96,0xe2,0xbc,0xbe,0x90,0x5e,0x80,0xbc,0xfc,0x4e,0x02,0x3f,
0xd1,0xd5,0x8c,0x3e,0x77,0xec,0xd1,0x3e,0x42,0x8e,0x1d,0xbf,
0xb8,0x87,0x14,0xbe,0xb0,0x27,0x5f,0xbf,0xc8,0x09,0xd2,0x3d,
0x31,0x9a,0x01,0xbf,0x40,0x20,0xb4,0x3d,0x32,0xcf,0x2e,0xbe,
0xc8,0x9f,0x2c,0xbd,0x95,0xe2,0xc4,0x3c,0x22,0x01,0xf5,0xbe,
0xee,0xbb,0x98,0x3e,0xc9,0x3b,0x46,0x3d,0x1e,0x24,0x56,0x3e,
0x75,0x67,0xa1,0xbd,0x3d,0xb8,0x09,0x3e,0x61,0x43,0x5b,0x3e,
0x0e,0x1c,0x95,0x3e,0xe6,0x28,0x93,0x3e,0x7a,0xb1,0x1b,0xbe,
0x97,0x9a,0x83,0x3e,0xd6,0xe5,0x89,0x3e,0x31,0xdb,0xbf,0x3b,
0x76,0x59,0xc5,0xbe,0x83,0xd0,0xfa,0xbd,0x8b,0xaf,0xf8,0x3d,
0xb7,0xa5,0x75,0xbe,0xa8,0x66,0x6f,0xbd,0x39,0x75,0xc1,0x3e,
0xb8,0x8c,0x4b,0x3e,0x79,0xda,0xb1,0x3e,0xdb,0x95,0x26,0xbe,
0x7b,0xa9,0x83,0x3e,0x92,0x4d,0x5f,0x3e,0x4e,0x9c,0xc5,0xbd,
0x63,0xfc,0x7f,0xbe,0xd3,0xc1,0xb4,0xbe,0xd4,0x62,0x24,0x3e,
0xa0,0xad,0xa5,0xbe,0x57,0xea,0xa5,0x3e,0x57,0xef,0xb5,0xbe,
0x94,0xa8,0xc7,0x3e,0xc8,0xd5,0x14,0x3d,0xda,0x79,0xc7,0x3e,
0xa7,0xd4,0xc1,0xbc,0x2f,0x4a,0xea,0xbe,0xd2,0xfc,0x0a,0xbd,
0x90,0x27,0x46,0xbf,0xcc,0x4e,0x10,0xbe,0x6b,0x37,0x25,0xbf,
0x92,0x4f,0x14,0xbe,0x60,0xe1,0xfe,0xbd,0xfd,0x94,0x6b,0xbe,
0x8c,0x56,0x9c,0x3e,0xa2,0x5c,0x04,0x3e,0xb3,0xb0,0xcf,0xba,
0x0d,0xf2,0xbe,0xbe,0xa4,0xf7,0xb9,0xbe,0xd7,0xa2,0x7c,0xbe,
0x1e,0xd5,0x0d,0x3f,0xd6,0xd4,0x01,0x3f,0x30,0xaa,0xbd,0x3c,
0xad,0xaa,0x1f,0xbf,0xd2,0xf3,0x53,0xbc,0x04,0x6a,0x1b,0xbf,
0x44,0x24,0x4f,0x3d,0x68,0x7b,0x76,0xbe,0x07,0x05,0x10,0x3d,
0x4c,0xf4,0x43,0x3e,0x46,0x64,0x91,0xbc,0xca,0xaa,0xc2,0xbe,
0x5d,0xad,0x64,0xbd,0x06,0xbd,0xcb,0xbd,0xf0,0x9c,0xbd,0x3e,
0xec,0x53,0xe0,0x3e,0x32,0x4f,0x9e,0x3e,0xe6,0xda,0x42,0xbf,
0xd5,0x6c,0x78,0x3e,0x75,0xc3,0x97,0xbe,0x99,0x24,0x01,0xbe,
0x78,0x8a,0xc1,0x3d,0x84,0xf3,0xe8,0x3e,0x86,0xe0,0x5b,0xbe,
0x6e,0x58,0x99,0xbd,0xd6,0x26,0xd2,0xbe,0x47,0xf9,0x9f,0x3e,
0xdf,0x7a,0x00,0x3f,0x83,0x85,0x40,0xbe,0xa3,0x31,0xe5,0x3d,
0xea,0x9e,0x41,0x3e,0x84,0xce,0x1a,0x3f,0xe1,0x04,0xcc,0xbb,
0xd8,0x4f,0xf7,0xbe,0x17,0x4f,0xcc,0xbe,0x8d,0x91,0x9a,0x3e,
0x9f,0x93,0x13,0xbe,0x41,0x04,0xd4,0xbe,0x9b,0x95,0x97,0x3e,
0x55,0xf3,0x66,0x3e,0x29,0x14,0xed,0xbd,0xdc,0xa1,0x4d,0x3e,
0x65,0x3d,0xb5,0x3d,0xe6,0x71,0x5d,0xbe,0x76,0x90,0xa2,0x3e,
0x5a,0xf0,0xff,0xff,0x04,0x00,0x00,0x00,0x80,0x01,0x00,0x00,
0x57,0xb5,0x8b,0x3e,0x75,0xfd,0x6e,0xbe,0x9b,0xce,0x96,0x3e,
0x19,0xa9,0x94,0x3e,0x88,0x5f,0xcc,0x3e,0x36,0x8d,0x93,0xbd,
0x13,0xce,0x8d,0xbc,0x8a,0x4c,0xd9,0x3e,0x59,0x85,0x9b,0xbc,
0xf5,0x20,0x1a,0x3f,0xdd,0x7f,0x98,0xbe,0x21,0x33,0x8f,0x3e,
0xaf,0xf1,0x83,0xbe,0xc1,0x3a,0x05,0xbf,0x6e,0x1a,0x6d,0xbd,
0xeb,0xfc,0x42,0xbe,0xc4,0x70,0xa2,0x3e,0x65,0xa9,0x13,0xbf,
0x84,0x60,0x7f,0x3d,0x83,0xa0,0xd6,0xbe,0xdd,0xc3,0x0d,0xbe,
0xa1,0x52,0x00,0xbf,0x97,0x23,0xbd,0xbd,0x59,0xa5,0x4d,0xbe,
0xc8,0xb2,0x90,0xbe,0x7e,0xf8,0x27,0xbf,0x20,0x28,0x94,0xbd,
0xbd,0x67,0xe1,0xbd,0x69,0xf3,0x48,0x3e,0x93,0xe1,0x06,0xbf,
0xac,0xcd,0xcd,0xbd,0x11,0x06,0xc5,0x3e,0x8d,0xff,0x08,0xbe,
0xcf,0xc0,0x99,0xbd,0x97,0xa8,0x9a,0xbd,0x61,0xcc,0x8a,0x3e,
0xb6,0xad,0xaf,0x3d,0x61,0x48,0xdb,0xbd,0x26,0x1a,0x0d,0xbe,
0x35,0x18,0x08,0xbe,0x43,0xc8,0x2e,0xbe,0x47,0x77,0x16,0xbd,
0x76,0x0d,0x93,0xbe,0x62,0x42,0x1e,0x3f,0xf2,0xbe,0xb4,0xbd,
0x80,0x28,0x9f,0x3e,0x3d,0x11,0x73,0xbd,0x51,0x96,0x1b,0x3f,
0xf0,0x72,0xf3,0xbe,0x69,0xe6,0x2a,0xbe,0xbb,0x60,0x9e,0xbe,
0x17,0x91,0x74,0x3e,0xcd,0x27,0xcd,0xbe,0x5e,0x53,0xdc,0xbd,
0x6e,0x21,0xe1,0xbe,0xeb,0x36,0x15,0xbe,0x50,0x0e,0xc7,0xbb,
0xfb,0x10,0xa2,0xbe,0xd2,0xbb,0xee,0xbd,0x53,0xde,0x93,0xbe,
0x2b,0x6b,0xc2,0x3e,0xf2,0xc0,0x86,0x3e,0x40,0xae,0x21,0x3e,
0x39,0x6e,0x88,0xbe,0x9a,0x2a,0x30,0xbd,0x30,0xfb,0x7a,0xbd,
0x07,0xd3,0x3a,0x3e,0x10,0x00,0x7b,0xbe,0xf9,0x65,0x80,0xbd,
0x18,0xf6,0xb0,0x3e,0x4b,0x51,0x07,0x3e,0x1f,0x27,0xe8,0x3e,
0x6c,0x71,0x71,0x3e,0xa0,0x49,0xd0,0x3e,0xff,0xf7,0x07,0xbe,
0xdb,0xa4,0x25,0x3f,0x1e,0xae,0xe8,0x3d,0xfa,0xd3,0x07,0x3f,
0xcd,0xd8,0x98,0x3d,0x23,0x86,0xe8,0x3e,0x26,0xbd,0x3b,0xbc,
0x8b,0x50,0xff,0x3e,0xe5,0x23,0xac,0xbd,0x1e,0xd9,0x24,0x3f,
0x93,0x25,0xbe,0x3e,0xdd,0x22,0xaf,0xbd,0x97,0x5b,0x0c,0x3e,
0xd4,0x29,0xa5,0x3d,0xbd,0x0b,0x07,0x3f,0x71,0x84,0x85,0xbd,
0xf7,0xf9,0xa4,0xbe,0xc1,0x7a,0x0d,0x3f,0x13,0xb4,0xa3,0xbe,
0x15,0xf4,0x1b,0x3f,0xf0,0xb0,0x84,0x3e,0x6d,0x5e,0x33,0x3f,
0xe6,0xf1,0xff,0xff,0x04,0x00,0x00,0x00,0x00,0x0c,0x00,0x00,
0xc2,0xc1,0x49,0x3c,0x74,0x45,0x8f,0x3e,0xaa,0x88,0xd2,0x3d,
0x94,0xb1,0x19,0x3e,0x9b,0xcc,0xf8,0xbc,0x5f,0xce,0x39,0x3e,
0x0a,0x5a,0xbb,0xbd,0x35,0x07,0xb3,0x3d,0xb0,0x0a,0x84,0x3e,
0x52,0xe0,0x7e,0x3e,0x7d,0xbb,0x41,0xbe,0xaa,0xe4,0xc3,0xbc,
0xee,0x6d,0x02,0x3f,0xac,0x59,0x05,0x3e,0xfb,0x9a,0x90,0x3d,
0x44,0xdc,0x6d,0xbd,0x27,0x21,0x65,0xbe,0x8b,0xe5,0x42,0xbd,
0xc7,0xa5,0xec,0xbc,0x46,0x7b,0xce,0x3a,0xcc,0x80,0xd1,0x3d,
0x34,0x5c,0x01,0x3e,0x54,0x2b,0x21,0x3e,0x94,0x4e,0x4c,0x3e,
0x4f,0x4c,0xa9,0xbc,0x14,0xf1,0xfe,0xbd,0xd1,0xf4,0x66,0x3e,
0xb3,0xef,0xad,0x3d,0x67,0x6f,0xa1,0x3e,0xed,0xf2,0xfc,0x3d,
0x86,0x47,0x19,0x3e,0x74,0xe3,0x45,0x3d,0xaf,0xec,0x2c,0xbe,
0x28,0x76,0x06,0xbe,0xa4,0x9a,0xd5,0x3d,0xa3,0x30,0x7b,0x3e,
0x49,0x69,0x69,0x3e,0xd5,0xa3,0x29,0x3e,0x1f,0xe9,0xfd,0x3b,
0x3d,0x78,0x30,0x3e,0x4a,0x47,0x90,0x3e,0x7d,0xff,0x08,0x3e,
0x12,0x66,0x46,0x3d,0xd1,0xa2,0xc1,0x3e,0xc1,0xf5,0x9b,0x3e,
0x03,0x3d,0x30,0x3e,0x30,0x36,0x86,0x3e,0xb5,0xd5,0x97,0xbd,
0xdf,0x1b,0xb2,0x3e,0x73,0x3b,0x95,0xbc,0x58,0x8e,0x8d,0x3c,
0x3f,0xf5,0xfc,0x3b,0x62,0x26,0x34,0x3e,0x89,0xa7,0x2f,0x3e,
0x29,0xa5,0xab,0x3c,0xc5,0x30,0x8e,0xbe,0x06,0x79,0x63,0xbe,
0x16,0xf5,0x3f,0xbe,0xc2,0xf7,0x24,0x3e,0x85,0xde,0xd3,0x3d,
0x48,0xba,0x21,0xbe,0x88,0x8d,0x55,0xbe,0x76,0xd9,0x0f,0xbe,
0x8a,0x00,0x63,0xbe,0xb7,0x96,0xbe,0x3d,0x98,0x32,0x26,0xbe,
0x0a,0x42,0x0f,0xbe,0xa1,0xf4,0x95,0x3d,0xc2,0x4a,0x19,0xbd,
0x84,0xf9,0x27,0x3e,0x4f,0x5a,0xf3,0xbc,0x74,0x35,0x43,0xbe,
0x74,0xfd,0x90,0xbe,0x8a,0xa0,0x04,0xbe,0xce,0x58,0xd1,0x3d,
0x74,0x31,0xc1,0x3d,0x85,0x9c,0x88,0xbd,0x74,0x9c,0x45,0xbe,
0xbd,0x98,0x23,0x3e,0x02,0x96,0x8d,0x3d,0xf8,0x15,0xa3,0x3e,
0xc3,0xa4,0xab,0xbd,0x5b,0x87,0x05,0x3e,0xfa,0xb0,0x21,0x3e,
0x0a,0xf8,0x12,0xbe,0x3d,0x78,0x75,0xbc,0xeb,0xef,0x90,0xbe,
0xaa,0xca,0x37,0x3d,0x38,0xb7,0x2b,0xbe,0x04,0xa4,0x03,0xbc,
0x11,0x46,0xef,0x3d,0x21,0x8d,0xdd,0xbe,0x8c,0xe4,0x9d,0xbe,
0x2d,0x8a,0x2b,0xbe,0xad,0x64,0x58,0x3e,0xe8,0xd6,0x97,0x3d,
0x32,0x83,0x8b,0x3d,0xc2,0xd7,0xad,0x3d,0x24,0x0b,0x83,0x3e,
0x5e,0x69,0xde,0x3c,0x0a,0xd4,0x93,0x3d,0xd5,0x94,0x37,0x3d,
0x80,0xd4,0x1e,0x3e,0x9b,0x7d,0xb5,0x3d,0xe2,0x38,0xa1,0x3e,
0xbd,0x4f,0xa7,0xbd,0x8d,0xf0,0x7a,0x3d,0x3f,0xbc,0x92,0xbe,
0x3b,0x2c,0x84,0x3d,0xa0,0xce,0x1f,0xbe,0xfc,0x94,0x8e,0x3e,
0xa3,0x3e,0x7c,0x3c,0x6e,0xdd,0x07,0x3e,0x5a,0xfa,0xa8,0x3d,
0x38,0x8b,0xbc,0x3e,0x5d,0xc1,0x25,0x3e,0xc0,0x7a,0x88,0x3e,
0x9a,0xe0,0xdc,0xbd,0x71,0xff,0x0e,0x3e,0x0e,0xa5,0x64,0xbe,
0xaa,0x87,0x81,0x3e,0xde,0x49,0xa5,0x3e,0x83,0x33,0x35,0xbe,
0x13,0xe9,0xf2,0x3d,0x8c,0xbd,0x50,0xbe,0x11,0x9d,0x72,0xbe,
0xc7,0x17,0x20,0x3e,0x7f,0x00,0xcd,0xbd,0xfd,0x07,0x00,0x3d,
0xbc,0x20,0x99,0x3d,0x8e,0x65,0x44,0x3e,0x14,0x70,0x85,0x3e,
0xe4,0x80,0x6f,0x3e,0xd5,0x53,0xcf,0xbd,0xea,0xe2,0xa5,0x3d,
0xdb,0x55,0x97,0xbe,0x8f,0xfc,0x81,0xbc,0xb8,0x46,0xa0,0x3e,
0xf4,0x28,0x3c,0xbe,0x80,0x91,0x7c,0xbe,0xbf,0x46,0x16,0xbe,
0xba,0x52,0xb9,0x3d,0x51,0xc5,0x29,0xbd,0x62,0xa9,0x22,0xbe,
0x1d,0x37,0x96,0x3e,0xaf,0xef,0x88,0xbe,0xf6,0x6c,0x6e,0x3e,
0xc2,0x2e,0xad,0x3e,0xf7,0x05,0x5a,0x3e,0x44,0xc3,0x7d,0xbd,
0xf1,0x5d,0x99,0x3e,0x67,0xd7,0x43,0xbe,0x6d,0xde,0x54,0x3e,
0x44,0xae,0x63,0x3d,0xbc,0x13,0x2b,0xbe,0xf2,0x15,0x8e,0x3d,
0x3a,0xbe,0x8a,0xbe,0x52,0xc6,0xb6,0xbe,0xb8,0x9d,0x8a,0x3e,
0x2c,0x8d,0x88,0xbd,0xaa,0xf4,0x89,0x3e,0xb2,0xfe,0x9e,0xbe,
0xcf,0x1a,0x93,0x3e,0x5b,0xdf,0xa3,0x3e,0x3b,0xa1,0x95,0x3e,
0x97,0xd3,0x96,0xbe,0xd7,0x16,0x1b,0xbd,0xef,0x4a,0xfa,0xbd,
0x9d,0x94,0xb9,0x3d,0x9a,0x20,0xb5,0xbd,0x61,0xb9,0x4b,0xbd,
0x2e,0xed,0xc6,0x3d,0x8b,0xaa,0x30,0xbd,0x7f,0x1b,0x81,0xbe,
0xb9,0x5b,0x94,0x3e,0xa3,0xef,0x68,0xbe,0x80,0x63,0x8c,0x3e,
0xfd,0x30,0x5f,0xbe,0xb6,0x0e,0xf1,0x3c,0xba,0xaa,0xcc,0x3d,
0xae,0xc2,0xb9,0x3e,0x80,0x4b,0x32,0x3e,0xb9,0x65,0xdc,0x3d,
0xab,0xe1,0x55,0xbe,0xcb,0x7d,0x0f,0xbe,0xb9,0x91,0x83,0x3e,
0xd7,0x51,0xc3,0xbd,0x3d,0xfa,0xa9,0x3c,0x5f,0xc7,0x2b,0xbd,
0x4e,0xa9,0x45,0xbe,0x64,0xd9,0x6c,0x3e,0x90,0xb2,0xab,0xbd,
0xd7,0x86,0x9a,0x3d,0x18,0xf7,0x06,0xbb,0x47,0x14,0x5c,0xbe,
0x27,0x9f,0xde,0xbd,0x8c,0x02,0x1c,0x3e,0x30,0xcb,0x3a,0x3e,
0xb9,0xae,0x0d,0x3d,0x02,0x43,0xec,0xbd,0x2f,0x2b,0x64,0xbe,
0xa7,0x7b,0x30,0xbe,0xc8,0x74,0x2f,0xbe,0xc1,0x70,0x03,0x3e,
0x49,0xb8,0x0e,0x3d,0x8a,0x5a,0x00,0x3e,0x42,0x93,0xa7,0xbd,
0xbd,0x59,0x32,0x3e,0x2e,0x22,0x76,0x3e,0x01,0xc3,0x5d,0x3e,
0x6d,0xa3,0x82,0xbd,0x78,0xdd,0x45,0x3d,0x24,0x4d,0x3d,0xbc,
0xc9,0x60,0x61,0x3e,0xa4,0x8a,0xef,0xbd,0xe3,0xca,0x09,0xbe,
0x5d,0xaf,0x3d,0xbe,0x02,0x47,0x87,0x3b,0x5f,0x08,0x36,0xbe,
0x81,0x7b,0x68,0xbe,0xc0,0xe0,0x16,0xbe,0x43,0x24,0xed,0x3c,
0x69,0xd1,0x22,0xbe,0x14,0xa4,0x71,0xbe,0xc7,0xb8,0x71,0xbe,
0x35,0x84,0xee,0x3c,0x9d,0xb9,0xca,0xbd,0x20,0x59,0x4f,0xbe,
0xde,0xdd,0x99,0xbd,0x17,0xb4,0x50,0xbc,0xe1,0x73,0xed,0x3d,
0xb4,0xf6,0xe4,0x3a,0xd3,0x7e,0x2a,0xbe,0x1b,0x11,0xeb,0x3d,
0xa4,0x8e,0x06,0x3e,0xff,0x13,0x9e,0xbd,0xfc,0x2a,0x04,0x3c,
0xac,0x1f,0x91,0xbd,0x76,0x06,0x6e,0x3e,0xdf,0xff,0xbd,0x3d,
0xd4,0xd7,0x8a,0x3e,0xf8,0xa7,0x53,0x3e,0x41,0x20,0x3a,0xbe,
0x4c,0x3c,0x00,0xbe,0x31,0xab,0x9c,0xbe,0x2a,0x50,0x82,0xbb,
0x00,0x3b,0x82,0xbe,0x39,0x3b,0x06,0x3d,0xd2,0x8f,0x78,0x3e,
0x22,0xb3,0x02,0xbe,0xdb,0x74,0x60,0x3e,0x57,0x5a,0xac,0x3e,
0x14,0x89,0x65,0x3d,0xfa,0xf4,0xb7,0x3e,0x11,0x91,0xe3,0xbd,
0x6e,0x9c,0xa8,0x3e,0xe0,0x08,0x2b,0x3e,0x37,0xf3,0x60,0x3e,
0x24,0xe3,0x79,0xbe,0xc2,0x69,0x06,0xbc,0xb5,0x1a,0x80,0xbe,
0x6e,0x53,0x89,0x3e,0x4b,0x4d,0x9d,0xbe,0xba,0x88,0x81,0x3e,
0x31,0x3b,0xfa,0x3d,0xe8,0x8f,0xd0,0x3d,0xdf,0x80,0x45,0xbd,
0x41,0x39,0x57,0x3e,0xd2,0xf1,0x21,0x3d,0xac,0x4d,0x6d,0x3e,
0x27,0x98,0xd6,0x3d,0x8c,0xc9,0xaf,0x3e,0xc1,0x05,0xf9,0xbc,
0xa3,0xd7,0x65,0x3d,0x8b,0xd4,0xb2,0xbe,0x5a,0x51,0x43,0xbe,
0x69,0x2c,0x1a,0x3e,0x41,0x91,0x3c,0x3e,0x08,0xb7,0x28,0xbe,
0x0e,0xca,0x48,0x3e,0x3d,0x4a,0x02,0xbe,0x99,0x17,0xd5,0xbc,
0x35,0x8b,0x85,0x3d,0xe4,0xb1,0x77,0x3e,0x9e,0xf3,0xe7,0x3e,
0xc9,0x0e,0x5b,0x3e,0x1e,0x7d,0xe7,0x3d,0x02,0xd8,0x25,0x3e,
0xcf,0xd7,0x00,0x3e,0x4d,0x04,0xd9,0xbd,0x9f,0x70,0x11,0xbd,
0x08,0x9e,0xb8,0x3d,0x28,0x80,0x1b,0x3e,0xdc,0x82,0x34,0x3d,
0x25,0xe4,0x19,0x3e,0x51,0x8f,0xfa,0x3d,0x17,0x29,0xef,0xbc,
0x71,0x96,0xf6,0xbd,0x5d,0x5c,0xf7,0x3d,0x42,0x32,0xe0,0x3e,
0x62,0xc3,0x2e,0x3e,0xf8,0x6e,0xab,0x3d,0x66,0xf8,0x21,0x3e,
0x0b,0x6e,0xbc,0xbd,0xff,0x01,0x6a,0x3c,0xe8,0xd4,0x06,0x3e,
0xc1,0x8d,0xbb,0xbe,0xd1,0x5d,0x52,0x3e,0x13,0x18,0xb9,0x3d,
0x8d,0xc4,0x90,0x3e,0x58,0x0f,0x2c,0x3e,0x45,0x42,0xaa,0x3c,
0x7a,0xca,0x82,0x3e,0x8a,0xc5,0x07,0xbe,0x4b,0x6c,0x58,0x3e,
0xe7,0x0c,0x27,0x3e,0x8e,0x87,0x14,0x3d,0xaa,0x95,0xb0,0x3d,
0x9b,0xb9,0x29,0x3e,0x5f,0x86,0x57,0xbe,0xbe,0x91,0x1b,0x3e,
0xee,0x17,0xcc,0xbd,0x98,0xa7,0x9b,0xbe,0xe0,0xda,0xde,0xbd,
0x66,0x52,0x60,0xbe,0xa0,0x13,0x22,0x3e,0xc9,0x17,0x0d,0x3d,
0x4c,0x8f,0xb5,0xbd,0x84,0xc9,0x4c,0x3e,0x65,0x7c,0x12,0x3c,
0x67,0xdc,0x4d,0x3e,0xde,0x6d,0x99,0x3e,0xcf,0x86,0x6e,0x3e,
0xc8,0x06,0x13,0x3d,0xb7,0x7f,0x57,0x3e,0xc5,0xd4,0xd4,0xbd,
0xe3,0x2b,0xde,0x3d,0x62,0x82,0x42,0x3e,0x8c,0xe4,0x9a,0x3e,
0x4f,0xc8,0x85,0x3d,0xf1,0x34,0x97,0x3c,0xb8,0x75,0x8b,0x3e,
0x0a,0x4e,0x9a,0x3d,0xbe,0x6b,0x96,0xbd,0x3b,0xf3,0x7c,0x3e,
0x71,0x11,0x90,0x3d,0xfc,0x36,0x14,0x3e,0xeb,0xab,0x95,0x3c,
0x41,0x5f,0x32,0xbe,0x9e,0xfa,0x8b,0xbd,0xf1,0x28,0x61,0x3d,
0x8b,0x0c,0x15,0x3e,0xc1,0x77,0x95,0x3d,0x4a,0xdf,0x8c,0xbc,
0x40,0x39,0x26,0x3e,0x2d,0xee,0xfe,0xbd,0x47,0xa3,0x75,0x3e,
0xbf,0xd0,0x58,0x3e,0x2c,0xcc,0x14,0xbe,0x7e,0x7d,0xb7,0xbd,
0xa7,0x16,0xae,0x3e,0x71,0x5c,0x6e,0x3d,0x29,0xea,0x38,0x3d,
0xd8,0xa8,0x55,0xbd,0x8f,0xec,0x8b,0x3d,0x6e,0xa8,0x9f,0x3d,
0x91,0x53,0xe4,0xbc,0x02,0x5c,0x11,0xbe,0xa7,0x09,0x32,0x3d,
0x0e,0xdb,0x56,0xbe,0x9a,0x0c,0x05,0x3e,0xa4,0x34,0x0b,0xbd,
0x28,0x8a,0x9f,0x39,0xea,0x25,0xd2,0x3d,0xf3,0xdd,0xd6,0xbd,
0x05,0x15,0x73,0xbe,0xe9,0xeb,0x32,0x3e,0x5d,0xf3,0xad,0x3d,
0xb8,0x60,0x19,0x3e,0xdf,0x0a,0x02,0xbe,0x5a,0xd5,0xd6,0xbd,
0x40,0xf1,0xf4,0xbd,0xb4,0x38,0x81,0xbd,0x36,0x80,0x16,0x3d,
0x35,0xa1,0xb1,0xbe,0x4d,0xc7,0x40,0xbd,0xfa,0x74,0x74,0x3e,
0x0e,0x23,0xb8,0x3d,0x19,0x41,0xa7,0x3e,0x60,0x44,0xba,0xbb,
0xf3,0x3c,0x94,0xbe,0xcd,0xc9,0x7d,0xbd,0x8d,0x98,0xb9,0xbe,
0x5e,0x07,0x7b,0x3c,0x18,0xbb,0xc5,0xba,0xfc,0xc7,0xbb,0x3b,
0x56,0x34,0x12,0xbe,0xb7,0xe1,0xac,0xbe,0xe7,0xa5,0x94,0xbd,
0x6d,0x6c,0x18,0x3e,0x20,0x54,0xbd,0xbe,0x5c,0x02,0x12,0xbe,
0x82,0xcb,0x66,0x3e,0xef,0x69,0x0c,0x3c,0x42,0x55,0x6b,0xbc,
0x10,0xe1,0xc8,0xbe,0x26,0x7f,0xb5,0xbd,0xe2,0xe2,0x03,0xbe,
0x4c,0x2c,0xdf,0xbe,0x71,0xca,0xd4,0x3d,0xc7,0x03,0x8d,0x3e,
0x41,0x65,0x76,0xbe,0xe5,0x32,0xbc,0xbd,0x6d,0xeb,0xbc,0xbc,
0xe9,0x5a,0xd1,0xbd,0x81,0xd7,0xa6,0xbe,0x03,0xbd,0x80,0xbe,
0x8c,0x9e,0xc5,0xbd,0x8f,0x2f,0xaf,0x3e,0x89,0xe3,0x5c,0x3e,
0x70,0x88,0x6b,0x3e,0x0f,0xd3,0x21,0xbe,0xbb,0xdc,0xc1,0x3d,
0xa0,0x1b,0x9a,0xbe,0x59,0x38,0xf7,0xbe,0xf5,0xaa,0x9c,0x3d,
0x80,0xd9,0x06,0x3f,0x40,0xc4,0x12,0xbc,0xf2,0x1a,0x1d,0xbe,
0x8f,0x76,0x70,0xbe,0x60,0x78,0x29,0xbe,0x40,0xe1,0x7c,0xbd,
0x67,0x3d,0xac,0xbd,0x93,0x43,0x13,0x3d,0x12,0x91,0x28,0x3d,
0x78,0xc5,0x98,0x3d,0xa4,0xe8,0x57,0x3e,0x6a,0x90,0x33,0xbe,
0x8a,0x70,0xb5,0xbe,0xf6,0x85,0x2b,0xbd,0x3f,0x6c,0x0e,0xbe,
0x6e,0x8b,0xb3,0x3d,0xf6,0xd3,0x88,0xbb,0xd8,0xae,0x80,0x3e,
0x2f,0x51,0xa3,0x3e,0xd4,0xdc,0xc5,0x3d,0x93,0x75,0x21,0x3e,
0x5b,0x31,0x79,0x3e,0xe1,0xa9,0x89,0x3d,0xa3,0xe1,0x36,0x3e,
0xd6,0xea,0x42,0xbe,0xd2,0x9e,0xf0,0x3d,0x65,0x79,0xed,0x3d,
0x52,0x0d,0x4e,0x3e,0x5e,0x61,0x8a,0x3d,0xc4,0xad,0x8d,0x3e,
0x4e,0x45,0x5c,0xbe,0xa0,0xbd,0x67,0xbe,0x6e,0xaf,0x2e,0x3e,
0x58,0x6c,0x44,0x3e,0x10,0x4f,0xb4,0x3d,0xd9,0x9d,0x0f,0x3e,
0x58,0x55,0x76,0x3d,0xee,0x9c,0x52,0x3e,0xcb,0xbf,0xb3,0xbd,
0x58,0xc5,0x8c,0xbd,0xfb,0x3e,0x4c,0xbe,0x4a,0xa2,0x5c,0xbe,
0x2b,0x38,0x09,0x3e,0x1e,0x69,0x57,0x3e,0xff,0xb9,0xa7,0xbe,
0x73,0x9e,0x5a,0x3e,0xeb,0x54,0xf8,0x3d,0xac,0x88,0x9b,0x38,
0xa5,0x2c,0xf3,0x3e,0x0d,0x80,0x64,0x3e,0x0a,0x7a,0x0f,0x3e,
0xd2,0xf2,0xcd,0x3e,0x43,0x4c,0x9f,0x3d,0xf7,0xde,0x95,0x3e,
0x27,0x21,0x80,0xbd,0x67,0x6b,0xa3,0xbd,0xec,0x00,0xb0,0x3d,
0x1b,0x7c,0xa4,0x3e,0x4b,0xd2,0x1c,0x3e,0x1e,0x7b,0x2c,0xbe,
0x24,0x4a,0x8b,0x3d,0x7b,0xd4,0xa7,0xbe,0xc3,0x7b,0x2b,0xbe,
0x4b,0x28,0xba,0x3e,0x1f,0x3a,0x92,0x3e,0x8e,0x4d,0x11,0x3e,
0xeb,0x07,0x93,0xbe,0x50,0x6e,0x61,0xbe,0x32,0x32,0x91,0x3e,
0x10,0xfc,0x83,0xbe,0x66,0x48,0x8d,0xbe,0x8a,0xc4,0x67,0x3d,
0x13,0x7f,0x2e,0xbd,0x4d,0x2b,0x9f,0x3e,0xb2,0x1f,0xcd,0x3d,
0xa3,0xe1,0x11,0xbe,0x3c,0xa7,0x4d,0xbe,0x84,0xb0,0x52,0xbe,
0xb2,0x54,0x3f,0xbe,0xa7,0x9c,0x66,0xbb,0x0b,0x5e,0x63,0x3e,
0x10,0x44,0x53,0x3e,0x3f,0x28,0xe9,0xbe,0x25,0xa0,0x26,0x3d,
0xc3,0xd6,0x63,0xbe,0x1e,0x4f,0x1d,0x3e,0x2c,0xb0,0x3a,0x3d,
0xf6,0x46,0x6f,0x3b,0xaa,0x10,0xec,0x3b,0xdd,0x5c,0x1c,0xbd,
0x18,0xad,0xce,0x3e,0xe8,0x6a,0x38,0xbd,0xc3,0x1f,0x13,0xbe,
0xa8,0xb0,0x5a,0xbe,0xd6,0x14,0x84,0xbe,0x3f,0xfc,0xd1,0x3e,
0x07,0x54,0x3a,0x3e,0xff,0x8e,0xb1,0xbe,0x2a,0x17,0x26,0xbe,
0x16,0x56,0xdc,0xbe,0xfe,0x23,0xa0,0x3d,0xa9,0x00,0xc3,0xbc,
0x35,0x3c,0x91,0xbc,0x0c,0x39,0xab,0x3d,0xcd,0xb3,0xb7,0xbd,
0x68,0x64,0x55,0x3e,0x71,0x08,0x9e,0x3d,0x45,0x3a,0xee,0x3c,
0x06,0x9d,0xcd,0xbd,0x55,0x16,0x3a,0xbd,0x28,0x71,0x57,0xbe,
0xca,0x27,0x9b,0x3d,0xc2,0x0d,0x5c,0xbd,0x9c,0xce,0x1c,0xbd,
0x51,0x3c,0xd5,0xbd,0x2f,0x3f,0x0d,0x3d,0x1a,0x25,0xb9,0xbd,
0xd0,0xf5,0x11,0xbe,0xbf,0x36,0xa6,0x3e,0x34,0x8a,0x71,0xbd,
0x2b,0xa4,0x06,0x3e,0x37,0xf4,0x39,0xbc,0xa1,0x6f,0x98,0xbe,
0xdd,0xc7,0x16,0x3e,0xae,0x9a,0x9a,0xbd,0xd0,0xef,0x1f,0xbe,
0x18,0x57,0x07,0xbd,0x48,0xc7,0x45,0x3e,0x8c,0xb5,0xe5,0xbb,
0x85,0x37,0x6e,0x3e,0x21,0xfd,0xdd,0xbc,0xe2,0x74,0x1e,0xbe,
0xca,0x38,0x37,0x3e,0x31,0x97,0xab,0x3d,0xc9,0x50,0xf4,0x3c,
0x94,0x68,0xfb,0x3c,0x79,0x67,0x2c,0xbe,0x7c,0xf7,0x27,0x3e,
0x45,0xf5,0x11,0xbe,0xd3,0xb3,0x66,0xbe,0x16,0x35,0xc6,0x3d,
0x11,0xd0,0x1a,0x3d,0x7a,0x2a,0x36,0x3e,0x54,0xeb,0x4b,0xbe,
0x2d,0x94,0x0d,0x3e,0x42,0x33,0x2c,0xbe,0x54,0xd3,0x04,0x3d,
0x9b,0x39,0x64,0x3e,0xa5,0x38,0xd7,0xbd,0x32,0x43,0x83,0x3e,
0x06,0x4a,0xd7,0xbd,0x5c,0x31,0x21,0xbe,0xd1,0xc4,0x46,0xbe,
0x9d,0x71,0xc2,0x3d,0xa0,0x71,0x36,0x3d,0x00,0xeb,0xd4,0xbb,
0x3f,0x7f,0x4b,0x3e,0x28,0x54,0xa7,0x3d,0xc0,0x6e,0x85,0xbd,
0xf7,0xec,0x46,0xbe,0x55,0xc0,0x10,0x3d,0xf0,0x50,0x6c,0xbd,
0x60,0x80,0x82,0x3d,0x90,0x67,0xd7,0xbd,0x3c,0x03,0x05,0x3d,
0x88,0x4e,0xb8,0x3d,0xe1,0x38,0xa3,0xbb,0x98,0x66,0x18,0xbe,
0x50,0x12,0x03,0x3e,0x85,0x39,0x42,0x3e,0x78,0x52,0x62,0xbe,
0xc8,0xc8,0xe3,0xbd,0x4d,0xe9,0x73,0x3e,0x28,0xa8,0x4e,0xbe,
0xac,0x61,0x0a,0x3e,0xef,0xce,0x6a,0xbe,0x4a,0x97,0x22,0xbe,
0xec,0x64,0x63,0xbe,0xb8,0x98,0x8b,0x3d,0xf8,0x5e,0xe1,0xbd,
0xde,0x6e,0xa9,0x3c,0xa8,0x1f,0xcd,0xbd,0x48,0x0a,0x7f,0xbe,
0x98,0x65,0x08,0xbe,0xe0,0x41,0xd5,0xbc,0xf3,0x4f,0x8a,0x3d,
0xbb,0x40,0x70,0xbd,0x54,0xf4,0x65,0xbe,0xfc,0x0e,0x16,0x3e,
0xc0,0xe0,0xb8,0xbd,0x3c,0x44,0x44,0xbe,0x42,0x78,0x55,0x3b,
0x0d,0xd1,0xe6,0xbd,0xd0,0xa7,0xe4,0xbd,0x1c,0xa5,0x2b,0x3e,
0xd8,0xba,0x86,0xbd,0x60,0xae,0x22,0xbe,0x20,0xd1,0xf1,0x3d,
0xa6,0xa3,0x4b,0xbe,0xe8,0x58,0x00,0xbd,0x5e,0x2f,0xb3,0xbe,
0x4a,0xd2,0x1d,0xbe,0x5d,0x83,0xbb,0xbe,0x04,0xba,0x06,0x3e,
0x2f,0xf6,0x2f,0x3d,0xb0,0xdd,0x8e,0x3c,0x3c,0xfc,0x81,0x3d,
0x7e,0x4d,0x9a,0x3d,0xb6,0x2a,0x98,0x3e,0xa7,0xfe,0x0a,0x3e,
0xbc,0x3c,0xf8,0x3e,0x2d,0x1e,0x9d,0x3e,0x5a,0x98,0x27,0x3e,
0x9a,0x2f,0x5f,0xbc,0x50,0x9b,0x65,0x3e,0xc9,0x92,0x38,0x3e,
0xba,0x94,0x3c,0xbe,0x48,0x3b,0x91,0x3d,0xc9,0xd5,0x18,0xbe,
0x05,0xcf,0x77,0x3e,0xbb,0xa5,0x00,0x3e,0x38,0x61,0xb3,0x3d,
0xb7,0x97,0x41,0xbe,0x1d,0x13,0x67,0xbd,0xee,0x72,0x8f,0x3e,
0x85,0xb2,0xb2,0xbb,0x31,0x57,0xe0,0x3e,0x91,0xe8,0x9f,0x3e,
0x53,0x24,0xc9,0xbd,0x6a,0xbb,0xd1,0x3d,0x9d,0x74,0x79,0x3e,
0xad,0x78,0x50,0x3e,0xf0,0x4a,0xc4,0xbe,0x5d,0x77,0x95,0xbe,
0xbf,0x03,0x09,0x3d,0x3b,0x26,0x63,0x3e,0x34,0xdb,0xff,0x3d,
0x9f,0xf7,0xb4,0x3d,0xa4,0xe3,0x78,0xbd,0x24,0xde,0x9f,0xbe,
0xa7,0x09,0x9d,0x3e,0xb4,0xf6,0xb5,0x3d,0xfa,0x94,0xd2,0x3e,
0xc1,0xf0,0x87,0x3e,0x8b,0x1e,0x34,0x3b,0xc0,0x00,0x78,0x3e,
0x84,0xb4,0xb5,0x3e,0x95,0x99,0x99,0x3d,0xc1,0xca,0x63,0x3e,
0x59,0xeb,0x5b,0x3e,0x19,0xd5,0xa2,0xbd,0xd3,0x48,0xfd,0x3d,
0x82,0x82,0x84,0xbd,0xcd,0x1b,0x10,0x3e,0x8e,0xc5,0x9a,0xbe,
0x89,0x13,0x90,0xbe,0x1c,0x54,0x55,0x3e,0x20,0x60,0x1e,0xbe,
0x36,0xd2,0x1c,0xbc,0x53,0xa9,0x88,0xbe,0x08,0xeb,0x9c,0x3e,
0x64,0x8f,0xb8,0xbd,0x0a,0x6a,0xa1,0xbb,0x47,0x26,0x7b,0x3e,
0xf9,0xb7,0x59,0x3e,0x83,0x7e,0x56,0xbe,0x53,0xbd,0xad,0xbd,
0x93,0x24,0xfa,0xbd,0x84,0xad,0x9b,0x3d,0x73,0xf8,0xc7,0x3a,
0x27,0xd7,0x25,0xbe,0x1a,0x48,0x20,0xbd,0x42,0x24,0x6b,0x3e,
0x47,0x64,0xd3,0xbd,0x7a,0xbd,0x85,0xbe,0xcf,0x15,0xa9,0xbe,
0xf9,0xfd,0xbf,0xbc,0x7f,0x7e,0x61,0xbe,0x94,0xc5,0xa8,0x3c,
0x7c,0xc7,0xdb,0x3d,0x98,0x12,0xaa,0x3e,0xf7,0x50,0x43,0xbe,
0x27,0x5d,0xc9,0xbc,0x18,0x7a,0xe5,0xbd,0x31,0x28,0x31,0x3e,
0xaf,0x4b,0x5c,0xbd,0xf9,0xe9,0xac,0xbd,0x8e,0xff,0xa3,0xbe,
0xe1,0xb4,0x40,0xbd,0x65,0x66,0xc8,0xbe,0xe2,0xd9,0x7b,0xbe,
0x55,0x57,0x14,0xbd,0x09,0x61,0x87,0x3e,0x4c,0x78,0x7b,0x3e,
0x81,0xb4,0xbf,0xbd,0xfa,0x29,0x8f,0xbd,0xea,0x6c,0x84,0xbe,
0x42,0x63,0x33,0x3e,0xdc,0x5b,0xf4,0x3c,0xe6,0xb0,0x91,0xbd,
0xb7,0x27,0x96,0x3d,0x18,0x5a,0x5a,0xba,0x2f,0xfb,0x6b,0x3e,
0x6b,0xce,0x0e,0x3e,0x85,0x21,0x91,0x3e,0x76,0xd8,0x93,0x3c,
0xb6,0x29,0xd6,0x3e,0x60,0x36,0x73,0x3e,0x32,0xb8,0x55,0xbe,
0x63,0x74,0x8a,0x3e,0xfc,0xeb,0x1a,0x3a,0x52,0x39,0xcb,0x3b,
0x7c,0x02,0x4f,0xbd,0x04,0xc8,0xc4,0xbd,0x8c,0x3c,0xca,0x3d,
0xdc,0x3b,0x6b,0xbc,0xe5,0xf8,0x32,0x3e,0x9d,0x03,0x0d,0x3e,
0x8f,0x39,0xe8,0xbc,0x07,0x48,0xf6,0xbc,0xce,0xc7,0x75,0x3d,
0xd0,0x6b,0xb8,0x3e,0x26,0x2b,0x00,0x3f,0xc7,0xb5,0x30,0x3e,
0xab,0xa3,0x08,0xbe,0xb5,0x04,0x44,0x3d,0xcf,0x09,0x66,0x3d,
0x40,0xc8,0xd5,0x3c,0xd4,0x35,0xb1,0xbe,0x0e,0x10,0x08,0xbe,
0x82,0x8a,0x79,0x3b,0xea,0xb7,0x7a,0x3e,0xed,0x3f,0x15,0xbe,
0x7d,0xab,0xa4,0xbd,0x04,0x67,0x8d,0xbd,0xaa,0x38,0x6e,0xbd,
0x4d,0x59,0x4c,0xbd,0x2f,0xd9,0xc2,0x3d,0xff,0xfe,0x10,0x3f,
0xb5,0x6d,0x42,0x3d,0x3d,0x1a,0xa8,0x3e,0xae,0x0a,0xd9,0x3d,
0xf2,0xfd,0xff,0xff,0x04,0x00,0x00,0x00,0x0c,0x00,0x00,0x00,
0xff,0xff,0xff,0xff,0x08,0x00,0x00,0x00,0x10,0x00,0x00,0x00,
0x0a,0xfe,0xff,0xff,0x04,0x00,0x00,0x00,0x0c,0x00,0x00,0x00,
0xff,0xff,0xff,0xff,0x06,0x00,0x00,0x00,0x10,0x00,0x00,0x00,
0x22,0xfe,0xff,0xff,0x04,0x00,0x00,0x00,0x10,0x00,0x00,0x00,
0xc1,0x43,0xb5,0x3d,0x1e,0x71,0x02,0x3e,0x85,0x41,0xb8,0xbc,
0x71,0xa2,0x7e,0xbe,0x3e,0xfe,0xff,0xff,0x04,0x00,0x00,0x00,
0x40,0x00,0x00,0x00,0x42,0x91,0x25,0xbe,0x90,0x3e,0x13,0x3d,
0xe7,0x36,0x34,0xbb,0x4d,0x0a,0x0e,0x3e,0xa1,0x25,0x18,0x3e,
0xf3,0x9d,0x08,0x3e,0x36,0x5d,0xbe,0xbc,0x84,0xd2,0x12,0x3d,
0x43,0x44,0xbd,0xbc,0x1e,0x2d,0x15,0x3e,0x6f,0x82,0xaa,0x3e,
0x90,0xae,0x3c,0x3e,0xc0,0x39,0x4b,0x3e,0x63,0x22,0x01,0x3e,
0x14,0xc0,0xcb,0xbd,0xb4,0xeb,0xb0,0x3d,0x8a,0xfe,0xff,0xff,
0x04,0x00,0x00,0x00,0x40,0x00,0x00,0x00,0x4e,0x4d,0x44,0x3d,
0x72,0x04,0x45,0xbd,0xc6,0x65,0x22,0xbe,0x76,0x17,0xa7,0xbc,
0x22,0x57,0xef,0xbb,0xec,0xda,0x25,0x3e,0x04,0x74,0x8e,0x3e,
0x52,0x74,0x13,0xbd,0x93,0x8f,0x88,0x3e,0x7f,0x46,0x5a,0x3e,
0x31,0x67,0x86,0x3e,0x31,0x38,0xd6,0xbc,0x75,0xfe,0xad,0xbb,
0xac,0xc0,0x26,0x3e,0x17,0x81,0x70,0xbe,0x5f,0x85,0x95,0x3d,
0xd6,0xfe,0xff,0xff,0x04,0x00,0x00,0x00,0x80,0x00,0x00,0x00,
0x08,0xb4,0xe2,0x3d,0x0e,0xea,0x4f,0xbd,0x61,0x2b,0x7d,0xbe,
0xa9,0x9d,0x9b,0x3d,0x57,0x4e,0x74,0x3e,0x15,0xe2,0x0d,0x3e,
0x42,0x10,0xc9,0xbc,0x46,0x50,0xd3,0x3d,0x13,0xd4,0x53,0xbd,
0x9d,0xe7,0x66,0xbc,0x1c,0xbf,0x4f,0xbc,0x71,0x67,0x50,0xbc,
0xf3,0xe6,0x95,0x3e,0x91,0xc7,0x3e,0x3d,0xc4,0xb6,0xec,0xbd,
0xd6,0xbe,0xde,0x3c,0xef,0x7a,0xa3,0x3d,0xa7,0x03,0xf2,0xbc,
0x9e,0x0f,0x3e,0xbe,0x94,0xa8,0x36,0x3e,0xc3,0x67,0x85,0x3e,
0x00,0x00,0x00,0x00,0xbb,0x48,0xe3,0x3d,0x23,0x08,0xd4,0x3d,
0xcd,0x9e,0x33,0x3e,0x47,0x1c,0xeb,0xbc,0x60,0x6b,0xf3,0xbc,
0xd4,0xe0,0x93,0x3d,0x00,0x00,0x00,0x00,0xa1,0x94,0xab,0xbc,
0xf8,0x90,0x6f,0x3c,0xa2,0x70,0x99,0xbc,0xac,0xf3,0xff,0xff,
0xb0,0xf3,0xff,0xff,0x0f,0x00,0x00,0x00,0x4d,0x4c,0x49,0x52,
0x20,0x43,0x6f,0x6e,0x76,0x65,0x72,0x74,0x65,0x64,0x2e,0x00,
0x01,0x00,0x00,0x00,0x14,0x00,0x00,0x00,0x00,0x00,0x0e,0x00,
0x18,0x00,0x14,0x00,0x10,0x00,0x0c,0x00,0x08,0x00,0x04,0x00,
0x0e,0x00,0x00,0x00,0x14,0x00,0x00,0x00,0x1c,0x00,0x00,0x00,
0x90,0x02,0x00,0x00,0x94,0x02,0x00,0x00,0x98,0x02,0x00,0x00,
0x04,0x00,0x00,0x00,0x6d,0x61,0x69,0x6e,0x00,0x00,0x00,0x00,
0x0a,0x00,0x00,0x00,0x48,0x02,0x00,0x00,0xe4,0x01,0x00,0x00,
0xac,0x01,0x00,0x00,0x70,0x01,0x00,0x00,0x28,0x01,0x00,0x00,
0x00,0x01,0x00,0x00,0xcc,0x00,0x00,0x00,0x88,0x00,0x00,0x00,
0x40,0x00,0x00,0x00,0x04,0x00,0x00,0x00,0x92,0xff,0xff,0xff,
0x1c,0x00,0x00,0x00,0x00,0x00,0x00,0x09,0x1c,0x00,0x00,0x00,
0x20,0x00,0x00,0x00,0x05,0x00,0x00,0x00,0x00,0x00,0x06,0x00,
0x08,0x00,0x04,0x00,0x06,0x00,0x00,0x00,0x00,0x00,0x80,0x3f,
0x01,0x00,0x00,0x00,0x16,0x00,0x00,0x00,0x01,0x00,0x00,0x00,
0x15,0x00,0x00,0x00,0x86,0xfe,0xff,0xff,0x14,0x00,0x00,0x00,
0x00,0x00,0x00,0x08,0x10,0x00,0x00,0x00,0x14,0x00,0x00,0x00,
0x04,0x00,0x00,0x00,0x80,0xf4,0xff,0xff,0x01,0x00,0x00,0x00,
0x15,0x00,0x00,0x00,0x03,0x00,0x00,0x00,0x14,0x00,0x00,0x00,
0x09,0x00,0x00,0x00,0x04,0x00,0x00,0x00,0x00,0x00,0x0e,0x00,
0x1a,0x00,0x14,0x00,0x10,0x00,0x0c,0x00,0x0b,0x00,0x04,0x00,
0x0e,0x00,0x00,0x00,0x1c,0x00,0x00,0x00,0x00,0x00,0x00,0x08,
0x1c,0x00,0x00,0x00,0x20,0x00,0x00,0x00,0x04,0x00,0x00,0x00,
0x00,0x00,0x06,0x00,0x08,0x00,0x07,0x00,0x06,0x00,0x00,0x00,
0x00,0x00,0x00,0x01,0x01,0x00,0x00,0x00,0x14,0x00,0x00,0x00,
0x03,0x00,0x00,0x00,0x13,0x00,0x00,0x00,0x0a,0x00,0x00,0x00,
0x01,0x00,0x00,0x00,0x0a,0xff,0xff,0xff,0x14,0x00,0x00,0x00,
0x00,0x00,0x00,0x1b,0x10,0x00,0x00,0x00,0x14,0x00,0x00,0x00,
0x03,0x00,0x00,0x00,0x04,0xf5,0xff,0xff,0x01,0x00,0x00,0x00,
0x13,0x00,0x00,0x00,0x02,0x00,0x00,0x00,0x12,0x00,0x00,0x00,
0x0b,0x00,0x00,0x00,0x6a,0xff,0xff,0xff,0x0c,0x00,0x00,0x00,
0x10,0x00,0x00,0x00,0x02,0x00,0x00,0x00,0x01,0x00,0x00,0x00,
0x12,0x00,0x00,0x00,0x02,0x00,0x00,0x00,0x11,0x00,0x00,0x00,
0x05,0x00,0x00,0x00,0x5e,0xff,0xff,0xff,0x14,0x00,0x00,0x00,
0x00,0x00,0x00,0x01,0x20,0x00,0x00,0x00,0x24,0x00,0x00,0x00,
0x01,0x00,0x00,0x00,0x50,0xff,0xff,0xff,0x00,0x00,0x00,0x01,
0x01,0x00,0x00,0x00,0x01,0x00,0x00,0x00,0x00,0x00,0x00,0x01,
0x01,0x00,0x00,0x00,0x11,0x00,0x00,0x00,0x03,0x00,0x00,0x00,
0x10,0x00,0x00,0x00,0x07,0x00,0x00,0x00,0x02,0x00,0x00,0x00,
0x42,0xff,0xff,0xff,0x10,0x00,0x00,0x00,0x00,0x00,0x00,0x34,
0x0c,0x00,0x00,0x00,0x10,0x00,0x00,0x00,0x98,0xf5,0xff,0xff,
0x01,0x00,0x00,0x00,0x10,0x00,0x00,0x00,0x02,0x00,0x00,0x00,
0x0f,0x00,0x00,0x00,0x0c,0x00,0x00,0x00,0x00,0x00,0x0a,0x00,
0x10,0x00,0x0c,0x00,0x08,0x00,0x04,0x00,0x0a,0x00,0x00,0x00,
0x0c,0x00,0x00,0x00,0x10,0x00,0x00,0x00,0x02,0x00,0x00,0x00,
0x01,0x00,0x00,0x00,0x0f,0x00,0x00,0x00,0x02,0x00,0x00,0x00,
0x0e,0x00,0x00,0x00,0x06,0x00,0x00,0x00,0x00,0x00,0x0e,0x00,
0x18,0x00,0x14,0x00,0x10,0x00,0x0c,0x00,0x0b,0x00,0x04,0x00,
0x0e,0x00,0x00,0x00,0x20,0x00,0x00,0x00,0x00,0x00,0x00,0x01,
0x2c,0x00,0x00,0x00,0x30,0x00,0x00,0x00,0x01,0x00,0x00,0x00,
0x0c,0x00,0x14,0x00,0x13,0x00,0x0c,0x00,0x08,0x00,0x07,0x00,
0x0c,0x00,0x00,0x00,0x00,0x00,0x00,0x01,0x01,0x00,0x00,0x00,
0x01,0x00,0x00,0x00,0x00,0x00,0x00,0x01,0x01,0x00,0x00,0x00,
0x0e,0x00,0x00,0x00,0x03,0x00,0x00,0x00,0x0d,0x00,0x00,0x00,
0x08,0x00,0x00,0x00,0x03,0x00,0x00,0x00,0x00,0x00,0x0e,0x00,
0x14,0x00,0x00,0x00,0x10,0x00,0x0c,0x00,0x0b,0x00,0x04,0x00,
0x0e,0x00,0x00,0x00,0x10,0x00,0x00,0x00,0x00,0x00,0x00,0x34,
0x0c,0x00,0x00,0x00,0x10,0x00,0x00,0x00,0x64,0xf6,0xff,0xff,
0x01,0x00,0x00,0x00,0x0d,0x00,0x00,0x00,0x02,0x00,0x00,0x00,
0x00,0x00,0x00,0x00,0x0c,0x00,0x00,0x00,0x01,0x00,0x00,0x00,
0x16,0x00,0x00,0x00,0x01,0x00,0x00,0x00,0x00,0x00,0x00,0x00,
0x17,0x00,0x00,0x00,0x44,0x09,0x00,0x00,0xf0,0x08,0x00,0x00,
0x9c,0x08,0x00,0x00,0x60,0x08,0x00,0x00,0x24,0x08,0x00,0x00,
0xe4,0x07,0x00,0x00,0x8c,0x07,0x00,0x00,0x44,0x07,0x00,0x00,
0xfc,0x06,0x00,0x00,0xbc,0x06,0x00,0x00,0x7c,0x06,0x00,0x00,
0x3c,0x06,0x00,0x00,0xfc,0x05,0x00,0x00,0x7c,0x05,0x00,0x00,
0xa4,0x04,0x00,0x00,0xf8,0x03,0x00,0x00,0x78,0x03,0x00,0x00,
0x98,0x02,0x00,0x00,0xe4,0x01,0x00,0x00,0x74,0x01,0x00,0x00,
0xe0,0x00,0x00,0x00,0x60,0x00,0x00,0x00,0x04,0x00,0x00,0x00,
0x2e,0xf7,0xff,0xff,0x00,0x00,0x00,0x01,0x14,0x00,0x00,0x00,
0x1c,0x00,0x00,0x00,0x1c,0x00,0x00,0x00,0x17,0x00,0x00,0x00,
0x34,0x00,0x00,0x00,0x02,0x00,0x00,0x00,0xff,0xff,0xff,0xff,
0x04,0x00,0x00,0x00,0x14,0xf7,0xff,0xff,0x1b,0x00,0x00,0x00,
0x53,0x74,0x61,0x74,0x65,0x66,0x75,0x6c,0x50,0x61,0x72,0x74,
0x69,0x74,0x69,0x6f,0x6e,0x65,0x64,0x43,0x61,0x6c,0x6c,0x5f,
0x31,0x3a,0x30,0x00,0x02,0x00,0x00,0x00,0x01,0x00,0x00,0x00,
0x04,0x00,0x00,0x00,0x86,0xf7,0xff,0xff,0x00,0x00,0x00,0x01,
0x14,0x00,0x00,0x00,0x1c,0x00,0x00,0x00,0x1c,0x00,0x00,0x00,
0x16,0x00,0x00,0x00,0x58,0x00,0x00,0x00,0x02,0x00,0x00,0x00,
0xff,0xff,0xff,0xff,0x04,0x00,0x00,0x00,0x6c,0xf7,0xff,0xff,
0x3c,0x00,0x00,0x00,0x73,0x65,0x71,0x75,0x65,0x6e,0x74,0x69,
0x61,0x6c,0x5f,0x31,0x2f,0x64,0x65,0x6e,0x73,0x65,0x5f,0x31,
0x5f,0x32,0x2f,0x4d,0x61,0x74,0x4d,0x75,0x6c,0x3b,0x73,0x65,
0x71,0x75,0x65,0x6e,0x74,0x69,0x61,0x6c,0x5f,0x31,0x2f,0x64,
0x65,0x6e,0x73,0x65,0x5f,0x31,0x5f,0x32,0x2f,0x42,0x69,0x61,
0x73,0x41,0x64,0x64,0x00,0x00,0x00,0x00,0x02,0x00,0x00,0x00,
0x01,0x00,0x00,0x00,0x04,0x00,0x00,0x00,0x02,0xf8,0xff,0xff,
0x00,0x00,0x00,0x01,0x14,0x00,0x00,0x00,0x1c,0x00,0x00,0x00,
0x1c,0x00,0x00,0x00,0x15,0x00,0x00,0x00,0x6c,0x00,0x00,0x00,
0x02,0x00,0x00,0x00,0xff,0xff,0xff,0xff,0x20,0x00,0x00,0x00,
0xe8,0xf7,0xff,0xff,0x52,0x00,0x00,0x00,0x73,0x65,0x71,0x75,
0x65,0x6e,0x74,0x69,0x61,0x6c,0x5f,0x31,0x2f,0x64,0x65,0x6e,
0x73,0x65,0x5f,0x31,0x2f,0x4d,0x61,0x74,0x4d,0x75,0x6c,0x3b,
0x73,0x65,0x71,0x75,0x65,0x6e,0x74,0x69,0x61,0x6c,0x5f,0x31,
0x2f,0x64,0x65,0x6e,0x73,0x65,0x5f,0x31,0x2f,0x52,0x65,0x6c,
0x75,0x3b,0x73,0x65,0x71,0x75,0x65,0x6e,0x74,0x69,0x61,0x6c,
0x5f,0x31,0x2f,0x64,0x65,0x6e,0x73,0x65,0x5f,0x31,0x2f,0x42,
0x69,0x61,0x73,0x41,0x64,0x64,0x00,0x00,0x02,0x00,0x00,0x00,
0x01,0x00,0x00,0x00,0x20,0x00,0x00,0x00,0x92,0xf8,0xff,0xff,
0x00,0x00,0x00,0x01,0x14,0x00,0x00,0x00,0x1c,0x00,0x00,0x00,
0x1c,0x00,0x00,0x00,0x14,0x00,0x00,0x00,0x48,0x00,0x00,0x00,
0x02,0x00,0x00,0x00,0xff,0xff,0xff,0xff,0x10,0x00,0x00,0x00,
0x78,0xf8,0xff,0xff,0x2c,0x00,0x00,0x00,0x73,0x65,0x71,0x75,
0x65,0x6e,0x74,0x69,0x61,0x6c,0x5f,0x31,0x2f,0x67,0x6c,0x6f,
0x62,0x61,0x6c,0x5f,0x61,0x76,0x65,0x72,0x61,0x67,0x65,0x5f,
0x70,0x6f,0x6f,0x6c,0x69,0x6e,0x67,0x31,0x64,0x5f,0x31,0x2f,
0x4d,0x65,0x61,0x6e,0x00,0x00,0x00,0x00,0x02,0x00,0x00,0x00,
0x01,0x00,0x00,0x00,0x10,0x00,0x00,0x00,0xfe,0xf8,0xff,0xff,
0x00,0x00,0x00,0x01,0x14,0x00,0x00,0x00,0x20,0x00,0x00,0x00,
0x20,0x00,0x00,0x00,0x13,0x00,0x00,0x00,0x88,0x00,0x00,0x00,
0x03,0x00,0x00,0x00,0xff,0xff,0xff,0xff,0x06,0x00,0x00,0x00,
0x10,0x00,0x00,0x00,0xe8,0xf8,0xff,0xff,0x69,0x00,0x00,0x00,
0x73,0x65,0x71,0x75,0x65,0x6e,0x74,0x69,0x61,0x6c,0x5f,0x31,
0x2f,0x63,0x6f,0x6e,0x76,0x31,0x64,0x5f,0x31,0x5f,0x32,0x2f,
0x52,0x65,0x6c,0x75,0x3b,0x73,0x65,0x71,0x75,0x65,0x6e,0x74,
0x69,0x61,0x6c,0x5f,0x31,0x2f,0x63,0x6f,0x6e,0x76,0x31,0x64,
0x5f,0x31,0x5f,0x32,0x2f,0x42,0x69,0x61,0x73,0x41,0x64,0x64,
0x3b,0x73,0x65,0x71,0x75,0x65,0x6e,0x74,0x69,0x61,0x6c,0x5f,
0x31,0x2f,0x63,0x6f,0x6e,0x76,0x31,0x64,0x5f,0x31,0x5f,0x32,
0x2f,0x63,0x6f,0x6e,0x76,0x6f,0x6c,0x75,0x74,0x69,0x6f,0x6e,
0x2f,0x53,0x71,0x75,0x65,0x65,0x7a,0x65,0x3b,0x00,0x00,0x00,
0x03,0x00,0x00,0x00,0x01,0x00,0x00,0x00,0x06,0x00,0x00,0x00,
0x10,0x00,0x00,0x00,0xae,0xf9,0xff,0xff,0x00,0x00,0x00,0x01,
0x14,0x00,0x00,0x00,0x24,0x00,0x00,0x00,0x24,0x00,0x00,0x00,
0x12,0x00,0x00,0x00,0xb0,0x00,0x00,0x00,0x04,0x00,0x00,0x00,
0xff,0xff,0xff,0xff,0x01,0x00,0x00,0x00,0x06,0x00,0x00,0x00,
0x10,0x00,0x00,0x00,0x9c,0xf9,0xff,0xff,0x8d,0x00,0x00,0x00,
0x73,0x65,0x71,0x75,0x65,0x6e,0x74,0x69,0x61,0x6c,0x5f,0x31,
0x2f,0x63,0x6f,0x6e,0x76,0x31,0x64,0x5f,0x31,0x5f,0x32,0x2f,
0x52,0x65,0x6c,0x75,0x3b,0x73,0x65,0x71,0x75,0x65,0x6e,0x74,
0x69,0x61,0x6c,0x5f,0x31,0x2f,0x63,0x6f,0x6e,0x76,0x31,0x64,
0x5f,0x31,0x5f,0x32,0x2f,0x42,0x69,0x61,0x73,0x41,0x64,0x64,
0x3b,0x73,0x65,0x71,0x75,0x65,0x6e,0x74,0x69,0x61,0x6c,0x5f,
0x31,0x2f,0x63,0x6f,0x6e,0x76,0x31,0x64,0x5f,0x31,0x5f,0x32,
0x2f,0x63,0x6f,0x6e,0x76,0x6f,0x6c,0x75,0x74,0x69,0x6f,0x6e,
0x2f,0x53,0x71,0x75,0x65,0x65,0x7a,0x65,0x3b,0x3b,0x73,0x65,
0x71,0x75,0x65,0x6e,0x74,0x69,0x61,0x6c,0x5f,0x31,0x2f,0x63,
0x6f,0x6e,0x76,0x31,0x64,0x5f,0x31,0x5f,0x32,0x2f,0x63,0x6f,
0x6e,0x76,0x6f,0x6c,0x75,0x74,0x69,0x6f,0x6e,0x00,0x00,0x00,
0x04,0x00,0x00,0x00,0x01,0x00,0x00,0x00,0x01,0x00,0x00,0x00,
0x06,0x00,0x00,0x00,0x10,0x00,0x00,0x00,0x8a,0xfa,0xff,0xff,
0x00,0x00,0x00,0x01,0x14,0x00,0x00,0x00,0x24,0x00,0x00,0x00,
0x24,0x00,0x00,0x00,0x11,0x00,0x00,0x00,0x50,0x00,0x00,0x00,
0x04,0x00,0x00,0x00,0xff,0xff,0xff,0xff,0x01,0x00,0x00,0x00,
0x08,0x00,0x00,0x00,0x10,0x00,0x00,0x00,0x78,0xfa,0xff,0xff,
0x2e,0x00,0x00,0x00,0x73,0x65,0x71,0x75,0x65,0x6e,0x74,0x69,
0x61,0x6c,0x5f,0x31,0x2f,0x63,0x6f,0x6e,0x76,0x31,0x64,0x5f,
0x31,0x5f,0x32,0x2f,0x63,0x6f,0x6e,0x76,0x6f,0x6c,0x75,0x74,
0x69,0x6f,0x6e,0x2f,0x45,0x78,0x70,0x61,0x6e,0x64,0x44,0x69,
0x6d,0x73,0x00,0x00,0x04,0x00,0x00,0x00,0x01,0x00,0x00,0x00,
0x01,0x00,0x00,0x00,0x08,0x00,0x00,0x00,0x10,0x00,0x00,0x00,
0x06,0xfb,0xff,0xff,0x00,0x00,0x00,0x01,0x14,0x00,0x00,0x00,
0x20,0x00,0x00,0x00,0x20,0x00,0x00,0x00,0x10,0x00,0x00,0x00,
0x80,0x00,0x00,0x00,0x03,0x00,0x00,0x00,0xff,0xff,0xff,0xff,
0x08,0x00,0x00,0x00,0x10,0x00,0x00,0x00,0xf0,0xfa,0xff,0xff,
0x63,0x00,0x00,0x00,0x73,0x65,0x71,0x75,0x65,0x6e,0x74,0x69,
0x61,0x6c,0x5f,0x31,0x2f,0x63,0x6f,0x6e,0x76,0x31,0x64,0x5f,
0x31,0x2f,0x52,0x65,0x6c,0x75,0x3b,0x73,0x65,0x71,0x75,0x65,
0x6e,0x74,0x69,0x61,0x6c,0x5f,0x31,0x2f,0x63,0x6f,0x6e,0x76,
0x31,0x64,0x5f,0x31,0x2f,0x42,0x69,0x61,0x73,0x41,0x64,0x64,
0x3b,0x73,0x65,0x71,0x75,0x65,0x6e,0x74,0x69,0x61,0x6c,0x5f,
0x31,0x2f,0x63,0x6f,0x6e,0x76,0x31,0x64,0x5f,0x31,0x2f,0x63,
0x6f,0x6e,0x76,0x6f,0x6c,0x75,0x74,0x69,0x6f,0x6e,0x2f,0x53,
0x71,0x75,0x65,0x65,0x7a,0x65,0x3b,0x00,0x03,0x00,0x00,0x00,
0x01,0x00,0x00,0x00,0x08,0x00,0x00,0x00,0x10,0x00,0x00,0x00,
0xae,0xfb,0xff,0xff,0x00,0x00,0x00,0x01,0x14,0x00,0x00,0x00,
0x24,0x00,0x00,0x00,0x24,0x00,0x00,0x00,0x0f,0x00,0x00,0x00,
0xa8,0x00,0x00,0x00,0x04,0x00,0x00,0x00,0xff,0xff,0xff,0xff,
0x01,0x00,0x00,0x00,0x08,0x00,0x00,0x00,0x10,0x00,0x00,0x00,
0x9c,0xfb,0xff,0xff,0x85,0x00,0x00,0x00,0x73,0x65,0x71,0x75,
0x65,0x6e,0x74,0x69,0x61,0x6c,0x5f,0x31,0x2f,0x63,0x6f,0x6e,
0x76,0x31,0x64,0x5f,0x31,0x2f,0x52,0x65,0x6c,0x75,0x3b,0x73,
0x65,0x71,0x75,0x65,0x6e,0x74,0x69,0x61,0x6c,0x5f,0x31,0x2f,
0x63,0x6f,0x6e,0x76,0x31,0x64,0x5f,0x31,0x2f,0x42,0x69,0x61,
0x73,0x41,0x64,0x64,0x3b,0x73,0x65,0x71,0x75,0x65,0x6e,0x74,
0x69,0x61,0x6c,0x5f,0x31,0x2f,0x63,0x6f,0x6e,0x76,0x31,0x64,
0x5f,0x31,0x2f,0x63,0x6f,0x6e,0x76,0x6f,0x6c,0x75,0x74,0x69,
0x6f,0x6e,0x2f,0x53,0x71,0x75,0x65,0x65,0x7a,0x65,0x3b,0x3b,
0x73,0x65,0x71,0x75,0x65,0x6e,0x74,0x69,0x61,0x6c,0x5f,0x31,
0x2f,0x63,0x6f,0x6e,0x76,0x31,0x64,0x5f,0x31,0x2f,0x63,0x6f,
0x6e,0x76,0x6f,0x6c,0x75,0x74,0x69,0x6f,0x6e,0x00,0x00,0x00,
0x04,0x00,0x00,0x00,0x01,0x00,0x00,0x00,0x01,0x00,0x00,0x00,
0x08,0x00,0x00,0x00,0x10,0x00,0x00,0x00,0x82,0xfc,0xff,0xff,
0x00,0x00,0x00,0x01,0x14,0x00,0x00,0x00,0x24,0x00,0x00,0x00,
0x24,0x00,0x00,0x00,0x0e,0x00,0x00,0x00,0x50,0x00,0x00,0x00,
0x04,0x00,0x00,0x00,0xff,0xff,0xff,0xff,0x01,0x00,0x00,0x00,
0x0a,0x00,0x00,0x00,0x02,0x00,0x00,0x00,0x70,0xfc,0xff,0xff,
0x2c,0x00,0x00,0x00,0x73,0x65,0x71,0x75,0x65,0x6e,0x74,0x69,
0x61,0x6c,0x5f,0x31,0x2f,0x63,0x6f,0x6e,0x76,0x31,0x64,0x5f,
0x31,0x2f,0x63,0x6f,0x6e,0x76,0x6f,0x6c,0x75,0x74,0x69,0x6f,
0x6e,0x2f,0x45,0x78,0x70,0x61,0x6e,0x64,0x44,0x69,0x6d,0x73,
0x00,0x00,0x00,0x00,0x04,0x00,0x00,0x00,0x01,0x00,0x00,0x00,
0x01,0x00,0x00,0x00,0x0a,0x00,0x00,0x00,0x02,0x00,0x00,0x00,
0x4a,0xfe,0xff,0xff,0x00,0x00,0x00,0x01,0x14,0x00,0x00,0x00,
0x14,0x00,0x00,0x00,0x0d,0x00,0x00,0x00,0x00,0x00,0x00,0x02,
0x20,0x00,0x00,0x00,0xd8,0xfc,0xff,0xff,0x10,0x00,0x00,0x00,
0x61,0x72,0x69,0x74,0x68,0x2e,0x63,0x6f,0x6e,0x73,0x74,0x61,
0x6e,0x74,0x31,0x31,0x00,0x00,0x00,0x00,0x00,0x00,0x00,0x00,
0x86,0xfe,0xff,0xff,0x00,0x00,0x00,0x01,0x14,0x00,0x00,0x00,
0x14,0x00,0x00,0x00,0x0c,0x00,0x00,0x00,0x00,0x00,0x00,0x02,
0x20,0x00,0x00,0x00,0x14,0xfd,0xff,0xff,0x10,0x00,0x00,0x00,
0x61,0x72,0x69,0x74,0x68,0x2e,0x63,0x6f,0x6e,0x73,0x74,0x61,
0x6e,0x74,0x31,0x30,0x00,0x00,0x00,0x00,0x00,0x00,0x00,0x00,
0xc6,0xfd,0xff,0xff,0x00,0x00,0x00,0x01,0x10,0x00,0x00,0x00,
0x10,0x00,0x00,0x00,0x0b,0x00,0x00,0x00,0x1c,0x00,0x00,0x00,
0x4c,0xfd,0xff,0xff,0x0f,0x00,0x00,0x00,0x61,0x72,0x69,0x74,
0x68,0x2e,0x63,0x6f,0x6e,0x73,0x74,0x61,0x6e,0x74,0x39,0x00,
0x02,0x00,0x00,0x00,0x20,0x00,0x00,0x00,0x10,0x00,0x00,0x00,
0x02,0xfe,0xff,0xff,0x00,0x00,0x00,0x01,0x10,0x00,0x00,0x00,
0x10,0x00,0x00,0x00,0x0a,0x00,0x00,0x00,0x1c,0x00,0x00,0x00,
0x88,0xfd,0xff,0xff,0x0f,0x00,0x00,0x00,0x61,0x72,0x69,0x74,
0x68,0x2e,0x63,0x6f,0x6e,0x73,0x74,0x61,0x6e,0x74,0x38,0x00,
0x02,0x00,0x00,0x00,0x04,0x00,0x00,0x00,0x20,0x00,0x00,0x00,
0x3e,0xfe,0xff,0xff,0x00,0x00,0x00,0x01,0x10,0x00,0x00,0x00,
0x10,0x00,0x00,0x00,0x09,0x00,0x00,0x00,0x1c,0x00,0x00,0x00,
0xc4,0xfd,0xff,0xff,0x0f,0x00,0x00,0x00,0x61,0x72,0x69,0x74,
0x68,0x2e,0x63,0x6f,0x6e,0x73,0x74,0x61,0x6e,0x74,0x37,0x00,
0x04,0x00,0x00,0x00,0x10,0x00,0x00,0x00,0x01,0x00,0x00,0x00,
0x03,0x00,0x00,0x00,0x02,0x00,0x00,0x00,0x82,0xfe,0xff,0xff,
0x00,0x00,0x00,0x01,0x10,0x00,0x00,0x00,0x10,0x00,0x00,0x00,
0x08,0x00,0x00,0x00,0x1c,0x00,0x00,0x00,0x08,0xfe,0xff,0xff,
0x0f,0x00,0x00,0x00,0x61,0x72,0x69,0x74,0x68,0x2e,0x63,0x6f,
0x6e,0x73,0x74,0x61,0x6e,0x74,0x36,0x00,0x04,0x00,0x00,0x00,
0x10,0x00,0x00,0x00,0x01,0x00,0x00,0x00,0x03,0x00,0x00,0x00,
0x10,0x00,0x00,0x00,0xc2,0xff,0xff,0xff,0x00,0x00,0x00,0x01,
0x14,0x00,0x00,0x00,0x14,0x00,0x00,0x00,0x07,0x00,0x00,0x00,
0x00,0x00,0x00,0x02,0x1c,0x00,0x00,0x00,0x50,0xfe,0xff,0xff,
0x0f,0x00,0x00,0x00,0x61,0x72,0x69,0x74,0x68,0x2e,0x63,0x6f,
0x6e,0x73,0x74,0x61,0x6e,0x74,0x35,0x00,0x01,0x00,0x00,0x00,
0x03,0x00,0x00,0x00,0x00,0x00,0x16,0x00,0x1c,0x00,0x18,0x00,
0x17,0x00,0x10,0x00,0x0c,0x00,0x08,0x00,0x00,0x00,0x00,0x00,
0x00,0x00,0x07,0x00,0x16,0x00,0x00,0x00,0x00,0x00,0x00,0x01,
0x14,0x00,0x00,0x00,0x14,0x00,0x00,0x00,0x06,0x00,0x00,0x00,
0x00,0x00,0x00,0x02,0x1c,0x00,0x00,0x00,0xa4,0xfe,0xff,0xff,
0x0f,0x00,0x00,0x00,0x61,0x72,0x69,0x74,0x68,0x2e,0x63,0x6f,
0x6e,0x73,0x74,0x61,0x6e,0x74,0x34,0x00,0x01,0x00,0x00,0x00,
0x03,0x00,0x00,0x00,0x56,0xff,0xff,0xff,0x00,0x00,0x00,0x01,
0x10,0x00,0x00,0x00,0x10,0x00,0x00,0x00,0x05,0x00,0x00,0x00,
0x1c,0x00,0x00,0x00,0xdc,0xfe,0xff,0xff,0x0f,0x00,0x00,0x00,
0x61,0x72,0x69,0x74,0x68,0x2e,0x63,0x6f,0x6e,0x73,0x74,0x61,
0x6e,0x74,0x33,0x00,0x01,0x00,0x00,0x00,0x04,0x00,0x00,0x00,
0x8e,0xff,0xff,0xff,0x00,0x00,0x00,0x01,0x10,0x00,0x00,0x00,
0x10,0x00,0x00,0x00,0x04,0x00,0x00,0x00,0x1c,0x00,0x00,0x00,
0x14,0xff,0xff,0xff,0x0f,0x00,0x00,0x00,0x61,0x72,0x69,0x74,
0x68,0x2e,0x63,0x6f,0x6e,0x73,0x74,0x61,0x6e,0x74,0x32,0x00,
0x01,0x00,0x00,0x00,0x10,0x00,0x00,0x00,0xc6,0xff,0xff,0xff,
0x00,0x00,0x00,0x01,0x10,0x00,0x00,0x00,0x10,0x00,0x00,0x00,
0x03,0x00,0x00,0x00,0x1c,0x00,0x00,0x00,0x4c,0xff,0xff,0xff,
0x0f,0x00,0x00,0x00,0x61,0x72,0x69,0x74,0x68,0x2e,0x63,0x6f,
0x6e,0x73,0x74,0x61,0x6e,0x74,0x31,0x00,0x01,0x00,0x00,0x00,
0x10,0x00,0x00,0x00,0x00,0x00,0x16,0x00,0x18,0x00,0x14,0x00,
0x00,0x00,0x10,0x00,0x0c,0x00,0x08,0x00,0x00,0x00,0x00,0x00,
0x00,0x00,0x07,0x00,0x16,0x00,0x00,0x00,0x00,0x00,0x00,0x01,
0x10,0x00,0x00,0x00,0x10,0x00,0x00,0x00,0x02,0x00,0x00,0x00,
0x1c,0x00,0x00,0x00,0x9c,0xff,0xff,0xff,0x0e,0x00,0x00,0x00,
0x61,0x72,0x69,0x74,0x68,0x2e,0x63,0x6f,0x6e,0x73,0x74,0x61,
0x6e,0x74,0x00,0x00,0x01,0x00,0x00,0x00,0x20,0x00,0x00,0x00,
0x00,0x00,0x16,0x00,0x1c,0x00,0x18,0x00,0x00,0x00,0x14,0x00,
0x10,0x00,0x0c,0x00,0x00,0x00,0x00,0x00,0x08,0x00,0x07,0x00,
0x16,0x00,0x00,0x00,0x00,0x00,0x00,0x01,0x14,0x00,0x00,0x00,
0x24,0x00,0x00,0x00,0x24,0x00,0x00,0x00,0x01,0x00,0x00,0x00,
0x40,0x00,0x00,0x00,0x03,0x00,0x00,0x00,0xff,0xff,0xff,0xff,
0x0a,0x00,0x00,0x00,0x02,0x00,0x00,0x00,0x04,0x00,0x04,0x00,
0x04,0x00,0x00,0x00,0x1e,0x00,0x00,0x00,0x73,0x65,0x72,0x76,
0x69,0x6e,0x67,0x5f,0x64,0x65,0x66,0x61,0x75,0x6c,0x74,0x5f,
0x6b,0x65,0x72,0x61,0x73,0x5f,0x74,0x65,0x6e,0x73,0x6f,0x72,
0x3a,0x30,0x00,0x00,0x03,0x00,0x00,0x00,0x01,0x00,0x00,0x00,
0x0a,0x00,0x00,0x00,0x02,0x00,0x00,0x00,0x06,0x00,0x00,0x00,
0x60,0x00,0x00,0x00,0x44,0x00,0x00,0x00,0x34,0x00,0x00,0x00,
0x24,0x00,0x00,0x00,0x14,0x00,0x00,0x00,0x04,0x00,0x00,0x00,
0xc4,0xff,0xff,0xff,0x19,0x00,0x00,0x00,0x00,0x00,0x00,0x19,
0xd0,0xff,0xff,0xff,0x09,0x00,0x00,0x00,0x00,0x00,0x00,0x09,
0xdc,0xff,0xff,0xff,0x28,0x00,0x00,0x00,0x00,0x00,0x00,0x28,
0xe8,0xff,0xff,0xff,0x16,0x00,0x00,0x00,0x00,0x00,0x00,0x16,
0xf4,0xff,0xff,0xff,0x03,0x00,0x00,0x00,0x00,0x00,0x00,0x03,
0x0c,0x00,0x0c,0x00,0x0b,0x00,0x00,0x00,0x00,0x00,0x04,0x00,
0x0c,0x00,0x00,0x00,0x46,0x00,0x00,0x00,0x00,0x00,0x00,0x46,

};
const unsigned int model_len = 10344;
