const unsigned char model[] = {
0x20,0x00,0x00,0x00,0x54,0x46,0x4c,0x33,0x00,0x00,0x00,0x00,
0x14,0x00,0x20,0x00,0x1c,0x00,0x18,0x00,0x14,0x00,0x10,0x00,
0x0c,0x00,0x00,0x00,0x08,0x00,0x04,0x00,0x14,0x00,0x00,0x00,
0x1c,0x00,0x00,0x00,0x98,0x00,0x00,0x00,0xf0,0x00,0x00,0x00,
0x20,0x0b,0x00,0x00,0x30,0x0b,0x00,0x00,0x90,0x12,0x00,0x00,
0x03,0x00,0x00,0x00,0x01,0x00,0x00,0x00,0x10,0x00,0x00,0x00,
0x00,0x00,0x0a,0x00,0x10,0x00,0x0c,0x00,0x08,0x00,0x04,0x00,
0x0a,0x00,0x00,0x00,0x0c,0x00,0x00,0x00,0x1c,0x00,0x00,0x00,
0x3c,0x00,0x00,0x00,0x0f,0x00,0x00,0x00,0x73,0x65,0x72,0x76,
0x69,0x6e,0x67,0x5f,0x64,0x65,0x66,0x61,0x75,0x6c,0x74,0x00,
0x01,0x00,0x00,0x00,0x04,0x00,0x00,0x00,0x90,0xff,0xff,0xff,
0x0a,0x00,0x00,0x00,0x04,0x00,0x00,0x00,0x08,0x00,0x00,0x00,
0x6f,0x75,0x74,0x70,0x75,0x74,0x5f,0x30,0x00,0x00,0x00,0x00,
0x01,0x00,0x00,0x00,0x04,0x00,0x00,0x00,0xc6,0xf4,0xff,0xff,
0x04,0x00,0x00,0x00,0x0f,0x00,0x00,0x00,0x6b,0x65,0x72,0x61,
0x73,0x5f,0x74,0x65,0x6e,0x73,0x6f,0x72,0x5f,0x31,0x36,0x00,
0x02,0x00,0x00,0x00,0x34,0x00,0x00,0x00,0x04,0x00,0x00,0x00,
0xdc,0xff,0xff,0xff,0x0d,0x00,0x00,0x00,0x04,0x00,0x00,0x00,
0x13,0x00,0x00,0x00,0x43,0x4f,0x4e,0x56,0x45,0x52,0x53,0x49,
0x4f,0x4e,0x5f,0x4d,0x45,0x54,0x41,0x44,0x41,0x54,0x41,0x00,
0x08,0x00,0x0c,0x00,0x08,0x00,0x04,0x00,0x08,0x00,0x00,0x00,
0x0c,0x00,0x00,0x00,0x04,0x00,0x00,0x00,0x13,0x00,0x00,0x00,
0x6d,0x69,0x6e,0x5f,0x72,0x75,0x6e,0x74,0x69,0x6d,0x65,0x5f,
0x76,0x65,0x72,0x73,0x69,0x6f,0x6e,0x00,0x0e,0x00,0x00,0x00,
0x2c,0x0a,0x00,0x00,0x24,0x0a,0x00,0x00,0x94,0x09,0x00,0x00,
0x84,0x07,0x00,0x00,0xf4,0x06,0x00,0x00,0xd4,0x06,0x00,0x00,
0xc4,0x04,0x00,0x00,0xb4,0x00,0x00,0x00,0xac,0x00,0x00,0x00,
0xa4,0x00,0x00,0x00,0x9c,0x00,0x00,0x00,0x94,0x00,0x00,0x00,
0x74,0x00,0x00,0x00,0x04,0x00,0x00,0x00,0x7a,0xf5,0xff,0xff,
0x04,0x00,0x00,0x00,0x60,0x00,0x00,0x00,0x0c,0x00,0x00,0x00,
0x08,0x00,0x0e,0x00,0x08,0x00,0x04,0x00,0x08,0x00,0x00,0x00,
0x10,0x00,0x00,0x00,0x28,0x00,0x00,0x00,0x00,0x00,0x06,0x00,
0x08,0x00,0x04,0x00,0x06,0x00,0x00,0x00,0x04,0x00,0x00,0x00,
0x01,0x00,0x00,0x00,0xea,0x03,0x00,0x00,0x0c,0x00,0x18,0x00,
0x14,0x00,0x10,0x00,0x0c,0x00,0x04,0x00,0x0c,0x00,0x00,0x00,
0xd5,0x3d,0x3c,0xf5,0xf3,0x3a,0xa5,0x61,0x02,0x00,0x00,0x00,
0x02,0x00,0x00,0x00,0x04,0x00,0x00,0x00,0x06,0x00,0x00,0x00,
0x32,0x2e,0x32,0x30,0x2e,0x30,0x00,0x00,0xe6,0xf5,0xff,0xff,
0x04,0x00,0x00,0x00,0x10,0x00,0x00,0x00,0x32,0x2e,0x31,0x37,
0x2e,0x30,0x00,0x00,0x00,0x00,0x00,0x00,0x00,0x00,0x00,0x00,
0x54,0xef,0xff,0xff,0x58,0xef,0xff,0xff,0x5c,0xef,0xff,0xff,
0x60,0xef,0xff,0xff,0x12,0xf6,0xff,0xff,0x04,0x00,0x00,0x00,
0x00,0x04,0x00,0x00,0x49,0xe6,0xff,0x06,0x02,0xf6,0x29,0x03,
0x11,0xd9,0x08,0x44,0x0d,0x04,0x1a,0x0c,0x09,0xf9,0x07,0x20,
0xac,0x13,0xed,0xb5,0x2f,0x46,0x7f,0x67,0x9f,0xb4,0x0a,0xb5,
0x3a,0x09,0x0e,0x0d,0xf2,0xc3,0x3e,0x21,0x1b,0x16,0xe4,0x0e,
0x20,0xf9,0x3e,0x23,0xd4,0x11,0x10,0x10,0x22,0x3b,0xf9,0xe5,
0xfb,0x33,0x07,0x39,0x81,0xf8,0xfa,0xd6,0x2f,0x12,0x1b,0xfd,
0xfc,0x03,0x02,0x01,0x1a,0xeb,0xf0,0x4c,0x57,0x05,0x13,0x15,
0xe3,0x0b,0xf2,0x38,0xc5,0x06,0xc9,0xc7,0x12,0x26,0x3a,0xfc,
0x81,0xab,0xcb,0xa7,0x12,0xf7,0x22,0xc1,0xf3,0x12,0x17,0xfe,
0xdb,0xd7,0xb9,0xfb,0x42,0x03,0x23,0xcd,0xce,0x06,0xb5,0x2b,
0x0a,0x05,0x0a,0x0d,0x0d,0x04,0x0f,0x10,0x7f,0x0b,0x93,0x09,
0x01,0x05,0x0c,0xfd,0xec,0x81,0x18,0x09,0xf9,0xff,0x00,0x3a,
0x01,0x03,0x15,0x14,0xf2,0x06,0xfa,0xe3,0x0b,0x15,0xf8,0x04,
0x2b,0x25,0x15,0x13,0x8c,0x09,0xfe,0xe3,0xa2,0xe6,0xef,0x10,
0x06,0x1b,0xfd,0x03,0x18,0xdd,0x07,0xcf,0xf7,0xfc,0xf6,0xec,
0x05,0xec,0x0e,0xeb,0xc1,0xae,0x2c,0xfc,0xf2,0x87,0x83,0x81,
0x3e,0xf5,0x09,0x10,0x22,0x37,0x14,0x00,0x0d,0xb8,0x11,0x07,
0x1f,0xf8,0x04,0x29,0x29,0xfb,0x56,0x05,0xfa,0x00,0x06,0xfa,
0xac,0x28,0x2b,0xba,0x29,0x6c,0x7f,0x36,0xa0,0xbd,0xfa,0xb3,
0x24,0xc3,0xbe,0xff,0xe2,0xe9,0xf4,0x11,0x38,0xf3,0x09,0x12,
0x03,0x00,0x24,0xd3,0x18,0x3d,0x3e,0xc3,0x21,0x31,0x7f,0x2b,
0x42,0xe6,0x2d,0xf5,0x7b,0x27,0xd0,0x19,0xf2,0xbc,0x0f,0xe9,
0xad,0x40,0x0a,0x81,0xf5,0x17,0xe5,0xc0,0x11,0x1d,0x06,0x02,
0x4d,0x93,0xe0,0xd9,0xf8,0xb5,0x31,0x1f,0x26,0xeb,0x0e,0xe9,
0x68,0x1d,0x56,0x36,0x38,0x1e,0x1b,0x03,0xfa,0x11,0x48,0xfd,
0xfe,0x08,0xfe,0xfe,0xe7,0x00,0xf3,0x07,0x1f,0xec,0xfe,0x2a,
0xc8,0xe4,0x81,0xea,0x02,0x58,0x4d,0x3b,0xa5,0xbc,0x19,0x9d,
0x6c,0x08,0x18,0x04,0x0e,0xf2,0x26,0xff,0x13,0xd7,0x07,0x0c,
0x25,0xfd,0x30,0x04,0xfd,0xee,0x08,0x25,0x81,0x32,0x54,0xaf,
0x43,0x5b,0x57,0x74,0xba,0x97,0xfe,0x8f,0x1d,0xec,0x1a,0xa7,
0xf9,0x40,0x1d,0xd7,0xdc,0x07,0xb1,0xf1,0x13,0xf3,0x07,0xfd,
0xd0,0x06,0xac,0x1b,0x0d,0x10,0x0d,0x01,0x16,0x25,0x22,0x21,
0x7f,0x07,0xbb,0x0c,0x30,0xfc,0x19,0xf9,0x22,0xa8,0x53,0x09,
0x02,0x47,0xe9,0x22,0x36,0x32,0x57,0x39,0x18,0x15,0xf6,0x4c,
0x50,0x3f,0xff,0x29,0x63,0x27,0xdc,0x15,0x81,0x28,0xd7,0xee,
0x14,0xff,0x14,0x81,0xff,0x58,0x10,0xbf,0xdc,0x0a,0xa6,0xee,
0x10,0xe6,0x16,0x17,0xe1,0xb9,0xab,0x20,0x19,0xf4,0x12,0xfd,
0x0f,0x12,0x0c,0xfc,0x43,0x1d,0xa3,0x19,0x21,0xf4,0x1e,0xb1,
0x0c,0x2d,0x1f,0xd1,0xd8,0xfd,0xbb,0xe3,0x11,0xe0,0x22,0xff,
0xbf,0x06,0xc7,0x39,0x08,0x10,0x18,0x07,0x01,0x1f,0x20,0x19,
0x46,0xff,0x81,0x1d,0x09,0xee,0xaf,0xff,0x04,0xf2,0x04,0x0f,
0x03,0xbe,0x0c,0xe7,0x09,0xcd,0x02,0x00,0xc2,0x06,0xfe,0x07,
0x81,0x00,0xf9,0xda,0x0c,0x0b,0x02,0xfd,0xca,0x95,0xd8,0xce,
0x02,0x46,0x41,0xc4,0xfb,0x3a,0x21,0xfe,0xab,0x1e,0xe4,0xe2,
0x57,0xbf,0x35,0x46,0xb5,0xef,0xa2,0x7f,0x10,0x06,0xf2,0x1c,
0x18,0xf5,0xe9,0xe0,0xfa,0x34,0xcd,0x23,0x2d,0xad,0xd9,0x51,
0x13,0x1c,0xe0,0x40,0x5f,0x2c,0x62,0xf1,0x2c,0xfe,0xcb,0x0e,
0xdb,0x0d,0x59,0xbe,0x1c,0x33,0x7f,0x62,0xd5,0xf4,0x3d,0x38,
0x7c,0x37,0x05,0x60,0x1d,0xaf,0x52,0x08,0xed,0xf9,0x33,0x08,
0xf6,0xf8,0x02,0xce,0x81,0x14,0x1c,0xc1,0x16,0xf4,0x04,0xb1,
0xb6,0x09,0x38,0xce,0xd4,0x2d,0x31,0x1e,0xb9,0xaa,0x13,0xd6,
0x4d,0xe0,0x1b,0x09,0x0b,0xc5,0x09,0xf5,0x0c,0xf5,0xfd,0xfa,
0x2a,0x01,0x1a,0x05,0xdc,0x1d,0xf4,0xe1,0x13,0x2f,0x12,0xed,
0x1b,0x3e,0x3c,0x26,0x81,0x12,0xe0,0x06,0x27,0x15,0xa2,0x0d,
0x0f,0xf2,0x24,0x05,0x01,0xbb,0xfe,0x0e,0x23,0xa7,0x15,0x03,
0xba,0x0f,0x14,0xf7,0x81,0x08,0x04,0xa9,0x09,0xff,0xf6,0x13,
0x9d,0x86,0xb8,0xc3,0x0c,0x0e,0xe8,0xa4,0xe0,0xf0,0xda,0x35,
0xe6,0xfd,0x81,0xfd,0x34,0x09,0xf8,0xf9,0xf7,0xfd,0x8a,0x0e,
0xfd,0xfe,0x11,0x08,0xda,0x02,0xfb,0x01,0xcb,0x00,0xe5,0xf7,
0x11,0x0c,0x15,0x81,0xef,0x4f,0x0f,0xb1,0xd1,0x14,0x9a,0xd6,
0x0f,0xeb,0x14,0x04,0xea,0x0b,0xa3,0x33,0x0a,0xff,0x05,0x03,
0x00,0x15,0x2c,0x11,0x7d,0x0a,0xa4,0x26,0x39,0x08,0x47,0xfd,
0xeb,0xc5,0x57,0x53,0x1f,0x25,0x26,0x14,0x34,0x37,0x4c,0x2b,
0x12,0xfe,0xfe,0x1e,0x6e,0x1f,0x3e,0x5e,0x56,0x34,0x32,0xfa,
0xcd,0x7f,0xf6,0x14,0x91,0x1f,0xf2,0x0d,0x04,0xc7,0x8b,0x07,
0x07,0xc4,0x09,0xd6,0xd3,0x1c,0x87,0x97,0x0d,0xf8,0x0f,0x17,
0xf3,0xdc,0xe5,0x03,0x91,0xc9,0xba,0xda,0x7f,0xe2,0x0c,0xe4,
0x0b,0xf3,0x06,0xfb,0xe0,0x38,0x08,0xaf,0xf7,0xf4,0xd0,0xf0,
0x0a,0x17,0x0a,0x22,0x30,0xd1,0xeb,0x19,0x21,0xe7,0x10,0x08,
0x13,0x05,0x2a,0xf6,0x7f,0x1d,0x2b,0x11,0x2e,0xb4,0x04,0x07,
0xe0,0xda,0x34,0xf7,0x21,0xf8,0x10,0xf5,0x04,0x06,0x38,0xf4,
0x05,0xcc,0x0c,0xb3,0xbb,0x3a,0xf1,0xf7,0x13,0x3a,0x23,0x44,
0x81,0xbc,0x05,0xd9,0xa2,0x0f,0xde,0x09,0x03,0x1e,0x9c,0xfe,
0x0d,0x02,0x0a,0xdb,0xfb,0x10,0xe6,0xeb,0x04,0xfe,0x0e,0x08,
0x01,0xc6,0x03,0x00,0xbe,0x9a,0x9c,0x81,0x4b,0x03,0x08,0x1c,
0x00,0xfe,0x15,0x81,0xec,0x52,0x10,0xb0,0xce,0x26,0x9f,0xfb,
0x17,0xeb,0x18,0x0d,0xea,0xc6,0xac,0x23,0xfc,0xef,0x13,0x08,
0x28,0x09,0x13,0x09,0x52,0x00,0xc3,0x3a,0x22,0xe3,0xc0,0x08,
0x04,0xd2,0x07,0x03,0x11,0xbc,0x0d,0xe7,0x0a,0x9a,0x06,0xf9,
0xae,0x01,0x0d,0xfe,0x81,0x02,0xf1,0xdc,0x03,0xf1,0x0b,0x04,
0xab,0x9f,0xba,0xd2,0xb7,0x2c,0x28,0xe8,0xf8,0x0b,0x17,0x01,
0xfa,0xe7,0xe0,0xe9,0x05,0xf4,0x0e,0x04,0xda,0x0a,0xe2,0x2c,
0x22,0xfa,0x81,0x00,0x08,0xc5,0xbd,0xcd,0x0a,0x17,0x87,0xc8,
0xf5,0x08,0x0d,0x02,0x0f,0xf8,0x16,0xea,0xed,0xf6,0xf0,0x05,
0x0a,0x1e,0x11,0x2b,0x0e,0x10,0xf9,0x26,0xf9,0x0f,0xba,0xf2,
0x07,0xfe,0xfa,0xfa,0xa5,0xc3,0xf9,0x81,0x1e,0xfa,0xff,0xff,
0x04,0x00,0x00,0x00,0x00,0x02,0x00,0x00,0xc5,0xa2,0xff,0xbf,
0x35,0x28,0x22,0xbe,0x71,0x82,0x89,0xbf,0x4b,0x58,0x35,0x3f,
0xc4,0x45,0x1b,0xbf,0x70,0xa7,0xac,0x3f,0xa6,0xf8,0x62,0xbf,
0xd3,0x23,0x75,0x3e,0x76,0x42,0x58,0x3f,0x28,0x30,0xa6,0xbf,
0x42,0x90,0x89,0xbf,0xf9,0xc2,0xea,0x3f,0x07,0x6c,0x22,0x3e,
0x2f,0xc8,0xd5,0x3f,0xe6,0x71,0xbb,0x3f,0xc0,0x35,0x64,0xbe,
0xdc,0x9c,0x0a,0x3e,0x4e,0xa9,0xaf,0x3e,0x78,0x88,0x92,0xbf,
0xfb,0xf6,0x15,0x3d,0x9b,0x73,0x9f,0xbf,0xd1,0xbc,0x0d,0xbf,
0xa1,0x53,0x03,0x40,0xa5,0x6f,0x08,0x3e,0xd0,0x38,0xbb,0x3f,
0x80,0x94,0xa7,0x3f,0x8f,0x09,0x9b,0xbf,0xcf,0x4e,0x04,0x40,
0x7e,0x8b,0xcb,0x3f,0x95,0x38,0x1d,0xbf,0x35,0x84,0xc4,0xbd,
0x41,0x33,0x5c,0xbf,0x50,0xfd,0x16,0x3e,0xa3,0xbe,0x15,0x3e,
0x46,0x5d,0xd2,0x3e,0x23,0x0f,0xb2,0x3e,0x07,0x54,0x37,0x3e,
0x76,0xda,0xd0,0xbf,0x44,0xb7,0x4e,0x3e,0x5b,0x96,0x4d,0x3e,
0xb6,0x40,0x9e,0xbf,0xf9,0x1b,0x19,0x3f,0x21,0xff,0xb1,0x3e,
0x7e,0x6d,0x09,0xbf,0xe5,0x3a,0xaf,0x3e,0x53,0xbf,0xc8,0xbf,
0xf3,0x86,0x10,0xbe,0xdc,0xd0,0x73,0xbf,0x88,0xcb,0xe9,0x3e,
0x40,0x8d,0x8d,0x3e,0xf8,0x78,0x32,0xbf,0xf1,0x3d,0x64,0x3e,
0x4c,0xc9,0xdc,0xbd,0xaa,0x6a,0xb5,0x3e,0x17,0xa8,0x8d,0xbf,
0xec,0x0c,0x5f,0x3e,0xc2,0xdf,0x29,0x3f,0x92,0x67,0x9d,0xbf,
0x1e,0xaf,0x0f,0x3e,0x81,0x1d,0x55,0xbf,0x8f,0xb4,0xa4,0xbf,
0xe1,0xa0,0xb0,0xbf,0xa1,0xd6,0x32,0x3f,0x93,0x7a,0xde,0x3e,
0x5c,0xc8,0x72,0x3e,0x72,0xfa,0x5b,0x3e,0x4c,0x33,0xbe,0x3e,
0x3e,0x93,0x6c,0xbf,0x73,0xe2,0x98,0x3e,0x6c,0xf5,0xe9,0x3e,
0xbc,0x7a,0x85,0x3e,0xbb,0x3d,0xa9,0x3e,0xa9,0xf7,0x3c,0x3f,
0x9b,0x00,0xd6,0x3e,0x68,0x58,0xd2,0x3e,0x1b,0xaf,0x86,0xbf,
0x4e,0x70,0xa5,0x3e,0x18,0x6c,0x2f,0xbf,0xec,0x4f,0x2d,0xbf,
0x84,0x76,0x9a,0x3f,0x57,0xdc,0x60,0xbe,0xa4,0x06,0xad,0x3e,
0x17,0x77,0xa1,0x3f,0x57,0x6a,0xaf,0x3e,0xac,0x09,0xef,0x3e,
0x43,0x8f,0x0f,0xbf,0x66,0x4d,0x92,0xbf,0xab,0xae,0x63,0x3e,
0x25,0x11,0xa7,0xbf,0x28,0x19,0xe8,0xbe,0x43,0xda,0xde,0x3e,
0xf2,0x8d,0x63,0xbf,0x4e,0x03,0xb8,0xbe,0xa0,0x90,0xb2,0x3f,
0x59,0x13,0x73,0xbf,0x21,0xe4,0x01,0x3e,0x37,0x46,0x7d,0xbc,
0xfd,0x6d,0x37,0xbf,0x3f,0x46,0x80,0x3d,0x7f,0x6b,0x03,0xbf,
0xc3,0x97,0xc6,0xbf,0x92,0xa0,0x65,0xbf,0xcb,0x90,0xcc,0xbe,
0x83,0x38,0x99,0xbf,0x1a,0x89,0x29,0xbf,0xf9,0x21,0x21,0xbe,
0x11,0xdd,0x2d,0xbf,0xf2,0x39,0xcf,0xbe,0xd6,0x1d,0x9f,0xbf,
0xd1,0x9a,0x24,0xbd,0x3a,0xb2,0x06,0xbf,0x39,0x2e,0xbf,0xbe,
0x54,0x37,0x0d,0xbf,0xd9,0x64,0x2c,0xbf,0x44,0x63,0xeb,0xbe,
0x3b,0x28,0x4d,0xbf,0x10,0x1b,0x0e,0xbf,0xac,0x58,0x8a,0xbf,
0x98,0x44,0x53,0xbf,0x8c,0x46,0xcd,0xbf,0x05,0xad,0x4b,0xbf,
0xfd,0x0c,0x7f,0xbe,0x3a,0xf6,0xbc,0xbe,0x38,0x21,0x97,0xbc,
0xce,0x65,0xfc,0xbe,0x46,0x6d,0x3b,0xbf,0x1b,0xb3,0x4b,0xbf,
0xc3,0xb8,0xb8,0xbe,0x2a,0xfc,0xff,0xff,0x04,0x00,0x00,0x00,
0x10,0x00,0x00,0x00,0xd4,0x7a,0x14,0xbe,0xc7,0xec,0xd5,0x3d,
0x60,0x5b,0x14,0x3e,0xb0,0x28,0xc5,0xbe,0x46,0xfc,0xff,0xff,
0x04,0x00,0x00,0x00,0x80,0x00,0x00,0x00,0xc4,0xfe,0x92,0xbe,
0xf9,0x4d,0x03,0x3e,0x29,0xf5,0x42,0x3e,0x4c,0xd5,0xcb,0xbd,
0x29,0x15,0x0b,0x3e,0x19,0xe4,0x8f,0x3e,0x5b,0xbb,0x18,0xbe,
0xd1,0x97,0x55,0x3e,0x67,0x9e,0x48,0xbe,0xb9,0x96,0x29,0xbd,
0x19,0x80,0x30,0xbe,0xd1,0x38,0x79,0xbe,0x8e,0x17,0xd6,0x3e,
0x20,0x55,0xd2,0xbe,0x4b,0x36,0x5d,0xbe,0x4e,0x10,0xad,0x3d,
0xbe,0x09,0x4c,0xbd,0x66,0x39,0x46,0x3e,0x93,0x8e,0x06,0xbf,
0x30,0xde,0x47,0x3e,0xc6,0xfc,0x07,0xba,0x00,0x0c,0xdb,0x3b,
0xcb,0x87,0x90,0xbe,0xc5,0x19,0x15,0x3f,0xc5,0xd4,0xd8,0x3e,
0xce,0x77,0xb5,0xbe,0x21,0x06,0x19,0xbe,0x54,0xda,0x32,0x3e,
0xcb,0xb5,0xa3,0xbe,0xc5,0x8e,0xad,0x3d,0x67,0x75,0xb9,0x3d,
0x31,0xdc,0x98,0x3d,0xd2,0xfc,0xff,0xff,0x04,0x00,0x00,0x00,
0x00,0x02,0x00,0x00,0xed,0x19,0x13,0x3f,0x14,0x91,0x60,0x3e,
0x87,0x76,0x61,0x3f,0x8d,0x2d,0x66,0x3d,0xc9,0xfe,0x0c,0xbf,
0xf9,0x22,0x17,0x3e,0xc7,0x56,0x1c,0xbd,0xfb,0xac,0x2e,0x3f,
0xcb,0xc2,0x17,0xbf,0xf6,0xd5,0x8c,0xbb,0x23,0x79,0x4e,0xbf,
0x00,0x98,0xc6,0x3e,0x44,0xa4,0x95,0x3e,0x3a,0x59,0xe6,0xbe,
0x43,0x48,0x2b,0x3f,0x3d,0x9c,0x9e,0xbc,0x66,0x2f,0x31,0xbe,
0xa6,0xf8,0x9a,0xbe,0xf4,0x45,0x95,0x3d,0xf6,0x60,0x40,0xbe,
0x43,0x54,0xa9,0x3e,0x89,0x86,0x8d,0x3e,0xc3,0x0e,0x55,0xbe,
0x90,0x08,0xe1,0x3a,0x89,0x93,0xe2,0xbe,0x72,0x6f,0x99,0xbe,
0x54,0xe2,0x5d,0xbf,0x55,0xd1,0x0c,0x3c,0x12,0x7b,0x26,0x3e,
0xf1,0x76,0x86,0xbe,0x1a,0xe2,0xd8,0x3e,0x2b,0x37,0x2f,0xbf,
0x8b,0x86,0x81,0x3e,0xad,0xdb,0xe4,0xbe,0x74,0xe5,0xa4,0x3e,
0x5c,0x09,0x89,0xbc,0x64,0x69,0x6f,0x3d,0x57,0x36,0xea,0x3e,
0x58,0xa2,0x3d,0xbf,0x48,0xf9,0x33,0xbe,0xd4,0x83,0x8c,0x3e,
0x4a,0xb3,0xd0,0xbe,0xdc,0xca,0x14,0x3f,0x70,0x92,0x6e,0xbe,
0xe3,0xcb,0xc3,0xbe,0x4b,0x84,0x22,0x3c,0xb6,0xd7,0x81,0x3e,
0xda,0xb1,0x66,0x3d,0x21,0x75,0x0f,0xbf,0x9f,0x8f,0x95,0xbd,
0x62,0x40,0x4c,0xbf,0x04,0xe8,0xa9,0xbe,0x9c,0xab,0x2f,0x3e,
0xa7,0x5b,0x8f,0xbe,0x0b,0x1d,0x02,0x3f,0xd6,0xd9,0xd1,0x3e,
0x13,0xf2,0xc8,0xbe,0x7d,0x89,0x87,0xbd,0xf5,0x5d,0x4d,0xbf,
0x47,0xea,0x5e,0xbd,0xfe,0x68,0xc2,0x3e,0xd3,0x34,0x8a,0x3e,
0xad,0x5a,0x16,0xbf,0x65,0xd8,0xcd,0xbe,0x5e,0xe8,0x62,0x3e,
0xbb,0xe5,0xb4,0xbe,0x59,0xdb,0x1e,0x3f,0xb8,0x29,0xb7,0x3e,
0xde,0xd7,0xed,0xbe,0x66,0x69,0xd1,0x3e,0x95,0x2e,0xf0,0x3e,
0x2c,0xd1,0xd9,0x3d,0x80,0xd1,0x81,0x3e,0x5c,0xee,0xc3,0xbe,
0x5e,0x8c,0x07,0x3f,0x18,0x76,0xf4,0xbd,0x3a,0x85,0xe1,0xbe,
0xfa,0x3b,0x09,0x3e,0x2e,0x53,0x0e,0xbf,0x0f,0x80,0xd9,0x3c,
0xed,0x13,0xc7,0xbe,0xb1,0xad,0xac,0x3e,0xdc,0x8f,0x1a,0xbf,
0x0a,0x76,0xe4,0xba,0x62,0x27,0xdb,0x3e,0xcb,0x30,0x59,0x3e,
0x1c,0x15,0x67,0x3f,0x01,0x26,0x96,0x3c,0xec,0x40,0x12,0x3e,
0x08,0xcd,0xb9,0x3e,0xf7,0xc5,0x6f,0x3e,0x10,0x46,0x2c,0x3f,
0x5d,0x43,0x8d,0xbe,0x74,0xd5,0xb5,0x3e,0xc6,0xd8,0x1a,0xbf,
0x1c,0x20,0x6e,0xbe,0xf9,0xac,0xac,0xbe,0x6e,0xbf,0xba,0xbe,
0x63,0x78,0x21,0xbf,0xd8,0x7f,0xef,0xbe,0x85,0x2e,0x08,0x3f,
0x99,0xea,0x2b,0x3e,0x5b,0x99,0x6c,0x3f,0x93,0x58,0xbd,0x3c,
0x26,0x45,0x0b,0x3f,0x05,0x4f,0x42,0x3e,0xca,0xf4,0x6e,0x3f,
0x78,0xbd,0xb9,0x3c,0x18,0x56,0x05,0x3f,0xd5,0xe8,0x25,0x3e,
0x91,0xed,0x6a,0x3f,0xb0,0x20,0xbd,0x3c,0xb6,0x6d,0xa6,0xbe,
0x05,0x8c,0x81,0x3e,0x9a,0xf7,0x2b,0xbf,0x58,0xcc,0xa9,0x3c,
0x13,0x13,0xcd,0xbe,0x85,0xd4,0xc3,0x3e,0x43,0x8a,0x38,0xbf,
0x62,0x40,0xb4,0xbd,0x1b,0x88,0x82,0x3e,0x7d,0xbd,0x9a,0xbe,
0xcf,0xbd,0x38,0x3f,0x30,0x40,0xba,0x3e,0xee,0x53,0x58,0xbe,
0x54,0x6e,0xbf,0x3e,0x16,0x21,0x3b,0xbf,0xc8,0xd4,0x43,0xbd,
0xde,0xfe,0xff,0xff,0x04,0x00,0x00,0x00,0x80,0x00,0x00,0x00,
0x86,0x73,0x05,0xbe,0x01,0xfe,0x75,0xbe,0x8a,0x73,0xb4,0xbe,
0xe3,0xfc,0x8b,0x3e,0xdc,0x17,0x41,0xbc,0xcb,0x1c,0xf9,0xbe,
0xcd,0x94,0x31,0xbe,0x9f,0xe8,0x63,0x3d,0xc8,0x1c,0xd8,0xbd,
0xf4,0x9b,0xcd,0xbe,0xc1,0xea,0x1b,0x3e,0x58,0xfe,0x07,0xbf,
0x37,0xc2,0x98,0xbd,0xde,0xd1,0x75,0x3d,0xb1,0xf8,0xa2,0xbc,
0xf2,0x24,0xbc,0xbe,0xd5,0x18,0xac,0xbc,0xdc,0xd5,0x53,0x3d,
0xdd,0xe0,0x42,0x3e,0xe8,0xd0,0x1c,0xbe,0x0d,0xd4,0x9c,0xbd,
0x66,0x02,0xb7,0xbc,0x50,0xd2,0x8c,0xbd,0x6f,0x51,0x31,0xbe,
0x18,0x18,0xd0,0xbe,0xa7,0x70,0xab,0xbd,0x1c,0x4f,0x0e,0xbe,
0xb4,0xf5,0x92,0xbd,0xb6,0x97,0xaa,0xbe,0x80,0x8f,0x03,0xbe,
0x33,0x4a,0x84,0x3d,0xb3,0x11,0xb2,0xbe,0xbc,0xf8,0xff,0xff,
0xc0,0xf8,0xff,0xff,0x0f,0x00,0x00,0x00,0x4d,0x4c,0x49,0x52,
0x20,0x43,0x6f,0x6e,0x76,0x65,0x72,0x74,0x65,0x64,0x2e,0x00,
0x01,0x00,0x00,0x00,0x14,0x00,0x00,0x00,0x00,0x00,0x0e,0x00,
0x18,0x00,0x14,0x00,0x10,0x00,0x0c,0x00,0x08,0x00,0x04,0x00,
0x0e,0x00,0x00,0x00,0x14,0x00,0x00,0x00,0x1c,0x00,0x00,0x00,
0x40,0x01,0x00,0x00,0x44,0x01,0x00,0x00,0x48,0x01,0x00,0x00,
0x04,0x00,0x00,0x00,0x6d,0x61,0x69,0x6e,0x00,0x00,0x00,0x00,
0x04,0x00,0x00,0x00,0xe8,0x00,0x00,0x00,0x94,0x00,0x00,0x00,
0x50,0x00,0x00,0x00,0x14,0x00,0x00,0x00,0x00,0x00,0x0e,0x00,
0x1a,0x00,0x14,0x00,0x10,0x00,0x0c,0x00,0x0b,0x00,0x04,0x00,
0x0e,0x00,0x00,0x00,0x1c,0x00,0x00,0x00,0x00,0x00,0x00,0x09,
0x1c,0x00,0x00,0x00,0x20,0x00,0x00,0x00,0x01,0x00,0x00,0x00,
0x00,0x00,0x06,0x00,0x08,0x00,0x04,0x00,0x06,0x00,0x00,0x00,
0x00,0x00,0x80,0x3f,0x01,0x00,0x00,0x00,0x0a,0x00,0x00,0x00,
0x01,0x00,0x00,0x00,0x09,0x00,0x00,0x00,0xce,0xff,0xff,0xff,
0x10,0x00,0x00,0x00,0x00,0x00,0x00,0x08,0x0c,0x00,0x00,0x00,
0x10,0x00,0x00,0x00,0x84,0xf9,0xff,0xff,0x01,0x00,0x00,0x00,
0x09,0x00,0x00,0x00,0x03,0x00,0x00,0x00,0x08,0x00,0x00,0x00,
0x05,0x00,0x00,0x00,0x04,0x00,0x00,0x00,0x00,0x00,0x0e,0x00,
0x14,0x00,0x00,0x00,0x10,0x00,0x0c,0x00,0x0b,0x00,0x04,0x00,
0x0e,0x00,0x00,0x00,0x1c,0x00,0x00,0x00,0x00,0x00,0x00,0x08,
0x1c,0x00,0x00,0x00,0x20,0x00,0x00,0x00,0x0c,0x00,0x08,0x00,
0x07,0x00,0x00,0x00,0x00,0x00,0x06,0x00,0x0c,0x00,0x00,0x00,
0x00,0x00,0x01,0x01,0x01,0x00,0x00,0x00,0x08,0x00,0x00,0x00,
0x03,0x00,0x00,0x00,0x07,0x00,0x00,0x00,0x06,0x00,0x00,0x00,
0x03,0x00,0x00,0x00,0x00,0x00,0x0e,0x00,0x16,0x00,0x00,0x00,
0x10,0x00,0x0c,0x00,0x0b,0x00,0x04,0x00,0x0e,0x00,0x00,0x00,
0x18,0x00,0x00,0x00,0x00,0x00,0x00,0x08,0x18,0x00,0x00,0x00,
0x1c,0x00,0x00,0x00,0x00,0x00,0x06,0x00,0x08,0x00,0x07,0x00,
0x06,0x00,0x00,0x00,0x00,0x00,0x00,0x01,0x01,0x00,0x00,0x00,
0x07,0x00,0x00,0x00,0x03,0x00,0x00,0x00,0x00,0x00,0x00,0x00,
0x02,0x00,0x00,0x00,0x01,0x00,0x00,0x00,0x01,0x00,0x00,0x00,
0x0a,0x00,0x00,0x00,0x01,0x00,0x00,0x00,0x00,0x00,0x00,0x00,
0x0b,0x00,0x00,0x00,0x88,0x05,0x00,0x00,0x34,0x05,0x00,0x00,
0xdc,0x04,0x00,0x00,0xa0,0x04,0x00,0x00,0x64,0x04,0x00,0x00,
0x24,0x04,0x00,0x00,0x3c,0x02,0x00,0x00,0x84,0x01,0x00,0x00,
0xe4,0x00,0x00,0x00,0x60,0x00,0x00,0x00,0x04,0x00,0x00,0x00,
0xba,0xfa,0xff,0xff,0x00,0x00,0x00,0x01,0x14,0x00,0x00,0x00,
0x1c,0x00,0x00,0x00,0x1c,0x00,0x00,0x00,0x0b,0x00,0x00,0x00,
0x34,0x00,0x00,0x00,0x02,0x00,0x00,0x00,0xff,0xff,0xff,0xff,
0x04,0x00,0x00,0x00,0xa4,0xfa,0xff,0xff,0x1b,0x00,0x00,0x00,
0x53,0x74,0x61,0x74,0x65,0x66,0x75,0x6c,0x50,0x61,0x72,0x74,
0x69,0x74,0x69,0x6f,0x6e,0x65,0x64,0x43,0x61,0x6c,0x6c,0x5f,
0x31,0x3a,0x30,0x00,0x02,0x00,0x00,0x00,0x01,0x00,0x00,0x00,
0x04,0x00,0x00,0x00,0x12,0xfb,0xff,0xff,0x00,0x00,0x00,0x01,
0x14,0x00,0x00,0x00,0x1c,0x00,0x00,0x00,0x1c,0x00,0x00,0x00,
0x0a,0x00,0x00,0x00,0x5c,0x00,0x00,0x00,0x02,0x00,0x00,0x00,
0xff,0xff,0xff,0xff,0x04,0x00,0x00,0x00,0xfc,0xfa,0xff,0xff,
0x40,0x00,0x00,0x00,0x73,0x65,0x71,0x75,0x65,0x6e,0x74,0x69,
0x61,0x6c,0x5f,0x31,0x5f,0x31,0x2f,0x64,0x65,0x6e,0x73,0x65,
0x5f,0x35,0x5f,0x31,0x2f,0x4d,0x61,0x74,0x4d,0x75,0x6c,0x3b,
0x73,0x65,0x71,0x75,0x65,0x6e,0x74,0x69,0x61,0x6c,0x5f,0x31,
0x5f,0x31,0x2f,0x64,0x65,0x6e,0x73,0x65,0x5f,0x35,0x5f,0x31,
0x2f,0x42,0x69,0x61,0x73,0x41,0x64,0x64,0x00,0x00,0x00,0x00,
0x02,0x00,0x00,0x00,0x01,0x00,0x00,0x00,0x04,0x00,0x00,0x00,
0x92,0xfb,0xff,0xff,0x00,0x00,0x00,0x01,0x14,0x00,0x00,0x00,
0x1c,0x00,0x00,0x00,0x1c,0x00,0x00,0x00,0x09,0x00,0x00,0x00,
0x78,0x00,0x00,0x00,0x02,0x00,0x00,0x00,0xff,0xff,0xff,0xff,
0x20,0x00,0x00,0x00,0x7c,0xfb,0xff,0xff,0x5e,0x00,0x00,0x00,
0x73,0x65,0x71,0x75,0x65,0x6e,0x74,0x69,0x61,0x6c,0x5f,0x31,
0x5f,0x31,0x2f,0x64,0x65,0x6e,0x73,0x65,0x5f,0x34,0x5f,0x31,
0x2f,0x4d,0x61,0x74,0x4d,0x75,0x6c,0x3b,0x73,0x65,0x71,0x75,
0x65,0x6e,0x74,0x69,0x61,0x6c,0x5f,0x31,0x5f,0x31,0x2f,0x64,
0x65,0x6e,0x73,0x65,0x5f,0x34,0x5f,0x31,0x2f,0x52,0x65,0x6c,
0x75,0x3b,0x73,0x65,0x71,0x75,0x65,0x6e,0x74,0x69,0x61,0x6c,
0x5f,0x31,0x5f,0x31,0x2f,0x64,0x65,0x6e,0x73,0x65,0x5f,0x34,
0x5f,0x31,0x2f,0x42,0x69,0x61,0x73,0x41,0x64,0x64,0x00,0x00,
0x02,0x00,0x00,0x00,0x01,0x00,0x00,0x00,0x20,0x00,0x00,0x00,
0x2e,0xfc,0xff,0xff,0x00,0x00,0x00,0x01,0x14,0x00,0x00,0x00,
0x1c,0x00,0x00,0x00,0x1c,0x00,0x00,0x00,0x08,0x00,0x00,0x00,
0x78,0x00,0x00,0x00,0x02,0x00,0x00,0x00,0xff,0xff,0xff,0xff,
0x20,0x00,0x00,0x00,0x18,0xfc,0xff,0xff,0x5e,0x00,0x00,0x00,
0x73,0x65,0x71,0x75,0x65,0x6e,0x74,0x69,0x61,0x6c,0x5f,0x31,
0x5f,0x31,0x2f,0x64,0x65,0x6e,0x73,0x65,0x5f,0x33,0x5f,0x31,
0x2f,0x4d,0x61,0x74,0x4d,0x75,0x6c,0x3b,0x73,0x65,0x71,0x75,
0x65,0x6e,0x74,0x69,0x61,0x6c,0x5f,0x31,0x5f,0x31,0x2f,0x64,
0x65,0x6e,0x73,0x65,0x5f,0x33,0x5f,0x31,0x2f,0x52,0x65,0x6c,
0x75,0x3b,0x73,0x65,0x71,0x75,0x65,0x6e,0x74,0x69,0x61,0x6c,
0x5f,0x31,0x5f,0x31,0x2f,0x64,0x65,0x6e,0x73,0x65,0x5f,0x33,
0x5f,0x31,0x2f,0x42,0x69,0x61,0x73,0x41,0x64,0x64,0x00,0x00,
0x02,0x00,0x00,0x00,0x01,0x00,0x00,0x00,0x20,0x00,0x00,0x00,
0x00,0x00,0x16,0x00,0x1c,0x00,0x18,0x00,0x17,0x00,0x10,0x00,
0x0c,0x00,0x08,0x00,0x00,0x00,0x00,0x00,0x00,0x00,0x07,0x00,
0x16,0x00,0x00,0x00,0x00,0x00,0x00,0x01,0x20,0x00,0x00,0x00,
0xb4,0x01,0x00,0x00,0x07,0x00,0x00,0x00,0x00,0x00,0x00,0x09,
0xc0,0x01,0x00,0x00,0x0c,0x00,0x0c,0x00,0x00,0x00,0x00,0x00,
0x08,0x00,0x04,0x00,0x0c,0x00,0x00,0x00,0x08,0x00,0x00,0x00,
0x0c,0x01,0x00,0x00,0x20,0x00,0x00,0x00,0x00,0x00,0x00,0x00,
0x00,0x00,0x00,0x00,0x00,0x00,0x00,0x00,0x00,0x00,0x00,0x00,
0x00,0x00,0x00,0x00,0x00,0x00,0x00,0x00,0x00,0x00,0x00,0x00,
0x00,0x00,0x00,0x00,0x00,0x00,0x00,0x00,0x00,0x00,0x00,0x00,
0x00,0x00,0x00,0x00,0x00,0x00,0x00,0x00,0x00,0x00,0x00,0x00,
0x00,0x00,0x00,0x00,0x00,0x00,0x00,0x00,0x00,0x00,0x00,0x00,
0x00,0x00,0x00,0x00,0x00,0x00,0x00,0x00,0x00,0x00,0x00,0x00,
0x00,0x00,0x00,0x00,0x00,0x00,0x00,0x00,0x00,0x00,0x00,0x00,
0x00,0x00,0x00,0x00,0x00,0x00,0x00,0x00,0x00,0x00,0x00,0x00,
0x00,0x00,0x00,0x00,0x00,0x00,0x00,0x00,0x00,0x00,0x00,0x00,
0x00,0x00,0x00,0x00,0x00,0x00,0x00,0x00,0x00,0x00,0x00,0x00,
0x00,0x00,0x00,0x00,0x00,0x00,0x00,0x00,0x00,0x00,0x00,0x00,
0x00,0x00,0x00,0x00,0x00,0x00,0x00,0x00,0x00,0x00,0x00,0x00,
0x00,0x00,0x00,0x00,0x00,0x00,0x00,0x00,0x00,0x00,0x00,0x00,
0x00,0x00,0x00,0x00,0x00,0x00,0x00,0x00,0x00,0x00,0x00,0x00,
0x00,0x00,0x00,0x00,0x00,0x00,0x00,0x00,0x00,0x00,0x00,0x00,
0x00,0x00,0x00,0x00,0x00,0x00,0x00,0x00,0x00,0x00,0x00,0x00,
0x00,0x00,0x00,0x00,0x00,0x00,0x00,0x00,0x00,0x00,0x00,0x00,
0x00,0x00,0x00,0x00,0x00,0x00,0x00,0x00,0x00,0x00,0x00,0x00,
0x00,0x00,0x00,0x00,0x00,0x00,0x00,0x00,0x00,0x00,0x00,0x00,
0x00,0x00,0x00,0x00,0x00,0x00,0x00,0x00,0x00,0x00,0x00,0x00,
0x00,0x00,0x00,0x00,0x00,0x00,0x00,0x00,0x00,0x00,0x00,0x00,
0x00,0x00,0x00,0x00,0x20,0x00,0x00,0x00,0xdf,0x41,0x3f,0x3c,
0x62,0xb0,0xde,0x3b,0x23,0x5c,0x07,0x3c,0xed,0x29,0x1e,0x3c,
0x76,0x1d,0x0e,0x3c,0x12,0x51,0x41,0x3c,0xd0,0x50,0xe1,0x3b,
0x5f,0x85,0xbd,0x3b,0x02,0xde,0x03,0x3c,0x01,0x3b,0x0c,0x3c,
0xc7,0x00,0x0a,0x3c,0xc8,0x3c,0x50,0x3c,0xb7,0x83,0xea,0x3b,
0x21,0x0c,0x59,0x3c,0x79,0x93,0x63,0x3c,0xea,0xd7,0x6a,0x3c,
0x50,0x8e,0x9a,0x3b,0x76,0x82,0xa9,0x3b,0xd5,0xfc,0x0a,0x3c,
0x0e,0xc7,0x14,0x3c,0xc1,0x04,0x05,0x3c,0x59,0x01,0x50,0x3c,
0x1c,0x78,0x4f,0x3c,0x9c,0xfb,0xc2,0x3b,0x45,0xfe,0x1e,0x3c,
0x8a,0x45,0x48,0x3c,0x78,0xe1,0xfc,0x3b,0x7d,0x03,0x80,0x3c,
0xce,0xed,0x40,0x3c,0x32,0x27,0x29,0x3c,0x0b,0x65,0x39,0x3c,
0x53,0xdf,0x44,0x3c,0x11,0x00,0x00,0x00,0x74,0x66,0x6c,0x2e,
0x70,0x73,0x65,0x75,0x64,0x6f,0x5f,0x71,0x63,0x6f,0x6e,0x73,
0x74,0x00,0x00,0x00,0x02,0x00,0x00,0x00,0x20,0x00,0x00,0x00,
0x20,0x00,0x00,0x00,0x16,0xff,0xff,0xff,0x00,0x00,0x00,0x01,
0x10,0x00,0x00,0x00,0x10,0x00,0x00,0x00,0x06,0x00,0x00,0x00,
0x1c,0x00,0x00,0x00,0xa0,0xfe,0xff,0xff,0x0f,0x00,0x00,0x00,
0x61,0x72,0x69,0x74,0x68,0x2e,0x63,0x6f,0x6e,0x73,0x74,0x61,
0x6e,0x74,0x34,0x00,0x02,0x00,0x00,0x00,0x04,0x00,0x00,0x00,
0x20,0x00,0x00,0x00,0x52,0xff,0xff,0xff,0x00,0x00,0x00,0x01,
0x10,0x00,0x00,0x00,0x10,0x00,0x00,0x00,0x05,0x00,0x00,0x00,
0x1c,0x00,0x00,0x00,0xdc,0xfe,0xff,0xff,0x0f,0x00,0x00,0x00,
0x61,0x72,0x69,0x74,0x68,0x2e,0x63,0x6f,0x6e,0x73,0x74,0x61,
0x6e,0x74,0x33,0x00,0x01,0x00,0x00,0x00,0x04,0x00,0x00,0x00,
0x8a,0xff,0xff,0xff,0x00,0x00,0x00,0x01,0x10,0x00,0x00,0x00,
0x10,0x00,0x00,0x00,0x04,0x00,0x00,0x00,0x1c,0x00,0x00,0x00,
0x14,0xff,0xff,0xff,0x0f,0x00,0x00,0x00,0x61,0x72,0x69,0x74,
0x68,0x2e,0x63,0x6f,0x6e,0x73,0x74,0x61,0x6e,0x74,0x32,0x00,
0x01,0x00,0x00,0x00,0x20,0x00,0x00,0x00,0xc2,0xff,0xff,0xff,
0x00,0x00,0x00,0x01,0x10,0x00,0x00,0x00,0x10,0x00,0x00,0x00,
0x03,0x00,0x00,0x00,0x1c,0x00,0x00,0x00,0x4c,0xff,0xff,0xff,
0x0f,0x00,0x00,0x00,0x61,0x72,0x69,0x74,0x68,0x2e,0x63,0x6f,
0x6e,0x73,0x74,0x61,0x6e,0x74,0x31,0x00,0x02,0x00,0x00,0x00,
0x20,0x00,0x00,0x00,0x04,0x00,0x00,0x00,0x00,0x00,0x16,0x00,
0x18,0x00,0x14,0x00,0x00,0x00,0x10,0x00,0x0c,0x00,0x08,0x00,
0x00,0x00,0x00,0x00,0x00,0x00,0x07,0x00,0x16,0x00,0x00,0x00,
0x00,0x00,0x00,0x01,0x10,0x00,0x00,0x00,0x10,0x00,0x00,0x00,
0x02,0x00,0x00,0x00,0x1c,0x00,0x00,0x00,0xa0,0xff,0xff,0xff,
0x0e,0x00,0x00,0x00,0x61,0x72,0x69,0x74,0x68,0x2e,0x63,0x6f,
0x6e,0x73,0x74,0x61,0x6e,0x74,0x00,0x00,0x01,0x00,0x00,0x00,
0x20,0x00,0x00,0x00,0x00,0x00,0x16,0x00,0x1c,0x00,0x18,0x00,
0x00,0x00,0x14,0x00,0x10,0x00,0x0c,0x00,0x00,0x00,0x00,0x00,
0x08,0x00,0x07,0x00,0x16,0x00,0x00,0x00,0x00,0x00,0x00,0x01,
0x14,0x00,0x00,0x00,0x20,0x00,0x00,0x00,0x20,0x00,0x00,0x00,
0x01,0x00,0x00,0x00,0x40,0x00,0x00,0x00,0x02,0x00,0x00,0x00,
0xff,0xff,0xff,0xff,0x04,0x00,0x00,0x00,0x04,0x00,0x04,0x00,
0x04,0x00,0x00,0x00,0x21,0x00,0x00,0x00,0x73,0x65,0x72,0x76,
0x69,0x6e,0x67,0x5f,0x64,0x65,0x66,0x61,0x75,0x6c,0x74,0x5f,
0x6b,0x65,0x72,0x61,0x73,0x5f,0x74,0x65,0x6e,0x73,0x6f,0x72,
0x5f,0x31,0x36,0x3a,0x30,0x00,0x00,0x00,0x02,0x00,0x00,0x00,
0x01,0x00,0x00,0x00,0x04,0x00,0x00,0x00,0x02,0x00,0x00,0x00,
0x2c,0x00,0x00,0x00,0x10,0x00,0x00,0x00,0x0c,0x00,0x0c,0x00,
0x0b,0x00,0x00,0x00,0x00,0x00,0x04,0x00,0x0c,0x00,0x00,0x00,
0x19,0x00,0x00,0x00,0x00,0x00,0x00,0x19,0x0c,0x00,0x10,0x00,
0x0f,0x00,0x00,0x00,0x08,0x00,0x04,0x00,0x0c,0x00,0x00,0x00,
0x09,0x00,0x00,0x00,0x0c,0x00,0x00,0x00,0x00,0x00,0x00,0x09,

};
const unsigned int model_len = 4872;
