/**
 * TFLite / LiteRT model byte array.
 *
 * Auto-generated by model_to_tflite.py
 * Timestamp  : 2026-03-02 10:49 UTC
 * Source     : model.tflite
 * Model size : 10,660 bytes
 * Quantized  : no (float32)
 *
 * Usage (Arduino / TFLite Micro):
 *
 *   #include "model.h"
 *   const tflite::Model* model = tflite::GetModel(g_model);
 */

#ifndef MODEL_H
#define MODEL_H

/* 8-byte alignment required by TFLite Micro */
alignas(8) const unsigned char g_model[] = {
    0x1c, 0x00, 0x00, 0x00, 0x54, 0x46, 0x4c, 0x33, 0x14, 0x00, 0x20, 0x00,
    0x1c, 0x00, 0x18, 0x00, 0x14, 0x00, 0x10, 0x00, 0x0c, 0x00, 0x00, 0x00,
    0x08, 0x00, 0x04, 0x00, 0x14, 0x00, 0x00, 0x00, 0x1c, 0x00, 0x00, 0x00,
    0x1c, 0x00, 0x00, 0x00, 0x74, 0x00, 0x00, 0x00, 0xb0, 0x1e, 0x00, 0x00,
    0xc0, 0x1e, 0x00, 0x00, 0x10, 0x29, 0x00, 0x00, 0x03, 0x00, 0x00, 0x00,
    0x00, 0x00, 0x00, 0x00, 0x02, 0x00, 0x00, 0x00, 0x34, 0x00, 0x00, 0x00,
    0x04, 0x00, 0x00, 0x00, 0xdc, 0xff, 0xff, 0xff, 0x16, 0x00, 0x00, 0x00,
    0x04, 0x00, 0x00, 0x00, 0x13, 0x00, 0x00, 0x00, 0x43, 0x4f, 0x4e, 0x56,
    0x45, 0x52, 0x53, 0x49, 0x4f, 0x4e, 0x5f, 0x4d, 0x45, 0x54, 0x41, 0x44,
    0x41, 0x54, 0x41, 0x00, 0x08, 0x00, 0x0c, 0x00, 0x08, 0x00, 0x04, 0x00,
    0x08, 0x00, 0x00, 0x00, 0x15, 0x00, 0x00, 0x00, 0x04, 0x00, 0x00, 0x00,
    0x13, 0x00, 0x00, 0x00, 0x6d, 0x69, 0x6e, 0x5f, 0x72, 0x75, 0x6e, 0x74,
    0x69, 0x6d, 0x65, 0x5f, 0x76, 0x65, 0x72, 0x73, 0x69, 0x6f, 0x6e, 0x00,
    0x17, 0x00, 0x00, 0x00, 0x38, 0x1e, 0x00, 0x00, 0x30, 0x1e, 0x00, 0x00,
    0xa0, 0x1d, 0x00, 0x00, 0x50, 0x1d, 0x00, 0x00, 0x00, 0x1d, 0x00, 0x00,
    0xe4, 0x1c, 0x00, 0x00, 0xc8, 0x1c, 0x00, 0x00, 0xb8, 0x10, 0x00, 0x00,
    0xa8, 0x0a, 0x00, 0x00, 0x18, 0x09, 0x00, 0x00, 0x08, 0x01, 0x00, 0x00,
    0xf4, 0x00, 0x00, 0x00, 0xd4, 0x00, 0x00, 0x00, 0xcc, 0x00, 0x00, 0x00,
    0xc4, 0x00, 0x00, 0x00, 0xbc, 0x00, 0x00, 0x00, 0xb4, 0x00, 0x00, 0x00,
    0xac, 0x00, 0x00, 0x00, 0xa4, 0x00, 0x00, 0x00, 0x9c, 0x00, 0x00, 0x00,
    0x94, 0x00, 0x00, 0x00, 0x74, 0x00, 0x00, 0x00, 0x04, 0x00, 0x00, 0x00,
    0x92, 0xe1, 0xff, 0xff, 0x04, 0x00, 0x00, 0x00, 0x60, 0x00, 0x00, 0x00,
    0x10, 0x00, 0x00, 0x00, 0x00, 0x00, 0x00, 0x00, 0x08, 0x00, 0x0e, 0x00,
    0x08, 0x00, 0x04, 0x00, 0x08, 0x00, 0x00, 0x00, 0x10, 0x00, 0x00, 0x00,
    0x24, 0x00, 0x00, 0x00, 0x00, 0x00, 0x06, 0x00, 0x08, 0x00, 0x04, 0x00,
    0x06, 0x00, 0x00, 0x00, 0x04, 0x00, 0x00, 0x00, 0x00, 0x00, 0x00, 0x00,
    0x0c, 0x00, 0x18, 0x00, 0x14, 0x00, 0x10, 0x00, 0x0c, 0x00, 0x04, 0x00,
    0x0c, 0x00, 0x00, 0x00, 0x3a, 0xed, 0x2c, 0xa8, 0x57, 0x92, 0x2b, 0x67,
    0x03, 0x00, 0x00, 0x00, 0x02, 0x00, 0x00, 0x00, 0x04, 0x00, 0x00, 0x00,
    0x06, 0x00, 0x00, 0x00, 0x32, 0x2e, 0x32, 0x30, 0x2e, 0x30, 0x00, 0x00,
    0xfe, 0xe1, 0xff, 0xff, 0x04, 0x00, 0x00, 0x00, 0x10, 0x00, 0x00, 0x00,
    0x31, 0x2e, 0x36, 0x2e, 0x30, 0x00, 0x00, 0x00, 0x00, 0x00, 0x00, 0x00,
    0x00, 0x00, 0x00, 0x00, 0x60, 0xd8, 0xff, 0xff, 0x64, 0xd8, 0xff, 0xff,
    0x68, 0xd8, 0xff, 0xff, 0x6c, 0xd8, 0xff, 0xff, 0x70, 0xd8, 0xff, 0xff,
    0x74, 0xd8, 0xff, 0xff, 0x78, 0xd8, 0xff, 0xff, 0x7c, 0xd8, 0xff, 0xff,
    0x3a, 0xe2, 0xff, 0xff, 0x04, 0x00, 0x00, 0x00, 0x10, 0x00, 0x00, 0x00,
    0x01, 0x00, 0x00, 0x00, 0x01, 0x00, 0x00, 0x00, 0x0a, 0x00, 0x00, 0x00,
    0x08, 0x00, 0x00, 0x00, 0x56, 0xe2, 0xff, 0xff, 0x04, 0x00, 0x00, 0x00,
    0x04, 0x00, 0x00, 0x00, 0x01, 0x00, 0x00, 0x00, 0x66, 0xe2, 0xff, 0xff,
    0x04, 0x00, 0x00, 0x00, 0x00, 0x08, 0x00, 0x00, 0x71, 0x8e, 0x7a, 0x3e,
    0x55, 0x0d, 0xdc, 0x3e, 0xb7, 0x17, 0xc2, 0x3e, 0xff, 0xb4, 0x66, 0xbe,
    0x0a, 0xb1, 0xca, 0x3e, 0x57, 0x45, 0xc3, 0xbe, 0x88, 0x3a, 0xc5, 0xbe,
    0x93, 0xc4, 0xca, 0x3e, 0x2b, 0xfe, 0x0b, 0x3f, 0x69, 0x9a, 0xb6, 0x3c,
    0x8e, 0x07, 0xa2, 0xbe, 0x65, 0xda, 0x58, 0x3e, 0x61, 0x1e, 0x9d, 0xbe,
    0x16, 0xd3, 0xd6, 0x3e, 0xcd, 0x6f, 0x76, 0xbe, 0x31, 0xb7, 0x39, 0x3b,
    0x0b, 0xda, 0xbc, 0x3d, 0x8f, 0xf7, 0xd2, 0xbe, 0x38, 0x09, 0xdc, 0xbe,
    0x33, 0xde, 0x2b, 0x3e, 0xe3, 0xa8, 0x80, 0xbd, 0xf3, 0xb2, 0x19, 0x3f,
    0xeb, 0xf3, 0x07, 0xbe, 0x5f, 0x1d, 0x10, 0x3e, 0x7c, 0x10, 0x3f, 0x3c,
    0x4e, 0x67, 0x92, 0x3e, 0xba, 0xa1, 0x0b, 0x3d, 0x0c, 0xb0, 0x08, 0xbc,
    0x4d, 0x31, 0x87, 0xbd, 0xa9, 0xe6, 0x0c, 0xbf, 0x57, 0xb9, 0x2c, 0x3e,
    0x1a, 0x11, 0xb2, 0xbd, 0xb4, 0xd2, 0x0e, 0xbe, 0x6d, 0x8e, 0x4a, 0xbe,
    0xc5, 0x0f, 0xa3, 0xbe, 0x28, 0xfe, 0x2d, 0xbe, 0xc8, 0xd8, 0xfa, 0xbe,
    0x73, 0x5e, 0xc1, 0x3e, 0x74, 0xbb, 0x80, 0x3e, 0x4a, 0x8d, 0x2e, 0x3e,
    0x9d, 0xa8, 0xe4, 0xbe, 0x81, 0xab, 0x81, 0x3e, 0xcf, 0xfb, 0x86, 0xbe,
    0xbe, 0x35, 0xc6, 0x3e, 0x99, 0x2a, 0x43, 0x3e, 0x3c, 0xe3, 0xd2, 0xbe,
    0x58, 0xb6, 0x54, 0xbe, 0x3c, 0xdf, 0x8c, 0xbe, 0x6a, 0x43, 0xa5, 0xbe,
    0xde, 0x62, 0xd5, 0xbd, 0xb4, 0x74, 0xbe, 0x3c, 0x07, 0x62, 0x98, 0xbe,
    0xf4, 0x09, 0x85, 0xbc, 0xbc, 0x8c, 0x30, 0xbe, 0xb4, 0x4a, 0x00, 0xbd,
    0x2c, 0x7a, 0xa5, 0xbe, 0xf4, 0x7e, 0x19, 0x3e, 0x67, 0xd3, 0x8e, 0xbe,
    0xf0, 0xc1, 0x24, 0xbd, 0xc3, 0x09, 0xa1, 0x3e, 0xe0, 0x7a, 0x7a, 0xbd,
    0xe3, 0x18, 0x14, 0xbe, 0x49, 0x04, 0xa2, 0xbe, 0x38, 0xae, 0x4c, 0xbe,
    0x9a, 0x9e, 0x2b, 0x3e, 0x58, 0x2b, 0x83, 0x3d, 0xf7, 0xd2, 0x0f, 0x3e,
    0x65, 0x63, 0xd4, 0x3e, 0x3d, 0x11, 0xa0, 0xbe, 0xb7, 0xe3, 0xf7, 0x3e,
    0x5d, 0xad, 0x01, 0x3e, 0xfe, 0xf7, 0x57, 0x3d, 0x02, 0x71, 0xd1, 0x3e,
    0x88, 0xc2, 0xb5, 0xbe, 0x33, 0x7e, 0x0a, 0xbe, 0x3b, 0x83, 0xe4, 0x3e,
    0xba, 0x42, 0xf7, 0xbc, 0x44, 0x7b, 0x07, 0xbf, 0xc1, 0xc7, 0x22, 0x3e,
    0x9d, 0x48, 0x05, 0xbf, 0x9d, 0x4c, 0x6c, 0x3e, 0xfe, 0x6f, 0x8d, 0xbc,
    0xa2, 0x1b, 0x69, 0x3d, 0x29, 0x8b, 0x16, 0xbd, 0x75, 0xab, 0x70, 0x3e,
    0xc7, 0x2a, 0x58, 0x3e, 0x63, 0x1f, 0x82, 0x3e, 0x24, 0x64, 0x5b, 0x3d,
    0xcf, 0xad, 0x47, 0xbe, 0x6b, 0x4a, 0xcd, 0xbe, 0x84, 0x20, 0x90, 0x3d,
    0x82, 0x39, 0x88, 0xbe, 0x67, 0x1e, 0x92, 0x3e, 0x97, 0x3f, 0x1f, 0x3e,
    0xb8, 0x36, 0x6a, 0xbe, 0x1a, 0xf5, 0x99, 0xbc, 0xaa, 0x49, 0x88, 0xbe,
    0xca, 0x0a, 0x4b, 0x3e, 0x70, 0xcf, 0x98, 0x3e, 0xe1, 0xd7, 0xc8, 0xbe,
    0x57, 0x44, 0x6f, 0x3d, 0xe9, 0xe5, 0x1a, 0xbe, 0x0e, 0x9f, 0xfc, 0xbd,
    0xf2, 0x1c, 0xee, 0x3d, 0x9f, 0x01, 0x12, 0xbf, 0xb6, 0xd6, 0xbd, 0x3d,
    0x84, 0x00, 0x48, 0x3e, 0x5c, 0x81, 0x6b, 0x3e, 0xbb, 0x18, 0x1a, 0x3e,
    0xa5, 0x51, 0x80, 0x3e, 0xf9, 0x62, 0xb5, 0xbe, 0x3e, 0x9e, 0x62, 0x3e,
    0x13, 0x9f, 0xe6, 0xbe, 0xed, 0x1b, 0x00, 0x3f, 0x4f, 0x44, 0x9e, 0x3e,
    0x0b, 0xe4, 0xc2, 0xbe, 0x0f, 0xfd, 0x01, 0x3e, 0x23, 0x33, 0xaf, 0xbe,
    0x21, 0x83, 0x19, 0x3d, 0x86, 0xb1, 0x5b, 0x3e, 0x61, 0x26, 0x59, 0xbe,
    0x7c, 0xbf, 0x2f, 0x3c, 0xa3, 0xe3, 0x91, 0x3c, 0x0d, 0xc5, 0xbe, 0xbe,
    0x7d, 0x08, 0x9e, 0xbe, 0x3a, 0xc7, 0x69, 0x3e, 0x9c, 0x16, 0x16, 0xbf,
    0x4b, 0x4b, 0x1c, 0x3f, 0x03, 0xc0, 0xbf, 0xbe, 0x6c, 0x91, 0x93, 0x3e,
    0x2e, 0x34, 0xde, 0x3e, 0xf1, 0x65, 0x9f, 0xbe, 0xd2, 0xd0, 0x80, 0x3e,
    0xfe, 0x80, 0x0e, 0xbf, 0x7a, 0x50, 0x21, 0xbe, 0x74, 0x98, 0x9c, 0x3b,
    0x75, 0xf2, 0xba, 0xbe, 0x27, 0x74, 0x94, 0x3e, 0x71, 0x1c, 0x93, 0x3e,
    0x8f, 0x02, 0x3e, 0xbe, 0x15, 0xae, 0x93, 0x3e, 0xda, 0x12, 0x0e, 0x3e,
    0xf9, 0x24, 0x5e, 0xbe, 0xca, 0x0f, 0x25, 0x3e, 0xae, 0x05, 0x3c, 0xbe,
    0x74, 0x4a, 0x39, 0x3f, 0x95, 0x24, 0x36, 0x3e, 0x2d, 0xa7, 0xbc, 0xbe,
    0x8b, 0x4e, 0xec, 0x3e, 0xf4, 0x64, 0xd8, 0xbd, 0xe2, 0x2b, 0xaf, 0xbd,
    0x4f, 0x04, 0x24, 0x3e, 0x0d, 0x3d, 0xef, 0x3e, 0xb3, 0xf6, 0xf4, 0xbe,
    0xdb, 0x47, 0xb0, 0xbe, 0xbd, 0x94, 0x19, 0xbc, 0x1b, 0x08, 0x2c, 0xbe,
    0x93, 0xa6, 0x08, 0xbd, 0x34, 0xa8, 0x83, 0x3e, 0x5c, 0xb8, 0x25, 0xbd,
    0xd7, 0xe2, 0xcc, 0x3e, 0xf5, 0x7b, 0xd4, 0x3d, 0x1d, 0xf2, 0xb4, 0x3d,
    0x50, 0x01, 0x73, 0x3d, 0x3b, 0xfe, 0x86, 0x3e, 0x71, 0x98, 0xfd, 0xbd,
    0x30, 0x18, 0x99, 0xbd, 0xbc, 0xf0, 0x96, 0xbc, 0x17, 0x7a, 0xc7, 0x3e,
    0x31, 0x5f, 0xa7, 0xbe, 0x29, 0x83, 0x44, 0xbe, 0x43, 0xd2, 0x38, 0x3e,
    0xce, 0x24, 0x77, 0xbe, 0x5b, 0xe1, 0x8c, 0x3e, 0x55, 0x4e, 0x38, 0x3e,
    0xf0, 0xe9, 0x88, 0x3d, 0x4d, 0x97, 0x90, 0xbe, 0x64, 0x68, 0x38, 0xbd,
    0xa2, 0xbf, 0x91, 0x3e, 0x59, 0x41, 0x9e, 0x3e, 0x9c, 0xd2, 0x92, 0x3b,
    0x91, 0x4e, 0xaa, 0xbe, 0x0a, 0xd9, 0x12, 0x3e, 0xed, 0x9c, 0x63, 0xbd,
    0x8d, 0x11, 0x54, 0xbc, 0xeb, 0x18, 0x07, 0x3e, 0x16, 0x92, 0xc4, 0x3e,
    0xbe, 0xeb, 0xc2, 0xbd, 0x1d, 0xe7, 0x8e, 0xbe, 0x11, 0xfe, 0xc3, 0x3e,
    0xed, 0x18, 0x83, 0xbe, 0xc5, 0x7d, 0xbe, 0x3e, 0x3f, 0xbe, 0xab, 0x3e,
    0x13, 0x3e, 0x40, 0x3d, 0x49, 0xaf, 0x9d, 0x3e, 0x53, 0xfd, 0x50, 0x3e,
    0xa9, 0xc1, 0x3f, 0xbe, 0x32, 0x6d, 0x19, 0xbe, 0xef, 0x2f, 0xa9, 0xbe,
    0xa9, 0xea, 0xe9, 0x3e, 0x15, 0xfc, 0x56, 0x3e, 0x3f, 0x64, 0xc9, 0xbe,
    0xb5, 0x16, 0xa8, 0xbe, 0xe0, 0xf8, 0xa9, 0x3e, 0x9c, 0xdf, 0x44, 0x3c,
    0x5a, 0xef, 0x34, 0x3d, 0x14, 0xf7, 0xb4, 0x3e, 0x28, 0x69, 0x69, 0xbe,
    0xcc, 0x64, 0x05, 0x3e, 0xdf, 0xfb, 0xbf, 0xbe, 0xc4, 0x17, 0x1a, 0xbc,
    0x33, 0xfa, 0x41, 0xbf, 0x9b, 0x1f, 0x0d, 0xbe, 0x5d, 0x1d, 0x97, 0x3e,
    0xa2, 0xd4, 0xf6, 0x3d, 0x64, 0x35, 0x6e, 0xbe, 0x5f, 0x1b, 0x2a, 0xbe,
    0x4e, 0x1c, 0x03, 0x3e, 0xe5, 0x1a, 0xc0, 0xbd, 0x8f, 0x95, 0x69, 0x3e,
    0x17, 0xea, 0xe3, 0xbb, 0xb1, 0xcb, 0xaf, 0x3d, 0x3a, 0xcf, 0x6e, 0xbe,
    0x33, 0x4b, 0x53, 0x3e, 0xc2, 0xa8, 0xd4, 0x3c, 0xc0, 0x5b, 0x25, 0x3e,
    0x7d, 0x66, 0x55, 0xbe, 0xdd, 0xcc, 0x71, 0x3c, 0xbc, 0xf6, 0x8f, 0x3e,
    0x01, 0x69, 0x77, 0xbd, 0xc7, 0xf8, 0x5c, 0x3e, 0x90, 0x12, 0xe1, 0xbc,
    0xa1, 0x77, 0x04, 0xbe, 0x35, 0xb9, 0xb2, 0xbe, 0x8d, 0x76, 0x08, 0xbe,
    0x78, 0xb4, 0x7a, 0x3d, 0x10, 0xe0, 0xfe, 0x3d, 0xb1, 0xc8, 0xb2, 0xbc,
    0x1a, 0x6c, 0xdc, 0x3d, 0x5c, 0xab, 0xa1, 0xbe, 0x1d, 0x18, 0x4c, 0x3e,
    0x57, 0x76, 0x30, 0x3e, 0xd8, 0x71, 0x98, 0xba, 0x01, 0x9a, 0x3c, 0xbe,
    0xfa, 0x54, 0x49, 0x3e, 0x5c, 0x62, 0xb6, 0xbe, 0xe5, 0x33, 0x18, 0x3e,
    0x7e, 0x86, 0xb2, 0x3e, 0x89, 0x0a, 0xa7, 0x3e, 0x39, 0x47, 0x86, 0xbd,
    0x1b, 0xd9, 0x3b, 0x3c, 0xeb, 0xb1, 0xb0, 0x3d, 0x33, 0xac, 0x42, 0xbe,
    0xa7, 0x9d, 0xee, 0xbc, 0x4d, 0xa1, 0xa5, 0x3e, 0x9b, 0x46, 0x97, 0xbe,
    0x2c, 0x06, 0xbf, 0xbe, 0xe3, 0xfc, 0x3e, 0xbd, 0x8a, 0x95, 0xb2, 0xbd,
    0x3a, 0x00, 0xbf, 0xbe, 0x5e, 0x18, 0x02, 0xbe, 0x9e, 0x13, 0xa2, 0x3e,
    0x37, 0x48, 0x71, 0xbd, 0x5b, 0x0e, 0xf9, 0x3d, 0x93, 0x62, 0x18, 0xbf,
    0xbe, 0x34, 0x97, 0x3e, 0xb7, 0xb9, 0x23, 0x3e, 0x27, 0x2c, 0x5d, 0x3e,
    0xa4, 0xcc, 0x84, 0x3e, 0x39, 0xab, 0x61, 0x3e, 0x24, 0xac, 0x2d, 0xbe,
    0xa6, 0xa3, 0xc0, 0xba, 0x90, 0x39, 0xea, 0x3e, 0xb8, 0xc2, 0xe9, 0xbe,
    0x40, 0x9b, 0x56, 0xbe, 0xc1, 0x8a, 0xc4, 0x3d, 0xfc, 0xa6, 0x26, 0x3d,
    0xe7, 0x5c, 0xf5, 0x3e, 0xc1, 0x12, 0xaf, 0x3e, 0xf4, 0x79, 0x8f, 0x3e,
    0xd7, 0x72, 0x39, 0xbe, 0xf1, 0xa7, 0x36, 0x3e, 0x20, 0xa4, 0xd6, 0xbd,
    0x0e, 0x5d, 0x46, 0xbd, 0x63, 0x23, 0xb7, 0x3d, 0x59, 0x2d, 0xf5, 0xbe,
    0x43, 0x84, 0xaf, 0x3e, 0xac, 0x12, 0x02, 0xbf, 0x14, 0xe7, 0xa4, 0x3e,
    0xd4, 0xa5, 0xb2, 0x3e, 0x6c, 0xd4, 0xdd, 0x3e, 0xb4, 0x71, 0x06, 0x3e,
    0x20, 0x35, 0x19, 0xbe, 0xf1, 0xcc, 0x83, 0xbe, 0x47, 0x28, 0x17, 0xbe,
    0xa3, 0x65, 0x0d, 0x3d, 0x9e, 0x5d, 0xae, 0x3e, 0x22, 0x1c, 0x8a, 0xbe,
    0x54, 0x25, 0xff, 0xbd, 0xe2, 0x0e, 0xd4, 0x3d, 0x9b, 0x75, 0xc9, 0xbd,
    0xce, 0x0b, 0xd7, 0x3e, 0xd2, 0x1f, 0x35, 0xbe, 0xce, 0x97, 0x99, 0x3e,
    0x4e, 0x01, 0x01, 0xbe, 0xfe, 0x73, 0x6c, 0x3e, 0x43, 0xa6, 0x0b, 0x3d,
    0x27, 0x60, 0x06, 0xbc, 0x31, 0x7b, 0x49, 0x3d, 0xe7, 0x53, 0xe7, 0xbe,
    0x28, 0xb8, 0x7c, 0x3c, 0xad, 0x2d, 0x83, 0xbe, 0x3f, 0xa8, 0x45, 0xbe,
    0x6f, 0x6a, 0x8d, 0xbe, 0x65, 0x93, 0x1a, 0x3e, 0xc2, 0x48, 0x1d, 0xbe,
    0xf0, 0xa5, 0x60, 0xbd, 0xb5, 0x34, 0x59, 0x3e, 0x72, 0x1e, 0x83, 0x3e,
    0xd1, 0x40, 0x16, 0x3e, 0xe8, 0x8e, 0x51, 0x3e, 0xdc, 0xb3, 0xa5, 0xbe,
    0x72, 0xe4, 0xbc, 0xbe, 0xa1, 0xdc, 0x64, 0x3e, 0x3a, 0x64, 0x8c, 0xbe,
    0x60, 0x5e, 0xa4, 0xbd, 0xec, 0x7b, 0xa0, 0xbd, 0xd5, 0x5a, 0xa5, 0xbe,
    0x6d, 0x3a, 0x97, 0x3e, 0x54, 0x9d, 0xb9, 0xbe, 0xff, 0x7e, 0x76, 0xbe,
    0xf2, 0x16, 0x92, 0x3e, 0xd4, 0xcc, 0x8c, 0xbe, 0x83, 0x74, 0x88, 0x3e,
    0x61, 0x71, 0xdb, 0xbd, 0xe4, 0x73, 0x46, 0x3d, 0xee, 0xd2, 0x49, 0x3e,
    0xe2, 0x45, 0x0c, 0x3f, 0x54, 0x18, 0x99, 0x3b, 0x4e, 0xd6, 0xb7, 0xbe,
    0x73, 0xe8, 0xa0, 0xbd, 0x9c, 0x9f, 0x53, 0xbd, 0x71, 0x72, 0x06, 0xbe,
    0x03, 0x71, 0xe5, 0x3e, 0xba, 0x48, 0x95, 0x3e, 0x29, 0xe2, 0x98, 0xbe,
    0xb9, 0xd7, 0xcb, 0xbd, 0x6d, 0xcc, 0x01, 0xbe, 0x7c, 0xb1, 0x82, 0xbe,
    0x66, 0x7b, 0xa0, 0x3e, 0x64, 0x5f, 0xc3, 0x3e, 0xee, 0x5f, 0xae, 0xbe,
    0x91, 0x87, 0xa4, 0xbe, 0x20, 0xb3, 0xcf, 0x3b, 0xeb, 0xa2, 0x94, 0xbe,
    0x2f, 0x94, 0x4a, 0x3e, 0xc0, 0xe5, 0xa4, 0xbe, 0x58, 0xae, 0xb2, 0xbe,
    0xcb, 0xab, 0x4f, 0xbe, 0xca, 0xcd, 0xf5, 0xbd, 0x49, 0x32, 0x78, 0xbc,
    0x81, 0x50, 0x02, 0x3d, 0xcc, 0x2f, 0xff, 0xbd, 0xe9, 0x16, 0xaf, 0x3d,
    0x51, 0x7e, 0x7e, 0xbe, 0x3c, 0x7d, 0x68, 0x3e, 0xf0, 0xb3, 0x8c, 0xbe,
    0x57, 0x89, 0x48, 0x3e, 0xc0, 0x6c, 0xaa, 0xbd, 0xd8, 0x91, 0x9a, 0x3e,
    0x25, 0xa6, 0xa3, 0xbe, 0x2d, 0xd4, 0x89, 0xbd, 0xdb, 0xbd, 0x9a, 0xbd,
    0xc0, 0xff, 0xab, 0xbe, 0x6e, 0xa8, 0x9e, 0xbe, 0xc3, 0x15, 0x13, 0xbd,
    0x5c, 0x78, 0x24, 0x3d, 0xd6, 0x89, 0x38, 0xbe, 0xd6, 0xba, 0x84, 0x3e,
    0x2a, 0x2a, 0xa7, 0x3e, 0x9c, 0x83, 0xa9, 0xbb, 0x5b, 0x30, 0x54, 0x3e,
    0x4a, 0x08, 0x75, 0xbe, 0x3f, 0xa4, 0x72, 0xbe, 0xbb, 0x52, 0xda, 0xbe,
    0xb6, 0x49, 0x47, 0x3e, 0x2b, 0xf8, 0xce, 0x3e, 0xaf, 0x12, 0x31, 0xbe,
    0xac, 0xee, 0x17, 0x3f, 0xc3, 0x93, 0x14, 0xbf, 0x82, 0x8c, 0xef, 0xbe,
    0xca, 0xe4, 0x3e, 0x3e, 0x1c, 0xe0, 0x93, 0xbe, 0xda, 0xa4, 0xa2, 0x3e,
    0xfa, 0xab, 0x5c, 0xbb, 0x1c, 0x87, 0xfe, 0xbe, 0x7d, 0x6b, 0x51, 0xbd,
    0x8c, 0x37, 0x14, 0x3f, 0x62, 0xe2, 0x9b, 0xbe, 0xcf, 0x75, 0x19, 0x3f,
    0x24, 0xce, 0x8e, 0xbd, 0x58, 0x73, 0x8d, 0x3e, 0xbd, 0x24, 0xdd, 0x3e,
    0x96, 0x0a, 0xa6, 0x3d, 0x3f, 0x05, 0xa4, 0x3e, 0x12, 0x6e, 0xf7, 0xbe,
    0xa0, 0x99, 0xa0, 0xbe, 0xc4, 0x63, 0xca, 0x3c, 0xdd, 0x01, 0x14, 0xbe,
    0x0b, 0x3d, 0xd7, 0xbc, 0x74, 0xa7, 0x67, 0xbe, 0x4f, 0xa2, 0x7a, 0x3e,
    0x71, 0x31, 0xab, 0xbd, 0x0e, 0x16, 0x11, 0x3d, 0xd3, 0x3c, 0x44, 0xbe,
    0xd4, 0xa7, 0xdf, 0x3e, 0x6f, 0xb6, 0xaf, 0x3e, 0x27, 0xad, 0x46, 0xbe,
    0xfb, 0xcf, 0x1d, 0xbd, 0xd9, 0x31, 0x96, 0x3e, 0x70, 0x51, 0x44, 0xbe,
    0xd7, 0x41, 0xfe, 0x3e, 0xb9, 0x45, 0x7a, 0x3e, 0x8e, 0x67, 0x25, 0x3e,
    0x31, 0xcf, 0xc0, 0x3d, 0x1a, 0x1c, 0x6b, 0xbe, 0x28, 0x30, 0x43, 0xbe,
    0x78, 0x6a, 0x33, 0x3e, 0xa8, 0xc2, 0xb1, 0x3e, 0xd1, 0xad, 0x4e, 0x3d,
    0xc4, 0xa0, 0x9b, 0x3e, 0x8d, 0xb4, 0xb4, 0xbe, 0x4b, 0x9d, 0x1e, 0x3d,
    0x14, 0xa7, 0x99, 0xbe, 0xfa, 0x4e, 0xc1, 0xbe, 0xbc, 0xc6, 0x43, 0x3e,
    0xe9, 0x9b, 0x3d, 0x3e, 0xed, 0x20, 0x95, 0x3e, 0x24, 0x7c, 0x4a, 0x3e,
    0x44, 0x58, 0x83, 0xbe, 0x5a, 0x1f, 0x50, 0xbe, 0x45, 0x2f, 0x8a, 0x3e,
    0x61, 0xbc, 0x19, 0xbe, 0xe3, 0x46, 0x85, 0x3e, 0x17, 0x80, 0x37, 0x3e,
    0x83, 0x6e, 0x40, 0x3e, 0xa5, 0x6f, 0x80, 0xbd, 0xa1, 0xf4, 0xd6, 0x3d,
    0x4b, 0xc7, 0x26, 0xbe, 0x3a, 0x5f, 0x8d, 0xbe, 0x1d, 0x72, 0xb6, 0xbd,
    0x10, 0xd6, 0xa7, 0xbd, 0xfd, 0xad, 0x54, 0xbe, 0x71, 0x19, 0xf4, 0x3e,
    0xe9, 0x3a, 0x77, 0x3e, 0x5a, 0x92, 0xd5, 0xbe, 0xe7, 0x27, 0x8e, 0xbe,
    0x28, 0x5c, 0xc2, 0x3d, 0x95, 0x77, 0x9f, 0x3e, 0xd1, 0x1f, 0x0f, 0xbe,
    0x45, 0x4e, 0x72, 0xbd, 0xe4, 0x8c, 0x99, 0xbd, 0xbe, 0x41, 0x09, 0x3e,
    0xea, 0xe8, 0x47, 0x3c, 0x1c, 0x0f, 0x67, 0x3e, 0x0b, 0x9f, 0xb3, 0xbe,
    0x42, 0x74, 0x97, 0xbe, 0x98, 0xa1, 0x84, 0x3e, 0x41, 0x9d, 0xc9, 0xbe,
    0x26, 0x6f, 0x71, 0x3e, 0x52, 0xfd, 0x81, 0x3e, 0x65, 0x75, 0x76, 0x3e,
    0xc7, 0xf6, 0xd1, 0x3e, 0xa4, 0x1d, 0x11, 0x3e, 0xe6, 0x49, 0xa1, 0xbe,
    0x8d, 0x83, 0xf1, 0x3e, 0x69, 0xad, 0x14, 0x3c, 0x61, 0xa3, 0xdc, 0xbd,
    0xe3, 0xdb, 0x7d, 0x3e, 0xa0, 0xf1, 0x02, 0xbf, 0x9b, 0x72, 0xca, 0x3e,
    0x08, 0xeb, 0x77, 0xbe, 0x46, 0xfa, 0x12, 0xbe, 0xc7, 0x66, 0xb2, 0xbb,
    0x60, 0x7f, 0xfc, 0xbe, 0xd1, 0xae, 0x9e, 0x3e, 0xdd, 0x9e, 0x4e, 0xbd,
    0x0d, 0x47, 0xdb, 0xbc, 0xc2, 0x6d, 0xe4, 0x3e, 0x76, 0x96, 0x67, 0xbe,
    0x62, 0x26, 0x9a, 0xbe, 0x59, 0x9e, 0x7e, 0x3e, 0x63, 0x54, 0x24, 0xbe,
    0xaf, 0x89, 0x42, 0xbc, 0x9b, 0x84, 0x0a, 0x3f, 0x50, 0xbc, 0xff, 0x3c,
    0xce, 0x9d, 0xb4, 0xbe, 0x49, 0x7f, 0x50, 0x3e, 0xac, 0xa8, 0xac, 0x3e,
    0xd6, 0x4b, 0x45, 0xbf, 0x87, 0xfd, 0xba, 0xbd, 0xc2, 0xb8, 0xcc, 0xbd,
    0x0f, 0x80, 0x25, 0xbe, 0x31, 0xf5, 0x82, 0x3d, 0x6b, 0x40, 0x20, 0xbf,
    0x64, 0xe9, 0x49, 0x3d, 0x6d, 0x1b, 0xce, 0x3e, 0x32, 0x4e, 0x95, 0x3d,
    0x15, 0xb6, 0x0d, 0x3f, 0xea, 0x1a, 0xed, 0x3d, 0x29, 0xb9, 0x68, 0xbe,
    0x23, 0x92, 0x39, 0x3e, 0x72, 0xea, 0xff, 0xff, 0x04, 0x00, 0x00, 0x00,
    0x80, 0x01, 0x00, 0x00, 0x0d, 0x7e, 0x81, 0xbd, 0x07, 0x95, 0x07, 0xbf,
    0x0c, 0x97, 0x60, 0xbf, 0xa7, 0xf5, 0xfe, 0xbc, 0xaa, 0x1c, 0x06, 0xbf,
    0x18, 0xbd, 0x38, 0xbe, 0x9b, 0x6a, 0xb8, 0x3e, 0x6e, 0xa2, 0x5c, 0x3f,
    0x23, 0x06, 0x0c, 0x3f, 0x10, 0x43, 0xf5, 0x3e, 0x59, 0xa0, 0x82, 0xbe,
    0x22, 0x66, 0xed, 0x3e, 0xb8, 0x66, 0x31, 0xbe, 0xd4, 0x29, 0x8d, 0x3e,
    0xc7, 0x0c, 0x2c, 0x3d, 0xd5, 0x1c, 0xd7, 0xbe, 0x54, 0x7e, 0x82, 0xbe,
    0x70, 0x55, 0x6a, 0xbf, 0x21, 0x89, 0xca, 0xba, 0x3b, 0x4a, 0x92, 0xbe,
    0xea, 0x69, 0xaa, 0xbd, 0x87, 0x1e, 0xc3, 0x3e, 0x64, 0xcb, 0x32, 0xbd,
    0x1a, 0x3e, 0xc2, 0xbe, 0x93, 0xb0, 0x1e, 0x3e, 0x80, 0xfd, 0x04, 0x3f,
    0x6c, 0xa8, 0x82, 0xbd, 0x38, 0xa6, 0xa2, 0xbe, 0x75, 0xb8, 0xf8, 0xbd,
    0x6d, 0x77, 0x78, 0xbf, 0x12, 0x88, 0x30, 0xbf, 0x2a, 0xfe, 0x00, 0x3f,
    0xb6, 0xb3, 0xa3, 0xbc, 0x91, 0xdc, 0x86, 0xbc, 0x9b, 0x2f, 0x44, 0xbe,
    0x9c, 0x3d, 0xdb, 0x3c, 0x2b, 0x8a, 0x04, 0x3f, 0x80, 0xd7, 0x7a, 0x3d,
    0x0a, 0xd8, 0xb0, 0xbe, 0xef, 0xa0, 0x90, 0x3c, 0x17, 0x1c, 0xfb, 0xbe,
    0xbf, 0x6a, 0x51, 0x3f, 0x3c, 0x2e, 0xb3, 0x3e, 0xec, 0x09, 0xc5, 0xbe,
    0x12, 0x1e, 0xd5, 0x3e, 0x5b, 0x51, 0x03, 0xbf, 0x6a, 0x51, 0xc1, 0x3d,
    0xe1, 0xf5, 0x0b, 0x3f, 0xdd, 0xfc, 0x07, 0xbf, 0x16, 0x60, 0xb6, 0x3e,
    0x40, 0xc8, 0xe8, 0xbd, 0x19, 0xfc, 0xfb, 0x3d, 0x4f, 0x41, 0xb5, 0x3e,
    0x69, 0x6b, 0x42, 0x3f, 0xe6, 0x04, 0x07, 0x3c, 0x63, 0x2d, 0x7d, 0x3e,
    0xec, 0xa0, 0x1d, 0xbf, 0x11, 0x88, 0xbb, 0xbe, 0x5e, 0xd0, 0xbd, 0x3e,
    0xa4, 0xc0, 0x71, 0xbe, 0x0c, 0xac, 0x7f, 0xbf, 0x07, 0xfd, 0x22, 0xbd,
    0x28, 0xa4, 0xb2, 0x3e, 0x38, 0xe0, 0x46, 0xbf, 0xd4, 0xfb, 0x0e, 0xbf,
    0xfd, 0x13, 0x82, 0x3e, 0x05, 0x20, 0x23, 0x3f, 0xa2, 0xfe, 0xbf, 0xbe,
    0x3f, 0x9c, 0xe0, 0x3e, 0x0b, 0x28, 0x56, 0x3e, 0xb9, 0xc0, 0x7c, 0x3d,
    0xdc, 0x4a, 0x0e, 0xbb, 0xb3, 0x3d, 0xe1, 0xbe, 0x48, 0x48, 0x9a, 0xbe,
    0x56, 0xcf, 0x69, 0xbe, 0xc5, 0x97, 0x22, 0xbf, 0xea, 0x93, 0x65, 0xbe,
    0x76, 0xaf, 0xe9, 0x3e, 0x6d, 0x32, 0x45, 0x3e, 0xa0, 0xde, 0x67, 0xbe,
    0x20, 0x00, 0xc4, 0xbd, 0x36, 0x38, 0x0d, 0x3f, 0xab, 0xae, 0x2d, 0xbf,
    0x52, 0xf1, 0x44, 0xbd, 0x67, 0x7c, 0x4f, 0x3c, 0xd3, 0xe2, 0x5f, 0xbe,
    0xa2, 0xd9, 0xa0, 0xbe, 0xb6, 0x10, 0xf7, 0x3d, 0x7a, 0x17, 0x2e, 0xbf,
    0x7b, 0x36, 0x9e, 0xbe, 0xb7, 0xf4, 0xca, 0x3e, 0x11, 0x52, 0xdd, 0x3e,
    0xab, 0x1d, 0xfa, 0x3e, 0x14, 0x31, 0x5d, 0xbb, 0xac, 0xcd, 0x9b, 0x3e,
    0xc3, 0xcf, 0x0b, 0xbd, 0xfe, 0xeb, 0xff, 0xff, 0x04, 0x00, 0x00, 0x00,
    0x00, 0x06, 0x00, 0x00, 0x27, 0x3f, 0xa9, 0x3f, 0x0d, 0x96, 0xc7, 0xbf,
    0xe4, 0x28, 0x00, 0x3f, 0x69, 0xd0, 0x50, 0xbe, 0xfc, 0x7b, 0x6c, 0x3e,
    0x3b, 0xf9, 0x9a, 0xbc, 0x0e, 0xac, 0xa9, 0xbd, 0xb6, 0x73, 0xe3, 0xbd,
    0xa0, 0xd7, 0xb3, 0x3f, 0xbb, 0x00, 0x8f, 0xbf, 0x8e, 0x79, 0x0e, 0x3d,
    0x88, 0x5e, 0xbe, 0xbe, 0xc2, 0x5e, 0xa4, 0xbe, 0xf9, 0xd7, 0xb5, 0xbc,
    0xf1, 0xb9, 0xa8, 0xbd, 0xa6, 0xce, 0x33, 0xbe, 0xa4, 0xfc, 0xb2, 0x3f,
    0x29, 0x3f, 0xbf, 0xbf, 0xd1, 0x70, 0xeb, 0x3e, 0x70, 0x74, 0x1a, 0xbe,
    0x1c, 0xf9, 0x86, 0x3e, 0xb4, 0x73, 0x63, 0x3d, 0x93, 0xc8, 0x79, 0x3d,
    0x4d, 0x1f, 0x82, 0xbd, 0xf7, 0xae, 0x86, 0xbf, 0x27, 0x45, 0x4d, 0x3f,
    0xc8, 0xe2, 0xfd, 0xbd, 0x20, 0x7e, 0x7a, 0x3e, 0xcc, 0x44, 0xcc, 0x3e,
    0x34, 0x9d, 0xa5, 0xbc, 0x49, 0xbb, 0x92, 0xbe, 0x4b, 0x38, 0x1e, 0x3b,
    0x57, 0xb5, 0x8e, 0xbf, 0x02, 0x7a, 0x6d, 0x3f, 0xe7, 0x5a, 0xb6, 0xbe,
    0x87, 0x6b, 0x28, 0x3e, 0x99, 0x8a, 0xc4, 0x3e, 0x41, 0xc3, 0xf8, 0xbc,
    0xd6, 0x1a, 0xde, 0x3d, 0x5f, 0x74, 0xee, 0x3d, 0xc3, 0x95, 0x8d, 0xbf,
    0xac, 0xa9, 0x65, 0x3f, 0x7a, 0x91, 0x54, 0xbc, 0xd8, 0x78, 0x60, 0xbd,
    0xca, 0x79, 0xfb, 0x3e, 0x8b, 0xb1, 0x80, 0x3c, 0x77, 0xa5, 0x00, 0x3e,
    0xf0, 0x60, 0x02, 0xbf, 0xa2, 0x79, 0x3d, 0xbf, 0xc6, 0x9d, 0x3e, 0xbf,
    0x48, 0x30, 0xac, 0xbd, 0xe2, 0x7e, 0x25, 0xbe, 0xff, 0xfd, 0xa4, 0x3e,
    0x36, 0x80, 0x4c, 0xbd, 0xf8, 0x8a, 0xdb, 0x3d, 0x52, 0x28, 0xa2, 0xbe,
    0x77, 0xbd, 0x7b, 0xbf, 0x2b, 0x94, 0x51, 0xbf, 0x4d, 0xf1, 0x6e, 0xbe,
    0x38, 0x5d, 0xb2, 0x3e, 0x45, 0xf5, 0xa7, 0xbc, 0x23, 0xbf, 0x20, 0xbe,
    0x11, 0x8f, 0x0d, 0x3e, 0x0a, 0xb6, 0x4a, 0x3d, 0xea, 0x59, 0x55, 0xbf,
    0xd3, 0x82, 0x7f, 0xbf, 0x50, 0x48, 0xb7, 0x3d, 0xe6, 0x13, 0x29, 0x3e,
    0x02, 0x5f, 0x28, 0xbf, 0x98, 0x9e, 0xcf, 0x3d, 0xbd, 0xdc, 0x9c, 0x3d,
    0x7f, 0x87, 0x0b, 0x3e, 0x6b, 0x5a, 0xca, 0x3f, 0x5a, 0xd7, 0xe0, 0x3d,
    0x5b, 0x96, 0x57, 0x3e, 0x04, 0x25, 0x2b, 0x3e, 0x61, 0x88, 0x95, 0xbd,
    0x7e, 0x06, 0x02, 0x3c, 0x25, 0x38, 0xce, 0xbc, 0x2c, 0x40, 0xee, 0xbe,
    0x6b, 0xfd, 0xae, 0x3f, 0x82, 0xa9, 0xc7, 0x3e, 0xd9, 0x97, 0x80, 0x3e,
    0xf2, 0xc2, 0xde, 0xbd, 0x27, 0xfe, 0x20, 0x3e, 0x2b, 0x47, 0x15, 0xbe,
    0xa4, 0x89, 0x74, 0x3e, 0xe3, 0x66, 0x2a, 0xbd, 0x10, 0x7d, 0xba, 0x3f,
    0x34, 0x71, 0x5e, 0x3e, 0x47, 0xc5, 0x62, 0x3e, 0x93, 0x72, 0xb8, 0x3c,
    0xaa, 0x3a, 0x23, 0xbe, 0x9d, 0x7f, 0x44, 0x3d, 0x83, 0x15, 0x15, 0x3e,
    0x3e, 0xdf, 0x14, 0xbe, 0xad, 0x38, 0xa6, 0x3f, 0x2d, 0x27, 0x84, 0xbf,
    0x9a, 0xe1, 0x18, 0x3f, 0xd7, 0xd9, 0x12, 0xbf, 0x67, 0x61, 0x03, 0x3e,
    0xfe, 0x7d, 0x9c, 0xbd, 0xa0, 0x3d, 0x10, 0xbe, 0x35, 0xc3, 0xe2, 0x3c,
    0xdd, 0xfe, 0x9f, 0x3f, 0x40, 0xd0, 0x40, 0xbf, 0x19, 0x72, 0x7c, 0x3e,
    0xe4, 0xec, 0x6d, 0xbe, 0x0e, 0xd3, 0xc7, 0xbe, 0xf7, 0x4f, 0xe0, 0xbd,
    0x8f, 0x77, 0x4f, 0xbe, 0x4a, 0x70, 0x23, 0x3c, 0xfe, 0xaf, 0x88, 0x3f,
    0x6a, 0x13, 0x47, 0xbf, 0xa3, 0xfe, 0x13, 0x3f, 0x4e, 0x64, 0xb8, 0xbd,
    0xec, 0x4b, 0xb5, 0xbc, 0x50, 0x22, 0x80, 0xbd, 0xae, 0x9a, 0x2b, 0xbe,
    0xa2, 0xcb, 0xfa, 0x3d, 0x10, 0x93, 0x8b, 0xbe, 0x09, 0x20, 0x72, 0x3f,
    0x30, 0x68, 0x28, 0xbe, 0x77, 0x65, 0x08, 0x3f, 0x09, 0xbf, 0x98, 0xbb,
    0x17, 0x53, 0x2d, 0xbe, 0xc9, 0x90, 0x2c, 0x3e, 0xc2, 0xd8, 0x8f, 0x3d,
    0xaf, 0x4a, 0x85, 0xbe, 0x4a, 0xdf, 0x92, 0x3f, 0x95, 0x80, 0x88, 0xbe,
    0x68, 0x5d, 0x16, 0x3f, 0xd2, 0xac, 0xc5, 0x3c, 0x9a, 0x96, 0x1f, 0x3d,
    0xc9, 0x3b, 0xde, 0x3d, 0x55, 0x15, 0x5e, 0x3f, 0x4c, 0xa7, 0x37, 0xbe,
    0xcf, 0xd7, 0x73, 0x3f, 0xd8, 0x47, 0xd8, 0x3c, 0x25, 0x76, 0x89, 0x3e,
    0xe5, 0x0e, 0xc5, 0x3c, 0xcd, 0x42, 0xdb, 0xbd, 0xdf, 0x33, 0x23, 0x3d,
    0xd5, 0x3a, 0x7a, 0xbe, 0xd9, 0x5c, 0x55, 0xbe, 0xf8, 0xa5, 0xa2, 0x3f,
    0xdb, 0x70, 0x91, 0xbe, 0x64, 0x84, 0x22, 0xbd, 0x75, 0x09, 0x29, 0x3e,
    0x32, 0xdb, 0x20, 0xbc, 0xa1, 0xbf, 0xa0, 0xbd, 0x23, 0xf7, 0x18, 0x3f,
    0x90, 0x82, 0xd7, 0xbe, 0xda, 0xd7, 0xc8, 0x3f, 0x6f, 0xd7, 0x4c, 0xbe,
    0x3e, 0xa7, 0xbc, 0x3e, 0xf4, 0x8f, 0x3d, 0xbe, 0xe4, 0x9b, 0x23, 0xbc,
    0x30, 0xd2, 0xcf, 0xbd, 0x52, 0x39, 0xdf, 0xbe, 0x97, 0x71, 0x2d, 0xbf,
    0x15, 0x2b, 0x9d, 0x3f, 0xfa, 0xa9, 0xd0, 0xbe, 0x17, 0xa3, 0x27, 0x3d,
    0x71, 0x80, 0xad, 0x3c, 0x35, 0x55, 0xc0, 0xbd, 0xcb, 0x4e, 0x24, 0xbe,
    0xa7, 0x85, 0x2b, 0xbf, 0x1a, 0x31, 0xb1, 0x3f, 0xf7, 0xa8, 0xf3, 0xbe,
    0xf9, 0x3f, 0x80, 0x3e, 0x6e, 0x1c, 0x4c, 0xbe, 0x6a, 0x23, 0x8b, 0xbe,
    0xaa, 0x82, 0x9b, 0x3c, 0xfe, 0x46, 0xec, 0x3d, 0x9a, 0x37, 0x16, 0xbd,
    0x35, 0xbc, 0xc1, 0x3f, 0x92, 0x32, 0x29, 0xbf, 0x2b, 0x03, 0xe6, 0x3e,
    0x45, 0x89, 0x8b, 0xbc, 0xdb, 0xeb, 0xa6, 0xbd, 0x81, 0x61, 0x20, 0xbe,
    0x1f, 0x56, 0x0f, 0x3c, 0xa6, 0x0c, 0x34, 0x3e, 0x5f, 0xe8, 0xcc, 0x3f,
    0xfa, 0xfc, 0x04, 0xbf, 0x85, 0x87, 0xd1, 0x3b, 0x54, 0x57, 0x2c, 0xbe,
    0x32, 0x1e, 0xa5, 0xbd, 0x51, 0xd7, 0x49, 0x3e, 0xbf, 0x85, 0xff, 0xbd,
    0x18, 0xc3, 0x17, 0x3d, 0xb5, 0x0e, 0x53, 0x3f, 0x05, 0x56, 0x94, 0xbf,
    0x8d, 0xfd, 0xa7, 0xbd, 0xb3, 0x02, 0x1f, 0xbf, 0xd9, 0xac, 0xe2, 0xbe,
    0xb2, 0x15, 0x1d, 0xbd, 0x5f, 0x17, 0x3a, 0x3e, 0xb4, 0x9a, 0xa0, 0xbe,
    0x6b, 0xb6, 0x20, 0x3f, 0xd9, 0x58, 0x92, 0xbf, 0x32, 0x2a, 0x9b, 0x3e,
    0x30, 0xc6, 0x5e, 0xbe, 0x68, 0xc7, 0x07, 0x3f, 0x44, 0x6e, 0x16, 0xbd,
    0xd3, 0xfd, 0x44, 0xbd, 0xa2, 0xf4, 0xd7, 0x3d, 0xa8, 0x1f, 0x4b, 0x3f,
    0x7d, 0x63, 0xbb, 0xbf, 0x06, 0xc1, 0x58, 0x3e, 0x27, 0x02, 0x49, 0xbe,
    0x01, 0x7b, 0xfc, 0x3e, 0x5b, 0xa9, 0x16, 0xbd, 0x11, 0x0c, 0xc0, 0x3c,
    0x91, 0xa0, 0xb4, 0x3d, 0x11, 0xb1, 0x6a, 0xbf, 0xcc, 0x24, 0x8f, 0x3f,
    0x33, 0x8c, 0xcf, 0xbe, 0x44, 0x7b, 0x27, 0x3f, 0x3f, 0x6b, 0x28, 0xbe,
    0x97, 0xd7, 0x10, 0x3d, 0xf9, 0x17, 0x7d, 0x3e, 0x08, 0x65, 0x85, 0xbe,
    0x2b, 0x8b, 0x69, 0xbf, 0x4f, 0x59, 0x7c, 0x3f, 0xec, 0xbd, 0xca, 0xbe,
    0xb0, 0x5c, 0x18, 0x3e, 0x0d, 0x93, 0x11, 0xbd, 0x77, 0xcf, 0x4c, 0xbc,
    0x6b, 0x4c, 0xad, 0xbc, 0xd1, 0x12, 0xb7, 0x3e, 0x0f, 0xe5, 0x79, 0xbf,
    0x8d, 0x58, 0x64, 0x3f, 0xbb, 0x63, 0x22, 0xbe, 0x7c, 0x61, 0x5f, 0xbd,
    0x48, 0x15, 0x83, 0xbe, 0xf1, 0xef, 0x2a, 0xbe, 0xda, 0xc1, 0x08, 0xbe,
    0xf9, 0x91, 0xb3, 0x3d, 0x4f, 0x97, 0x92, 0xbc, 0x82, 0x7c, 0x52, 0x3f,
    0xe0, 0x72, 0xf9, 0xbd, 0xc7, 0xf8, 0xda, 0xbe, 0x42, 0xe7, 0x5b, 0xbd,
    0x4e, 0xd3, 0x33, 0xbd, 0x6e, 0x3b, 0x2e, 0xbc, 0x2c, 0xe9, 0x87, 0x3e,
    0x5f, 0x50, 0xd6, 0x3d, 0xc9, 0x3e, 0x3c, 0x3f, 0x6f, 0x86, 0x01, 0xbf,
    0x05, 0x7e, 0x82, 0x3d, 0xab, 0x18, 0xb3, 0xbd, 0x91, 0xef, 0x94, 0x3d,
    0x8f, 0x37, 0x4d, 0x3d, 0x2e, 0x94, 0xf5, 0xbe, 0xee, 0xb9, 0x85, 0x3e,
    0x76, 0xb9, 0x7d, 0x3f, 0x45, 0x3b, 0x81, 0xbe, 0x24, 0x0d, 0x3d, 0xbd,
    0x4b, 0xc9, 0x8e, 0x3a, 0x89, 0xac, 0x51, 0x3e, 0x7c, 0x7d, 0x25, 0x3d,
    0x8d, 0x8b, 0x6d, 0xbe, 0x45, 0xa8, 0x93, 0xbf, 0xa1, 0x18, 0x3d, 0xbf,
    0x26, 0x30, 0x03, 0xbf, 0x72, 0xb4, 0x08, 0x3e, 0xd5, 0x31, 0xb6, 0x3e,
    0xe3, 0xa8, 0x0a, 0xbd, 0x96, 0x0c, 0x4e, 0x3d, 0x55, 0xe3, 0x0b, 0x3d,
    0x04, 0x06, 0x18, 0xbf, 0x15, 0xdb, 0x83, 0xbf, 0x74, 0xf9, 0x93, 0xbe,
    0xa2, 0x4e, 0x87, 0x3e, 0xcc, 0x61, 0xeb, 0x3e, 0x57, 0x24, 0x4d, 0x3e,
    0x7b, 0xad, 0xbb, 0x3d, 0xb6, 0x49, 0x27, 0xbd, 0x90, 0x06, 0x93, 0xbf,
    0x7e, 0x4c, 0x19, 0xbf, 0x45, 0x7b, 0x12, 0xbf, 0xb6, 0x6b, 0xf6, 0x3e,
    0xaf, 0x43, 0x64, 0x3e, 0x99, 0xca, 0xb7, 0xbd, 0x9a, 0xa7, 0x64, 0x3d,
    0x1d, 0x62, 0x8d, 0x3e, 0x1c, 0x9b, 0x40, 0xbf, 0xdb, 0x80, 0x4e, 0xbf,
    0x9b, 0x01, 0xc1, 0x3c, 0x8f, 0xfd, 0xcf, 0xbe, 0x4a, 0x98, 0xc4, 0x3e,
    0xa9, 0x9b, 0xbd, 0xbd, 0xcf, 0xe3, 0x05, 0xbe, 0x13, 0x93, 0x3c, 0xbc,
    0x6f, 0x68, 0x42, 0xbf, 0x00, 0xde, 0x37, 0xbf, 0x36, 0x0c, 0xbf, 0xbd,
    0x1a, 0xea, 0x59, 0xbe, 0x86, 0xdc, 0x3c, 0xbd, 0xd2, 0x3f, 0x2f, 0x3e,
    0xb4, 0x0a, 0x7c, 0xbe, 0xfa, 0xc7, 0x48, 0xbd, 0x03, 0xb7, 0x45, 0xbf,
    0x16, 0x58, 0x45, 0xbf, 0x21, 0xc6, 0x7e, 0xbd, 0x7e, 0x6b, 0xad, 0xbb,
    0x8a, 0xa3, 0x05, 0xbf, 0x5b, 0x6e, 0xdd, 0xbd, 0x88, 0x9e, 0xdb, 0xbd,
    0x17, 0x4a, 0x1c, 0xbe, 0x04, 0x6c, 0x08, 0x3f, 0xab, 0x1a, 0x86, 0xbf,
    0x84, 0x09, 0x8e, 0x3c, 0x5e, 0x53, 0x27, 0xbe, 0x92, 0x0d, 0x81, 0x3d,
    0x0e, 0x1b, 0x9d, 0x3d, 0x22, 0x58, 0x29, 0x3e, 0xb8, 0x4c, 0x77, 0xbd,
    0x2f, 0x96, 0x50, 0x3f, 0x20, 0x1e, 0x9a, 0xbf, 0x4a, 0x93, 0x8b, 0x3e,
    0x01, 0xf1, 0xbb, 0xbe, 0xe9, 0x29, 0x9f, 0xbe, 0x5a, 0xe1, 0x0a, 0x3d,
    0x19, 0x51, 0xee, 0xbd, 0x8e, 0x60, 0x07, 0x3d, 0x60, 0x00, 0x39, 0x3f,
    0x27, 0x01, 0x6d, 0xbf, 0xbe, 0x43, 0x9d, 0xbd, 0x3b, 0xf5, 0x0c, 0xbd,
    0xd0, 0x2a, 0x9f, 0x38, 0x1f, 0x1f, 0x22, 0xbe, 0x81, 0x18, 0xd3, 0xbd,
    0x9e, 0x48, 0x74, 0x3e, 0x6b, 0x3f, 0x5c, 0xbe, 0x9d, 0xde, 0xe3, 0x3e,
    0x1b, 0x80, 0x20, 0xbf, 0x67, 0xae, 0xcd, 0x3d, 0x5d, 0x45, 0x96, 0xbd,
    0xf1, 0x6b, 0x30, 0x3d, 0x0f, 0xe9, 0x10, 0xbd, 0xb6, 0xa7, 0x01, 0x3e,
    0x32, 0xaa, 0x0f, 0xbf, 0x90, 0x8c, 0xf1, 0x3e, 0xb1, 0x51, 0xc9, 0xbe,
    0xbe, 0x9e, 0xf5, 0xbd, 0x7a, 0x99, 0xce, 0xbd, 0x75, 0xcf, 0x22, 0xbe,
    0x4b, 0xb3, 0xf6, 0xbd, 0x4e, 0x13, 0xda, 0xbd, 0x6e, 0x5f, 0xda, 0xbe,
    0xf3, 0x97, 0x4e, 0x3f, 0x96, 0x8b, 0x2c, 0xbf, 0xc8, 0x43, 0x80, 0xbd,
    0x71, 0x1e, 0x0d, 0x3f, 0x49, 0x9c, 0x7b, 0xbe, 0x5c, 0xc9, 0xdf, 0x3d,
    0x0e, 0xbd, 0x88, 0xbe, 0x07, 0x87, 0x0f, 0x3f, 0x88, 0x86, 0xa5, 0x3e,
    0xf6, 0x11, 0x78, 0x3c, 0x9d, 0x02, 0xa5, 0x3d, 0x34, 0x72, 0xb1, 0x3e,
    0xb9, 0x3f, 0x03, 0x3e, 0xbd, 0x10, 0x98, 0xbd, 0xef, 0x8d, 0x95, 0xbe,
    0xbc, 0xdb, 0xef, 0x3e, 0xa5, 0x9d, 0xe2, 0xbb, 0x28, 0xd3, 0x05, 0x3e,
    0xb6, 0xf2, 0xba, 0xbe, 0x91, 0xa2, 0x13, 0x3e, 0x63, 0x77, 0x0b, 0xbd,
    0x25, 0xa6, 0x47, 0x3e, 0x6b, 0x4f, 0x0d, 0x3e, 0xd1, 0xc9, 0x3b, 0x3f,
    0xa1, 0x77, 0x26, 0xbc, 0xe9, 0x4e, 0x93, 0x3c, 0x25, 0xae, 0xbe, 0xbd,
    0x3b, 0xc9, 0xc6, 0x3d, 0xfb, 0x45, 0x0b, 0xbe, 0xc3, 0x25, 0x85, 0xbd,
    0x53, 0xed, 0x94, 0x3c, 0x0a, 0xf2, 0xff, 0xff, 0x04, 0x00, 0x00, 0x00,
    0x00, 0x0c, 0x00, 0x00, 0xe2, 0xef, 0x7e, 0xbe, 0x35, 0xa0, 0x66, 0x3e,
    0x08, 0x43, 0x71, 0xbc, 0x1b, 0x5c, 0x25, 0xbe, 0xec, 0x0e, 0x2e, 0xbe,
    0xfc, 0x57, 0x1f, 0x3e, 0xbb, 0x52, 0x92, 0xbc, 0xb1, 0x18, 0x14, 0x3e,
    0x50, 0xa7, 0xd8, 0xbd, 0x98, 0xc2, 0x71, 0x3e, 0x88, 0xb7, 0x26, 0x3d,
    0xf6, 0xfa, 0x12, 0xbe, 0x09, 0xaf, 0x7b, 0x3e, 0x6a, 0xa7, 0x77, 0xbe,
    0x3f, 0xd1, 0x08, 0x3e, 0xb9, 0x99, 0x63, 0xbe, 0xd1, 0x02, 0x92, 0xbe,
    0xd7, 0xe5, 0x1a, 0xbd, 0x9f, 0x50, 0x10, 0xbe, 0xfe, 0xce, 0x4d, 0x3e,
    0x1d, 0xce, 0x82, 0xbc, 0x53, 0x09, 0x25, 0xbe, 0x97, 0xe0, 0x05, 0x3d,
    0x94, 0xc2, 0xc1, 0xbd, 0xed, 0xa4, 0x8d, 0xbe, 0xbd, 0x0c, 0x31, 0x3e,
    0x1f, 0xb2, 0x1d, 0xbe, 0x0f, 0x5a, 0xa1, 0x3d, 0x50, 0xd0, 0x0e, 0x3e,
    0xae, 0xf4, 0x1d, 0xbe, 0xdf, 0x43, 0xf2, 0x3c, 0x6d, 0x88, 0xf6, 0xbc,
    0x21, 0xbc, 0xec, 0xbd, 0x46, 0xdf, 0x44, 0xbe, 0x25, 0x14, 0x8f, 0xbd,
    0x32, 0x9c, 0x3e, 0xbe, 0xa0, 0x58, 0xcf, 0xbd, 0x0e, 0xda, 0x74, 0x3e,
    0x05, 0x77, 0x3c, 0x3e, 0x75, 0x21, 0x8b, 0xbd, 0x33, 0xe7, 0x90, 0xbd,
    0xe4, 0x74, 0x5b, 0x3e, 0xed, 0xa7, 0x64, 0x3e, 0xcb, 0x51, 0x4d, 0x3e,
    0x6c, 0x92, 0x31, 0xbe, 0xc0, 0xbe, 0x96, 0xbe, 0x85, 0xa7, 0x14, 0x3e,
    0xb4, 0x16, 0x52, 0x3d, 0x10, 0x9a, 0x5a, 0xbe, 0x77, 0x12, 0xd7, 0x3d,
    0xe2, 0xf5, 0x77, 0x3d, 0x6f, 0xf2, 0x87, 0xbe, 0x03, 0x1b, 0x52, 0xbe,
    0xc9, 0xce, 0x3c, 0xbc, 0x1a, 0x1b, 0x3f, 0xbe, 0xf3, 0xfa, 0xbf, 0xbd,
    0x33, 0xb0, 0xb9, 0x3e, 0x0c, 0x07, 0x1a, 0xbe, 0x81, 0x8b, 0x40, 0xbd,
    0x5c, 0x49, 0x54, 0x3e, 0xfd, 0x1e, 0xc9, 0xbd, 0xb0, 0xaa, 0x7a, 0xbc,
    0xeb, 0x9c, 0x95, 0x3e, 0xb1, 0x7a, 0x43, 0x3e, 0x82, 0x9c, 0xb2, 0xbd,
    0xe0, 0xd2, 0x41, 0x3d, 0x55, 0x01, 0x35, 0x3e, 0x7d, 0xb6, 0x68, 0xbe,
    0x15, 0x85, 0xdd, 0xbd, 0xb4, 0x79, 0x01, 0x3e, 0x02, 0xa6, 0x13, 0xbe,
    0x7d, 0x5c, 0x59, 0xbe, 0x2b, 0x80, 0xf6, 0xbd, 0x51, 0x37, 0x8c, 0x3d,
    0x8f, 0x5e, 0x8b, 0x3d, 0x39, 0x14, 0xbc, 0x3d, 0xb1, 0x02, 0xad, 0x3e,
    0x11, 0x44, 0xba, 0x3e, 0x3b, 0x36, 0x64, 0xbd, 0x75, 0x6c, 0x96, 0x3d,
    0x88, 0x47, 0x1a, 0xbe, 0x8d, 0xbe, 0xa0, 0x3e, 0x4c, 0x06, 0xda, 0x3d,
    0xf6, 0xb0, 0x38, 0xbe, 0x54, 0xb2, 0xd6, 0xbb, 0x3a, 0xf0, 0x6c, 0xbe,
    0x65, 0xa3, 0xc8, 0xbd, 0x3b, 0x79, 0xec, 0xbd, 0x9b, 0x7f, 0x4d, 0xbd,
    0x32, 0xee, 0x54, 0xbd, 0x5a, 0x38, 0x0e, 0xbc, 0xae, 0x62, 0xb7, 0x3e,
    0x7f, 0x3a, 0x3a, 0x3d, 0xa1, 0x2f, 0xae, 0x3d, 0x0b, 0xc7, 0x23, 0xbe,
    0x62, 0x4b, 0xeb, 0x3d, 0xe6, 0x2c, 0xd4, 0x3e, 0x0c, 0x19, 0xa2, 0xbd,
    0xa7, 0x53, 0xe5, 0x3d, 0x98, 0x76, 0xc7, 0xbd, 0x03, 0x2f, 0xc2, 0x3e,
    0xea, 0xe3, 0x7d, 0xbd, 0x1c, 0xa3, 0x99, 0xbd, 0x57, 0x1f, 0x37, 0x3c,
    0xb3, 0x0c, 0x1c, 0x3e, 0x1c, 0xfe, 0x5b, 0xbe, 0x10, 0x07, 0x19, 0x3e,
    0x60, 0x87, 0x8c, 0x3e, 0x4a, 0xb1, 0x36, 0x3e, 0x5d, 0xab, 0x7e, 0x3e,
    0x24, 0xca, 0x08, 0x3e, 0x74, 0x68, 0x04, 0xbd, 0xd0, 0xa8, 0xd9, 0xbc,
    0x13, 0x0b, 0x6a, 0x3d, 0x67, 0x6a, 0xf3, 0xbd, 0xb8, 0x57, 0xcc, 0x3c,
    0x53, 0xbc, 0x8b, 0xbe, 0x63, 0xbf, 0xf0, 0xbd, 0x5d, 0x85, 0xd8, 0xbe,
    0xd8, 0x78, 0xf0, 0xbd, 0x2c, 0x19, 0x62, 0x3e, 0x44, 0x6a, 0x8c, 0xbe,
    0x10, 0x58, 0xbc, 0x3d, 0xdc, 0x4a, 0x2c, 0x3e, 0x8a, 0x9a, 0xaa, 0xbd,
    0x73, 0xc4, 0x48, 0x3e, 0xd7, 0xee, 0x07, 0xbd, 0xdd, 0x0a, 0xdc, 0x3c,
    0x12, 0x3e, 0x88, 0x3d, 0x87, 0xdf, 0x7c, 0x3e, 0x06, 0xe2, 0x59, 0x3e,
    0x06, 0x74, 0x13, 0xbe, 0x7d, 0x29, 0x75, 0x3e, 0x25, 0x67, 0x59, 0xbd,
    0xd2, 0xf0, 0x4b, 0xbe, 0x17, 0x21, 0x31, 0x3d, 0x22, 0x6e, 0x51, 0x3d,
    0x88, 0x1d, 0x34, 0x3e, 0xbd, 0x1a, 0x98, 0xbe, 0x0a, 0x26, 0xd7, 0x3d,
    0x6a, 0x8a, 0x5a, 0x3e, 0x83, 0xc1, 0x50, 0xbe, 0x66, 0xca, 0xe8, 0xbd,
    0xb2, 0x1c, 0x49, 0xbd, 0x65, 0x8c, 0x0c, 0xbf, 0x02, 0xfe, 0x13, 0x3c,
    0xc0, 0x46, 0x05, 0xbe, 0x86, 0x8b, 0x83, 0xbc, 0xd2, 0x04, 0x0f, 0x3e,
    0x5d, 0xc8, 0x75, 0xbd, 0xca, 0x93, 0xdd, 0xbd, 0x53, 0x8b, 0xad, 0x3d,
    0x08, 0xd1, 0x96, 0x3d, 0x65, 0x8f, 0x69, 0x3c, 0x0e, 0x27, 0x28, 0xbe,
    0x5e, 0x3d, 0x1a, 0x3e, 0x3a, 0x46, 0xb2, 0x3d, 0xa9, 0x54, 0xf3, 0x3d,
    0x0c, 0x94, 0x96, 0xbe, 0x3e, 0x6a, 0x40, 0xbe, 0xac, 0x33, 0xb9, 0xbc,
    0x8e, 0xfc, 0x85, 0xbd, 0x6f, 0xa7, 0x97, 0x3d, 0x84, 0x96, 0xe5, 0xbd,
    0x81, 0xc6, 0x88, 0x3e, 0x98, 0x09, 0xa3, 0x3d, 0x93, 0x82, 0xf1, 0xbd,
    0x80, 0x8a, 0x71, 0xbe, 0x07, 0x0a, 0x90, 0xbe, 0xc3, 0x8a, 0x19, 0xbe,
    0x9f, 0xab, 0x96, 0x3e, 0x21, 0x73, 0xda, 0x3d, 0x6e, 0xc3, 0xbd, 0x3d,
    0x30, 0x47, 0x5b, 0x3d, 0x7b, 0xec, 0x60, 0xbe, 0x82, 0x3f, 0x92, 0x3d,
    0x21, 0x2c, 0x03, 0x3d, 0x10, 0x04, 0x48, 0x3e, 0xd3, 0xea, 0x8a, 0xbe,
    0x34, 0xd5, 0x04, 0x3e, 0x3e, 0xba, 0x9e, 0xbe, 0x86, 0x5a, 0x24, 0x3e,
    0xf0, 0x3e, 0xe0, 0x3c, 0x52, 0xba, 0x79, 0xbe, 0x63, 0x3a, 0x98, 0xbe,
    0xeb, 0x5a, 0x19, 0x3c, 0x68, 0x8a, 0x21, 0x3d, 0x9e, 0x98, 0x24, 0xbd,
    0xb7, 0xd6, 0x4c, 0xbe, 0x66, 0xe8, 0x11, 0xbe, 0x0b, 0xea, 0xd8, 0x3d,
    0x14, 0x61, 0x8b, 0xbe, 0xc2, 0xa3, 0xc3, 0xbe, 0x7a, 0x4b, 0xe8, 0xbc,
    0x8a, 0x72, 0xa2, 0xbe, 0xf9, 0x48, 0x87, 0xbd, 0xd2, 0x80, 0x32, 0xbe,
    0x23, 0x00, 0xc1, 0x3e, 0x1f, 0x80, 0x90, 0xbe, 0xd1, 0xbc, 0x0f, 0x3e,
    0x98, 0x3a, 0xde, 0x3c, 0x90, 0x70, 0xa6, 0xbe, 0x5f, 0x50, 0xd1, 0x3d,
    0x23, 0x64, 0x81, 0x3e, 0x1f, 0xaf, 0x0a, 0x3c, 0xd6, 0xef, 0x3f, 0xbd,
    0x8e, 0x7c, 0x2e, 0xbd, 0x50, 0xd1, 0x79, 0xbe, 0x09, 0x11, 0x1c, 0x3e,
    0x36, 0x12, 0x34, 0xbe, 0x71, 0xf1, 0x51, 0x3c, 0xa0, 0xff, 0x4d, 0x3d,
    0x43, 0x71, 0x62, 0x3b, 0x51, 0xba, 0xea, 0x3d, 0x51, 0xf1, 0x81, 0xbe,
    0x5d, 0x99, 0x81, 0xbc, 0xdf, 0xd4, 0x1f, 0x3d, 0x7d, 0xb5, 0x9a, 0xbd,
    0x68, 0x3e, 0xa6, 0xbd, 0x31, 0xf3, 0x6c, 0xbe, 0x67, 0x29, 0x04, 0x3e,
    0x49, 0x3a, 0xdc, 0xbe, 0xcc, 0x9e, 0xba, 0x3d, 0xef, 0xbf, 0x8e, 0xbe,
    0x4d, 0xb1, 0x9e, 0xbe, 0x53, 0x44, 0xdd, 0x3c, 0xf6, 0x11, 0xcf, 0xb8,
    0x4e, 0x1e, 0xf5, 0x3d, 0x08, 0x31, 0x99, 0xbd, 0x4c, 0x24, 0x22, 0x3c,
    0xb6, 0x3d, 0x5c, 0x3d, 0xfc, 0xf0, 0x3a, 0xbe, 0x6d, 0xea, 0x5f, 0xbe,
    0x5a, 0xe1, 0x29, 0xbc, 0x2b, 0x9f, 0xee, 0x3d, 0x59, 0x8f, 0xad, 0x3d,
    0x2b, 0xf5, 0x63, 0xbe, 0xfc, 0x54, 0x87, 0xbc, 0x29, 0x9b, 0x8b, 0xbe,
    0x9e, 0x66, 0x54, 0x3d, 0x48, 0x0a, 0xa0, 0xbe, 0x8c, 0xf1, 0x42, 0x3e,
    0x1d, 0xf6, 0x79, 0xbe, 0xe0, 0x97, 0x65, 0x3e, 0x77, 0xa0, 0x81, 0x3d,
    0x1c, 0x4e, 0xc9, 0x3e, 0xf9, 0x28, 0xa7, 0xbd, 0x1e, 0x29, 0xaa, 0x3c,
    0xb5, 0x83, 0x96, 0xbe, 0x97, 0x3b, 0xa6, 0x3e, 0x6c, 0x9b, 0x2f, 0xbd,
    0xde, 0xa2, 0xa8, 0xbe, 0xaf, 0x37, 0xab, 0xbd, 0xa6, 0xb3, 0x29, 0xbe,
    0xd0, 0xcd, 0x85, 0xbd, 0x81, 0x4d, 0x42, 0x3e, 0xaa, 0x8e, 0x87, 0xbd,
    0xe4, 0x31, 0x34, 0xbd, 0xab, 0xce, 0x60, 0xbe, 0x1b, 0xd3, 0x02, 0xbe,
    0xb6, 0xcf, 0xec, 0xbd, 0x2a, 0xbc, 0x54, 0xbe, 0xae, 0x04, 0xb1, 0x3e,
    0xe7, 0x3e, 0x52, 0xbd, 0xa3, 0x7b, 0x43, 0xbe, 0x23, 0x97, 0xba, 0xbd,
    0x81, 0xc5, 0xae, 0x3e, 0x3a, 0x5b, 0x84, 0xbd, 0xac, 0xa4, 0x2a, 0xbe,
    0xc3, 0x16, 0x8a, 0xbd, 0x24, 0x20, 0xb6, 0xbc, 0x67, 0x0c, 0x3f, 0xbd,
    0xe6, 0xfc, 0x5c, 0x3d, 0x23, 0x78, 0xf5, 0xbd, 0xa4, 0x16, 0x5c, 0x3e,
    0x78, 0x40, 0x99, 0x3e, 0xc6, 0xf2, 0x95, 0x3d, 0x22, 0x7a, 0x49, 0x3d,
    0xd8, 0xae, 0x18, 0x3e, 0xb4, 0xb6, 0x2e, 0x3e, 0x0f, 0x41, 0xd8, 0xba,
    0x92, 0xdf, 0xe8, 0xbd, 0x91, 0x92, 0xaa, 0x3c, 0x40, 0xcf, 0xe5, 0x3d,
    0x00, 0xf7, 0xbd, 0x3a, 0x4d, 0x64, 0x7a, 0x3d, 0x73, 0xc6, 0x28, 0x3e,
    0x1c, 0x2d, 0xfc, 0x3d, 0xf5, 0x96, 0x5f, 0xbe, 0x97, 0x72, 0xd6, 0x3d,
    0x44, 0x99, 0xb7, 0xbe, 0x75, 0xf8, 0x72, 0x3e, 0x1d, 0xa6, 0x49, 0x3b,
    0x77, 0x42, 0x47, 0xbd, 0x8f, 0xc4, 0x2b, 0x3e, 0x35, 0xf0, 0x48, 0x3e,
    0xa4, 0x3e, 0x03, 0xbe, 0x84, 0x31, 0x5e, 0xbd, 0xf2, 0xf8, 0x03, 0xbe,
    0xe7, 0xe2, 0x0d, 0xbe, 0xb9, 0xd5, 0x8b, 0xbd, 0xcf, 0xfb, 0x0a, 0xbd,
    0x55, 0x99, 0x32, 0x3e, 0xe7, 0x19, 0x9c, 0xbe, 0x37, 0x28, 0x14, 0xbe,
    0xf0, 0x0f, 0xdd, 0xbd, 0xfd, 0xe5, 0x39, 0xbe, 0xb8, 0xca, 0x23, 0x3d,
    0xfa, 0xdf, 0xd3, 0xbd, 0xdf, 0x34, 0x77, 0xbd, 0x4b, 0x28, 0xa9, 0x3d,
    0x48, 0xc6, 0x73, 0x3d, 0x7d, 0x0f, 0x3e, 0xbe, 0x56, 0x3d, 0x42, 0xbd,
    0xf3, 0xdc, 0x7a, 0x3e, 0xba, 0x2b, 0x27, 0xbe, 0x49, 0x8e, 0x7d, 0x3d,
    0xc3, 0xb1, 0x68, 0x3e, 0xc9, 0x37, 0xc5, 0x3d, 0x7f, 0xfd, 0x10, 0xbe,
    0x65, 0x2a, 0x85, 0x3d, 0xa4, 0xf2, 0x33, 0xbe, 0x85, 0x9f, 0x36, 0x3e,
    0x73, 0x3f, 0x14, 0xbd, 0xce, 0x88, 0x20, 0xbd, 0x86, 0x17, 0x1a, 0x3e,
    0x8f, 0x2d, 0x15, 0xbe, 0xcc, 0xf6, 0x53, 0x3e, 0x24, 0x98, 0x24, 0xbd,
    0xac, 0xe1, 0x0f, 0xbd, 0x20, 0xb6, 0xa1, 0xbe, 0x7c, 0x2e, 0x28, 0x3e,
    0xb9, 0x5f, 0x73, 0xbe, 0x6e, 0x6b, 0x4b, 0x3e, 0xee, 0xd3, 0xad, 0x3c,
    0x92, 0x88, 0x46, 0x3e, 0xc3, 0xc9, 0x49, 0x3d, 0xfe, 0x37, 0x2e, 0x3e,
    0x57, 0x57, 0x33, 0x3e, 0xc3, 0x17, 0xb2, 0x3d, 0x25, 0x34, 0xbd, 0x3d,
    0x6f, 0x73, 0xf8, 0x3d, 0xf6, 0x61, 0xa2, 0x3d, 0x12, 0x39, 0xba, 0xbe,
    0x12, 0x86, 0x51, 0x3d, 0x89, 0x05, 0x24, 0xbe, 0x1f, 0xb9, 0x56, 0xbe,
    0x7a, 0x6c, 0x43, 0x3e, 0xf0, 0x7c, 0x53, 0xbe, 0x8e, 0x7f, 0x2b, 0xbe,
    0xb7, 0xbe, 0x6a, 0x3e, 0x44, 0x56, 0x20, 0xbe, 0x79, 0x1b, 0xad, 0xbe,
    0x50, 0x3e, 0xe5, 0x3d, 0x53, 0x03, 0x76, 0x3d, 0x90, 0xf0, 0xff, 0xbc,
    0x69, 0x1d, 0x9a, 0x3b, 0x2c, 0x4a, 0x1c, 0x3e, 0xa6, 0x2e, 0xdf, 0xbd,
    0x8c, 0xcb, 0x12, 0x3d, 0x82, 0xf7, 0xfa, 0xbc, 0x2d, 0x9b, 0x90, 0xbd,
    0x15, 0x3c, 0x09, 0xbe, 0x9b, 0x2d, 0x19, 0x3e, 0x5a, 0xed, 0x86, 0xbe,
    0x0f, 0xca, 0xeb, 0xbc, 0x53, 0xf3, 0xfc, 0xbd, 0x48, 0x30, 0x3c, 0xbd,
    0xc3, 0x8c, 0x82, 0x3d, 0x93, 0x04, 0xcf, 0x3d, 0xaf, 0xdd, 0xac, 0x3d,
    0x47, 0x75, 0x17, 0xbe, 0x50, 0xd0, 0x5f, 0xbc, 0xc7, 0x0e, 0x95, 0xbd,
    0xd4, 0x44, 0x7a, 0x3e, 0x6d, 0x01, 0x64, 0xbe, 0xc4, 0xd8, 0x01, 0xbe,
    0xf6, 0xc1, 0xb6, 0x3d, 0x89, 0x39, 0x19, 0xbd, 0x66, 0x07, 0x92, 0x3e,
    0xe2, 0xc3, 0xec, 0x3d, 0x0a, 0x71, 0xe9, 0xbd, 0x72, 0x48, 0xcb, 0x3d,
    0xc9, 0xc9, 0x61, 0xbe, 0xa6, 0x3e, 0xb5, 0xbe, 0xee, 0xb8, 0xb0, 0x3d,
    0xd1, 0xcb, 0xf6, 0x3b, 0xd3, 0xc2, 0xb3, 0xbc, 0x31, 0x74, 0x92, 0xbd,
    0xd7, 0xf5, 0xd7, 0x3b, 0x7c, 0xf4, 0xac, 0x3e, 0x5b, 0xee, 0x62, 0xbe,
    0xe8, 0x27, 0x3a, 0x3d, 0x2d, 0xe5, 0x85, 0x3e, 0xb5, 0x41, 0x71, 0x3e,
    0x55, 0x69, 0x88, 0x3e, 0x44, 0x21, 0xf4, 0xbb, 0xe7, 0x86, 0x49, 0xbd,
    0x9e, 0x25, 0x16, 0x3e, 0x93, 0x56, 0xc2, 0x3d, 0x88, 0xb9, 0xc1, 0xbe,
    0x0f, 0xfc, 0x8f, 0x3c, 0x96, 0x69, 0xb0, 0xbd, 0x73, 0x58, 0x4b, 0xbe,
    0x77, 0xf8, 0x81, 0x3d, 0xb5, 0x2d, 0x60, 0x3e, 0xee, 0xd0, 0x34, 0x3e,
    0xb3, 0x4f, 0x38, 0xbd, 0x25, 0xcc, 0xde, 0xbe, 0x96, 0x67, 0xa7, 0x3d,
    0xb1, 0x21, 0x18, 0x3e, 0x58, 0xeb, 0x1d, 0x3e, 0x39, 0xe0, 0x5a, 0x3e,
    0x41, 0x40, 0x34, 0xbe, 0x71, 0xb6, 0x84, 0xbd, 0x4e, 0x7a, 0x93, 0x3a,
    0x5e, 0x54, 0x13, 0xbf, 0x6b, 0xeb, 0x06, 0x3e, 0x70, 0x15, 0x70, 0x3d,
    0xb2, 0x74, 0x33, 0xbe, 0x06, 0xb3, 0xaa, 0xbe, 0x78, 0xed, 0x96, 0xbc,
    0xf3, 0xa2, 0x86, 0x3e, 0x55, 0x66, 0x39, 0xbe, 0x63, 0xef, 0x2a, 0xbe,
    0x4f, 0xcc, 0xe2, 0xbc, 0xaa, 0x74, 0x16, 0x3e, 0xde, 0x54, 0x46, 0xbd,
    0xc2, 0x27, 0x2d, 0x3b, 0x96, 0xdc, 0xab, 0xbe, 0xcb, 0xdb, 0x38, 0x3d,
    0x5b, 0xaf, 0x3b, 0xbd, 0xb9, 0xe0, 0x88, 0x3d, 0x3f, 0x72, 0x95, 0xbe,
    0xb2, 0x04, 0x45, 0xbe, 0xdf, 0x05, 0x0b, 0x3e, 0xf2, 0x5f, 0x49, 0x3d,
    0x9b, 0x8a, 0x53, 0xbd, 0xc4, 0x5d, 0x0b, 0x3e, 0xe2, 0x0b, 0x2a, 0x3e,
    0x6a, 0xd3, 0x8c, 0x3e, 0x85, 0x63, 0x1f, 0xbd, 0xe1, 0x34, 0x7a, 0x3c,
    0xd2, 0x19, 0xfc, 0xbd, 0x1b, 0xeb, 0x0e, 0x3e, 0x25, 0xd8, 0xcc, 0x3b,
    0x3b, 0xbc, 0x0b, 0xbe, 0xb5, 0x4a, 0x2f, 0xbc, 0x16, 0xa4, 0x46, 0x3e,
    0xa5, 0xd2, 0x98, 0xbc, 0xd3, 0x22, 0xcc, 0xbd, 0x77, 0x1e, 0x01, 0x3d,
    0x24, 0xdc, 0x0c, 0xbd, 0xf3, 0xf2, 0x3c, 0x3e, 0x4e, 0x8b, 0x0b, 0xbe,
    0x2a, 0x0c, 0x54, 0x3e, 0xb7, 0x9f, 0x1c, 0xbe, 0x2e, 0x60, 0xac, 0x3d,
    0x4f, 0x56, 0x48, 0x3e, 0x18, 0xb7, 0x83, 0xbd, 0xdc, 0x17, 0x17, 0xbe,
    0xc9, 0xc5, 0xd0, 0xbc, 0x12, 0x73, 0x0a, 0xbe, 0x19, 0x0d, 0xa4, 0xbd,
    0xc0, 0x55, 0xe3, 0x3e, 0xc2, 0xd4, 0x9c, 0xbd, 0xb0, 0x98, 0x0a, 0x3d,
    0x54, 0x3c, 0xef, 0x3d, 0x24, 0x8e, 0xb2, 0x3d, 0xa0, 0xcc, 0xdb, 0x3a,
    0x70, 0x33, 0x29, 0x3d, 0xee, 0xf4, 0x8d, 0x3e, 0x77, 0xd6, 0x80, 0x3e,
    0xef, 0x3b, 0xbd, 0xbe, 0x51, 0xab, 0x0c, 0x3e, 0x4f, 0xf2, 0xe0, 0x3d,
    0x82, 0x17, 0xcd, 0xbd, 0xd2, 0x01, 0x48, 0xbd, 0x26, 0x94, 0x37, 0x3e,
    0x53, 0x9e, 0x19, 0x3e, 0xe9, 0xb5, 0xe1, 0x3e, 0xb1, 0xfe, 0x7b, 0x3d,
    0xfa, 0x72, 0x3a, 0x3d, 0xd5, 0x5a, 0x1d, 0xbe, 0xf9, 0xe4, 0xb9, 0xbc,
    0xe1, 0x38, 0x5a, 0x3e, 0x34, 0x34, 0xae, 0x3d, 0xaa, 0xd0, 0x00, 0xbe,
    0x30, 0x25, 0x7d, 0x3d, 0xdf, 0xef, 0x0a, 0x3e, 0x72, 0x50, 0x22, 0xbe,
    0x6a, 0xce, 0x79, 0xbc, 0x6f, 0x57, 0x52, 0x3d, 0x0e, 0x49, 0xd6, 0x3c,
    0x99, 0x49, 0x7b, 0x3d, 0xd4, 0x00, 0x76, 0x3c, 0x67, 0xfc, 0x8b, 0xbd,
    0xd9, 0x57, 0x81, 0xbe, 0xbc, 0x53, 0x59, 0xbe, 0xeb, 0xf8, 0x36, 0x3d,
    0x3d, 0xcc, 0x4c, 0x3d, 0xc8, 0xfe, 0xc1, 0x3d, 0x6d, 0x98, 0xf2, 0xbd,
    0x17, 0x94, 0x36, 0xbd, 0x66, 0xd8, 0xe3, 0x3d, 0xff, 0x3c, 0x65, 0xbd,
    0xcc, 0xa7, 0x23, 0xbe, 0x35, 0x98, 0xb6, 0xbe, 0x5b, 0xa3, 0x27, 0xbe,
    0x11, 0xff, 0x4f, 0x3e, 0x47, 0x1a, 0x66, 0x3d, 0x7a, 0x87, 0x6b, 0xbe,
    0xb5, 0x47, 0xac, 0xbd, 0xb4, 0x4d, 0x9c, 0xbe, 0xad, 0xce, 0x9d, 0xbe,
    0x40, 0x53, 0x14, 0x3e, 0xca, 0x97, 0xb2, 0xbd, 0xe2, 0xc8, 0xe8, 0x3d,
    0x6e, 0xbf, 0xdb, 0xbb, 0x72, 0xa1, 0xc3, 0x3c, 0x31, 0x24, 0x84, 0x3e,
    0x0c, 0xde, 0x41, 0xbe, 0xe2, 0xd0, 0xa9, 0xbb, 0xa9, 0xe1, 0x0d, 0xbd,
    0x0c, 0x18, 0x09, 0xbe, 0x97, 0x07, 0x23, 0x3e, 0x46, 0x28, 0x2f, 0xbe,
    0x97, 0xac, 0xaa, 0x3c, 0x4d, 0x21, 0x03, 0xbe, 0x8a, 0x7c, 0x1e, 0x3e,
    0x5f, 0x1b, 0x84, 0xbd, 0x29, 0x94, 0x5e, 0x3e, 0xa2, 0x80, 0x13, 0xbe,
    0xf0, 0x70, 0x3b, 0x3e, 0x83, 0x06, 0x2c, 0x3e, 0xa9, 0xd7, 0x0b, 0x3e,
    0x3a, 0xd3, 0x16, 0xbe, 0x76, 0x11, 0x6d, 0xbc, 0x2c, 0x3c, 0x5f, 0xbe,
    0x74, 0xc7, 0x28, 0x3b, 0xf6, 0xcb, 0x4e, 0x3d, 0x31, 0x56, 0x32, 0xbe,
    0xf8, 0x92, 0xef, 0x3d, 0xeb, 0xee, 0x77, 0xbe, 0x0b, 0x70, 0xb7, 0xbd,
    0xd2, 0x58, 0x33, 0x3d, 0x8a, 0x25, 0x1d, 0xbe, 0xdc, 0x01, 0x8c, 0x3d,
    0x8b, 0x38, 0x4b, 0x3d, 0x92, 0xfb, 0x73, 0xbe, 0xc2, 0x3a, 0xec, 0xbd,
    0x53, 0x08, 0xcd, 0x3d, 0x04, 0xa1, 0x82, 0xbe, 0xa0, 0x00, 0x46, 0xbc,
    0x85, 0xbc, 0x4a, 0x3e, 0xcf, 0x2d, 0xec, 0x3c, 0x6d, 0x3b, 0x72, 0xbe,
    0xea, 0x17, 0x92, 0xbc, 0xcd, 0x6e, 0x88, 0xbe, 0xbd, 0xe5, 0xf1, 0xbd,
    0xe9, 0xa1, 0x81, 0x3d, 0x63, 0xd9, 0x46, 0x3e, 0xc6, 0x88, 0x1a, 0x3d,
    0x02, 0x5e, 0xa8, 0xbd, 0xd2, 0xbf, 0xa1, 0xbe, 0x69, 0xc4, 0x1b, 0xbe,
    0xb4, 0x63, 0xbb, 0x3d, 0xb2, 0x24, 0x2d, 0xbe, 0xec, 0xf6, 0x02, 0xbe,
    0x34, 0xf8, 0xad, 0x3d, 0xe2, 0x27, 0xa8, 0xbd, 0x19, 0xd9, 0x02, 0xbd,
    0x68, 0x70, 0x23, 0x3e, 0x78, 0xa7, 0x00, 0x3e, 0x91, 0x6f, 0x89, 0x3d,
    0x92, 0x50, 0x8c, 0x3d, 0xa4, 0x3f, 0x4a, 0xbd, 0xc7, 0x6d, 0x59, 0xbd,
    0x46, 0x88, 0x80, 0xbe, 0xd1, 0x20, 0x1b, 0xbd, 0x5a, 0xa8, 0x1e, 0x3e,
    0x17, 0x3e, 0xa0, 0xbe, 0x18, 0x0f, 0x21, 0x3e, 0x4b, 0x22, 0xbc, 0xbd,
    0x12, 0xc5, 0xc4, 0xbc, 0xad, 0x4d, 0xac, 0x3d, 0x8b, 0xa8, 0xc5, 0x3d,
    0xb4, 0xc8, 0xec, 0xbd, 0x53, 0xe5, 0x78, 0xbe, 0x66, 0x4d, 0x89, 0x3e,
    0x1f, 0x90, 0xc4, 0x3a, 0xa8, 0x00, 0x6d, 0xbe, 0x29, 0x8a, 0x49, 0x3e,
    0xfa, 0x8e, 0x8f, 0xbe, 0x0c, 0x4b, 0xeb, 0xbd, 0x53, 0x48, 0x7a, 0xbd,
    0x14, 0xee, 0x20, 0x3e, 0x78, 0x52, 0x25, 0x3e, 0xe9, 0x32, 0xd7, 0xbd,
    0x89, 0xf7, 0x34, 0xbe, 0x62, 0x26, 0xa8, 0xbd, 0x99, 0x9b, 0x2e, 0x3e,
    0x43, 0x45, 0x21, 0xbe, 0xe1, 0xcc, 0x33, 0x3e, 0x0e, 0xd4, 0xfa, 0xbd,
    0x28, 0xda, 0xd5, 0x3d, 0x58, 0x90, 0x1c, 0xbe, 0x65, 0xb3, 0x9b, 0x3d,
    0x82, 0xb5, 0x9f, 0xbd, 0x14, 0x91, 0x86, 0x3c, 0xd4, 0xce, 0x43, 0x3c,
    0x06, 0xb8, 0x6a, 0xbd, 0xcb, 0xe8, 0xa6, 0x3d, 0xc5, 0x76, 0x93, 0x3d,
    0x26, 0xcf, 0x29, 0xbc, 0x7d, 0xe7, 0x58, 0x3e, 0xc8, 0xa8, 0x86, 0xbc,
    0xe2, 0x4f, 0x8a, 0xb9, 0x58, 0xec, 0x21, 0xbc, 0x03, 0x0e, 0x13, 0x3e,
    0xec, 0x1c, 0x68, 0xbd, 0x45, 0xdf, 0x1a, 0xbe, 0x6c, 0x19, 0x98, 0x3d,
    0x89, 0x7e, 0x21, 0x3e, 0x50, 0xee, 0x85, 0x3e, 0xf2, 0x7a, 0x8c, 0xbd,
    0x3e, 0x22, 0x1c, 0x3e, 0x4e, 0x99, 0xbe, 0xbe, 0x95, 0x64, 0xf3, 0x3d,
    0xc4, 0x20, 0x51, 0xbe, 0xaf, 0xaa, 0xd3, 0xbd, 0x89, 0x8d, 0xbf, 0xbc,
    0xc6, 0x14, 0x3a, 0x3d, 0x29, 0xc8, 0x17, 0xbe, 0xa9, 0xd1, 0xe6, 0x3d,
    0x92, 0xb8, 0x17, 0xbe, 0x00, 0x47, 0x11, 0xbe, 0x87, 0x3a, 0x5d, 0x3e,
    0x76, 0x7b, 0x48, 0x3e, 0x7a, 0x2a, 0x93, 0xbe, 0xd3, 0xed, 0xf9, 0xbd,
    0x69, 0xef, 0x44, 0xbe, 0x6d, 0xdb, 0x2c, 0x3e, 0xe4, 0x6c, 0xae, 0xbc,
    0x7f, 0x35, 0xe1, 0x3c, 0x3f, 0x83, 0xf4, 0xbd, 0x4b, 0x33, 0x9b, 0x3d,
    0xc2, 0x67, 0xfb, 0x3d, 0x84, 0x37, 0x90, 0x3e, 0x3c, 0x95, 0x86, 0xbc,
    0x83, 0xc2, 0xe1, 0xbb, 0xdd, 0x75, 0x1d, 0x3e, 0x99, 0x41, 0x88, 0xbe,
    0x08, 0x06, 0x09, 0x3e, 0x33, 0x8b, 0xe4, 0xbd, 0x46, 0x67, 0xb2, 0xbe,
    0xc6, 0x73, 0x66, 0xbd, 0xce, 0x7a, 0x61, 0x3e, 0x1d, 0xfe, 0x02, 0xbe,
    0xad, 0x20, 0xc0, 0xbd, 0x3c, 0x65, 0x26, 0x3d, 0x01, 0x2d, 0xba, 0xbd,
    0xd2, 0x20, 0xef, 0xbd, 0xdb, 0xb7, 0xbd, 0x3d, 0x50, 0xa9, 0x93, 0xbc,
    0xbb, 0x81, 0x09, 0x3e, 0x8f, 0x90, 0x79, 0xbc, 0xfd, 0x8e, 0x88, 0x3e,
    0xbe, 0x5a, 0x52, 0xbe, 0x4a, 0xc4, 0x10, 0xbe, 0x69, 0x69, 0x0b, 0x3e,
    0xa5, 0xdd, 0x63, 0x3d, 0xaf, 0x92, 0x25, 0xbe, 0x97, 0x0e, 0x30, 0x3d,
    0x66, 0x7b, 0x94, 0x3b, 0x72, 0xa3, 0x55, 0xbe, 0x49, 0x96, 0xec, 0xbd,
    0x73, 0x20, 0x11, 0xbc, 0xd7, 0xc3, 0xf0, 0x3d, 0xf1, 0x2a, 0x41, 0x3d,
    0x57, 0xe8, 0x6b, 0xbe, 0x96, 0x89, 0xbe, 0x3d, 0x53, 0x76, 0xb9, 0x3d,
    0x1c, 0xaf, 0x8c, 0xbe, 0x9c, 0x32, 0x18, 0x3e, 0x18, 0x40, 0xbd, 0xbe,
    0x24, 0x67, 0xbd, 0x3e, 0x61, 0xc6, 0xa6, 0x3d, 0xbe, 0x41, 0x39, 0xbe,
    0x66, 0x66, 0xe9, 0xbd, 0x8e, 0xa5, 0xad, 0xbd, 0x49, 0xdc, 0x89, 0xbe,
    0xae, 0x12, 0x9c, 0xbd, 0x62, 0xc8, 0x8f, 0x3e, 0x1e, 0x32, 0x7b, 0x3e,
    0x07, 0x0d, 0x07, 0xbe, 0x4e, 0x3b, 0x54, 0xbe, 0x73, 0x52, 0xe8, 0xbd,
    0x67, 0xf9, 0x9d, 0x3d, 0xb4, 0x27, 0x5a, 0x3d, 0x3e, 0x6d, 0x8d, 0x3c,
    0x90, 0x21, 0x03, 0xbe, 0x94, 0x54, 0xc3, 0x3d, 0x1e, 0x04, 0xb0, 0x3c,
    0x9b, 0x37, 0xa3, 0xbe, 0xa5, 0x10, 0xc3, 0x3d, 0x0d, 0x9f, 0xa2, 0xbe,
    0x98, 0xed, 0xdd, 0x3c, 0xb8, 0x93, 0x13, 0xbe, 0xa0, 0x72, 0xaa, 0xbb,
    0xd4, 0x1a, 0x88, 0x3e, 0xdd, 0x72, 0x41, 0xbc, 0x80, 0x87, 0x32, 0x3e,
    0x5a, 0xfa, 0xb6, 0xbd, 0x48, 0x2d, 0xcd, 0x3d, 0x59, 0x4d, 0x8c, 0x3e,
    0x6e, 0x14, 0x9c, 0xbd, 0x90, 0x99, 0x71, 0xbe, 0xa6, 0x66, 0xfb, 0xbc,
    0x8c, 0x7f, 0xea, 0x3d, 0xde, 0xcc, 0x08, 0xbc, 0x64, 0xdb, 0x9c, 0xbe,
    0x22, 0x33, 0x6f, 0xbe, 0xa5, 0xd8, 0x49, 0x3d, 0x12, 0x86, 0x21, 0x3d,
    0xc8, 0x49, 0x48, 0xbe, 0x50, 0x32, 0xff, 0x3a, 0x57, 0x9e, 0x62, 0x3e,
    0xc7, 0x59, 0x52, 0x3e, 0x71, 0x94, 0x7c, 0xbe, 0x10, 0x93, 0x8b, 0x3d,
    0xa7, 0x78, 0x82, 0x3d, 0x7c, 0xa8, 0x9d, 0x3e, 0x09, 0x3d, 0x82, 0xbd,
    0x89, 0x46, 0x05, 0x3e, 0x4a, 0x0f, 0xd3, 0x3a, 0xd5, 0x81, 0x7b, 0x3e,
    0x1f, 0xc0, 0x09, 0x3e, 0x20, 0x7e, 0x72, 0x3e, 0x31, 0x31, 0x03, 0x3e,
    0xbb, 0xbb, 0x0b, 0x3e, 0xed, 0xb8, 0x65, 0x3e, 0x01, 0x8a, 0x59, 0x3c,
    0x77, 0xd0, 0x8f, 0xbd, 0xa0, 0xf7, 0x9a, 0x3e, 0xcf, 0x18, 0x0a, 0xbd,
    0x62, 0x9a, 0xa2, 0xbe, 0x35, 0x1b, 0x2b, 0x3c, 0x74, 0xe6, 0xc3, 0xbd,
    0xe6, 0x25, 0xa8, 0x3d, 0xee, 0xb2, 0x8d, 0xbd, 0xf7, 0x51, 0xc4, 0xbc,
    0xda, 0x69, 0xac, 0xbd, 0x93, 0x86, 0xa0, 0xbe, 0x02, 0x60, 0x6f, 0xbd,
    0xbe, 0x3f, 0x02, 0x3e, 0x68, 0x2e, 0x1f, 0xbc, 0xe8, 0x8e, 0x05, 0xbe,
    0xf3, 0x44, 0x49, 0xbe, 0xab, 0xea, 0x0c, 0xbe, 0xf3, 0xa3, 0xaa, 0xbd,
    0x46, 0xa4, 0x5f, 0xbd, 0x72, 0xd6, 0xbf, 0x3d, 0x63, 0xc1, 0x74, 0x3e,
    0xfb, 0xb7, 0xb0, 0xbb, 0xef, 0xc0, 0x6e, 0x3e, 0x21, 0xcf, 0x1c, 0x3e,
    0x68, 0x7a, 0xb3, 0x3d, 0x16, 0xfe, 0xff, 0xff, 0x04, 0x00, 0x00, 0x00,
    0x0c, 0x00, 0x00, 0x00, 0x01, 0x00, 0x00, 0x00, 0x06, 0x00, 0x00, 0x00,
    0x10, 0x00, 0x00, 0x00, 0x2e, 0xfe, 0xff, 0xff, 0x04, 0x00, 0x00, 0x00,
    0x0c, 0x00, 0x00, 0x00, 0xd6, 0xdc, 0x4a, 0xbe, 0x8c, 0x93, 0x09, 0x3d,
    0x3f, 0x39, 0x21, 0x3e, 0x46, 0xfe, 0xff, 0xff, 0x04, 0x00, 0x00, 0x00,
    0x40, 0x00, 0x00, 0x00, 0x84, 0x60, 0x9f, 0xbe, 0x80, 0x86, 0x1f, 0x3e,
    0xfb, 0x43, 0xa3, 0xbe, 0x8b, 0xfa, 0xe2, 0x3e, 0xbe, 0x9e, 0x6a, 0xbe,
    0x1c, 0x1b, 0xf8, 0x3e, 0x1d, 0x09, 0x15, 0x3f, 0xd0, 0xc8, 0x9b, 0x3d,
    0x7a, 0xfe, 0xdc, 0xbe, 0xca, 0x48, 0xb3, 0x3e, 0x35, 0xb3, 0x96, 0x3e,
    0x1e, 0xb5, 0x9c, 0xbe, 0x50, 0xee, 0xd3, 0xbe, 0x68, 0x3f, 0xa0, 0xbe,
    0x5c, 0x27, 0x9b, 0xbc, 0xb4, 0x30, 0x2f, 0xbd, 0x92, 0xfe, 0xff, 0xff,
    0x04, 0x00, 0x00, 0x00, 0x40, 0x00, 0x00, 0x00, 0x8d, 0x65, 0x81, 0x3e,
    0x10, 0x9c, 0xe5, 0xbe, 0x02, 0x27, 0xdd, 0xbe, 0x35, 0x2f, 0xe9, 0x3d,
    0x1a, 0x76, 0xe4, 0xbd, 0xff, 0x35, 0x17, 0x3f, 0x50, 0xdf, 0x75, 0x3e,
    0x86, 0xe0, 0x69, 0x3e, 0x92, 0x47, 0xa3, 0x3e, 0xe1, 0xa6, 0xa6, 0xbc,
    0x37, 0x65, 0x70, 0xbd, 0x44, 0xb9, 0x65, 0x3e, 0xc5, 0x04, 0xe1, 0x3d,
    0x6c, 0x8a, 0x65, 0xbe, 0xba, 0x29, 0x87, 0x3e, 0x94, 0x8c, 0xee, 0xbe,
    0xde, 0xfe, 0xff, 0xff, 0x04, 0x00, 0x00, 0x00, 0x80, 0x00, 0x00, 0x00,
    0x2e, 0x1b, 0x78, 0xbe, 0x9d, 0x05, 0x7b, 0x3e, 0x37, 0x16, 0xc8, 0x3e,
    0xb9, 0x88, 0x81, 0xbc, 0xc1, 0xba, 0xa5, 0x3e, 0x15, 0xc2, 0x6c, 0x3c,
    0xc2, 0xdc, 0xdc, 0xbd, 0xc1, 0x2f, 0xb7, 0xbe, 0x3e, 0x86, 0x84, 0xbe,
    0x2e, 0xdf, 0x12, 0xbd, 0xf2, 0x1b, 0xc0, 0x3d, 0xdc, 0x91, 0x61, 0xbe,
    0x3d, 0x35, 0x95, 0x3d, 0x51, 0xda, 0x5a, 0x3d, 0xef, 0xa0, 0x68, 0xbc,
    0x98, 0x75, 0xbc, 0x3d, 0x9b, 0x6a, 0x1f, 0x3c, 0xf5, 0x49, 0xd7, 0x3e,
    0x0a, 0x2d, 0x49, 0xbe, 0x03, 0xe2, 0x9a, 0xbd, 0xeb, 0xe5, 0x02, 0xbd,
    0x7e, 0xb8, 0x4a, 0xbe, 0xbb, 0x95, 0x97, 0xbc, 0x8d, 0xa6, 0x5c, 0x3d,
    0x2e, 0x0d, 0xb9, 0xbe, 0xee, 0xee, 0x80, 0xbe, 0x4e, 0xa3, 0x10, 0x3e,
    0xfe, 0x05, 0xac, 0x3d, 0x30, 0x4e, 0x23, 0x3e, 0xb4, 0x4d, 0x0b, 0x3f,
    0xcc, 0xcb, 0x8a, 0x3e, 0x2a, 0x24, 0x5c, 0xbd, 0xb0, 0xf5, 0xff, 0xff,
    0xb4, 0xf5, 0xff, 0xff, 0x0f, 0x00, 0x00, 0x00, 0x4d, 0x4c, 0x49, 0x52,
    0x20, 0x43, 0x6f, 0x6e, 0x76, 0x65, 0x72, 0x74, 0x65, 0x64, 0x2e, 0x00,
    0x01, 0x00, 0x00, 0x00, 0x14, 0x00, 0x00, 0x00, 0x00, 0x00, 0x0e, 0x00,
    0x18, 0x00, 0x14, 0x00, 0x10, 0x00, 0x0c, 0x00, 0x08, 0x00, 0x04, 0x00,
    0x0e, 0x00, 0x00, 0x00, 0x14, 0x00, 0x00, 0x00, 0x1c, 0x00, 0x00, 0x00,
    0x18, 0x02, 0x00, 0x00, 0x1c, 0x02, 0x00, 0x00, 0x20, 0x02, 0x00, 0x00,
    0x04, 0x00, 0x00, 0x00, 0x6d, 0x61, 0x69, 0x6e, 0x00, 0x00, 0x00, 0x00,
    0x08, 0x00, 0x00, 0x00, 0xdc, 0x01, 0x00, 0x00, 0x7c, 0x01, 0x00, 0x00,
    0x24, 0x01, 0x00, 0x00, 0x00, 0x01, 0x00, 0x00, 0xcc, 0x00, 0x00, 0x00,
    0x88, 0x00, 0x00, 0x00, 0x40, 0x00, 0x00, 0x00, 0x04, 0x00, 0x00, 0x00,
    0x92, 0xff, 0xff, 0xff, 0x1c, 0x00, 0x00, 0x00, 0x00, 0x00, 0x00, 0x09,
    0x1c, 0x00, 0x00, 0x00, 0x20, 0x00, 0x00, 0x00, 0x04, 0x00, 0x00, 0x00,
    0x00, 0x00, 0x06, 0x00, 0x08, 0x00, 0x04, 0x00, 0x06, 0x00, 0x00, 0x00,
    0x00, 0x00, 0x80, 0x3f, 0x01, 0x00, 0x00, 0x00, 0x13, 0x00, 0x00, 0x00,
    0x01, 0x00, 0x00, 0x00, 0x12, 0x00, 0x00, 0x00, 0xe6, 0xfe, 0xff, 0xff,
    0x14, 0x00, 0x00, 0x00, 0x00, 0x00, 0x00, 0x08, 0x10, 0x00, 0x00, 0x00,
    0x14, 0x00, 0x00, 0x00, 0x03, 0x00, 0x00, 0x00, 0x7c, 0xf6, 0xff, 0xff,
    0x01, 0x00, 0x00, 0x00, 0x12, 0x00, 0x00, 0x00, 0x03, 0x00, 0x00, 0x00,
    0x11, 0x00, 0x00, 0x00, 0x08, 0x00, 0x00, 0x00, 0x04, 0x00, 0x00, 0x00,
    0x00, 0x00, 0x0e, 0x00, 0x1a, 0x00, 0x14, 0x00, 0x10, 0x00, 0x0c, 0x00,
    0x0b, 0x00, 0x04, 0x00, 0x0e, 0x00, 0x00, 0x00, 0x1c, 0x00, 0x00, 0x00,
    0x00, 0x00, 0x00, 0x08, 0x1c, 0x00, 0x00, 0x00, 0x20, 0x00, 0x00, 0x00,
    0x03, 0x00, 0x00, 0x00, 0x00, 0x00, 0x06, 0x00, 0x08, 0x00, 0x07, 0x00,
    0x06, 0x00, 0x00, 0x00, 0x00, 0x00, 0x00, 0x01, 0x01, 0x00, 0x00, 0x00,
    0x11, 0x00, 0x00, 0x00, 0x03, 0x00, 0x00, 0x00, 0x10, 0x00, 0x00, 0x00,
    0x09, 0x00, 0x00, 0x00, 0x01, 0x00, 0x00, 0x00, 0x6a, 0xff, 0xff, 0xff,
    0x14, 0x00, 0x00, 0x00, 0x00, 0x00, 0x00, 0x1b, 0x10, 0x00, 0x00, 0x00,
    0x14, 0x00, 0x00, 0x00, 0x02, 0x00, 0x00, 0x00, 0x00, 0xf7, 0xff, 0xff,
    0x01, 0x00, 0x00, 0x00, 0x10, 0x00, 0x00, 0x00, 0x02, 0x00, 0x00, 0x00,
    0x0f, 0x00, 0x00, 0x00, 0x0a, 0x00, 0x00, 0x00, 0x3a, 0xff, 0xff, 0xff,
    0x08, 0x00, 0x00, 0x00, 0x0c, 0x00, 0x00, 0x00, 0x01, 0x00, 0x00, 0x00,
    0x0f, 0x00, 0x00, 0x00, 0x02, 0x00, 0x00, 0x00, 0x0e, 0x00, 0x00, 0x00,
    0x05, 0x00, 0x00, 0x00, 0xba, 0xff, 0xff, 0xff, 0x14, 0x00, 0x00, 0x00,
    0x00, 0x00, 0x00, 0x01, 0x20, 0x00, 0x00, 0x00, 0x24, 0x00, 0x00, 0x00,
    0x01, 0x00, 0x00, 0x00, 0xac, 0xff, 0xff, 0xff, 0x00, 0x00, 0x00, 0x01,
    0x01, 0x00, 0x00, 0x00, 0x01, 0x00, 0x00, 0x00, 0x00, 0x00, 0x00, 0x01,
    0x01, 0x00, 0x00, 0x00, 0x0e, 0x00, 0x00, 0x00, 0x03, 0x00, 0x00, 0x00,
    0x0d, 0x00, 0x00, 0x00, 0x06, 0x00, 0x00, 0x00, 0x02, 0x00, 0x00, 0x00,
    0x00, 0x00, 0x0e, 0x00, 0x18, 0x00, 0x14, 0x00, 0x10, 0x00, 0x0c, 0x00,
    0x0b, 0x00, 0x04, 0x00, 0x0e, 0x00, 0x00, 0x00, 0x20, 0x00, 0x00, 0x00,
    0x00, 0x00, 0x00, 0x01, 0x2c, 0x00, 0x00, 0x00, 0x30, 0x00, 0x00, 0x00,
    0x01, 0x00, 0x00, 0x00, 0x0c, 0x00, 0x14, 0x00, 0x13, 0x00, 0x0c, 0x00,
    0x08, 0x00, 0x07, 0x00, 0x0c, 0x00, 0x00, 0x00, 0x00, 0x00, 0x00, 0x01,
    0x01, 0x00, 0x00, 0x00, 0x01, 0x00, 0x00, 0x00, 0x00, 0x00, 0x00, 0x01,
    0x01, 0x00, 0x00, 0x00, 0x0d, 0x00, 0x00, 0x00, 0x03, 0x00, 0x00, 0x00,
    0x0c, 0x00, 0x00, 0x00, 0x07, 0x00, 0x00, 0x00, 0x03, 0x00, 0x00, 0x00,
    0x00, 0x00, 0x0a, 0x00, 0x0c, 0x00, 0x00, 0x00, 0x08, 0x00, 0x04, 0x00,
    0x0a, 0x00, 0x00, 0x00, 0x08, 0x00, 0x00, 0x00, 0x0c, 0x00, 0x00, 0x00,
    0x01, 0x00, 0x00, 0x00, 0x0c, 0x00, 0x00, 0x00, 0x02, 0x00, 0x00, 0x00,
    0x00, 0x00, 0x00, 0x00, 0x0b, 0x00, 0x00, 0x00, 0x01, 0x00, 0x00, 0x00,
    0x13, 0x00, 0x00, 0x00, 0x01, 0x00, 0x00, 0x00, 0x00, 0x00, 0x00, 0x00,
    0x14, 0x00, 0x00, 0x00, 0xcc, 0x07, 0x00, 0x00, 0x78, 0x07, 0x00, 0x00,
    0x3c, 0x07, 0x00, 0x00, 0x00, 0x07, 0x00, 0x00, 0xc4, 0x06, 0x00, 0x00,
    0x84, 0x06, 0x00, 0x00, 0x24, 0x06, 0x00, 0x00, 0xdc, 0x05, 0x00, 0x00,
    0x9c, 0x05, 0x00, 0x00, 0x5c, 0x05, 0x00, 0x00, 0x20, 0x05, 0x00, 0x00,
    0xbc, 0x04, 0x00, 0x00, 0x50, 0x04, 0x00, 0x00, 0x60, 0x03, 0x00, 0x00,
    0x70, 0x02, 0x00, 0x00, 0xa8, 0x01, 0x00, 0x00, 0x44, 0x01, 0x00, 0x00,
    0xb4, 0x00, 0x00, 0x00, 0x40, 0x00, 0x00, 0x00, 0x04, 0x00, 0x00, 0x00,
    0x9a, 0xf8, 0xff, 0xff, 0x00, 0x00, 0x00, 0x01, 0x10, 0x00, 0x00, 0x00,
    0x10, 0x00, 0x00, 0x00, 0x14, 0x00, 0x00, 0x00, 0x18, 0x00, 0x00, 0x00,
    0x84, 0xf8, 0xff, 0xff, 0x08, 0x00, 0x00, 0x00, 0x49, 0x64, 0x65, 0x6e,
    0x74, 0x69, 0x74, 0x79, 0x00, 0x00, 0x00, 0x00, 0x02, 0x00, 0x00, 0x00,
    0x01, 0x00, 0x00, 0x00, 0x03, 0x00, 0x00, 0x00, 0xd2, 0xf8, 0xff, 0xff,
    0x00, 0x00, 0x00, 0x01, 0x10, 0x00, 0x00, 0x00, 0x10, 0x00, 0x00, 0x00,
    0x13, 0x00, 0x00, 0x00, 0x50, 0x00, 0x00, 0x00, 0xbc, 0xf8, 0xff, 0xff,
    0x40, 0x00, 0x00, 0x00, 0x73, 0x65, 0x71, 0x75, 0x65, 0x6e, 0x74, 0x69,
    0x61, 0x6c, 0x5f, 0x32, 0x5f, 0x31, 0x2f, 0x64, 0x65, 0x6e, 0x73, 0x65,
    0x5f, 0x35, 0x5f, 0x31, 0x2f, 0x4d, 0x61, 0x74, 0x4d, 0x75, 0x6c, 0x3b,
    0x73, 0x65, 0x71, 0x75, 0x65, 0x6e, 0x74, 0x69, 0x61, 0x6c, 0x5f, 0x32,
    0x5f, 0x31, 0x2f, 0x64, 0x65, 0x6e, 0x73, 0x65, 0x5f, 0x35, 0x5f, 0x31,
    0x2f, 0x42, 0x69, 0x61, 0x73, 0x41, 0x64, 0x64, 0x00, 0x00, 0x00, 0x00,
    0x02, 0x00, 0x00, 0x00, 0x01, 0x00, 0x00, 0x00, 0x03, 0x00, 0x00, 0x00,
    0x42, 0xf9, 0xff, 0xff, 0x00, 0x00, 0x00, 0x01, 0x10, 0x00, 0x00, 0x00,
    0x10, 0x00, 0x00, 0x00, 0x12, 0x00, 0x00, 0x00, 0x6c, 0x00, 0x00, 0x00,
    0x2c, 0xf9, 0xff, 0xff, 0x5e, 0x00, 0x00, 0x00, 0x73, 0x65, 0x71, 0x75,
    0x65, 0x6e, 0x74, 0x69, 0x61, 0x6c, 0x5f, 0x32, 0x5f, 0x31, 0x2f, 0x64,
    0x65, 0x6e, 0x73, 0x65, 0x5f, 0x34, 0x5f, 0x31, 0x2f, 0x4d, 0x61, 0x74,
    0x4d, 0x75, 0x6c, 0x3b, 0x73, 0x65, 0x71, 0x75, 0x65, 0x6e, 0x74, 0x69,
    0x61, 0x6c, 0x5f, 0x32, 0x5f, 0x31, 0x2f, 0x64, 0x65, 0x6e, 0x73, 0x65,
    0x5f, 0x34, 0x5f, 0x31, 0x2f, 0x52, 0x65, 0x6c, 0x75, 0x3b, 0x73, 0x65,
    0x71, 0x75, 0x65, 0x6e, 0x74, 0x69, 0x61, 0x6c, 0x5f, 0x32, 0x5f, 0x31,
    0x2f, 0x64, 0x65, 0x6e, 0x73, 0x65, 0x5f, 0x34, 0x5f, 0x31, 0x2f, 0x42,
    0x69, 0x61, 0x73, 0x41, 0x64, 0x64, 0x00, 0x00, 0x02, 0x00, 0x00, 0x00,
    0x01, 0x00, 0x00, 0x00, 0x20, 0x00, 0x00, 0x00, 0xce, 0xf9, 0xff, 0xff,
    0x00, 0x00, 0x00, 0x01, 0x10, 0x00, 0x00, 0x00, 0x10, 0x00, 0x00, 0x00,
    0x11, 0x00, 0x00, 0x00, 0x40, 0x00, 0x00, 0x00, 0xb8, 0xf9, 0xff, 0xff,
    0x30, 0x00, 0x00, 0x00, 0x73, 0x65, 0x71, 0x75, 0x65, 0x6e, 0x74, 0x69,
    0x61, 0x6c, 0x5f, 0x32, 0x5f, 0x31, 0x2f, 0x67, 0x6c, 0x6f, 0x62, 0x61,
    0x6c, 0x5f, 0x61, 0x76, 0x65, 0x72, 0x61, 0x67, 0x65, 0x5f, 0x70, 0x6f,
    0x6f, 0x6c, 0x69, 0x6e, 0x67, 0x31, 0x64, 0x5f, 0x32, 0x5f, 0x31, 0x2f,
    0x4d, 0x65, 0x61, 0x6e, 0x00, 0x00, 0x00, 0x00, 0x02, 0x00, 0x00, 0x00,
    0x01, 0x00, 0x00, 0x00, 0x10, 0x00, 0x00, 0x00, 0x2e, 0xfa, 0xff, 0xff,
    0x00, 0x00, 0x00, 0x01, 0x10, 0x00, 0x00, 0x00, 0x10, 0x00, 0x00, 0x00,
    0x10, 0x00, 0x00, 0x00, 0xa0, 0x00, 0x00, 0x00, 0x18, 0xfa, 0xff, 0xff,
    0x90, 0x00, 0x00, 0x00, 0x73, 0x65, 0x71, 0x75, 0x65, 0x6e, 0x74, 0x69,
    0x61, 0x6c, 0x5f, 0x32, 0x5f, 0x31, 0x2f, 0x63, 0x6f, 0x6e, 0x76, 0x31,
    0x64, 0x5f, 0x35, 0x5f, 0x31, 0x2f, 0x52, 0x65, 0x6c, 0x75, 0x3b, 0x73,
    0x65, 0x71, 0x75, 0x65, 0x6e, 0x74, 0x69, 0x61, 0x6c, 0x5f, 0x32, 0x5f,
    0x31, 0x2f, 0x63, 0x6f, 0x6e, 0x76, 0x31, 0x64, 0x5f, 0x35, 0x5f, 0x31,
    0x2f, 0x42, 0x69, 0x61, 0x73, 0x41, 0x64, 0x64, 0x3b, 0x73, 0x65, 0x71,
    0x75, 0x65, 0x6e, 0x74, 0x69, 0x61, 0x6c, 0x5f, 0x32, 0x5f, 0x31, 0x2f,
    0x63, 0x6f, 0x6e, 0x76, 0x31, 0x64, 0x5f, 0x35, 0x5f, 0x31, 0x2f, 0x63,
    0x6f, 0x6e, 0x76, 0x6f, 0x6c, 0x75, 0x74, 0x69, 0x6f, 0x6e, 0x2f, 0x53,
    0x71, 0x75, 0x65, 0x65, 0x7a, 0x65, 0x3b, 0x73, 0x65, 0x71, 0x75, 0x65,
    0x6e, 0x74, 0x69, 0x61, 0x6c, 0x5f, 0x32, 0x5f, 0x31, 0x2f, 0x63, 0x6f,
    0x6e, 0x76, 0x31, 0x64, 0x5f, 0x35, 0x5f, 0x31, 0x2f, 0x53, 0x71, 0x75,
    0x65, 0x65, 0x7a, 0x65, 0x00, 0x00, 0x00, 0x00, 0x03, 0x00, 0x00, 0x00,
    0x01, 0x00, 0x00, 0x00, 0x06, 0x00, 0x00, 0x00, 0x10, 0x00, 0x00, 0x00,
    0xf2, 0xfa, 0xff, 0xff, 0x00, 0x00, 0x00, 0x01, 0x10, 0x00, 0x00, 0x00,
    0x10, 0x00, 0x00, 0x00, 0x0f, 0x00, 0x00, 0x00, 0xc4, 0x00, 0x00, 0x00,
    0xdc, 0xfa, 0xff, 0xff, 0xb6, 0x00, 0x00, 0x00, 0x73, 0x65, 0x71, 0x75,
    0x65, 0x6e, 0x74, 0x69, 0x61, 0x6c, 0x5f, 0x32, 0x5f, 0x31, 0x2f, 0x63,
    0x6f, 0x6e, 0x76, 0x31, 0x64, 0x5f, 0x35, 0x5f, 0x31, 0x2f, 0x52, 0x65,
    0x6c, 0x75, 0x3b, 0x73, 0x65, 0x71, 0x75, 0x65, 0x6e, 0x74, 0x69, 0x61,
    0x6c, 0x5f, 0x32, 0x5f, 0x31, 0x2f, 0x63, 0x6f, 0x6e, 0x76, 0x31, 0x64,
    0x5f, 0x35, 0x5f, 0x31, 0x2f, 0x42, 0x69, 0x61, 0x73, 0x41, 0x64, 0x64,
    0x3b, 0x73, 0x65, 0x71, 0x75, 0x65, 0x6e, 0x74, 0x69, 0x61, 0x6c, 0x5f,
    0x32, 0x5f, 0x31, 0x2f, 0x63, 0x6f, 0x6e, 0x76, 0x31, 0x64, 0x5f, 0x35,
    0x5f, 0x31, 0x2f, 0x63, 0x6f, 0x6e, 0x76, 0x6f, 0x6c, 0x75, 0x74, 0x69,
    0x6f, 0x6e, 0x2f, 0x53, 0x71, 0x75, 0x65, 0x65, 0x7a, 0x65, 0x3b, 0x73,
    0x65, 0x71, 0x75, 0x65, 0x6e, 0x74, 0x69, 0x61, 0x6c, 0x5f, 0x32, 0x5f,
    0x31, 0x2f, 0x63, 0x6f, 0x6e, 0x76, 0x31, 0x64, 0x5f, 0x35, 0x5f, 0x31,
    0x2f, 0x53, 0x71, 0x75, 0x65, 0x65, 0x7a, 0x65, 0x3b, 0x73, 0x65, 0x71,
    0x75, 0x65, 0x6e, 0x74, 0x69, 0x61, 0x6c, 0x5f, 0x32, 0x5f, 0x31, 0x2f,
    0x63, 0x6f, 0x6e, 0x76, 0x31, 0x64, 0x5f, 0x35, 0x5f, 0x31, 0x2f, 0x63,
    0x6f, 0x6e, 0x76, 0x6f, 0x6c, 0x75, 0x74, 0x69, 0x6f, 0x6e, 0x00, 0x00,
    0x04, 0x00, 0x00, 0x00, 0x01, 0x00, 0x00, 0x00, 0x01, 0x00, 0x00, 0x00,
    0x06, 0x00, 0x00, 0x00, 0x10, 0x00, 0x00, 0x00, 0xde, 0xfb, 0xff, 0xff,
    0x00, 0x00, 0x00, 0x01, 0x10, 0x00, 0x00, 0x00, 0x10, 0x00, 0x00, 0x00,
    0x0e, 0x00, 0x00, 0x00, 0xc4, 0x00, 0x00, 0x00, 0xc8, 0xfb, 0xff, 0xff,
    0xb6, 0x00, 0x00, 0x00, 0x73, 0x65, 0x71, 0x75, 0x65, 0x6e, 0x74, 0x69,
    0x61, 0x6c, 0x5f, 0x32, 0x5f, 0x31, 0x2f, 0x63, 0x6f, 0x6e, 0x76, 0x31,
    0x64, 0x5f, 0x34, 0x5f, 0x31, 0x2f, 0x52, 0x65, 0x6c, 0x75, 0x3b, 0x73,
    0x65, 0x71, 0x75, 0x65, 0x6e, 0x74, 0x69, 0x61, 0x6c, 0x5f, 0x32, 0x5f,
    0x31, 0x2f, 0x63, 0x6f, 0x6e, 0x76, 0x31, 0x64, 0x5f, 0x34, 0x5f, 0x31,
    0x2f, 0x42, 0x69, 0x61, 0x73, 0x41, 0x64, 0x64, 0x3b, 0x73, 0x65, 0x71,
    0x75, 0x65, 0x6e, 0x74, 0x69, 0x61, 0x6c, 0x5f, 0x32, 0x5f, 0x31, 0x2f,
    0x63, 0x6f, 0x6e, 0x76, 0x31, 0x64, 0x5f, 0x34, 0x5f, 0x31, 0x2f, 0x63,
    0x6f, 0x6e, 0x76, 0x6f, 0x6c, 0x75, 0x74, 0x69, 0x6f, 0x6e, 0x2f, 0x53,
    0x71, 0x75, 0x65, 0x65, 0x7a, 0x65, 0x3b, 0x73, 0x65, 0x71, 0x75, 0x65,
    0x6e, 0x74, 0x69, 0x61, 0x6c, 0x5f, 0x32, 0x5f, 0x31, 0x2f, 0x63, 0x6f,
    0x6e, 0x76, 0x31, 0x64, 0x5f, 0x34, 0x5f, 0x31, 0x2f, 0x53, 0x71, 0x75,
    0x65, 0x65, 0x7a, 0x65, 0x3b, 0x73, 0x65, 0x71, 0x75, 0x65, 0x6e, 0x74,
    0x69, 0x61, 0x6c, 0x5f, 0x32, 0x5f, 0x31, 0x2f, 0x63, 0x6f, 0x6e, 0x76,
    0x31, 0x64, 0x5f, 0x34, 0x5f, 0x31, 0x2f, 0x63, 0x6f, 0x6e, 0x76, 0x6f,
    0x6c, 0x75, 0x74, 0x69, 0x6f, 0x6e, 0x00, 0x00, 0x04, 0x00, 0x00, 0x00,
    0x01, 0x00, 0x00, 0x00, 0x01, 0x00, 0x00, 0x00, 0x08, 0x00, 0x00, 0x00,
    0x10, 0x00, 0x00, 0x00, 0xca, 0xfc, 0xff, 0xff, 0x00, 0x00, 0x00, 0x01,
    0x10, 0x00, 0x00, 0x00, 0x10, 0x00, 0x00, 0x00, 0x0d, 0x00, 0x00, 0x00,
    0x40, 0x00, 0x00, 0x00, 0xb4, 0xfc, 0xff, 0xff, 0x31, 0x00, 0x00, 0x00,
    0x73, 0x65, 0x71, 0x75, 0x65, 0x6e, 0x74, 0x69, 0x61, 0x6c, 0x5f, 0x32,
    0x5f, 0x31, 0x2f, 0x63, 0x6f, 0x6e, 0x76, 0x31, 0x64, 0x5f, 0x34, 0x5f,
    0x31, 0x2f, 0x63, 0x6f, 0x6e, 0x76, 0x6f, 0x6c, 0x75, 0x74, 0x69, 0x6f,
    0x6e, 0x2f, 0x45, 0x78, 0x70, 0x61, 0x6e, 0x64, 0x44, 0x69, 0x6d, 0x73,
    0x31, 0x00, 0x00, 0x00, 0x04, 0x00, 0x00, 0x00, 0x01, 0x00, 0x00, 0x00,
    0x01, 0x00, 0x00, 0x00, 0x0a, 0x00, 0x00, 0x00, 0x08, 0x00, 0x00, 0x00,
    0x66, 0xfe, 0xff, 0xff, 0x00, 0x00, 0x00, 0x01, 0x14, 0x00, 0x00, 0x00,
    0x14, 0x00, 0x00, 0x00, 0x0c, 0x00, 0x00, 0x00, 0x00, 0x00, 0x00, 0x02,
    0x40, 0x00, 0x00, 0x00, 0x20, 0xfd, 0xff, 0xff, 0x30, 0x00, 0x00, 0x00,
    0x73, 0x65, 0x71, 0x75, 0x65, 0x6e, 0x74, 0x69, 0x61, 0x6c, 0x5f, 0x32,
    0x5f, 0x31, 0x2f, 0x63, 0x6f, 0x6e, 0x76, 0x31, 0x64, 0x5f, 0x34, 0x5f,
    0x31, 0x2f, 0x63, 0x6f, 0x6e, 0x76, 0x6f, 0x6c, 0x75, 0x74, 0x69, 0x6f,
    0x6e, 0x2f, 0x45, 0x78, 0x70, 0x61, 0x6e, 0x64, 0x44, 0x69, 0x6d, 0x73,
    0x00, 0x00, 0x00, 0x00, 0x01, 0x00, 0x00, 0x00, 0x04, 0x00, 0x00, 0x00,
    0xc6, 0xfe, 0xff, 0xff, 0x00, 0x00, 0x00, 0x01, 0x14, 0x00, 0x00, 0x00,
    0x14, 0x00, 0x00, 0x00, 0x0b, 0x00, 0x00, 0x00, 0x00, 0x00, 0x00, 0x02,
    0x1c, 0x00, 0x00, 0x00, 0x80, 0xfd, 0xff, 0xff, 0x0f, 0x00, 0x00, 0x00,
    0x61, 0x72, 0x69, 0x74, 0x68, 0x2e, 0x63, 0x6f, 0x6e, 0x73, 0x74, 0x61,
    0x6e, 0x74, 0x39, 0x00, 0x00, 0x00, 0x00, 0x00, 0xca, 0xfd, 0xff, 0xff,
    0x00, 0x00, 0x00, 0x01, 0x10, 0x00, 0x00, 0x00, 0x10, 0x00, 0x00, 0x00,
    0x0a, 0x00, 0x00, 0x00, 0x1c, 0x00, 0x00, 0x00, 0xb4, 0xfd, 0xff, 0xff,
    0x0f, 0x00, 0x00, 0x00, 0x61, 0x72, 0x69, 0x74, 0x68, 0x2e, 0x63, 0x6f,
    0x6e, 0x73, 0x74, 0x61, 0x6e, 0x74, 0x38, 0x00, 0x02, 0x00, 0x00, 0x00,
    0x20, 0x00, 0x00, 0x00, 0x10, 0x00, 0x00, 0x00, 0x06, 0xfe, 0xff, 0xff,
    0x00, 0x00, 0x00, 0x01, 0x10, 0x00, 0x00, 0x00, 0x10, 0x00, 0x00, 0x00,
    0x09, 0x00, 0x00, 0x00, 0x1c, 0x00, 0x00, 0x00, 0xf0, 0xfd, 0xff, 0xff,
    0x0f, 0x00, 0x00, 0x00, 0x61, 0x72, 0x69, 0x74, 0x68, 0x2e, 0x63, 0x6f,
    0x6e, 0x73, 0x74, 0x61, 0x6e, 0x74, 0x37, 0x00, 0x02, 0x00, 0x00, 0x00,
    0x03, 0x00, 0x00, 0x00, 0x20, 0x00, 0x00, 0x00, 0x42, 0xfe, 0xff, 0xff,
    0x00, 0x00, 0x00, 0x01, 0x10, 0x00, 0x00, 0x00, 0x10, 0x00, 0x00, 0x00,
    0x08, 0x00, 0x00, 0x00, 0x1c, 0x00, 0x00, 0x00, 0x2c, 0xfe, 0xff, 0xff,
    0x0f, 0x00, 0x00, 0x00, 0x61, 0x72, 0x69, 0x74, 0x68, 0x2e, 0x63, 0x6f,
    0x6e, 0x73, 0x74, 0x61, 0x6e, 0x74, 0x36, 0x00, 0x04, 0x00, 0x00, 0x00,
    0x10, 0x00, 0x00, 0x00, 0x01, 0x00, 0x00, 0x00, 0x03, 0x00, 0x00, 0x00,
    0x08, 0x00, 0x00, 0x00, 0x86, 0xfe, 0xff, 0xff, 0x00, 0x00, 0x00, 0x01,
    0x10, 0x00, 0x00, 0x00, 0x10, 0x00, 0x00, 0x00, 0x07, 0x00, 0x00, 0x00,
    0x1c, 0x00, 0x00, 0x00, 0x70, 0xfe, 0xff, 0xff, 0x0f, 0x00, 0x00, 0x00,
    0x61, 0x72, 0x69, 0x74, 0x68, 0x2e, 0x63, 0x6f, 0x6e, 0x73, 0x74, 0x61,
    0x6e, 0x74, 0x35, 0x00, 0x04, 0x00, 0x00, 0x00, 0x10, 0x00, 0x00, 0x00,
    0x01, 0x00, 0x00, 0x00, 0x03, 0x00, 0x00, 0x00, 0x10, 0x00, 0x00, 0x00,
    0x00, 0x00, 0x16, 0x00, 0x1c, 0x00, 0x18, 0x00, 0x17, 0x00, 0x10, 0x00,
    0x0c, 0x00, 0x08, 0x00, 0x00, 0x00, 0x00, 0x00, 0x00, 0x00, 0x07, 0x00,
    0x16, 0x00, 0x00, 0x00, 0x00, 0x00, 0x00, 0x01, 0x14, 0x00, 0x00, 0x00,
    0x14, 0x00, 0x00, 0x00, 0x06, 0x00, 0x00, 0x00, 0x00, 0x00, 0x00, 0x02,
    0x1c, 0x00, 0x00, 0x00, 0xd0, 0xfe, 0xff, 0xff, 0x0f, 0x00, 0x00, 0x00,
    0x61, 0x72, 0x69, 0x74, 0x68, 0x2e, 0x63, 0x6f, 0x6e, 0x73, 0x74, 0x61,
    0x6e, 0x74, 0x34, 0x00, 0x01, 0x00, 0x00, 0x00, 0x03, 0x00, 0x00, 0x00,
    0x1e, 0xff, 0xff, 0xff, 0x00, 0x00, 0x00, 0x01, 0x10, 0x00, 0x00, 0x00,
    0x10, 0x00, 0x00, 0x00, 0x05, 0x00, 0x00, 0x00, 0x1c, 0x00, 0x00, 0x00,
    0x08, 0xff, 0xff, 0xff, 0x0f, 0x00, 0x00, 0x00, 0x61, 0x72, 0x69, 0x74,
    0x68, 0x2e, 0x63, 0x6f, 0x6e, 0x73, 0x74, 0x61, 0x6e, 0x74, 0x33, 0x00,
    0x01, 0x00, 0x00, 0x00, 0x03, 0x00, 0x00, 0x00, 0x56, 0xff, 0xff, 0xff,
    0x00, 0x00, 0x00, 0x01, 0x10, 0x00, 0x00, 0x00, 0x10, 0x00, 0x00, 0x00,
    0x04, 0x00, 0x00, 0x00, 0x1c, 0x00, 0x00, 0x00, 0x40, 0xff, 0xff, 0xff,
    0x0f, 0x00, 0x00, 0x00, 0x61, 0x72, 0x69, 0x74, 0x68, 0x2e, 0x63, 0x6f,
    0x6e, 0x73, 0x74, 0x61, 0x6e, 0x74, 0x32, 0x00, 0x01, 0x00, 0x00, 0x00,
    0x10, 0x00, 0x00, 0x00, 0x8e, 0xff, 0xff, 0xff, 0x00, 0x00, 0x00, 0x01,
    0x10, 0x00, 0x00, 0x00, 0x10, 0x00, 0x00, 0x00, 0x03, 0x00, 0x00, 0x00,
    0x1c, 0x00, 0x00, 0x00, 0x78, 0xff, 0xff, 0xff, 0x0f, 0x00, 0x00, 0x00,
    0x61, 0x72, 0x69, 0x74, 0x68, 0x2e, 0x63, 0x6f, 0x6e, 0x73, 0x74, 0x61,
    0x6e, 0x74, 0x31, 0x00, 0x01, 0x00, 0x00, 0x00, 0x10, 0x00, 0x00, 0x00,
    0xc6, 0xff, 0xff, 0xff, 0x00, 0x00, 0x00, 0x01, 0x10, 0x00, 0x00, 0x00,
    0x10, 0x00, 0x00, 0x00, 0x02, 0x00, 0x00, 0x00, 0x1c, 0x00, 0x00, 0x00,
    0xb0, 0xff, 0xff, 0xff, 0x0e, 0x00, 0x00, 0x00, 0x61, 0x72, 0x69, 0x74,
    0x68, 0x2e, 0x63, 0x6f, 0x6e, 0x73, 0x74, 0x61, 0x6e, 0x74, 0x00, 0x00,
    0x01, 0x00, 0x00, 0x00, 0x20, 0x00, 0x00, 0x00, 0x00, 0x00, 0x16, 0x00,
    0x18, 0x00, 0x14, 0x00, 0x00, 0x00, 0x10, 0x00, 0x0c, 0x00, 0x08, 0x00,
    0x00, 0x00, 0x00, 0x00, 0x00, 0x00, 0x07, 0x00, 0x16, 0x00, 0x00, 0x00,
    0x00, 0x00, 0x00, 0x01, 0x14, 0x00, 0x00, 0x00, 0x14, 0x00, 0x00, 0x00,
    0x01, 0x00, 0x00, 0x00, 0x14, 0x00, 0x00, 0x00, 0x04, 0x00, 0x04, 0x00,
    0x04, 0x00, 0x00, 0x00, 0x01, 0x00, 0x00, 0x00, 0x78, 0x00, 0x00, 0x00,
    0x03, 0x00, 0x00, 0x00, 0x01, 0x00, 0x00, 0x00, 0x0a, 0x00, 0x00, 0x00,
    0x08, 0x00, 0x00, 0x00, 0x05, 0x00, 0x00, 0x00, 0x50, 0x00, 0x00, 0x00,
    0x34, 0x00, 0x00, 0x00, 0x24, 0x00, 0x00, 0x00, 0x14, 0x00, 0x00, 0x00,
    0x04, 0x00, 0x00, 0x00, 0xd0, 0xff, 0xff, 0xff, 0x19, 0x00, 0x00, 0x00,
    0x00, 0x00, 0x00, 0x19, 0xdc, 0xff, 0xff, 0xff, 0x09, 0x00, 0x00, 0x00,
    0x00, 0x00, 0x00, 0x09, 0xe8, 0xff, 0xff, 0xff, 0x28, 0x00, 0x00, 0x00,
    0x00, 0x00, 0x00, 0x28, 0xf4, 0xff, 0xff, 0xff, 0x03, 0x00, 0x00, 0x00,
    0x00, 0x00, 0x00, 0x03, 0x0c, 0x00, 0x0c, 0x00, 0x0b, 0x00, 0x00, 0x00,
    0x00, 0x00, 0x04, 0x00, 0x0c, 0x00, 0x00, 0x00, 0x16, 0x00, 0x00, 0x00,
    0x00, 0x00, 0x00, 0x16
};

const unsigned int g_model_len = sizeof(g_model);

#endif /* MODEL_H */
