/**
 * TFLite / LiteRT model byte array.
 *
 * Auto-generated by model_to_tflite.py
 * Timestamp  : 2026-03-02 11:22 UTC
 * Source     : model.tflite
 * Model size : 10,792 bytes
 * Quantized  : no (float32)
 *
 * Usage (Arduino / TFLite Micro):
 *
 *   #include "model.h"
 *   const tflite::Model* model = tflite::GetModel(g_model);
 */

#ifndef MODEL_H
#define MODEL_H

/* 8-byte alignment required by TFLite Micro */
alignas(8) const unsigned char g_model[] = {
    0x1c, 0x00, 0x00, 0x00, 0x54, 0x46, 0x4c, 0x33, 0x14, 0x00, 0x20, 0x00,
    0x1c, 0x00, 0x18, 0x00, 0x14, 0x00, 0x10, 0x00, 0x0c, 0x00, 0x00, 0x00,
    0x08, 0x00, 0x04, 0x00, 0x14, 0x00, 0x00, 0x00, 0x1c, 0x00, 0x00, 0x00,
    0x1c, 0x00, 0x00, 0x00, 0x74, 0x00, 0x00, 0x00, 0x34, 0x1f, 0x00, 0x00,
    0x44, 0x1f, 0x00, 0x00, 0x94, 0x29, 0x00, 0x00, 0x03, 0x00, 0x00, 0x00,
    0x00, 0x00, 0x00, 0x00, 0x02, 0x00, 0x00, 0x00, 0x34, 0x00, 0x00, 0x00,
    0x04, 0x00, 0x00, 0x00, 0xdc, 0xff, 0xff, 0xff, 0x16, 0x00, 0x00, 0x00,
    0x04, 0x00, 0x00, 0x00, 0x13, 0x00, 0x00, 0x00, 0x43, 0x4f, 0x4e, 0x56,
    0x45, 0x52, 0x53, 0x49, 0x4f, 0x4e, 0x5f, 0x4d, 0x45, 0x54, 0x41, 0x44,
    0x41, 0x54, 0x41, 0x00, 0x08, 0x00, 0x0c, 0x00, 0x08, 0x00, 0x04, 0x00,
    0x08, 0x00, 0x00, 0x00, 0x15, 0x00, 0x00, 0x00, 0x04, 0x00, 0x00, 0x00,
    0x13, 0x00, 0x00, 0x00, 0x6d, 0x69, 0x6e, 0x5f, 0x72, 0x75, 0x6e, 0x74,
    0x69, 0x6d, 0x65, 0x5f, 0x76, 0x65, 0x72, 0x73, 0x69, 0x6f, 0x6e, 0x00,
    0x17, 0x00, 0x00, 0x00, 0xbc, 0x1e, 0x00, 0x00, 0xb4, 0x1e, 0x00, 0x00,
    0x24, 0x1e, 0x00, 0x00, 0xd4, 0x1d, 0x00, 0x00, 0x84, 0x1d, 0x00, 0x00,
    0x64, 0x1d, 0x00, 0x00, 0x48, 0x1d, 0x00, 0x00, 0x38, 0x11, 0x00, 0x00,
    0x28, 0x0b, 0x00, 0x00, 0x18, 0x09, 0x00, 0x00, 0x08, 0x01, 0x00, 0x00,
    0xf4, 0x00, 0x00, 0x00, 0xd4, 0x00, 0x00, 0x00, 0xcc, 0x00, 0x00, 0x00,
    0xc4, 0x00, 0x00, 0x00, 0xbc, 0x00, 0x00, 0x00, 0xb4, 0x00, 0x00, 0x00,
    0xac, 0x00, 0x00, 0x00, 0xa4, 0x00, 0x00, 0x00, 0x9c, 0x00, 0x00, 0x00,
    0x94, 0x00, 0x00, 0x00, 0x74, 0x00, 0x00, 0x00, 0x04, 0x00, 0x00, 0x00,
    0x0e, 0xe1, 0xff, 0xff, 0x04, 0x00, 0x00, 0x00, 0x60, 0x00, 0x00, 0x00,
    0x10, 0x00, 0x00, 0x00, 0x00, 0x00, 0x00, 0x00, 0x08, 0x00, 0x0e, 0x00,
    0x08, 0x00, 0x04, 0x00, 0x08, 0x00, 0x00, 0x00, 0x10, 0x00, 0x00, 0x00,
    0x24, 0x00, 0x00, 0x00, 0x00, 0x00, 0x06, 0x00, 0x08, 0x00, 0x04, 0x00,
    0x06, 0x00, 0x00, 0x00, 0x04, 0x00, 0x00, 0x00, 0x00, 0x00, 0x00, 0x00,
    0x0c, 0x00, 0x18, 0x00, 0x14, 0x00, 0x10, 0x00, 0x0c, 0x00, 0x04, 0x00,
    0x0c, 0x00, 0x00, 0x00, 0x1d, 0x51, 0x52, 0xb4, 0xf3, 0x75, 0xcd, 0xab,
    0x03, 0x00, 0x00, 0x00, 0x02, 0x00, 0x00, 0x00, 0x04, 0x00, 0x00, 0x00,
    0x06, 0x00, 0x00, 0x00, 0x32, 0x2e, 0x32, 0x30, 0x2e, 0x30, 0x00, 0x00,
    0x7a, 0xe1, 0xff, 0xff, 0x04, 0x00, 0x00, 0x00, 0x10, 0x00, 0x00, 0x00,
    0x31, 0x2e, 0x36, 0x2e, 0x30, 0x00, 0x00, 0x00, 0x00, 0x00, 0x00, 0x00,
    0x00, 0x00, 0x00, 0x00, 0xdc, 0xd7, 0xff, 0xff, 0xe0, 0xd7, 0xff, 0xff,
    0xe4, 0xd7, 0xff, 0xff, 0xe8, 0xd7, 0xff, 0xff, 0xec, 0xd7, 0xff, 0xff,
    0xf0, 0xd7, 0xff, 0xff, 0xf4, 0xd7, 0xff, 0xff, 0xf8, 0xd7, 0xff, 0xff,
    0xb6, 0xe1, 0xff, 0xff, 0x04, 0x00, 0x00, 0x00, 0x10, 0x00, 0x00, 0x00,
    0x01, 0x00, 0x00, 0x00, 0x01, 0x00, 0x00, 0x00, 0x0a, 0x00, 0x00, 0x00,
    0x08, 0x00, 0x00, 0x00, 0xd2, 0xe1, 0xff, 0xff, 0x04, 0x00, 0x00, 0x00,
    0x04, 0x00, 0x00, 0x00, 0x01, 0x00, 0x00, 0x00, 0xe2, 0xe1, 0xff, 0xff,
    0x04, 0x00, 0x00, 0x00, 0x00, 0x08, 0x00, 0x00, 0x17, 0xfc, 0x76, 0x3e,
    0x71, 0xc6, 0x5d, 0xbe, 0xdd, 0xa7, 0xc9, 0xbe, 0x8a, 0x27, 0xf8, 0xbe,
    0x2b, 0x97, 0x05, 0xbe, 0x8b, 0x2c, 0x47, 0xbd, 0x26, 0x78, 0xf6, 0xbe,
    0x13, 0x89, 0x62, 0xbe, 0x93, 0x18, 0x99, 0xbd, 0x05, 0x10, 0xbf, 0x3e,
    0xd1, 0x96, 0xbc, 0x3e, 0xa7, 0x06, 0x11, 0xbd, 0xba, 0x3a, 0xb1, 0xbd,
    0x3a, 0x4b, 0xd1, 0x3e, 0x43, 0xfc, 0x81, 0x3e, 0x4c, 0x71, 0x2a, 0x3f,
    0x48, 0xed, 0x41, 0xbc, 0x9e, 0x74, 0xd2, 0x3d, 0x68, 0xe8, 0xa4, 0xbe,
    0x77, 0x28, 0x4a, 0x3e, 0x95, 0x2b, 0xb5, 0xbe, 0x59, 0xae, 0x39, 0xbd,
    0x58, 0x53, 0x27, 0xbe, 0xa4, 0xc4, 0x60, 0x3e, 0x7d, 0x5c, 0x47, 0xbe,
    0x0e, 0x9e, 0x86, 0xbd, 0x7e, 0x0d, 0x5d, 0x3e, 0x5d, 0x0c, 0x82, 0xbd,
    0xfb, 0x75, 0x56, 0x3e, 0x07, 0x27, 0x6a, 0xbe, 0x19, 0x89, 0xc2, 0xbd,
    0xa6, 0xdd, 0xff, 0x3d, 0x4b, 0xfe, 0xad, 0xbc, 0x5e, 0x68, 0xd1, 0x3e,
    0x68, 0x3c, 0xee, 0xbe, 0x89, 0x77, 0x52, 0x3e, 0x8b, 0x73, 0xca, 0xbc,
    0xe4, 0x84, 0x05, 0xbe, 0xc8, 0x6c, 0xa7, 0x3d, 0x70, 0x6d, 0xef, 0xbe,
    0x39, 0x45, 0xf8, 0x3d, 0xc6, 0xae, 0xbe, 0xbd, 0xb5, 0x45, 0x22, 0x3e,
    0x9f, 0xfe, 0x85, 0xbc, 0x3c, 0x89, 0x90, 0x3c, 0xad, 0xe4, 0x17, 0x3f,
    0x1f, 0x10, 0x20, 0x3e, 0x81, 0xb5, 0x6d, 0x3d, 0x1d, 0xea, 0x9e, 0xbe,
    0x41, 0xf0, 0x8d, 0x3d, 0x0e, 0xd7, 0xe9, 0xbc, 0x39, 0xcf, 0xfe, 0xbd,
    0x7f, 0x1a, 0xe1, 0x3e, 0xa1, 0xcc, 0xba, 0x3e, 0x84, 0x94, 0xe5, 0xbe,
    0x5c, 0x5c, 0xdf, 0x3e, 0xf4, 0xd7, 0xfc, 0xbe, 0x5c, 0x5f, 0x2e, 0x3d,
    0xc9, 0xef, 0x16, 0xbf, 0x1d, 0x92, 0x42, 0x3e, 0xda, 0x57, 0x8b, 0x3e,
    0x80, 0xac, 0x75, 0xbe, 0x8f, 0x59, 0xa9, 0xbe, 0x73, 0x67, 0xaa, 0x3d,
    0xcf, 0x5f, 0x0a, 0xbe, 0x83, 0xe3, 0x9c, 0x3d, 0xd3, 0x5c, 0xc8, 0x3e,
    0xb6, 0xe7, 0x16, 0x3f, 0xc8, 0x93, 0x09, 0x3e, 0x4a, 0x56, 0x05, 0xbb,
    0xfa, 0x15, 0x8b, 0x3e, 0xe6, 0xd7, 0x88, 0xbd, 0xe4, 0x05, 0x4a, 0x3e,
    0xd0, 0x2a, 0x9e, 0x3d, 0xc8, 0xbf, 0x82, 0x3e, 0xed, 0x26, 0xeb, 0xbe,
    0x6d, 0xfd, 0xcd, 0xbd, 0x91, 0x64, 0xf7, 0xbe, 0xdb, 0x9f, 0x77, 0xbe,
    0x78, 0x75, 0x07, 0xbf, 0x85, 0xa2, 0x46, 0x3e, 0xf4, 0x36, 0x79, 0xbd,
    0x06, 0x3f, 0x70, 0xbe, 0xba, 0x20, 0xed, 0xbe, 0xe4, 0xe1, 0xbc, 0x3e,
    0xdb, 0x4f, 0x6e, 0x3e, 0xd3, 0x53, 0x4c, 0xbe, 0x51, 0xed, 0x9f, 0x3e,
    0xfa, 0xf0, 0x8f, 0xbe, 0x75, 0x0f, 0x81, 0xbe, 0x6e, 0x74, 0x48, 0xbd,
    0xd1, 0x61, 0x86, 0xbd, 0x25, 0x2e, 0x68, 0xbe, 0x45, 0xa4, 0x61, 0x3d,
    0xe1, 0x82, 0x41, 0xbe, 0xe9, 0x09, 0x07, 0x3f, 0xcd, 0xe7, 0xd4, 0xbe,
    0xe1, 0x5d, 0xeb, 0xbe, 0x55, 0x7e, 0x20, 0x3e, 0x6e, 0x75, 0xf4, 0x3e,
    0xec, 0x47, 0xd1, 0x3e, 0xd0, 0x76, 0xf1, 0x3e, 0xab, 0x1d, 0x4f, 0xbe,
    0xc4, 0x68, 0x83, 0x3e, 0x10, 0xa7, 0x76, 0xbd, 0x5e, 0xec, 0xb9, 0xbe,
    0x5a, 0x40, 0xcf, 0xbe, 0x9c, 0xbd, 0xd9, 0x3c, 0x33, 0x0e, 0x96, 0xbe,
    0xba, 0x14, 0x1c, 0xbe, 0x5a, 0x34, 0xd3, 0xbd, 0x33, 0xc9, 0xcf, 0x3d,
    0x57, 0x74, 0x82, 0xbd, 0x34, 0xdf, 0x87, 0xbe, 0x47, 0x45, 0xa4, 0xbe,
    0x9b, 0x4d, 0x8b, 0xbe, 0xf2, 0xe4, 0xce, 0x3e, 0x5a, 0xd0, 0x06, 0x3e,
    0x4f, 0xc9, 0x21, 0x3d, 0x1e, 0x62, 0x60, 0x3e, 0x53, 0x6e, 0xb5, 0xbe,
    0x67, 0x4d, 0xc9, 0x3d, 0xc4, 0x5b, 0x48, 0xbe, 0x3e, 0x06, 0x71, 0xbc,
    0x7a, 0x27, 0x1a, 0xbc, 0xf1, 0x07, 0xff, 0xbd, 0xd3, 0x01, 0x52, 0xbe,
    0xbd, 0x0f, 0xf9, 0x3e, 0xad, 0xdd, 0xb9, 0xbe, 0x26, 0x38, 0xee, 0xbd,
    0x39, 0xc9, 0x23, 0xbe, 0xa2, 0xc8, 0x2c, 0x3f, 0x78, 0xa9, 0x4c, 0x3c,
    0x6e, 0x4a, 0xc8, 0x3e, 0x20, 0x2b, 0xb2, 0x3e, 0x13, 0x9e, 0xd5, 0x3e,
    0xbe, 0xd0, 0xd0, 0xbb, 0x47, 0x29, 0x44, 0x3e, 0x31, 0x22, 0x42, 0xbf,
    0xf9, 0x00, 0x3d, 0x3e, 0x81, 0x44, 0x02, 0xbe, 0x77, 0x2c, 0xba, 0x3c,
    0x05, 0x8b, 0x02, 0xbf, 0x17, 0x4c, 0x3b, 0xbe, 0x7b, 0x64, 0x91, 0xbe,
    0x26, 0x46, 0xa3, 0x3e, 0xb4, 0x8d, 0xae, 0xbe, 0x68, 0x90, 0x25, 0xbd,
    0xad, 0xe1, 0x5a, 0xbe, 0x16, 0x66, 0xc6, 0xbd, 0xad, 0xe5, 0x58, 0xbd,
    0x72, 0x9f, 0xa0, 0xbe, 0x6a, 0x31, 0x22, 0x3e, 0x55, 0x47, 0x14, 0x3e,
    0x66, 0xac, 0xc9, 0xbb, 0x41, 0x7f, 0x88, 0x3e, 0xc1, 0xa9, 0xa6, 0x3e,
    0xe4, 0x9b, 0x46, 0xbe, 0xcc, 0x18, 0x99, 0xbe, 0xd5, 0x16, 0x88, 0x3e,
    0x92, 0x75, 0x00, 0xbe, 0x65, 0xe8, 0x81, 0xbe, 0xc4, 0xf4, 0x48, 0xbe,
    0x29, 0x16, 0x95, 0xbe, 0x34, 0x67, 0x7e, 0x3e, 0x55, 0xc0, 0xe1, 0xbb,
    0x39, 0xca, 0x18, 0xbe, 0x1c, 0xbf, 0x60, 0xbe, 0xbc, 0xad, 0x40, 0xbe,
    0x5f, 0xab, 0x96, 0xbe, 0x80, 0x3c, 0x2e, 0xbb, 0x36, 0x40, 0x42, 0x3d,
    0xc2, 0xd6, 0x46, 0xbe, 0x11, 0xd2, 0x96, 0x3e, 0xee, 0xc5, 0x22, 0xbe,
    0xb3, 0x10, 0x66, 0xbe, 0xa6, 0x8e, 0x54, 0xbd, 0x16, 0x02, 0xf3, 0xbe,
    0xde, 0xa6, 0xe3, 0x3d, 0x9d, 0x48, 0xb3, 0x3e, 0x6f, 0x06, 0xe3, 0x3c,
    0xc0, 0xcd, 0xb6, 0x3e, 0x6b, 0x0f, 0xe5, 0x3e, 0x25, 0xe3, 0xd6, 0x3e,
    0x5d, 0x8c, 0x57, 0x3d, 0x1e, 0xb4, 0x11, 0x3e, 0x58, 0xdb, 0x17, 0xbf,
    0x55, 0xd4, 0x87, 0xbd, 0xea, 0xe1, 0xa6, 0xbe, 0x26, 0x08, 0x10, 0x3d,
    0x7c, 0x7a, 0xb1, 0xbe, 0x56, 0x65, 0x01, 0xbe, 0x50, 0x0b, 0x49, 0xbe,
    0xe1, 0xe6, 0xa2, 0x3c, 0xc0, 0xa4, 0x17, 0xbd, 0xc5, 0x47, 0x16, 0xbe,
    0x2b, 0xc4, 0x53, 0xbe, 0x06, 0x26, 0xbf, 0xbe, 0xf7, 0x8c, 0xaf, 0xbe,
    0xf8, 0x70, 0x8a, 0x3d, 0x5e, 0xae, 0x9d, 0xbe, 0xea, 0x8e, 0x8d, 0x3e,
    0x74, 0x62, 0x5e, 0x3e, 0x23, 0x1d, 0x09, 0x3e, 0x21, 0x81, 0xfc, 0xbd,
    0x32, 0xa0, 0x8a, 0x3e, 0xf2, 0xc2, 0x4e, 0xbe, 0x32, 0x97, 0xb7, 0x3d,
    0xfd, 0x0e, 0xc1, 0x3e, 0x94, 0x97, 0x0a, 0x3e, 0x19, 0xf2, 0xed, 0x3c,
    0xe1, 0x9a, 0xec, 0xbe, 0x5c, 0xf8, 0x9e, 0x3e, 0x71, 0xbb, 0x27, 0x3e,
    0x04, 0x1a, 0x80, 0xbe, 0xad, 0x12, 0x89, 0xbe, 0x3c, 0xc3, 0x7d, 0xbe,
    0x96, 0xae, 0xa4, 0x3d, 0xdb, 0x1c, 0x30, 0x3f, 0x18, 0x84, 0xbf, 0x3e,
    0x5d, 0xb7, 0x91, 0xbe, 0xa6, 0xc3, 0x4b, 0xbd, 0xcd, 0xb6, 0x15, 0x3e,
    0xf2, 0x36, 0xb4, 0x3d, 0x7e, 0x1c, 0x2b, 0x3d, 0xd7, 0x9c, 0x1c, 0x3d,
    0x79, 0x1d, 0xa0, 0x3e, 0x5d, 0x6f, 0xa1, 0x3e, 0x53, 0xe9, 0xb9, 0x3b,
    0xf0, 0x28, 0x51, 0x3d, 0x87, 0xf0, 0xa9, 0x3e, 0x53, 0x0f, 0x91, 0x3e,
    0xab, 0x60, 0x80, 0x3e, 0xe8, 0x5f, 0x5e, 0x3e, 0x59, 0x5d, 0x2a, 0xbe,
    0xc7, 0xf6, 0xe1, 0xbe, 0x2d, 0x61, 0xab, 0x3c, 0x61, 0x2f, 0x93, 0xbe,
    0x11, 0x07, 0xe4, 0xbe, 0x6f, 0x84, 0x06, 0xbf, 0x2e, 0xbb, 0xbe, 0xbe,
    0xbd, 0x84, 0x09, 0xbe, 0xac, 0xfd, 0x41, 0x3e, 0x8b, 0x76, 0xac, 0x3d,
    0x0a, 0x88, 0x7b, 0x3d, 0x68, 0xb1, 0xc5, 0x3e, 0xa1, 0x91, 0x42, 0x3d,
    0x97, 0xb8, 0x4d, 0x3e, 0x11, 0x79, 0x02, 0xbf, 0x84, 0x33, 0xf7, 0x3c,
    0xa0, 0x59, 0x9a, 0xbe, 0x89, 0x27, 0x88, 0x3d, 0x77, 0xc2, 0x1b, 0x3e,
    0x0d, 0x95, 0xc5, 0xbe, 0x2c, 0x7d, 0x9a, 0xbc, 0x27, 0xed, 0x1d, 0x3e,
    0x36, 0x1a, 0x4d, 0xba, 0xdd, 0x0c, 0xff, 0x3d, 0x24, 0x46, 0x07, 0x3c,
    0xda, 0x8c, 0x37, 0xbf, 0x9e, 0xe2, 0xb1, 0x3c, 0x93, 0xad, 0x9b, 0x3e,
    0xce, 0x8f, 0x01, 0xbf, 0xc8, 0x2f, 0x72, 0xbe, 0x8f, 0x84, 0x19, 0xbd,
    0xbd, 0xfc, 0x47, 0x3e, 0xaf, 0xe8, 0xfe, 0x3e, 0x5a, 0x82, 0xcb, 0x3e,
    0x79, 0x9b, 0xaf, 0xbe, 0x5e, 0x59, 0x4b, 0x3e, 0x9e, 0x4f, 0xca, 0x3e,
    0xa9, 0x9f, 0x55, 0x3e, 0x88, 0x49, 0xea, 0x3d, 0x75, 0x0b, 0xd5, 0x3e,
    0x69, 0xd6, 0xb5, 0x3d, 0x1e, 0x73, 0x0e, 0xbf, 0x02, 0x0c, 0x4f, 0x3e,
    0x12, 0xf3, 0x86, 0xbe, 0x4f, 0x42, 0xd8, 0xbe, 0xb8, 0xdb, 0x37, 0x3d,
    0x1a, 0x79, 0x85, 0x3e, 0x4c, 0x95, 0x0c, 0x3e, 0xa6, 0xb9, 0xa0, 0x3e,
    0x69, 0x8a, 0x41, 0x3e, 0x72, 0x5d, 0x4d, 0x3e, 0xe7, 0x3f, 0xfc, 0x3d,
    0xe3, 0x09, 0xfb, 0xbd, 0x30, 0xb4, 0x0a, 0x3f, 0x04, 0xf1, 0x68, 0xbe,
    0x9c, 0xbd, 0xe5, 0xbe, 0x22, 0x26, 0x3d, 0x3d, 0xc1, 0x86, 0x77, 0x3d,
    0xe4, 0xb0, 0x80, 0x3e, 0x09, 0xd1, 0xf2, 0x3e, 0x27, 0x00, 0x34, 0xbe,
    0x38, 0x5c, 0x8a, 0x3e, 0xbb, 0xb5, 0xf0, 0xbe, 0xbb, 0x7a, 0x67, 0x3e,
    0x0b, 0x4c, 0x17, 0xbf, 0x2a, 0x55, 0x89, 0xbe, 0x63, 0x1b, 0xa4, 0x3e,
    0x78, 0x20, 0x10, 0xbe, 0x2b, 0xc8, 0xe0, 0xbd, 0xde, 0x2a, 0x29, 0xbe,
    0x95, 0x3a, 0xfa, 0x3c, 0xd3, 0x50, 0x62, 0xbd, 0x87, 0x7e, 0x3c, 0xbf,
    0xfd, 0x00, 0xa0, 0x3e, 0x3c, 0x06, 0xf9, 0x3d, 0xa1, 0xec, 0x46, 0x3d,
    0x1f, 0x04, 0xba, 0xbe, 0xa7, 0x52, 0x0d, 0xbe, 0xe2, 0x4a, 0x04, 0xbe,
    0x41, 0xd8, 0x93, 0xbe, 0x77, 0x7c, 0xc5, 0xbe, 0xfc, 0x7d, 0x95, 0xbc,
    0x9d, 0x46, 0xee, 0xbd, 0xaa, 0xa4, 0x3d, 0x3f, 0xe2, 0xce, 0x40, 0x3e,
    0x2c, 0xaf, 0x8f, 0x3e, 0xef, 0xdf, 0xbf, 0xbd, 0xfa, 0x10, 0x7d, 0xbe,
    0x33, 0xae, 0x1b, 0x3d, 0x78, 0xeb, 0x31, 0xbe, 0x24, 0xe4, 0x80, 0xbc,
    0x75, 0x5d, 0x8f, 0x3e, 0x2b, 0x7a, 0x51, 0xbe, 0xc2, 0x0b, 0xb4, 0x3e,
    0x8e, 0xec, 0x38, 0xbd, 0xd3, 0x07, 0xab, 0xbe, 0xda, 0x81, 0x07, 0xbf,
    0xa6, 0x8d, 0xdd, 0x3e, 0x16, 0xbd, 0x33, 0x3d, 0x20, 0xbe, 0xd6, 0x3d,
    0x68, 0xb5, 0x2f, 0x3d, 0x52, 0x4b, 0xf0, 0xbc, 0xa2, 0xb6, 0xae, 0x3e,
    0xa0, 0xca, 0xe2, 0x3d, 0x9d, 0x6d, 0x52, 0x3e, 0xd1, 0x8c, 0x28, 0xbe,
    0x2a, 0x3a, 0xeb, 0x3d, 0x27, 0x35, 0xbb, 0xbe, 0xea, 0x3f, 0x10, 0xbf,
    0x20, 0x4a, 0xd4, 0xbe, 0xf0, 0xba, 0x46, 0xbd, 0x19, 0x86, 0x04, 0x3d,
    0x6a, 0x83, 0xcb, 0x3e, 0x04, 0xa4, 0x30, 0xbe, 0x37, 0x35, 0xd3, 0x3e,
    0xcc, 0xde, 0xa4, 0xbd, 0xe1, 0x66, 0x4e, 0x3e, 0x26, 0xc5, 0xf3, 0x3d,
    0xf2, 0xb5, 0x5d, 0xbe, 0x51, 0x76, 0xf4, 0xbd, 0xee, 0x1e, 0x8f, 0xbe,
    0x5a, 0x26, 0x46, 0xbe, 0xe8, 0x3b, 0x05, 0x3e, 0xac, 0xc2, 0x93, 0xbe,
    0xde, 0x05, 0xae, 0x3d, 0xa4, 0x2e, 0x02, 0x3e, 0x65, 0x9e, 0xb5, 0x3a,
    0x2f, 0x40, 0x75, 0x3e, 0x01, 0x00, 0x9d, 0x3e, 0x27, 0x2f, 0x18, 0xbe,
    0xf9, 0xbb, 0xad, 0xbe, 0xac, 0x10, 0x2d, 0x3e, 0xca, 0x1c, 0x47, 0x3d,
    0xa6, 0x56, 0x12, 0x3f, 0x10, 0xac, 0x43, 0xbe, 0xb9, 0xe1, 0xc4, 0xbe,
    0xc7, 0xda, 0x4f, 0xbe, 0x0b, 0xb6, 0x56, 0xbe, 0x3a, 0x07, 0x35, 0xbd,
    0x3f, 0xa3, 0x6b, 0x3e, 0x67, 0xd2, 0x0b, 0xbf, 0xf9, 0x9a, 0x8f, 0x3e,
    0x4c, 0x50, 0xa7, 0xbe, 0x98, 0x24, 0x4f, 0x3d, 0x54, 0x38, 0x36, 0xbf,
    0xc8, 0xe5, 0x0b, 0x3f, 0x7b, 0x17, 0x41, 0x3d, 0x73, 0xb2, 0x18, 0xbe,
    0xd2, 0x7a, 0x80, 0x3e, 0xd8, 0xae, 0x59, 0x3d, 0x77, 0x4c, 0xc7, 0xbd,
    0x12, 0xd0, 0x49, 0x3e, 0x34, 0x7b, 0x75, 0xbe, 0x7c, 0xfd, 0x24, 0xbf,
    0x44, 0x33, 0x27, 0x3d, 0xdb, 0x99, 0x07, 0x3e, 0x4f, 0x65, 0xe7, 0xbe,
    0x42, 0xcb, 0x6f, 0xbe, 0x59, 0xc6, 0x53, 0x3e, 0x5c, 0x10, 0x94, 0x3e,
    0x2a, 0xdb, 0xa9, 0x3e, 0x92, 0x60, 0x99, 0x3e, 0x97, 0x33, 0x1a, 0xbe,
    0xf5, 0xf6, 0x17, 0xbe, 0xf9, 0xd9, 0xfa, 0x3e, 0x15, 0x14, 0x80, 0x3e,
    0x8b, 0x16, 0x55, 0x3e, 0x78, 0x58, 0xae, 0xbd, 0xd1, 0x27, 0x61, 0x3e,
    0x33, 0x48, 0x12, 0x3e, 0xfb, 0x68, 0xa7, 0xbd, 0x95, 0x73, 0x95, 0x3e,
    0x68, 0x27, 0x96, 0x3d, 0xcc, 0xbb, 0xa6, 0x3c, 0x04, 0x61, 0x06, 0x3e,
    0x21, 0x6e, 0x1a, 0x3e, 0xc7, 0x91, 0x3e, 0x3e, 0xb2, 0xcf, 0x75, 0xbe,
    0x6c, 0x56, 0xb9, 0xbe, 0x54, 0xd0, 0x14, 0xbf, 0x34, 0xd4, 0xe8, 0x3d,
    0xad, 0xcd, 0xfa, 0xbe, 0x42, 0x1a, 0x4e, 0x3e, 0x41, 0x28, 0x47, 0x3e,
    0xae, 0x09, 0xf1, 0xbe, 0xd4, 0xdb, 0x5a, 0xbd, 0xe1, 0xf3, 0x37, 0xbe,
    0x5f, 0x28, 0x86, 0xbe, 0xe3, 0xbb, 0xca, 0xbe, 0x2b, 0xb7, 0xb5, 0x3d,
    0x3c, 0x86, 0x4f, 0x3e, 0x83, 0x61, 0x82, 0x3e, 0xc9, 0xec, 0x8e, 0x3e,
    0x92, 0x4c, 0xec, 0xbd, 0x1a, 0x40, 0x63, 0xbe, 0x2d, 0x8e, 0x0f, 0x3f,
    0xd0, 0x05, 0x00, 0x3e, 0x71, 0x72, 0x44, 0x3e, 0xbb, 0x7e, 0x08, 0xbe,
    0xc6, 0xfe, 0x20, 0xbe, 0x4d, 0x17, 0xa0, 0xbd, 0x6c, 0x19, 0x33, 0x3f,
    0xf1, 0x68, 0x38, 0xbc, 0x7e, 0x9d, 0xdb, 0x3e, 0x83, 0x52, 0x8e, 0x3e,
    0x45, 0x36, 0xe6, 0x3e, 0xe8, 0x5c, 0xda, 0xbd, 0x07, 0xbd, 0xbc, 0xbe,
    0x39, 0x65, 0x39, 0xbf, 0xf2, 0x50, 0xa3, 0x3b, 0x0c, 0xa0, 0xa4, 0xbe,
    0xcd, 0x61, 0x78, 0x3e, 0xa3, 0xa2, 0x80, 0xbe, 0x74, 0xd1, 0x9a, 0xbe,
    0xcb, 0x8e, 0x47, 0x3e, 0x1f, 0x49, 0x81, 0x3e, 0x35, 0x00, 0x2c, 0x3d,
    0xd4, 0x38, 0xb5, 0x3e, 0x21, 0xfb, 0x98, 0xbe, 0x0f, 0x85, 0x82, 0x3e,
    0xfd, 0x80, 0x13, 0x3c, 0xce, 0xeb, 0x99, 0xbe, 0xb4, 0x74, 0xc5, 0x3e,
    0x5b, 0xb2, 0xca, 0x3e, 0x98, 0xdc, 0x30, 0x3f, 0x9c, 0x3b, 0x02, 0xbf,
    0xd7, 0xd9, 0xc3, 0x3d, 0x36, 0x3b, 0xaf, 0xbd, 0x17, 0x99, 0x14, 0xbe,
    0x6d, 0x0b, 0x86, 0xbe, 0x22, 0xde, 0x60, 0xbe, 0x42, 0x38, 0x18, 0xbe,
    0x33, 0x7f, 0x08, 0x3c, 0xac, 0x25, 0xc6, 0xbd, 0x5d, 0x8b, 0xb3, 0x3e,
    0xb6, 0x2c, 0x12, 0x3f, 0x45, 0xe1, 0x00, 0xbd, 0x34, 0x06, 0x00, 0xbc,
    0x64, 0x6a, 0xbc, 0xbe, 0xc5, 0x2a, 0x91, 0xbd, 0x59, 0xcc, 0x6d, 0xbc,
    0xf0, 0xc1, 0x37, 0x3e, 0x0a, 0xe2, 0xd9, 0x3d, 0x70, 0x95, 0x86, 0xbe,
    0x91, 0xdc, 0x79, 0xbe, 0x5a, 0x85, 0x50, 0x3e, 0x8d, 0x83, 0x63, 0x3e,
    0xa5, 0xeb, 0x66, 0x3d, 0x01, 0x4b, 0x0f, 0x3d, 0xa6, 0x6a, 0x90, 0x3e,
    0x1c, 0xd7, 0x56, 0xbe, 0x79, 0x55, 0x92, 0xbc, 0x84, 0x5a, 0xbe, 0x3d,
    0x84, 0x7f, 0xab, 0xbe, 0x78, 0xd2, 0x13, 0x3f, 0xca, 0xc5, 0xc6, 0x3e,
    0x49, 0xd8, 0xc7, 0x3e, 0x94, 0x11, 0xdd, 0xbe, 0x15, 0xe9, 0x41, 0x3e,
    0x7f, 0x86, 0x5b, 0x3d, 0xcb, 0x83, 0xc7, 0xbd, 0x3e, 0xfb, 0x2b, 0xbe,
    0x4e, 0x45, 0x77, 0x3c, 0x96, 0x08, 0x83, 0xbe, 0x58, 0x23, 0x2f, 0xbd,
    0x39, 0x3d, 0x2c, 0x3f, 0xb5, 0x5c, 0x22, 0x3e, 0x75, 0xd2, 0xff, 0x3c,
    0xe0, 0x86, 0x0c, 0x3f, 0x0c, 0x2e, 0x0f, 0x3d, 0x12, 0xd3, 0xb5, 0x3e,
    0x7b, 0xbb, 0xd0, 0xbd, 0xf9, 0x7d, 0x22, 0xbf, 0xbc, 0x89, 0x14, 0xbf,
    0xf7, 0x5d, 0x91, 0xbe, 0xa3, 0xaa, 0x9d, 0x3d, 0xdf, 0x74, 0x4f, 0xbe,
    0x08, 0xf2, 0xb1, 0xbe, 0xee, 0xe9, 0xff, 0xff, 0x04, 0x00, 0x00, 0x00,
    0x00, 0x02, 0x00, 0x00, 0x23, 0x33, 0x2e, 0x3f, 0x03, 0xd0, 0x1e, 0x3e,
    0xb8, 0xf4, 0xa0, 0x3e, 0xab, 0xdc, 0xcc, 0xbe, 0xad, 0xd4, 0xf5, 0xbe,
    0x7d, 0xb7, 0x1e, 0xbf, 0x6f, 0x1f, 0xa3, 0xbf, 0x34, 0xc8, 0xb8, 0xbe,
    0x3a, 0xd7, 0xa4, 0xbf, 0x6a, 0x60, 0x10, 0x3e, 0x7f, 0x6d, 0x8d, 0xbe,
    0x7b, 0x6c, 0xb2, 0xbf, 0xe4, 0xe3, 0xdf, 0xbd, 0xf5, 0x9a, 0xc5, 0x3e,
    0xb5, 0x0a, 0x2e, 0xbf, 0x35, 0xfc, 0x99, 0xbe, 0x7e, 0xef, 0x1f, 0x3f,
    0x7d, 0xe5, 0x10, 0x3f, 0xf1, 0x1d, 0x70, 0xbe, 0xf2, 0x65, 0x57, 0xbe,
    0x69, 0xd3, 0xbd, 0x3d, 0x9a, 0x84, 0xea, 0x3e, 0x88, 0xe8, 0xbf, 0x3d,
    0x7b, 0xb8, 0xbe, 0xbd, 0x7f, 0x2a, 0x18, 0x3f, 0xf3, 0xcd, 0x39, 0xbd,
    0xa0, 0x0f, 0x26, 0x3e, 0x79, 0xfd, 0xc0, 0xbf, 0x4e, 0x3c, 0x24, 0xbd,
    0x37, 0x9d, 0x58, 0xbf, 0x5f, 0x5d, 0x07, 0x3e, 0x73, 0xda, 0x0d, 0xbf,
    0x09, 0xe4, 0xfc, 0xbd, 0xea, 0x3a, 0xc3, 0xbe, 0x2f, 0x81, 0x25, 0xbf,
    0xb9, 0xb8, 0xb6, 0x3e, 0xe9, 0x36, 0xdc, 0xbe, 0xb3, 0x8d, 0x2a, 0x3f,
    0x34, 0xaa, 0x32, 0x3e, 0x59, 0x10, 0x37, 0x3f, 0x93, 0x46, 0x4e, 0x3e,
    0x69, 0x25, 0x04, 0x3e, 0x5a, 0xd0, 0x62, 0xbd, 0xd8, 0xa4, 0x57, 0x3e,
    0xe3, 0x13, 0x3d, 0x3e, 0x11, 0x6f, 0x7d, 0x3e, 0x5d, 0xa9, 0xaa, 0xbe,
    0x83, 0x12, 0x22, 0x3e, 0x19, 0x11, 0x60, 0x3e, 0xd0, 0xe0, 0x29, 0x3d,
    0xa0, 0x52, 0xba, 0x3e, 0xdc, 0x92, 0xa4, 0xbe, 0xd7, 0xf9, 0xdb, 0x3e,
    0xa1, 0xd3, 0x06, 0xbe, 0xee, 0x1e, 0x11, 0x3f, 0x99, 0x86, 0x0b, 0x3f,
    0x78, 0x5a, 0x37, 0xbb, 0x66, 0x4f, 0x62, 0x3d, 0xcf, 0xb5, 0x20, 0xbf,
    0xc6, 0xba, 0x28, 0x3e, 0x22, 0x95, 0x77, 0xbf, 0x06, 0xa5, 0xd1, 0x3e,
    0x62, 0x6b, 0x5f, 0xbf, 0x67, 0x64, 0x96, 0xbf, 0xfa, 0xd2, 0xbf, 0x3e,
    0x4b, 0x04, 0x32, 0xbe, 0x31, 0x16, 0xa4, 0x3e, 0x19, 0x71, 0xc6, 0xbe,
    0x43, 0x93, 0x03, 0xbf, 0xa3, 0x35, 0x2f, 0xbf, 0x57, 0x2d, 0x21, 0x3e,
    0x6f, 0xab, 0x00, 0xbf, 0x9a, 0x8e, 0xa6, 0x3e, 0x3e, 0x30, 0xa2, 0xbe,
    0x29, 0x90, 0x70, 0xbe, 0x4c, 0xed, 0xdc, 0x3d, 0x4b, 0x97, 0xb0, 0xbd,
    0xc3, 0x8c, 0x10, 0xbf, 0x63, 0x7d, 0x37, 0xbf, 0xff, 0x1e, 0xc3, 0xbe,
    0x44, 0x56, 0xa8, 0xbd, 0xd3, 0x9c, 0x06, 0xbe, 0xf4, 0x3a, 0xa3, 0xbe,
    0x41, 0xa7, 0xc9, 0x3d, 0x66, 0x5e, 0xfe, 0xbe, 0xfe, 0x3f, 0x8c, 0xbd,
    0x69, 0xa3, 0xa8, 0x3e, 0xd5, 0x75, 0xdc, 0xbe, 0xc0, 0xdc, 0xe1, 0xbe,
    0x41, 0xd0, 0x12, 0xbf, 0x5c, 0xdf, 0xf3, 0x3d, 0xfa, 0xa2, 0xcf, 0x3e,
    0x3f, 0x08, 0x79, 0xbd, 0xb7, 0xfd, 0x0a, 0xbf, 0x31, 0x28, 0x02, 0x3e,
    0xce, 0x87, 0x1e, 0x3e, 0xe6, 0x32, 0x82, 0xbf, 0xe1, 0xa6, 0xd7, 0xbe,
    0xc9, 0x64, 0x2e, 0x3d, 0xf2, 0x6e, 0xad, 0x3d, 0x79, 0xcc, 0x82, 0x3f,
    0x70, 0x74, 0x24, 0xbe, 0x32, 0x1d, 0x13, 0x3e, 0x82, 0xb0, 0x27, 0x3e,
    0x22, 0x1c, 0xe0, 0x3e, 0x6f, 0xee, 0x9c, 0x3e, 0x31, 0x8a, 0x8a, 0x3e,
    0xc3, 0xcf, 0x6f, 0x3e, 0x71, 0x34, 0xb5, 0x3e, 0x19, 0xb6, 0x08, 0xbf,
    0x5a, 0x7c, 0x5a, 0x3f, 0x01, 0x20, 0x54, 0xbd, 0x0c, 0xde, 0x38, 0xbf,
    0xf1, 0xe0, 0x4d, 0xbf, 0xbe, 0x30, 0x9a, 0x3e, 0x54, 0x7e, 0x87, 0xbf,
    0x00, 0xdd, 0x41, 0xbf, 0x59, 0x13, 0x2d, 0x3e, 0x9f, 0x1a, 0x98, 0xbf,
    0xd4, 0x9f, 0x2a, 0xbf, 0x0e, 0xdf, 0x78, 0xbf, 0x0a, 0xd9, 0x06, 0x3f,
    0xdc, 0x7f, 0x59, 0xbe, 0x51, 0xe3, 0xde, 0x3e, 0x5c, 0x0f, 0xcd, 0x3d,
    0xde, 0xc1, 0x82, 0x3e, 0x54, 0x8a, 0x52, 0x3e, 0x7b, 0xc2, 0x8c, 0x3e,
    0xfa, 0xeb, 0xff, 0xff, 0x04, 0x00, 0x00, 0x00, 0x00, 0x06, 0x00, 0x00,
    0x8d, 0x4e, 0xf5, 0x3f, 0x7c, 0xdf, 0xf7, 0xbd, 0x2d, 0x89, 0xc5, 0xbe,
    0x64, 0x8c, 0xcf, 0xbd, 0xac, 0x5c, 0x88, 0xbe, 0x3d, 0xc8, 0x09, 0xbd,
    0xcd, 0xa7, 0xd0, 0x3b, 0x69, 0x90, 0x44, 0xbe, 0x2c, 0x63, 0xe4, 0x3f,
    0xa7, 0x17, 0xa8, 0x3e, 0xaa, 0x2b, 0xf2, 0xbd, 0x18, 0x9b, 0x6c, 0xbe,
    0x67, 0x87, 0x93, 0x3e, 0x3e, 0xe7, 0xc9, 0x3c, 0x7b, 0x01, 0xec, 0x3b,
    0xe4, 0x2a, 0xd2, 0x3e, 0xac, 0x5d, 0xe2, 0x3f, 0x42, 0x5c, 0xb4, 0x3d,
    0xb7, 0x2c, 0x1f, 0xbd, 0x3d, 0xd0, 0xf2, 0xbe, 0x2e, 0xaf, 0xbb, 0xbe,
    0xfd, 0x75, 0xb2, 0xbd, 0x2b, 0x5f, 0xd2, 0x3d, 0x57, 0x66, 0xe0, 0xbe,
    0x74, 0xfb, 0x8c, 0x3f, 0x81, 0x68, 0x5b, 0x3d, 0x9d, 0x08, 0x8d, 0xbf,
    0x69, 0x8d, 0x0c, 0x3e, 0x09, 0xac, 0xca, 0x3e, 0xf8, 0x6d, 0xae, 0x3c,
    0x00, 0x0c, 0x0f, 0x3e, 0x16, 0x8b, 0xb1, 0x3e, 0xa5, 0x38, 0x52, 0x3f,
    0xc1, 0x1c, 0x93, 0x3e, 0xc7, 0x30, 0x83, 0xbf, 0x96, 0xb9, 0x00, 0xbf,
    0xe7, 0x93, 0x5b, 0x3e, 0x95, 0x1b, 0x82, 0x3c, 0x7e, 0xfe, 0x36, 0xbc,
    0xfd, 0xa6, 0x0f, 0xbe, 0xc0, 0x01, 0x45, 0x3f, 0x55, 0x1f, 0x05, 0x3f,
    0x25, 0x55, 0x8d, 0xbf, 0xfc, 0x27, 0x58, 0xbf, 0xab, 0x3e, 0x70, 0x3d,
    0x3a, 0x71, 0xdd, 0x3c, 0xf8, 0x54, 0x87, 0xb8, 0xc3, 0xfb, 0x50, 0xbe,
    0x2c, 0xb0, 0xc8, 0xbf, 0x7a, 0x04, 0xd9, 0x3e, 0x42, 0x58, 0x31, 0xbf,
    0xf7, 0x9e, 0xc4, 0xbc, 0x3f, 0xa9, 0x36, 0x3d, 0xfd, 0xe8, 0xaf, 0xbc,
    0x63, 0x08, 0xe1, 0xbd, 0xc2, 0x47, 0x1b, 0xbe, 0x89, 0xef, 0xa9, 0xbf,
    0xfc, 0x7f, 0xe0, 0x3e, 0xbd, 0xf8, 0x49, 0xbf, 0x46, 0x8e, 0xbb, 0x3e,
    0x1d, 0x34, 0x23, 0x3e, 0xfa, 0x3a, 0xb8, 0xbb, 0x5d, 0xc6, 0x80, 0xbb,
    0x06, 0x27, 0x97, 0xbe, 0x7f, 0xd9, 0xae, 0xbf, 0x88, 0xac, 0x12, 0x3f,
    0x48, 0x25, 0xac, 0xbe, 0x30, 0xf0, 0xee, 0x3e, 0x4f, 0xfa, 0x89, 0xbe,
    0x53, 0x5f, 0x67, 0xbd, 0xb5, 0x2e, 0x90, 0xbd, 0x02, 0xa8, 0xb8, 0xbe,
    0x47, 0x3b, 0xcc, 0x3f, 0x4a, 0xb7, 0xfc, 0xbf, 0x48, 0xda, 0xa9, 0x3e,
    0xcf, 0x00, 0x04, 0x3f, 0xe0, 0x99, 0x36, 0xbe, 0xe7, 0x6c, 0x09, 0xbc,
    0xc1, 0x46, 0x11, 0xbe, 0x1d, 0x5d, 0x0a, 0x3f, 0x6a, 0x9f, 0x9a, 0x3f,
    0xcd, 0x21, 0xb8, 0xbf, 0x65, 0x04, 0x43, 0x3f, 0x18, 0xd4, 0xa8, 0xbe,
    0xc8, 0xa6, 0x48, 0x3e, 0x7c, 0xc9, 0x9e, 0xbd, 0xcb, 0xa5, 0x8c, 0x3c,
    0xd3, 0xee, 0x50, 0x3f, 0x11, 0xe0, 0xb5, 0x3f, 0x30, 0xf4, 0xbb, 0xbf,
    0x4c, 0xad, 0x02, 0x3f, 0xda, 0x2c, 0x16, 0x3d, 0xbe, 0xd0, 0x3f, 0xbd,
    0x4b, 0xcc, 0xad, 0x3d, 0xe5, 0x04, 0xb5, 0xbd, 0xcd, 0x3d, 0xf8, 0xbe,
    0x27, 0xa2, 0x80, 0xbf, 0x7f, 0x04, 0xba, 0xbf, 0x81, 0xa3, 0x79, 0x3f,
    0x28, 0x52, 0xa4, 0xbe, 0x7a, 0xef, 0x81, 0x3e, 0x55, 0x02, 0x63, 0x3c,
    0x62, 0x21, 0xc8, 0x3c, 0xc2, 0xad, 0x09, 0x3d, 0x0a, 0xd8, 0x31, 0xbf,
    0xf8, 0xa9, 0xa5, 0xbf, 0xa6, 0x7b, 0x8f, 0x3f, 0x80, 0x9e, 0xe0, 0x3d,
    0x32, 0x49, 0x2a, 0xbd, 0x4e, 0x59, 0xc3, 0xbc, 0x09, 0xc3, 0x62, 0xbd,
    0x47, 0x2b, 0x32, 0x3f, 0xab, 0x40, 0x64, 0xbf, 0xe3, 0xcd, 0xb2, 0xbf,
    0x05, 0x61, 0x5d, 0x3f, 0x80, 0x98, 0x2a, 0x3e, 0xbc, 0x9a, 0x1c, 0xbf,
    0xcb, 0x47, 0x06, 0x3c, 0x15, 0x5b, 0x05, 0xbe, 0x87, 0x8a, 0x2b, 0x3f,
    0xb6, 0xf4, 0x98, 0xbf, 0x34, 0x0b, 0x9f, 0x3f, 0x67, 0xce, 0x16, 0xbe,
    0x37, 0x69, 0x15, 0x3f, 0x22, 0xf7, 0xa6, 0x3e, 0x2d, 0x2e, 0xa0, 0xbd,
    0x1d, 0x28, 0xc7, 0x3d, 0xf4, 0xb9, 0xc3, 0xbe, 0xe1, 0x23, 0x9f, 0xbf,
    0x5a, 0x75, 0x79, 0x3f, 0x91, 0xa9, 0x5c, 0xbe, 0x28, 0x2f, 0x43, 0x3f,
    0x0d, 0xab, 0xfa, 0xbd, 0xfb, 0xe9, 0xea, 0x3c, 0xbc, 0x15, 0xbc, 0xbd,
    0x0e, 0x9a, 0xae, 0x3f, 0x77, 0x7d, 0xaa, 0xbf, 0x7f, 0xdf, 0x9f, 0x3f,
    0xf4, 0x03, 0xc0, 0xbd, 0xe3, 0x40, 0xb2, 0x3e, 0xdd, 0xea, 0xb2, 0x3e,
    0xda, 0x95, 0xc6, 0xbd, 0x22, 0xac, 0x4a, 0x3d, 0x57, 0x1e, 0x27, 0x3d,
    0x28, 0x24, 0xc7, 0x3f, 0x3c, 0x06, 0x23, 0xbf, 0x34, 0x5b, 0xeb, 0x3b,
    0xfb, 0x5b, 0x52, 0x3e, 0x73, 0xc9, 0xb7, 0x3d, 0x43, 0x1c, 0x88, 0x3d,
    0x5d, 0x63, 0xf9, 0xbc, 0xc0, 0x96, 0x9c, 0xbe, 0xbf, 0x44, 0x95, 0x3f,
    0x1a, 0xd1, 0x53, 0xbf, 0x47, 0x26, 0xcf, 0x3d, 0x13, 0x24, 0xed, 0xbe,
    0xa3, 0x2c, 0x42, 0x3e, 0x0e, 0x1c, 0x59, 0xbd, 0x4b, 0x47, 0xe8, 0xbd,
    0xdd, 0x7c, 0x59, 0xbe, 0xc5, 0xf0, 0xbe, 0x3f, 0x7a, 0xc9, 0x47, 0xbf,
    0x97, 0x8e, 0x2d, 0x3c, 0x60, 0xcd, 0x32, 0xbe, 0x0e, 0xf2, 0x6e, 0x3b,
    0xe3, 0xf1, 0x1b, 0xbc, 0xe4, 0x6f, 0x2e, 0xbe, 0x47, 0xa0, 0x4d, 0xbc,
    0x6c, 0xc8, 0x7e, 0xbf, 0x7a, 0xa9, 0xbd, 0x3f, 0x45, 0xc3, 0xff, 0xbd,
    0x09, 0x00, 0x05, 0x3f, 0x20, 0x1b, 0x46, 0x3e, 0x99, 0x80, 0xa3, 0x3d,
    0x61, 0x27, 0x97, 0xbd, 0xfd, 0x0f, 0xb3, 0xbe, 0xa6, 0x0e, 0x87, 0xbf,
    0x28, 0xf2, 0xf2, 0x3f, 0xff, 0xbf, 0x70, 0xbe, 0xeb, 0xc5, 0x1a, 0x3b,
    0x23, 0x40, 0x63, 0x3d, 0xfd, 0xb2, 0xa5, 0xbd, 0xa5, 0xdb, 0x1d, 0x3c,
    0x74, 0x92, 0x21, 0x3f, 0x77, 0x38, 0x4e, 0xbf, 0x58, 0x52, 0xd3, 0x3f,
    0x29, 0xdb, 0x88, 0xbe, 0xe9, 0x57, 0x05, 0x3f, 0xec, 0x53, 0xe7, 0x3e,
    0x63, 0x6c, 0x04, 0xbc, 0xc2, 0xa9, 0x9d, 0xbd, 0x6d, 0xab, 0x0f, 0xbe,
    0x1b, 0x80, 0xac, 0xbf, 0x21, 0xe7, 0x67, 0x3e, 0x36, 0x44, 0x2a, 0xbf,
    0x46, 0x49, 0x47, 0x3e, 0x16, 0xc4, 0xd4, 0x3e, 0x18, 0xc3, 0xae, 0xbc,
    0xb0, 0x59, 0x1f, 0xbd, 0x68, 0x9e, 0xd6, 0x3e, 0x92, 0x1e, 0xae, 0xbf,
    0x0a, 0x82, 0x4e, 0xbe, 0xc5, 0x3d, 0x5f, 0xbe, 0xf0, 0x65, 0x4f, 0x3e,
    0xe6, 0xd1, 0x83, 0x3e, 0x43, 0x00, 0x77, 0x3b, 0x4e, 0xf5, 0x16, 0x3c,
    0x83, 0x4d, 0x69, 0x3f, 0x25, 0x6d, 0xd1, 0xbf, 0x3d, 0x33, 0xa9, 0x3d,
    0xc0, 0xb6, 0x14, 0xbe, 0x12, 0x7c, 0x8c, 0x3f, 0x6d, 0x41, 0x4b, 0x3f,
    0x88, 0xa7, 0x8e, 0x3c, 0xb0, 0x40, 0xf4, 0xbb, 0xae, 0x4d, 0xca, 0xbe,
    0xa6, 0x56, 0x8e, 0x3f, 0x61, 0xa7, 0xe4, 0xbf, 0x2a, 0xb1, 0xb0, 0x3e,
    0x28, 0x3d, 0xbf, 0xbe, 0x84, 0xab, 0xb2, 0xbe, 0x04, 0x6f, 0x3e, 0x3c,
    0x4e, 0x50, 0xdf, 0x3d, 0x1e, 0xbb, 0x81, 0xbe, 0x0c, 0x75, 0x8d, 0x3f,
    0x42, 0xcd, 0xd0, 0xbf, 0xfa, 0xbc, 0x0b, 0x3e, 0x46, 0x34, 0x0b, 0x3c,
    0x91, 0x66, 0x70, 0x3c, 0x35, 0xe5, 0x1a, 0xbc, 0x9a, 0xd1, 0xc9, 0xbb,
    0x38, 0xee, 0xe4, 0xbe, 0xda, 0xca, 0x87, 0x3f, 0x91, 0xeb, 0xbe, 0xbf,
    0xa2, 0xc0, 0xe3, 0x3e, 0xae, 0x4e, 0x67, 0x3e, 0x8b, 0x81, 0x75, 0x3e,
    0xa8, 0xce, 0xdc, 0x3d, 0x6e, 0x16, 0xdd, 0x3c, 0xf7, 0x06, 0x67, 0x3d,
    0x3a, 0x96, 0x38, 0x3e, 0xf7, 0x3c, 0x02, 0xc0, 0x7b, 0x4f, 0xf0, 0xbe,
    0xc7, 0xbf, 0xf9, 0xbe, 0xe3, 0xfe, 0x81, 0x3e, 0xdb, 0x82, 0x26, 0xbc,
    0xaf, 0xb5, 0x99, 0xbd, 0xf8, 0x91, 0x12, 0xbe, 0x2c, 0xe8, 0x2b, 0x3f,
    0x23, 0x3b, 0x0a, 0xc0, 0xd4, 0x16, 0x05, 0xbf, 0x5f, 0xac, 0xef, 0xbd,
    0x8c, 0x9e, 0xd6, 0x3e, 0x0d, 0x1a, 0xa7, 0xbc, 0x74, 0xd3, 0x27, 0x3d,
    0xdc, 0xce, 0x9e, 0xbd, 0x6a, 0x1c, 0xb1, 0x3e, 0x82, 0x81, 0xed, 0xbf,
    0x73, 0xe4, 0x29, 0xbf, 0x31, 0x8e, 0x3f, 0x3d, 0x02, 0xdc, 0xf9, 0x3e,
    0x81, 0x21, 0x80, 0xbd, 0x3a, 0xe0, 0x43, 0x3c, 0x1d, 0xb4, 0xde, 0x3c,
    0x7e, 0xff, 0x4e, 0xbf, 0x61, 0x06, 0xdf, 0xbe, 0x18, 0x6a, 0x43, 0x3e,
    0x6a, 0xb8, 0xe1, 0xbe, 0xf8, 0x88, 0xd5, 0xbd, 0xb5, 0x86, 0x83, 0x3d,
    0xfe, 0x3b, 0xaa, 0x3b, 0xf1, 0x8f, 0x46, 0x3e, 0x29, 0xd1, 0x70, 0xbf,
    0x6a, 0x10, 0x3d, 0xbf, 0x37, 0x8d, 0x94, 0x3e, 0x73, 0xdf, 0x8f, 0xbe,
    0x2c, 0x36, 0x8c, 0x3e, 0x3c, 0x1e, 0x19, 0xbd, 0xae, 0x07, 0xf1, 0xbd,
    0x7a, 0x9f, 0x92, 0x3e, 0x97, 0x3e, 0x2b, 0xbf, 0x95, 0x35, 0xc8, 0xbe,
    0xed, 0x1e, 0xe0, 0x3e, 0xf2, 0xf8, 0xe6, 0x3d, 0x73, 0x76, 0x94, 0xbc,
    0x9d, 0x14, 0x1e, 0x3e, 0xc6, 0xe7, 0xbd, 0xbd, 0x8e, 0x28, 0x2c, 0x3f,
    0xe4, 0x59, 0xfb, 0x3f, 0x89, 0xfa, 0x94, 0x3f, 0x3f, 0x40, 0x3a, 0xbe,
    0x54, 0x76, 0xa9, 0x3e, 0x89, 0x45, 0x2f, 0x3e, 0xc0, 0x3a, 0x81, 0xbb,
    0xad, 0x5c, 0x7a, 0x3b, 0xe8, 0xf3, 0x51, 0x3f, 0xdf, 0xc5, 0xba, 0x3f,
    0x92, 0xf3, 0xa6, 0x3f, 0x77, 0x70, 0xfd, 0xbe, 0x1f, 0x8a, 0x6b, 0xbe,
    0x11, 0xc9, 0xca, 0xbd, 0x30, 0xa6, 0x0f, 0x3d, 0xe4, 0xdd, 0x4c, 0xbd,
    0xa2, 0x5a, 0x9e, 0xbc, 0x58, 0xa1, 0xf7, 0x3f, 0xf9, 0x22, 0x82, 0x3f,
    0x03, 0xa9, 0xb8, 0xbe, 0xd2, 0x62, 0x0f, 0xbd, 0x60, 0x17, 0x8e, 0xbe,
    0x0c, 0x71, 0x8c, 0xbd, 0x71, 0x68, 0x91, 0xbd, 0x41, 0xd9, 0x21, 0xbf,
    0x59, 0x9e, 0x71, 0xbf, 0xd1, 0xbf, 0x42, 0xbf, 0x67, 0x17, 0x1b, 0x3f,
    0xc7, 0xe2, 0x9e, 0x3d, 0xb4, 0x91, 0x9c, 0x3e, 0xf8, 0xf8, 0x7d, 0xbc,
    0xf3, 0x2d, 0x12, 0x3d, 0xa6, 0xac, 0x41, 0xbe, 0xaa, 0x12, 0x8d, 0xbf,
    0x5f, 0x95, 0x3d, 0xbf, 0x51, 0x77, 0x1c, 0x3f, 0x77, 0x1e, 0x63, 0x3e,
    0x75, 0xf4, 0x0d, 0xbe, 0x49, 0x04, 0x67, 0xbd, 0x11, 0x2c, 0xb8, 0x3d,
    0x6e, 0x79, 0x2f, 0xbe, 0x47, 0x3f, 0x89, 0xbf, 0x69, 0x5a, 0x02, 0xbf,
    0x7b, 0xf5, 0x2d, 0x3f, 0x6f, 0xc0, 0x08, 0x3f, 0xab, 0x72, 0x87, 0x3e,
    0xe5, 0x01, 0xb6, 0x3d, 0x28, 0xe9, 0x1f, 0x3e, 0x03, 0x35, 0x15, 0x3f,
    0x4f, 0xcf, 0xa7, 0xbf, 0xf4, 0xf3, 0xfb, 0x3f, 0x45, 0x54, 0x4c, 0xbe,
    0xc2, 0xdb, 0x05, 0x3f, 0xf8, 0x18, 0x2a, 0xbe, 0x3f, 0x53, 0x98, 0x3d,
    0xc4, 0x2c, 0x46, 0xbc, 0x9f, 0xf8, 0x2a, 0x3f, 0x6e, 0x2c, 0xa5, 0xbf,
    0xe9, 0x30, 0x15, 0x40, 0xd3, 0x5e, 0xaf, 0xbe, 0x79, 0x0c, 0xc6, 0x3e,
    0x99, 0xec, 0xcd, 0xbe, 0x71, 0xda, 0xce, 0x3c, 0xaf, 0x5a, 0xa6, 0xbd,
    0xf4, 0x79, 0x1a, 0x3f, 0xc3, 0x6c, 0xc5, 0xbf, 0xa2, 0xf1, 0x0d, 0x40,
    0x1f, 0xee, 0x27, 0xbe, 0x2a, 0xde, 0xae, 0x3d, 0xa8, 0x88, 0x47, 0xbe,
    0xfc, 0xfd, 0x9f, 0xbc, 0x3b, 0x4b, 0x5d, 0xbe, 0x08, 0xd9, 0xa0, 0xbe,
    0x40, 0x1d, 0xa9, 0xbd, 0x42, 0xd5, 0xd9, 0x3f, 0x80, 0xfc, 0x8b, 0x3d,
    0x44, 0x84, 0xba, 0x3f, 0xf3, 0x60, 0x07, 0xbf, 0x6a, 0x51, 0x84, 0x3c,
    0xeb, 0x27, 0x5e, 0x3c, 0x61, 0xc0, 0x32, 0xbf, 0x13, 0x4a, 0xc3, 0xbc,
    0x2f, 0x49, 0xcf, 0x3f, 0x95, 0x2a, 0xec, 0x3e, 0x25, 0x74, 0xcb, 0x3d,
    0x46, 0xb5, 0xea, 0xbd, 0xff, 0xda, 0x40, 0xbd, 0x95, 0x70, 0x49, 0x3c,
    0x6c, 0xe2, 0xd2, 0x3f, 0x31, 0x97, 0xae, 0xbd, 0x4d, 0x56, 0xba, 0x3f,
    0x0e, 0x7f, 0x20, 0x3e, 0x96, 0x4f, 0xa5, 0x3d, 0xaf, 0xca, 0x4a, 0xbd,
    0x91, 0xd5, 0x87, 0xbb, 0x1a, 0xf9, 0x80, 0x3d, 0x7b, 0x15, 0xef, 0x3e,
    0x06, 0xf2, 0xff, 0xff, 0x04, 0x00, 0x00, 0x00, 0x00, 0x0c, 0x00, 0x00,
    0x52, 0x98, 0x00, 0x3e, 0x64, 0xb4, 0x6d, 0x3e, 0xaa, 0x9e, 0x4f, 0x3d,
    0x1c, 0xcf, 0x60, 0xbe, 0xfc, 0x27, 0x51, 0x3d, 0x10, 0x6e, 0x5e, 0xbc,
    0x10, 0x67, 0xda, 0x3d, 0xc4, 0x00, 0x91, 0xbc, 0x8c, 0x48, 0x9a, 0x3d,
    0x04, 0x35, 0x27, 0xbe, 0x90, 0x7a, 0x75, 0xbe, 0x45, 0x2d, 0xc9, 0xbd,
    0xf8, 0xad, 0x52, 0xbe, 0x5f, 0x6e, 0x25, 0xbd, 0xbc, 0x97, 0x7c, 0xbe,
    0x45, 0x11, 0x68, 0x3c, 0xf8, 0x0a, 0xaa, 0x3d, 0x71, 0x74, 0x9a, 0xbe,
    0x69, 0xcf, 0x55, 0xbd, 0x00, 0x15, 0xee, 0xbd, 0x70, 0xb3, 0xf4, 0xbb,
    0xa6, 0x25, 0xd1, 0x3c, 0xd2, 0x28, 0x12, 0xbe, 0x24, 0x64, 0x7e, 0x3e,
    0x67, 0x9f, 0xa1, 0x3e, 0x86, 0x9d, 0xe9, 0xbc, 0x22, 0x99, 0xc7, 0xbd,
    0xe2, 0x1a, 0x14, 0x3d, 0x63, 0x90, 0xcf, 0xbb, 0x7c, 0xe3, 0x18, 0x3e,
    0xfa, 0xf1, 0x2e, 0xbc, 0x0b, 0x60, 0x7b, 0x3e, 0xfe, 0xb3, 0x39, 0xbe,
    0xb5, 0xe0, 0x4a, 0xbd, 0x28, 0x28, 0x5b, 0x3e, 0x85, 0x6d, 0x81, 0x3e,
    0x61, 0x02, 0x8f, 0x3e, 0x68, 0x1a, 0x77, 0x3e, 0x81, 0x0a, 0xb7, 0xbc,
    0xf6, 0x5b, 0x34, 0xbe, 0xfe, 0xf7, 0x11, 0x3e, 0x23, 0x6c, 0x8b, 0x3d,
    0xda, 0x2a, 0xcb, 0x3d, 0xd8, 0x06, 0x6f, 0x3e, 0x6e, 0x78, 0xcd, 0xbd,
    0x1f, 0xe9, 0x38, 0xba, 0x89, 0xb8, 0xac, 0x3d, 0xe9, 0x0f, 0x82, 0x3e,
    0x33, 0x81, 0xf8, 0xbd, 0xd4, 0x5e, 0xa7, 0x3d, 0x3f, 0xc0, 0x8a, 0x3d,
    0x7e, 0x30, 0x9b, 0xbd, 0xbc, 0x58, 0xe7, 0xbd, 0xe2, 0x0f, 0xde, 0xbd,
    0x2d, 0x57, 0x01, 0xbe, 0x90, 0xbf, 0x7c, 0x3e, 0x0a, 0xfa, 0x0b, 0x3e,
    0x50, 0x5f, 0x10, 0xbe, 0xc3, 0x7d, 0xda, 0xbd, 0xfb, 0x5c, 0x6e, 0x3d,
    0x9e, 0x4b, 0xee, 0x3b, 0x08, 0xb3, 0x07, 0xbe, 0x4f, 0xbe, 0x65, 0xbe,
    0xe8, 0xd4, 0xc8, 0xbc, 0x35, 0x35, 0xa2, 0xbe, 0xfc, 0xec, 0x98, 0xbd,
    0xf2, 0x78, 0x1f, 0xbe, 0xd2, 0x81, 0x51, 0x3d, 0x97, 0x7d, 0xb7, 0x3d,
    0x2c, 0x19, 0x75, 0x3d, 0xf0, 0xb7, 0x94, 0xbb, 0x57, 0x98, 0x29, 0x3e,
    0x70, 0x94, 0x56, 0x3e, 0x1a, 0x21, 0xf9, 0xbd, 0x58, 0x88, 0x29, 0xbe,
    0x3f, 0xd1, 0x71, 0x3c, 0xb0, 0xfd, 0x0e, 0xbe, 0x4b, 0x1c, 0x91, 0x3e,
    0x3a, 0x41, 0x05, 0xbe, 0xff, 0x06, 0xaa, 0xbc, 0x0c, 0xb8, 0x0c, 0xbe,
    0x98, 0xdd, 0x17, 0x3d, 0x69, 0xf6, 0x6f, 0xbe, 0xcb, 0xa3, 0x3f, 0x3e,
    0xb0, 0x5d, 0x8f, 0x3e, 0x29, 0xc0, 0x0f, 0x3e, 0xab, 0x51, 0xe3, 0x3c,
    0x29, 0x36, 0x5f, 0x3c, 0x43, 0x05, 0x82, 0x3e, 0x9d, 0xfb, 0xbe, 0x3d,
    0xda, 0x92, 0xe3, 0xbd, 0xba, 0x24, 0x22, 0x3d, 0xd1, 0x5c, 0x4f, 0xbe,
    0x0b, 0xa8, 0x86, 0x3e, 0x48, 0x16, 0x08, 0xbd, 0x02, 0xf0, 0x9c, 0x3e,
    0x71, 0x0b, 0x58, 0x3e, 0x39, 0x66, 0x09, 0xbe, 0xe7, 0xd3, 0x7c, 0xbe,
    0x49, 0xe6, 0x5a, 0x3e, 0xe8, 0x7a, 0x79, 0xbd, 0xed, 0xd7, 0xf2, 0x3d,
    0xe9, 0x8a, 0x5a, 0x3d, 0x21, 0x88, 0x19, 0xbe, 0x92, 0xc1, 0xe0, 0xbd,
    0x78, 0x9e, 0x54, 0xbe, 0xca, 0xd4, 0xac, 0x3c, 0x29, 0x83, 0xa5, 0xbd,
    0xc3, 0x85, 0xbd, 0x3d, 0x97, 0x51, 0xb3, 0xbe, 0xc4, 0xaf, 0x6b, 0xbe,
    0x92, 0x3b, 0xc1, 0x3e, 0xb6, 0xec, 0x0b, 0x3d, 0x25, 0x1a, 0x90, 0x3e,
    0xda, 0x0d, 0x25, 0xbe, 0x2e, 0x94, 0x1e, 0x3e, 0x31, 0x59, 0xaa, 0xbc,
    0x81, 0x0d, 0xa9, 0xbd, 0x07, 0x18, 0x67, 0x3c, 0xbb, 0xee, 0xb7, 0x3c,
    0x75, 0xc0, 0x8d, 0xbe, 0xd4, 0x84, 0x1a, 0x3e, 0x12, 0xa9, 0x99, 0xbd,
    0xf6, 0x49, 0xfa, 0x3d, 0x13, 0xba, 0xc5, 0x3d, 0x46, 0xb3, 0xcd, 0xbb,
    0xc4, 0xf2, 0x56, 0xbe, 0x4a, 0x0d, 0x1b, 0x3e, 0xeb, 0xc5, 0xad, 0x3c,
    0x01, 0xa1, 0xa3, 0xbe, 0x8f, 0x72, 0x77, 0xbe, 0xe5, 0x00, 0x76, 0x3e,
    0x52, 0x22, 0x3c, 0x3e, 0x6f, 0xb6, 0x94, 0x3d, 0x81, 0x40, 0x93, 0x3c,
    0x74, 0xc2, 0x89, 0x3e, 0x9f, 0x47, 0x61, 0xbe, 0xe8, 0x51, 0xbd, 0x3e,
    0xaf, 0xfb, 0x9e, 0x3d, 0x1e, 0xf7, 0xd4, 0x3d, 0x61, 0xb0, 0x14, 0x3e,
    0xe6, 0xcd, 0xaa, 0x3e, 0x06, 0xd7, 0x4f, 0x3e, 0x07, 0x77, 0x8a, 0xbd,
    0x12, 0xb5, 0x52, 0x3e, 0x07, 0x79, 0x82, 0x3d, 0xaf, 0xd6, 0x12, 0xbe,
    0xba, 0x9c, 0xfd, 0x3d, 0xe8, 0x6f, 0xd4, 0xbd, 0x91, 0x94, 0xbd, 0x3e,
    0x98, 0x7d, 0xde, 0xb9, 0x5d, 0x9e, 0xb7, 0x3e, 0xd7, 0x9c, 0xf5, 0x3d,
    0x18, 0x9b, 0x88, 0xbe, 0xdd, 0xcc, 0x39, 0xbe, 0x8b, 0x83, 0x26, 0xbe,
    0x45, 0x5f, 0x63, 0x3e, 0x3e, 0xe3, 0x85, 0xbd, 0xfb, 0x8a, 0xb4, 0x3d,
    0xab, 0x30, 0x3e, 0x3f, 0xb1, 0x1a, 0x6e, 0xbb, 0xf7, 0x62, 0xa0, 0x3e,
    0x98, 0x2a, 0x19, 0x3e, 0x61, 0xbd, 0xec, 0xbd, 0x97, 0xcf, 0x82, 0xbe,
    0x69, 0x2b, 0x39, 0xbe, 0xe7, 0x9c, 0x0d, 0xbe, 0xdb, 0x10, 0xa5, 0x3d,
    0x8a, 0x42, 0xf0, 0x3a, 0x54, 0x8d, 0x9d, 0xbd, 0x3a, 0xe6, 0x2e, 0xbe,
    0x38, 0x46, 0xa2, 0x3d, 0x94, 0x9b, 0xa8, 0x3e, 0xba, 0x61, 0xce, 0x3d,
    0x36, 0x70, 0x01, 0x3e, 0x14, 0x14, 0x0e, 0xbf, 0xeb, 0x65, 0xa2, 0x3d,
    0xd2, 0x4c, 0x21, 0x3c, 0x3b, 0xb7, 0x3e, 0xbd, 0xf6, 0xaa, 0x68, 0xbe,
    0x1e, 0xcb, 0x8b, 0xbe, 0x7d, 0xad, 0x14, 0xbd, 0x2a, 0x29, 0x1c, 0x3e,
    0x6a, 0x44, 0x34, 0x3e, 0xa3, 0x14, 0x39, 0xbf, 0x0c, 0xf6, 0x1b, 0x3d,
    0xf3, 0xde, 0x56, 0x3e, 0x14, 0x05, 0xf8, 0x3c, 0x6f, 0x79, 0x2e, 0x3e,
    0xde, 0xfe, 0x14, 0xbe, 0x27, 0x5d, 0x94, 0xbc, 0xc2, 0x18, 0x10, 0xbe,
    0x25, 0xe1, 0x37, 0x3e, 0xa4, 0x5d, 0x14, 0x3e, 0x7e, 0x0f, 0xa3, 0xbe,
    0x05, 0x55, 0x44, 0x3e, 0x3c, 0x78, 0x4f, 0x3e, 0xb3, 0x7c, 0x85, 0x3d,
    0x47, 0xe1, 0x32, 0x3e, 0xfd, 0x9f, 0x44, 0xbe, 0x7b, 0xc5, 0x0c, 0xbe,
    0x66, 0x7e, 0x09, 0x3e, 0x2c, 0xed, 0x57, 0x3e, 0x51, 0xda, 0x13, 0x3d,
    0xf4, 0xb3, 0x0e, 0x3e, 0x7b, 0x7a, 0xe1, 0x3d, 0xb8, 0x75, 0x22, 0xbe,
    0xa2, 0x14, 0x89, 0xbe, 0x41, 0x79, 0xd2, 0xbd, 0x2c, 0xe8, 0x3b, 0xbc,
    0x4c, 0xf4, 0xc2, 0xbc, 0x50, 0x6e, 0xf2, 0x3c, 0xb4, 0x8a, 0xf0, 0x3d,
    0x57, 0xce, 0x8d, 0xbd, 0x5e, 0xe2, 0x35, 0x3e, 0x3d, 0x21, 0x33, 0xbe,
    0x33, 0x9c, 0x26, 0x3e, 0x56, 0x57, 0x96, 0x3e, 0x61, 0x5f, 0xa4, 0x3e,
    0xff, 0xae, 0x58, 0xbc, 0x62, 0x1d, 0xbd, 0x3c, 0xc9, 0xd2, 0x5a, 0xbe,
    0x88, 0x77, 0x10, 0x3e, 0x71, 0xf8, 0x27, 0xbd, 0x7b, 0x3f, 0x57, 0x3e,
    0xa1, 0x7f, 0x33, 0x3e, 0xd4, 0x7e, 0x4b, 0xbd, 0x9e, 0xe8, 0x9f, 0xbd,
    0x51, 0xc3, 0x15, 0xbe, 0x6d, 0xe5, 0xae, 0xbd, 0x93, 0xb6, 0x5a, 0x3d,
    0x89, 0xf0, 0x4e, 0xbd, 0xf7, 0x78, 0x41, 0x3e, 0x9d, 0x7a, 0x43, 0x3e,
    0x79, 0xb9, 0x88, 0x3e, 0x44, 0xe6, 0x8c, 0xbd, 0x3f, 0x09, 0x13, 0xbe,
    0x98, 0xff, 0x42, 0xbe, 0x41, 0xe3, 0x02, 0xbe, 0x31, 0xb3, 0xf7, 0x3b,
    0x55, 0x09, 0xec, 0xbc, 0x7f, 0x7a, 0x86, 0x3e, 0xbb, 0x91, 0x52, 0xbe,
    0x07, 0xc1, 0xbd, 0x3d, 0x0e, 0x32, 0x80, 0xbc, 0xd8, 0x6c, 0xfa, 0x3b,
    0x64, 0x55, 0x77, 0xbc, 0xae, 0x74, 0x41, 0x3d, 0xeb, 0x1f, 0x23, 0xbd,
    0x03, 0x7a, 0x81, 0x3e, 0x70, 0x18, 0x6b, 0x3e, 0x85, 0x6f, 0x8a, 0xbc,
    0x02, 0x6b, 0x2c, 0x3e, 0x47, 0x60, 0x22, 0x3e, 0xa4, 0x84, 0x83, 0x3d,
    0xd4, 0x74, 0xe7, 0x3d, 0xfd, 0x50, 0x88, 0x3e, 0xbb, 0x9c, 0x2a, 0x3e,
    0x58, 0xcc, 0x82, 0xbe, 0x60, 0xd4, 0xa1, 0x3c, 0x1f, 0x18, 0xfc, 0x3d,
    0x04, 0xc8, 0x4b, 0xbe, 0x8f, 0xbe, 0x53, 0x3e, 0xcf, 0xbd, 0xe3, 0xbc,
    0x9f, 0x2b, 0x98, 0xbe, 0x59, 0x55, 0x95, 0xbd, 0x3f, 0x16, 0x97, 0x3e,
    0x08, 0x86, 0xfc, 0x3d, 0xed, 0xab, 0xe1, 0x3c, 0x27, 0x9c, 0xb2, 0x3d,
    0x9a, 0x75, 0x3b, 0xbe, 0xb1, 0x27, 0x82, 0xbe, 0x04, 0x6c, 0x99, 0x3e,
    0x5e, 0xf1, 0x60, 0x3d, 0x27, 0x4d, 0x08, 0xbe, 0xd1, 0x45, 0x51, 0x3e,
    0x0d, 0x50, 0xc4, 0xbd, 0x28, 0x20, 0xc2, 0xbe, 0x02, 0xc6, 0x92, 0x3e,
    0xe1, 0x3e, 0x9a, 0xbc, 0xee, 0xa8, 0x07, 0xbf, 0x7b, 0xf3, 0xc2, 0x3d,
    0x60, 0x54, 0x17, 0x3e, 0x22, 0xf9, 0x00, 0x3e, 0x6a, 0x02, 0xaa, 0xbb,
    0x21, 0x22, 0x83, 0xbe, 0xff, 0x52, 0x17, 0xbe, 0x11, 0x8e, 0xa8, 0x3d,
    0x0a, 0x06, 0x33, 0x3e, 0x44, 0x08, 0x32, 0xbe, 0x03, 0xd4, 0xd5, 0xbe,
    0xaf, 0x32, 0x33, 0x3e, 0x7e, 0xb3, 0x09, 0x3e, 0x13, 0x15, 0x15, 0x3e,
    0x2b, 0xe9, 0x4b, 0xbd, 0xe4, 0x11, 0x3a, 0x3e, 0xbe, 0xac, 0x83, 0x3d,
    0x92, 0xf9, 0x3e, 0xbe, 0xd8, 0xcc, 0x1c, 0xbf, 0x1d, 0x55, 0xa9, 0x3d,
    0x74, 0x72, 0xda, 0xbd, 0x87, 0x7f, 0x2a, 0xbe, 0xee, 0xbb, 0x3f, 0x3d,
    0x3c, 0x8c, 0x14, 0x3f, 0xde, 0x2d, 0xbb, 0xbd, 0x5f, 0x94, 0x34, 0xbe,
    0x48, 0xbc, 0xbd, 0xbd, 0x25, 0x89, 0x82, 0xbe, 0x26, 0x9b, 0xc4, 0xbe,
    0xbc, 0x61, 0xb5, 0x3c, 0xaf, 0x01, 0xa5, 0xbe, 0x81, 0x11, 0xc9, 0x3d,
    0x5a, 0x29, 0xb4, 0xbe, 0x3a, 0xee, 0x24, 0x3c, 0x6f, 0x1f, 0x35, 0x3e,
    0x1f, 0x2c, 0x47, 0x3d, 0x55, 0xf8, 0x51, 0x3e, 0x47, 0x62, 0xa8, 0x3e,
    0xe4, 0xab, 0x58, 0x3e, 0x23, 0xb9, 0x8d, 0xbd, 0x14, 0x74, 0x87, 0x3d,
    0x3c, 0x51, 0x02, 0xbd, 0x66, 0x1e, 0xdb, 0x3e, 0x0f, 0x95, 0xa3, 0xbe,
    0x8b, 0x46, 0x12, 0x3e, 0x6f, 0x8d, 0xea, 0x3d, 0xed, 0x0a, 0x12, 0xbe,
    0x3f, 0xa1, 0xd5, 0xbc, 0x6a, 0x8a, 0xdf, 0xbe, 0x68, 0x62, 0x3d, 0xbe,
    0x8b, 0x6e, 0x6b, 0x3b, 0x13, 0x08, 0xdf, 0xba, 0x2c, 0x22, 0x21, 0x3e,
    0xcb, 0xd2, 0xf5, 0x3c, 0xbc, 0xde, 0x36, 0x3e, 0xb0, 0xbf, 0x6c, 0x3d,
    0xb8, 0x93, 0xdd, 0x3d, 0x16, 0x4c, 0xad, 0x3e, 0x62, 0x26, 0xad, 0xbd,
    0x10, 0x98, 0x29, 0x3e, 0x06, 0x17, 0xf5, 0x3d, 0x78, 0x78, 0x6f, 0x3e,
    0x02, 0xd7, 0x0c, 0xbc, 0x3e, 0x11, 0x67, 0xbd, 0x77, 0x63, 0xda, 0xbc,
    0x67, 0x09, 0x73, 0xbe, 0xbd, 0xbd, 0x5d, 0x3e, 0x5f, 0xeb, 0x79, 0x3d,
    0x48, 0xe2, 0x9e, 0x3e, 0x25, 0x55, 0x46, 0xbe, 0x8b, 0xdc, 0xd8, 0x3d,
    0xc8, 0x9b, 0x1d, 0x3e, 0x0b, 0x83, 0x93, 0x3e, 0x26, 0xbd, 0xac, 0x3d,
    0xc6, 0xb5, 0xa4, 0xbe, 0x9a, 0xac, 0x89, 0x3e, 0x54, 0x07, 0x51, 0xbd,
    0x8d, 0x96, 0x63, 0xbd, 0x85, 0x82, 0x86, 0x3d, 0xae, 0x54, 0x93, 0xbe,
    0x51, 0x2e, 0xc5, 0xbc, 0x37, 0x25, 0x89, 0x3e, 0x01, 0x35, 0x82, 0xbd,
    0x05, 0x59, 0xe8, 0xbd, 0x5c, 0x70, 0x9b, 0x3d, 0xd2, 0x2a, 0x28, 0x3c,
    0x96, 0xaa, 0x18, 0x3e, 0x69, 0x1f, 0x7c, 0xbd, 0x69, 0x50, 0x70, 0xbe,
    0x7d, 0x23, 0x32, 0x3e, 0x5e, 0x0d, 0xcb, 0x3b, 0xbc, 0xc7, 0xb0, 0x3b,
    0xec, 0xff, 0xbd, 0xbe, 0xb3, 0xc1, 0xa3, 0x3d, 0xdd, 0x3c, 0x50, 0x3e,
    0x53, 0x86, 0x02, 0x3e, 0x10, 0xb9, 0x5c, 0xbe, 0x27, 0xa2, 0x59, 0x3e,
    0x30, 0x95, 0x99, 0xbd, 0x1f, 0x5a, 0x85, 0xbe, 0x36, 0x7f, 0x4f, 0xbd,
    0x0f, 0x9b, 0xf2, 0xbb, 0x4c, 0x5e, 0x77, 0xbe, 0xf9, 0xf6, 0xdc, 0x3d,
    0xa2, 0x58, 0xd4, 0xbe, 0x9a, 0x0f, 0x70, 0x3e, 0x20, 0x81, 0x18, 0xbc,
    0x26, 0xf9, 0xe5, 0x3b, 0x28, 0xaf, 0x87, 0xbe, 0x06, 0x24, 0x55, 0x3d,
    0x6c, 0xec, 0x2c, 0x3e, 0x0f, 0x2f, 0xab, 0x3d, 0x27, 0x3e, 0x6d, 0xbe,
    0x4f, 0x92, 0x32, 0xbd, 0x09, 0xa2, 0x88, 0x3e, 0xd8, 0xce, 0xc4, 0xbc,
    0x96, 0x14, 0x0d, 0x3e, 0x67, 0xd8, 0xf1, 0xbd, 0x66, 0x8b, 0x9d, 0xbb,
    0xb0, 0x6e, 0xbd, 0xbe, 0x6b, 0xb5, 0x44, 0xbe, 0xa9, 0x23, 0x18, 0xbd,
    0xf0, 0x9f, 0xf7, 0x3d, 0xd2, 0x91, 0x4d, 0xbe, 0xde, 0xfe, 0x8f, 0xbc,
    0x68, 0x8a, 0xed, 0x3d, 0x46, 0xb9, 0xcd, 0xbc, 0x22, 0xb8, 0x59, 0xbe,
    0xc9, 0x2d, 0x74, 0xbe, 0xed, 0xf8, 0xa0, 0xbd, 0xcb, 0xca, 0x4e, 0x3e,
    0xfa, 0x3a, 0x00, 0x3e, 0x7d, 0x51, 0x86, 0xbe, 0x08, 0x2a, 0xe8, 0x3d,
    0x07, 0xfa, 0x4e, 0x3d, 0x8a, 0xd1, 0x58, 0x3e, 0xca, 0x4b, 0x83, 0x3d,
    0x52, 0x88, 0x0c, 0xbe, 0x71, 0x77, 0x72, 0x3e, 0x4d, 0x8a, 0x69, 0xbe,
    0x7c, 0xcf, 0x75, 0xbe, 0x7b, 0xd0, 0x9e, 0x3c, 0xfa, 0xe7, 0xaf, 0x3d,
    0xdb, 0xde, 0x84, 0x3e, 0x21, 0xd9, 0xbe, 0x3e, 0x0f, 0xab, 0xbb, 0xbe,
    0x79, 0xb1, 0xa3, 0xbb, 0xdc, 0x88, 0x35, 0xbe, 0xcc, 0xcf, 0xac, 0x3d,
    0x88, 0x35, 0x9c, 0xbe, 0x9c, 0x4b, 0xff, 0x3d, 0x3a, 0x75, 0xb4, 0xbd,
    0xc5, 0x61, 0x72, 0xbe, 0xc3, 0x56, 0xb9, 0x3e, 0xbd, 0x0f, 0x34, 0x3c,
    0xd7, 0xfd, 0xb4, 0x3d, 0x87, 0xc9, 0x1a, 0xbe, 0x28, 0x2f, 0x30, 0xbe,
    0x2f, 0x02, 0xab, 0x3c, 0x52, 0x27, 0x1c, 0xbe, 0x3a, 0x4e, 0x97, 0x3c,
    0xf8, 0x93, 0x45, 0x3e, 0x04, 0xa0, 0x20, 0x3e, 0xf2, 0xe7, 0xb8, 0xbd,
    0xa3, 0x53, 0x96, 0x3c, 0x54, 0x35, 0x50, 0xbe, 0x99, 0x91, 0xaa, 0xbc,
    0x69, 0x72, 0x93, 0xbe, 0x51, 0xdb, 0xfc, 0x3c, 0x4b, 0x84, 0x2c, 0xbe,
    0x1c, 0x43, 0x9f, 0xbe, 0x63, 0xa3, 0xcf, 0x3d, 0x54, 0x3a, 0x0f, 0x3e,
    0x31, 0xb8, 0x38, 0x3e, 0x44, 0x76, 0x02, 0x3e, 0x71, 0x5e, 0x37, 0x3d,
    0x99, 0x8e, 0xc1, 0x3e, 0x6f, 0x7e, 0x20, 0xbd, 0x0e, 0x9d, 0x62, 0x3e,
    0xae, 0xad, 0x59, 0xbe, 0xc7, 0x2d, 0x1a, 0xbe, 0x0a, 0x87, 0x2c, 0x3e,
    0x9f, 0x7a, 0x0a, 0xbe, 0x6b, 0x9a, 0x04, 0x3c, 0x8b, 0x4e, 0x3e, 0xbe,
    0x0c, 0xb8, 0xe1, 0xbd, 0xa1, 0x99, 0x99, 0xbe, 0x0e, 0xb5, 0xab, 0x3d,
    0xe0, 0x16, 0x07, 0x3d, 0xef, 0x83, 0xb3, 0x3e, 0xc9, 0x92, 0x31, 0xbc,
    0x65, 0x09, 0x36, 0x3e, 0x54, 0x51, 0xd3, 0x3e, 0x45, 0x03, 0xac, 0x3d,
    0x32, 0xcd, 0x79, 0xbe, 0xa8, 0xb7, 0x54, 0x3e, 0x40, 0xd2, 0xc2, 0x3c,
    0x92, 0xc2, 0x6b, 0xbb, 0x53, 0xfc, 0x26, 0x3e, 0x97, 0x41, 0x85, 0x3e,
    0x39, 0x6a, 0xa0, 0xbe, 0x3f, 0xb5, 0x6c, 0xbe, 0xeb, 0xde, 0xc7, 0x3d,
    0x0f, 0x53, 0xc5, 0x3d, 0x64, 0x8b, 0xb1, 0x3e, 0x9f, 0xc2, 0xbf, 0xbe,
    0x37, 0xe5, 0xc2, 0xbd, 0x30, 0x11, 0xc7, 0x3d, 0x70, 0xe4, 0x98, 0x3d,
    0x9a, 0xee, 0x72, 0x3e, 0xed, 0xa6, 0x1f, 0x3e, 0x07, 0x66, 0xeb, 0xbd,
    0x76, 0x44, 0x06, 0xbe, 0x91, 0x10, 0xad, 0x3c, 0xdb, 0xe9, 0x5c, 0x3d,
    0xe2, 0xfb, 0x93, 0xbe, 0x83, 0x72, 0x84, 0xbe, 0xc9, 0xb7, 0x91, 0xbe,
    0x34, 0x54, 0x73, 0x3d, 0xd8, 0x89, 0x35, 0x3d, 0x07, 0x5c, 0x5f, 0x3e,
    0x2e, 0x30, 0x1f, 0x3c, 0x79, 0x3c, 0x4c, 0xbd, 0xa7, 0x7a, 0x02, 0x3e,
    0x02, 0x1f, 0x5c, 0x3e, 0x8e, 0x0b, 0x16, 0xbe, 0xbc, 0xac, 0x15, 0x3e,
    0x99, 0x2e, 0x71, 0xbe, 0x7f, 0x04, 0x92, 0xbe, 0xe3, 0x2b, 0x53, 0xbe,
    0x0a, 0xb9, 0x9a, 0xbe, 0x2c, 0x9f, 0x2f, 0x3e, 0xcb, 0x66, 0xbb, 0xbe,
    0xa8, 0x34, 0x0b, 0xbe, 0xcb, 0xce, 0xa2, 0x3d, 0x12, 0x2d, 0x33, 0x3e,
    0xb0, 0x4d, 0x9e, 0xbe, 0xbb, 0x25, 0x8d, 0xbe, 0x5c, 0x3c, 0xdc, 0x3d,
    0x03, 0x07, 0xbb, 0xbe, 0x75, 0x28, 0x3e, 0xbe, 0xbf, 0xc8, 0x28, 0xbd,
    0xe9, 0x30, 0x8b, 0xbe, 0xcb, 0x2d, 0xb4, 0xbc, 0x8b, 0x24, 0x45, 0x3d,
    0x97, 0x09, 0x1e, 0xbe, 0x9d, 0x3c, 0xa8, 0xbe, 0xe0, 0x0a, 0x87, 0xbe,
    0xe5, 0x82, 0xa5, 0x3c, 0x4d, 0x0a, 0x2c, 0xbe, 0x90, 0x91, 0x2b, 0x3e,
    0x56, 0x5e, 0x8c, 0x3d, 0x28, 0x9d, 0x55, 0x3e, 0x18, 0x45, 0x26, 0x3e,
    0xae, 0xd8, 0x15, 0xbc, 0xe2, 0x91, 0xcd, 0x3b, 0xaf, 0xef, 0x82, 0xbd,
    0xee, 0x3a, 0xa3, 0x3d, 0x66, 0x6b, 0x17, 0x3d, 0xa2, 0x26, 0xc7, 0x3e,
    0xe2, 0x8e, 0x6b, 0x3d, 0x48, 0x21, 0x09, 0xbe, 0x76, 0xf4, 0x1c, 0x3d,
    0xfa, 0x71, 0x7f, 0xbd, 0x86, 0xc6, 0x59, 0x3e, 0x24, 0xd9, 0x08, 0x3e,
    0x8f, 0x13, 0x9d, 0x3d, 0xd0, 0x7f, 0xc3, 0x3e, 0xe9, 0x90, 0xc9, 0x3e,
    0xbb, 0xc1, 0xf5, 0x3d, 0x99, 0xa1, 0x18, 0x3d, 0x4d, 0x1a, 0x14, 0x3d,
    0xaf, 0x43, 0x0f, 0xbe, 0x43, 0x7c, 0xaf, 0x3d, 0x06, 0xc8, 0x74, 0x3e,
    0x92, 0x65, 0xf8, 0xbd, 0x6a, 0xd0, 0x0f, 0xbd, 0x6c, 0x08, 0x7e, 0x3d,
    0x46, 0xed, 0x7a, 0xbd, 0xc8, 0xf0, 0xed, 0x3e, 0xf1, 0x46, 0xd7, 0x3d,
    0xda, 0x08, 0x0d, 0xbe, 0x16, 0x37, 0xe7, 0xbe, 0x4e, 0x62, 0xf5, 0xbd,
    0x20, 0xe7, 0x95, 0x3d, 0xe3, 0x02, 0x84, 0xbe, 0xa8, 0x9a, 0x7c, 0x3d,
    0x57, 0x30, 0xa8, 0xbe, 0xfe, 0xb1, 0x3f, 0xbe, 0xde, 0x90, 0x77, 0xbd,
    0xd8, 0xed, 0xd0, 0xbe, 0xb1, 0x2f, 0x1e, 0xbd, 0xcb, 0x8e, 0x4b, 0x3e,
    0xba, 0xd5, 0x17, 0xbe, 0x9e, 0x0f, 0x89, 0xbe, 0x2a, 0xa4, 0x02, 0x3e,
    0x8e, 0x8b, 0x07, 0x3d, 0x2d, 0x5b, 0x0c, 0xbe, 0x62, 0x18, 0x2e, 0x3d,
    0x41, 0x35, 0xd1, 0x3d, 0x67, 0x1b, 0xd5, 0x3d, 0x97, 0xe2, 0x5e, 0xbe,
    0x6a, 0x19, 0x61, 0xbe, 0x21, 0xfe, 0xea, 0x3d, 0xbd, 0x88, 0x09, 0xbd,
    0x92, 0xa9, 0x52, 0x3e, 0x15, 0x23, 0x85, 0x3d, 0xfd, 0x4b, 0x75, 0xbe,
    0x16, 0xd8, 0xc1, 0xbc, 0xa9, 0x52, 0x76, 0x3d, 0xfa, 0xb9, 0xd9, 0xbd,
    0xd8, 0x33, 0x65, 0x3e, 0xcf, 0xb9, 0x1c, 0x3e, 0x82, 0xe3, 0x8a, 0xbd,
    0xc6, 0xc1, 0x1e, 0x3e, 0x2a, 0x87, 0x50, 0xbd, 0xe7, 0x2b, 0xff, 0x3d,
    0xa5, 0x8d, 0x32, 0xbe, 0x1d, 0x14, 0xc3, 0x3d, 0xc0, 0x4b, 0x0b, 0xbe,
    0x78, 0x0e, 0x4d, 0xbe, 0x32, 0x4e, 0xcb, 0xbd, 0x54, 0x22, 0xe5, 0xbd,
    0xa3, 0x4e, 0xf5, 0xbd, 0x9a, 0xe7, 0xb8, 0xbd, 0x39, 0x4a, 0x84, 0x3e,
    0x55, 0xa8, 0x5e, 0xbd, 0xea, 0x11, 0xe9, 0x3d, 0x19, 0x7a, 0xa3, 0x3d,
    0x07, 0x82, 0x38, 0xbc, 0xf2, 0xeb, 0xe0, 0xbb, 0x73, 0xea, 0x3e, 0x3e,
    0x6c, 0x2a, 0x56, 0x3e, 0x4e, 0x7d, 0x1a, 0x3e, 0x81, 0x43, 0x41, 0x3d,
    0x98, 0x84, 0x80, 0xbd, 0x9d, 0x16, 0xc8, 0x3c, 0x7e, 0x68, 0x99, 0x3e,
    0xb6, 0xea, 0xdd, 0xbd, 0x05, 0x43, 0xde, 0x3d, 0x6e, 0xc9, 0xdf, 0xbd,
    0x10, 0x22, 0x27, 0xbd, 0xc5, 0x65, 0x92, 0x3e, 0x0d, 0x52, 0x40, 0xbe,
    0x5e, 0x2a, 0xdc, 0xbb, 0x80, 0x74, 0x03, 0x3e, 0xb3, 0x6a, 0xe7, 0x3e,
    0xe8, 0xf3, 0x0c, 0xbe, 0xdf, 0x06, 0x55, 0xbd, 0x8b, 0xc6, 0x5c, 0x3e,
    0x1f, 0x2c, 0x44, 0xbe, 0x19, 0x1d, 0xbd, 0x3b, 0x86, 0x4d, 0xe4, 0x3e,
    0x4c, 0x7b, 0xd4, 0xbc, 0xc2, 0x50, 0x8a, 0xbe, 0x9a, 0xa2, 0x73, 0x3e,
    0x0c, 0xdf, 0x35, 0xbe, 0xd0, 0x2e, 0xff, 0x3d, 0x87, 0x7c, 0xf8, 0x3d,
    0x83, 0xff, 0x2c, 0xbe, 0x39, 0xee, 0xd4, 0xbd, 0x3d, 0x24, 0x8d, 0x3e,
    0x7f, 0xef, 0x51, 0x3e, 0x52, 0x46, 0x0e, 0xbe, 0x34, 0xb9, 0x5b, 0xbe,
    0x9e, 0x05, 0x60, 0x3d, 0x97, 0xa9, 0x30, 0xbe, 0x9d, 0xd4, 0x9b, 0x3e,
    0x23, 0x22, 0xa6, 0x3e, 0x4b, 0x60, 0x86, 0xbe, 0x78, 0xf3, 0xd3, 0x3c,
    0xbe, 0x88, 0xf4, 0xba, 0x09, 0x68, 0x22, 0xbe, 0xea, 0xaa, 0xe3, 0xbd,
    0x6d, 0xc2, 0x4e, 0x3e, 0x21, 0x21, 0xf8, 0x3d, 0x03, 0x81, 0xb2, 0xbe,
    0x0a, 0xf9, 0xed, 0xbd, 0xe2, 0x9c, 0x94, 0xbd, 0xcd, 0x61, 0x90, 0xbe,
    0x87, 0xf2, 0x1d, 0xbc, 0xd2, 0x6e, 0xee, 0x3d, 0x8f, 0x7a, 0x83, 0xbe,
    0xa2, 0xfd, 0x02, 0x3e, 0x67, 0x60, 0x0b, 0x3e, 0xeb, 0xa9, 0xd2, 0xbd,
    0x83, 0x23, 0x2f, 0x3e, 0xb4, 0xc7, 0xb7, 0xbd, 0xcb, 0x70, 0x0a, 0xbe,
    0x13, 0x41, 0x06, 0xbe, 0x12, 0xff, 0x94, 0x3e, 0x62, 0x09, 0x4a, 0x3e,
    0xc6, 0x09, 0x83, 0xbd, 0x62, 0x97, 0xf8, 0xbd, 0xf8, 0xfc, 0xaf, 0xbe,
    0xba, 0xe3, 0x0b, 0xbe, 0xac, 0x03, 0xbb, 0x3d, 0xf8, 0x87, 0x19, 0xbe,
    0x3a, 0x57, 0x2d, 0xbe, 0xec, 0x2d, 0x98, 0x3d, 0x6c, 0xe8, 0xc9, 0x3d,
    0x1f, 0x24, 0x81, 0x3e, 0x9a, 0x04, 0xfd, 0x3d, 0xe6, 0x35, 0x8d, 0xbd,
    0x97, 0x9c, 0x94, 0xbe, 0x48, 0x63, 0x34, 0x3e, 0xf8, 0xcd, 0xef, 0xbd,
    0xaf, 0x48, 0xa6, 0x3d, 0x26, 0x5f, 0x80, 0xbd, 0x37, 0xf5, 0x1d, 0xbe,
    0xba, 0x37, 0x55, 0x3e, 0x5a, 0x57, 0x23, 0x3e, 0xf2, 0x19, 0x4d, 0x3e,
    0xb3, 0x44, 0x99, 0x3e, 0xba, 0xe1, 0xc9, 0xbc, 0x86, 0xfe, 0x70, 0x3e,
    0xf6, 0x12, 0xeb, 0x3e, 0xdf, 0x16, 0x96, 0xbd, 0xc6, 0x78, 0x66, 0x3e,
    0x6c, 0xe9, 0x35, 0x3e, 0x49, 0xd0, 0xb6, 0xbe, 0xb3, 0xf8, 0x84, 0x3e,
    0x29, 0x01, 0x00, 0x3e, 0x99, 0xea, 0x2e, 0x3e, 0xb1, 0xab, 0x85, 0x3c,
    0x69, 0x2a, 0x21, 0xbe, 0x84, 0x90, 0x09, 0xbe, 0x1d, 0x13, 0xa0, 0xbc,
    0xb0, 0x4e, 0xda, 0x3d, 0xcd, 0x62, 0x75, 0x3e, 0x32, 0x7a, 0x5f, 0xbe,
    0xc8, 0xe5, 0xc3, 0xbd, 0x85, 0x49, 0x6d, 0x3e, 0xbc, 0x15, 0xfe, 0xbd,
    0x6e, 0x70, 0x24, 0x3e, 0xe9, 0x40, 0x83, 0x3d, 0x25, 0x71, 0x78, 0x3e,
    0x21, 0x2d, 0xe8, 0x3d, 0x44, 0x26, 0x52, 0x3e, 0xe4, 0x8e, 0x18, 0x3e,
    0xa0, 0xe3, 0x91, 0xbe, 0x69, 0x45, 0x27, 0x3e, 0x0d, 0x57, 0x03, 0xbe,
    0xc7, 0x50, 0x8f, 0xbd, 0xce, 0xd1, 0x6a, 0xbe, 0x48, 0xeb, 0x09, 0xbe,
    0x0c, 0xde, 0x68, 0xbd, 0x30, 0x57, 0x1d, 0x3e, 0x23, 0x01, 0xe2, 0x3e,
    0xe2, 0xf9, 0x4f, 0x3c, 0x69, 0x16, 0x5f, 0x3e, 0xc1, 0xe5, 0x2c, 0x3e,
    0x07, 0xfe, 0xbb, 0xbe, 0x05, 0xd7, 0x31, 0x3e, 0x5a, 0x25, 0x6d, 0xbe,
    0x07, 0x1d, 0x7f, 0xbd, 0x7e, 0x1c, 0x47, 0x3e, 0x06, 0xe1, 0xb6, 0x3c,
    0x36, 0x73, 0x22, 0x3e, 0x20, 0x7d, 0x09, 0x3e, 0x69, 0xe9, 0x25, 0xbd,
    0xdc, 0x8f, 0xc3, 0x3d, 0xb9, 0x81, 0x00, 0xbd, 0xf8, 0x0f, 0x37, 0x3c,
    0x41, 0x7e, 0xde, 0x3e, 0xee, 0xa4, 0x0e, 0x3e, 0x0d, 0x53, 0x7c, 0x3e,
    0x47, 0xdc, 0x29, 0xbe, 0x9e, 0xde, 0x58, 0xbd, 0xd6, 0x27, 0x39, 0xbd,
    0xc8, 0x4d, 0x82, 0xbe, 0x75, 0xa8, 0xe2, 0xbd, 0x28, 0x4a, 0x8f, 0xbe,
    0x29, 0x4b, 0xc2, 0xbd, 0x76, 0x6d, 0xa9, 0x3c, 0xbf, 0x39, 0x52, 0xbe,
    0x9f, 0x9c, 0xe1, 0xbd, 0x2f, 0x55, 0x9e, 0x3e, 0x30, 0x0b, 0x35, 0x3e,
    0xab, 0x12, 0x27, 0x3e, 0xef, 0x73, 0x04, 0x3f, 0xf4, 0x04, 0x95, 0xbd,
    0xdb, 0x15, 0x97, 0x3e, 0x68, 0x0c, 0x65, 0x3d, 0xde, 0x6f, 0x35, 0xbe,
    0xcf, 0xb1, 0x0b, 0x3e, 0x2e, 0x15, 0x00, 0xbd, 0xad, 0xab, 0x89, 0xbe,
    0x12, 0xfe, 0xff, 0xff, 0x04, 0x00, 0x00, 0x00, 0x0c, 0x00, 0x00, 0x00,
    0x01, 0x00, 0x00, 0x00, 0x06, 0x00, 0x00, 0x00, 0x10, 0x00, 0x00, 0x00,
    0x2a, 0xfe, 0xff, 0xff, 0x04, 0x00, 0x00, 0x00, 0x10, 0x00, 0x00, 0x00,
    0x1e, 0x82, 0x21, 0x3e, 0xda, 0x8a, 0xdd, 0xbe, 0xe7, 0x04, 0x20, 0x3e,
    0xb7, 0x2b, 0x4d, 0x3d, 0x46, 0xfe, 0xff, 0xff, 0x04, 0x00, 0x00, 0x00,
    0x40, 0x00, 0x00, 0x00, 0x12, 0x12, 0xba, 0xbd, 0xfe, 0xf9, 0x5c, 0xbe,
    0xf7, 0xc2, 0x7c, 0x3e, 0xdb, 0x39, 0x01, 0xbe, 0x9a, 0xeb, 0x81, 0x3e,
    0x66, 0x84, 0xea, 0x3e, 0x21, 0x7c, 0x39, 0xbe, 0x82, 0xeb, 0xf1, 0x3e,
    0xc0, 0xe3, 0x76, 0x3e, 0x4f, 0x6f, 0xb2, 0xbe, 0xeb, 0x64, 0xdb, 0xbe,
    0x04, 0xf5, 0xe2, 0x3d, 0x4d, 0x1e, 0xa4, 0x3d, 0x1d, 0x79, 0x96, 0x3e,
    0x1e, 0x74, 0xc6, 0x3e, 0x41, 0x4c, 0x00, 0x3f, 0x92, 0xfe, 0xff, 0xff,
    0x04, 0x00, 0x00, 0x00, 0x40, 0x00, 0x00, 0x00, 0x6d, 0x84, 0xa7, 0x3e,
    0xe4, 0xd5, 0x8c, 0x3e, 0x39, 0xab, 0x38, 0x3e, 0x76, 0xf4, 0xfc, 0x3e,
    0xe1, 0xa0, 0xa6, 0xbe, 0x89, 0x26, 0x3d, 0xbe, 0x8d, 0xf6, 0x4a, 0x3d,
    0x31, 0xc6, 0x6c, 0xbe, 0x8b, 0x38, 0xee, 0x3e, 0x75, 0xa2, 0x7c, 0x3e,
    0xb6, 0xee, 0x70, 0x3d, 0x12, 0xbc, 0x43, 0xbe, 0x1f, 0x3e, 0x26, 0xbd,
    0x4b, 0x60, 0x67, 0x3e, 0xa9, 0x9b, 0x39, 0x3e, 0x3f, 0xf7, 0xb1, 0xbe,
    0xde, 0xfe, 0xff, 0xff, 0x04, 0x00, 0x00, 0x00, 0x80, 0x00, 0x00, 0x00,
    0x2a, 0x30, 0xea, 0x3d, 0xb3, 0x1c, 0xc6, 0x3c, 0x4f, 0x53, 0xae, 0x3e,
    0xb4, 0x8c, 0x14, 0xbe, 0x67, 0xf2, 0x68, 0x3e, 0xb9, 0xc2, 0xad, 0xbe,
    0xaa, 0xc6, 0x77, 0x3e, 0xe2, 0x50, 0xa4, 0xbe, 0x4d, 0x01, 0xea, 0xbc,
    0x14, 0x15, 0x3b, 0xbc, 0x1b, 0xcf, 0x09, 0xbc, 0x8e, 0xf4, 0xae, 0xbd,
    0x0e, 0x46, 0x9d, 0xbd, 0x6d, 0x95, 0x41, 0xbe, 0x74, 0xf9, 0x85, 0x3e,
    0x8c, 0x87, 0xae, 0xbe, 0x93, 0xd5, 0x24, 0xbe, 0x3a, 0xad, 0xce, 0xbd,
    0xea, 0x0e, 0xe6, 0xbd, 0x78, 0xa7, 0x74, 0x3b, 0x19, 0x04, 0x7e, 0xbe,
    0x1e, 0x1f, 0xfe, 0x3d, 0xf4, 0x0f, 0xbb, 0xbd, 0x1c, 0xe3, 0x4b, 0xbe,
    0x18, 0x75, 0xe2, 0xbd, 0xb4, 0xd9, 0x65, 0x3e, 0x42, 0x5d, 0x55, 0x3e,
    0x64, 0xd3, 0xf5, 0x3d, 0x31, 0xf7, 0xb3, 0x3e, 0x19, 0x9c, 0x5b, 0xbe,
    0x10, 0x2a, 0xb2, 0x3e, 0x61, 0x56, 0xb1, 0x3e, 0xb0, 0xf5, 0xff, 0xff,
    0xb4, 0xf5, 0xff, 0xff, 0x0f, 0x00, 0x00, 0x00, 0x4d, 0x4c, 0x49, 0x52,
    0x20, 0x43, 0x6f, 0x6e, 0x76, 0x65, 0x72, 0x74, 0x65, 0x64, 0x2e, 0x00,
    0x01, 0x00, 0x00, 0x00, 0x14, 0x00, 0x00, 0x00, 0x00, 0x00, 0x0e, 0x00,
    0x18, 0x00, 0x14, 0x00, 0x10, 0x00, 0x0c, 0x00, 0x08, 0x00, 0x04, 0x00,
    0x0e, 0x00, 0x00, 0x00, 0x14, 0x00, 0x00, 0x00, 0x1c, 0x00, 0x00, 0x00,
    0x18, 0x02, 0x00, 0x00, 0x1c, 0x02, 0x00, 0x00, 0x20, 0x02, 0x00, 0x00,
    0x04, 0x00, 0x00, 0x00, 0x6d, 0x61, 0x69, 0x6e, 0x00, 0x00, 0x00, 0x00,
    0x08, 0x00, 0x00, 0x00, 0xdc, 0x01, 0x00, 0x00, 0x7c, 0x01, 0x00, 0x00,
    0x24, 0x01, 0x00, 0x00, 0x00, 0x01, 0x00, 0x00, 0xcc, 0x00, 0x00, 0x00,
    0x88, 0x00, 0x00, 0x00, 0x40, 0x00, 0x00, 0x00, 0x04, 0x00, 0x00, 0x00,
    0x92, 0xff, 0xff, 0xff, 0x1c, 0x00, 0x00, 0x00, 0x00, 0x00, 0x00, 0x09,
    0x1c, 0x00, 0x00, 0x00, 0x20, 0x00, 0x00, 0x00, 0x04, 0x00, 0x00, 0x00,
    0x00, 0x00, 0x06, 0x00, 0x08, 0x00, 0x04, 0x00, 0x06, 0x00, 0x00, 0x00,
    0x00, 0x00, 0x80, 0x3f, 0x01, 0x00, 0x00, 0x00, 0x13, 0x00, 0x00, 0x00,
    0x01, 0x00, 0x00, 0x00, 0x12, 0x00, 0x00, 0x00, 0xe6, 0xfe, 0xff, 0xff,
    0x14, 0x00, 0x00, 0x00, 0x00, 0x00, 0x00, 0x08, 0x10, 0x00, 0x00, 0x00,
    0x14, 0x00, 0x00, 0x00, 0x03, 0x00, 0x00, 0x00, 0x7c, 0xf6, 0xff, 0xff,
    0x01, 0x00, 0x00, 0x00, 0x12, 0x00, 0x00, 0x00, 0x03, 0x00, 0x00, 0x00,
    0x11, 0x00, 0x00, 0x00, 0x08, 0x00, 0x00, 0x00, 0x04, 0x00, 0x00, 0x00,
    0x00, 0x00, 0x0e, 0x00, 0x1a, 0x00, 0x14, 0x00, 0x10, 0x00, 0x0c, 0x00,
    0x0b, 0x00, 0x04, 0x00, 0x0e, 0x00, 0x00, 0x00, 0x1c, 0x00, 0x00, 0x00,
    0x00, 0x00, 0x00, 0x08, 0x1c, 0x00, 0x00, 0x00, 0x20, 0x00, 0x00, 0x00,
    0x03, 0x00, 0x00, 0x00, 0x00, 0x00, 0x06, 0x00, 0x08, 0x00, 0x07, 0x00,
    0x06, 0x00, 0x00, 0x00, 0x00, 0x00, 0x00, 0x01, 0x01, 0x00, 0x00, 0x00,
    0x11, 0x00, 0x00, 0x00, 0x03, 0x00, 0x00, 0x00, 0x10, 0x00, 0x00, 0x00,
    0x09, 0x00, 0x00, 0x00, 0x01, 0x00, 0x00, 0x00, 0x6a, 0xff, 0xff, 0xff,
    0x14, 0x00, 0x00, 0x00, 0x00, 0x00, 0x00, 0x1b, 0x10, 0x00, 0x00, 0x00,
    0x14, 0x00, 0x00, 0x00, 0x02, 0x00, 0x00, 0x00, 0x00, 0xf7, 0xff, 0xff,
    0x01, 0x00, 0x00, 0x00, 0x10, 0x00, 0x00, 0x00, 0x02, 0x00, 0x00, 0x00,
    0x0f, 0x00, 0x00, 0x00, 0x0a, 0x00, 0x00, 0x00, 0x3a, 0xff, 0xff, 0xff,
    0x08, 0x00, 0x00, 0x00, 0x0c, 0x00, 0x00, 0x00, 0x01, 0x00, 0x00, 0x00,
    0x0f, 0x00, 0x00, 0x00, 0x02, 0x00, 0x00, 0x00, 0x0e, 0x00, 0x00, 0x00,
    0x05, 0x00, 0x00, 0x00, 0xba, 0xff, 0xff, 0xff, 0x14, 0x00, 0x00, 0x00,
    0x00, 0x00, 0x00, 0x01, 0x20, 0x00, 0x00, 0x00, 0x24, 0x00, 0x00, 0x00,
    0x01, 0x00, 0x00, 0x00, 0xac, 0xff, 0xff, 0xff, 0x00, 0x00, 0x00, 0x01,
    0x01, 0x00, 0x00, 0x00, 0x01, 0x00, 0x00, 0x00, 0x00, 0x00, 0x00, 0x01,
    0x01, 0x00, 0x00, 0x00, 0x0e, 0x00, 0x00, 0x00, 0x03, 0x00, 0x00, 0x00,
    0x0d, 0x00, 0x00, 0x00, 0x06, 0x00, 0x00, 0x00, 0x02, 0x00, 0x00, 0x00,
    0x00, 0x00, 0x0e, 0x00, 0x18, 0x00, 0x14, 0x00, 0x10, 0x00, 0x0c, 0x00,
    0x0b, 0x00, 0x04, 0x00, 0x0e, 0x00, 0x00, 0x00, 0x20, 0x00, 0x00, 0x00,
    0x00, 0x00, 0x00, 0x01, 0x2c, 0x00, 0x00, 0x00, 0x30, 0x00, 0x00, 0x00,
    0x01, 0x00, 0x00, 0x00, 0x0c, 0x00, 0x14, 0x00, 0x13, 0x00, 0x0c, 0x00,
    0x08, 0x00, 0x07, 0x00, 0x0c, 0x00, 0x00, 0x00, 0x00, 0x00, 0x00, 0x01,
    0x01, 0x00, 0x00, 0x00, 0x01, 0x00, 0x00, 0x00, 0x00, 0x00, 0x00, 0x01,
    0x01, 0x00, 0x00, 0x00, 0x0d, 0x00, 0x00, 0x00, 0x03, 0x00, 0x00, 0x00,
    0x0c, 0x00, 0x00, 0x00, 0x07, 0x00, 0x00, 0x00, 0x03, 0x00, 0x00, 0x00,
    0x00, 0x00, 0x0a, 0x00, 0x0c, 0x00, 0x00, 0x00, 0x08, 0x00, 0x04, 0x00,
    0x0a, 0x00, 0x00, 0x00, 0x08, 0x00, 0x00, 0x00, 0x0c, 0x00, 0x00, 0x00,
    0x01, 0x00, 0x00, 0x00, 0x0c, 0x00, 0x00, 0x00, 0x02, 0x00, 0x00, 0x00,
    0x00, 0x00, 0x00, 0x00, 0x0b, 0x00, 0x00, 0x00, 0x01, 0x00, 0x00, 0x00,
    0x13, 0x00, 0x00, 0x00, 0x01, 0x00, 0x00, 0x00, 0x00, 0x00, 0x00, 0x00,
    0x14, 0x00, 0x00, 0x00, 0xcc, 0x07, 0x00, 0x00, 0x78, 0x07, 0x00, 0x00,
    0x3c, 0x07, 0x00, 0x00, 0x00, 0x07, 0x00, 0x00, 0xc4, 0x06, 0x00, 0x00,
    0x84, 0x06, 0x00, 0x00, 0x24, 0x06, 0x00, 0x00, 0xdc, 0x05, 0x00, 0x00,
    0x9c, 0x05, 0x00, 0x00, 0x5c, 0x05, 0x00, 0x00, 0x20, 0x05, 0x00, 0x00,
    0xbc, 0x04, 0x00, 0x00, 0x50, 0x04, 0x00, 0x00, 0x60, 0x03, 0x00, 0x00,
    0x70, 0x02, 0x00, 0x00, 0xa8, 0x01, 0x00, 0x00, 0x44, 0x01, 0x00, 0x00,
    0xb4, 0x00, 0x00, 0x00, 0x40, 0x00, 0x00, 0x00, 0x04, 0x00, 0x00, 0x00,
    0x9a, 0xf8, 0xff, 0xff, 0x00, 0x00, 0x00, 0x01, 0x10, 0x00, 0x00, 0x00,
    0x10, 0x00, 0x00, 0x00, 0x14, 0x00, 0x00, 0x00, 0x18, 0x00, 0x00, 0x00,
    0x84, 0xf8, 0xff, 0xff, 0x08, 0x00, 0x00, 0x00, 0x49, 0x64, 0x65, 0x6e,
    0x74, 0x69, 0x74, 0x79, 0x00, 0x00, 0x00, 0x00, 0x02, 0x00, 0x00, 0x00,
    0x01, 0x00, 0x00, 0x00, 0x04, 0x00, 0x00, 0x00, 0xd2, 0xf8, 0xff, 0xff,
    0x00, 0x00, 0x00, 0x01, 0x10, 0x00, 0x00, 0x00, 0x10, 0x00, 0x00, 0x00,
    0x13, 0x00, 0x00, 0x00, 0x50, 0x00, 0x00, 0x00, 0xbc, 0xf8, 0xff, 0xff,
    0x40, 0x00, 0x00, 0x00, 0x73, 0x65, 0x71, 0x75, 0x65, 0x6e, 0x74, 0x69,
    0x61, 0x6c, 0x5f, 0x33, 0x5f, 0x31, 0x2f, 0x64, 0x65, 0x6e, 0x73, 0x65,
    0x5f, 0x37, 0x5f, 0x31, 0x2f, 0x4d, 0x61, 0x74, 0x4d, 0x75, 0x6c, 0x3b,
    0x73, 0x65, 0x71, 0x75, 0x65, 0x6e, 0x74, 0x69, 0x61, 0x6c, 0x5f, 0x33,
    0x5f, 0x31, 0x2f, 0x64, 0x65, 0x6e, 0x73, 0x65, 0x5f, 0x37, 0x5f, 0x31,
    0x2f, 0x42, 0x69, 0x61, 0x73, 0x41, 0x64, 0x64, 0x00, 0x00, 0x00, 0x00,
    0x02, 0x00, 0x00, 0x00, 0x01, 0x00, 0x00, 0x00, 0x04, 0x00, 0x00, 0x00,
    0x42, 0xf9, 0xff, 0xff, 0x00, 0x00, 0x00, 0x01, 0x10, 0x00, 0x00, 0x00,
    0x10, 0x00, 0x00, 0x00, 0x12, 0x00, 0x00, 0x00, 0x6c, 0x00, 0x00, 0x00,
    0x2c, 0xf9, 0xff, 0xff, 0x5e, 0x00, 0x00, 0x00, 0x73, 0x65, 0x71, 0x75,
    0x65, 0x6e, 0x74, 0x69, 0x61, 0x6c, 0x5f, 0x33, 0x5f, 0x31, 0x2f, 0x64,
    0x65, 0x6e, 0x73, 0x65, 0x5f, 0x36, 0x5f, 0x31, 0x2f, 0x4d, 0x61, 0x74,
    0x4d, 0x75, 0x6c, 0x3b, 0x73, 0x65, 0x71, 0x75, 0x65, 0x6e, 0x74, 0x69,
    0x61, 0x6c, 0x5f, 0x33, 0x5f, 0x31, 0x2f, 0x64, 0x65, 0x6e, 0x73, 0x65,
    0x5f, 0x36, 0x5f, 0x31, 0x2f, 0x52, 0x65, 0x6c, 0x75, 0x3b, 0x73, 0x65,
    0x71, 0x75, 0x65, 0x6e, 0x74, 0x69, 0x61, 0x6c, 0x5f, 0x33, 0x5f, 0x31,
    0x2f, 0x64, 0x65, 0x6e, 0x73, 0x65, 0x5f, 0x36, 0x5f, 0x31, 0x2f, 0x42,
    0x69, 0x61, 0x73, 0x41, 0x64, 0x64, 0x00, 0x00, 0x02, 0x00, 0x00, 0x00,
    0x01, 0x00, 0x00, 0x00, 0x20, 0x00, 0x00, 0x00, 0xce, 0xf9, 0xff, 0xff,
    0x00, 0x00, 0x00, 0x01, 0x10, 0x00, 0x00, 0x00, 0x10, 0x00, 0x00, 0x00,
    0x11, 0x00, 0x00, 0x00, 0x40, 0x00, 0x00, 0x00, 0xb8, 0xf9, 0xff, 0xff,
    0x30, 0x00, 0x00, 0x00, 0x73, 0x65, 0x71, 0x75, 0x65, 0x6e, 0x74, 0x69,
    0x61, 0x6c, 0x5f, 0x33, 0x5f, 0x31, 0x2f, 0x67, 0x6c, 0x6f, 0x62, 0x61,
    0x6c, 0x5f, 0x61, 0x76, 0x65, 0x72, 0x61, 0x67, 0x65, 0x5f, 0x70, 0x6f,
    0x6f, 0x6c, 0x69, 0x6e, 0x67, 0x31, 0x64, 0x5f, 0x33, 0x5f, 0x31, 0x2f,
    0x4d, 0x65, 0x61, 0x6e, 0x00, 0x00, 0x00, 0x00, 0x02, 0x00, 0x00, 0x00,
    0x01, 0x00, 0x00, 0x00, 0x10, 0x00, 0x00, 0x00, 0x2e, 0xfa, 0xff, 0xff,
    0x00, 0x00, 0x00, 0x01, 0x10, 0x00, 0x00, 0x00, 0x10, 0x00, 0x00, 0x00,
    0x10, 0x00, 0x00, 0x00, 0xa0, 0x00, 0x00, 0x00, 0x18, 0xfa, 0xff, 0xff,
    0x90, 0x00, 0x00, 0x00, 0x73, 0x65, 0x71, 0x75, 0x65, 0x6e, 0x74, 0x69,
    0x61, 0x6c, 0x5f, 0x33, 0x5f, 0x31, 0x2f, 0x63, 0x6f, 0x6e, 0x76, 0x31,
    0x64, 0x5f, 0x37, 0x5f, 0x31, 0x2f, 0x52, 0x65, 0x6c, 0x75, 0x3b, 0x73,
    0x65, 0x71, 0x75, 0x65, 0x6e, 0x74, 0x69, 0x61, 0x6c, 0x5f, 0x33, 0x5f,
    0x31, 0x2f, 0x63, 0x6f, 0x6e, 0x76, 0x31, 0x64, 0x5f, 0x37, 0x5f, 0x31,
    0x2f, 0x42, 0x69, 0x61, 0x73, 0x41, 0x64, 0x64, 0x3b, 0x73, 0x65, 0x71,
    0x75, 0x65, 0x6e, 0x74, 0x69, 0x61, 0x6c, 0x5f, 0x33, 0x5f, 0x31, 0x2f,
    0x63, 0x6f, 0x6e, 0x76, 0x31, 0x64, 0x5f, 0x37, 0x5f, 0x31, 0x2f, 0x63,
    0x6f, 0x6e, 0x76, 0x6f, 0x6c, 0x75, 0x74, 0x69, 0x6f, 0x6e, 0x2f, 0x53,
    0x71, 0x75, 0x65, 0x65, 0x7a, 0x65, 0x3b, 0x73, 0x65, 0x71, 0x75, 0x65,
    0x6e, 0x74, 0x69, 0x61, 0x6c, 0x5f, 0x33, 0x5f, 0x31, 0x2f, 0x63, 0x6f,
    0x6e, 0x76, 0x31, 0x64, 0x5f, 0x37, 0x5f, 0x31, 0x2f, 0x53, 0x71, 0x75,
    0x65, 0x65, 0x7a, 0x65, 0x00, 0x00, 0x00, 0x00, 0x03, 0x00, 0x00, 0x00,
    0x01, 0x00, 0x00, 0x00, 0x06, 0x00, 0x00, 0x00, 0x10, 0x00, 0x00, 0x00,
    0xf2, 0xfa, 0xff, 0xff, 0x00, 0x00, 0x00, 0x01, 0x10, 0x00, 0x00, 0x00,
    0x10, 0x00, 0x00, 0x00, 0x0f, 0x00, 0x00, 0x00, 0xc4, 0x00, 0x00, 0x00,
    0xdc, 0xfa, 0xff, 0xff, 0xb6, 0x00, 0x00, 0x00, 0x73, 0x65, 0x71, 0x75,
    0x65, 0x6e, 0x74, 0x69, 0x61, 0x6c, 0x5f, 0x33, 0x5f, 0x31, 0x2f, 0x63,
    0x6f, 0x6e, 0x76, 0x31, 0x64, 0x5f, 0x37, 0x5f, 0x31, 0x2f, 0x52, 0x65,
    0x6c, 0x75, 0x3b, 0x73, 0x65, 0x71, 0x75, 0x65, 0x6e, 0x74, 0x69, 0x61,
    0x6c, 0x5f, 0x33, 0x5f, 0x31, 0x2f, 0x63, 0x6f, 0x6e, 0x76, 0x31, 0x64,
    0x5f, 0x37, 0x5f, 0x31, 0x2f, 0x42, 0x69, 0x61, 0x73, 0x41, 0x64, 0x64,
    0x3b, 0x73, 0x65, 0x71, 0x75, 0x65, 0x6e, 0x74, 0x69, 0x61, 0x6c, 0x5f,
    0x33, 0x5f, 0x31, 0x2f, 0x63, 0x6f, 0x6e, 0x76, 0x31, 0x64, 0x5f, 0x37,
    0x5f, 0x31, 0x2f, 0x63, 0x6f, 0x6e, 0x76, 0x6f, 0x6c, 0x75, 0x74, 0x69,
    0x6f, 0x6e, 0x2f, 0x53, 0x71, 0x75, 0x65, 0x65, 0x7a, 0x65, 0x3b, 0x73,
    0x65, 0x71, 0x75, 0x65, 0x6e, 0x74, 0x69, 0x61, 0x6c, 0x5f, 0x33, 0x5f,
    0x31, 0x2f, 0x63, 0x6f, 0x6e, 0x76, 0x31, 0x64, 0x5f, 0x37, 0x5f, 0x31,
    0x2f, 0x53, 0x71, 0x75, 0x65, 0x65, 0x7a, 0x65, 0x3b, 0x73, 0x65, 0x71,
    0x75, 0x65, 0x6e, 0x74, 0x69, 0x61, 0x6c, 0x5f, 0x33, 0x5f, 0x31, 0x2f,
    0x63, 0x6f, 0x6e, 0x76, 0x31, 0x64, 0x5f, 0x37, 0x5f, 0x31, 0x2f, 0x63,
    0x6f, 0x6e, 0x76, 0x6f, 0x6c, 0x75, 0x74, 0x69, 0x6f, 0x6e, 0x00, 0x00,
    0x04, 0x00, 0x00, 0x00, 0x01, 0x00, 0x00, 0x00, 0x01, 0x00, 0x00, 0x00,
    0x06, 0x00, 0x00, 0x00, 0x10, 0x00, 0x00, 0x00, 0xde, 0xfb, 0xff, 0xff,
    0x00, 0x00, 0x00, 0x01, 0x10, 0x00, 0x00, 0x00, 0x10, 0x00, 0x00, 0x00,
    0x0e, 0x00, 0x00, 0x00, 0xc4, 0x00, 0x00, 0x00, 0xc8, 0xfb, 0xff, 0xff,
    0xb6, 0x00, 0x00, 0x00, 0x73, 0x65, 0x71, 0x75, 0x65, 0x6e, 0x74, 0x69,
    0x61, 0x6c, 0x5f, 0x33, 0x5f, 0x31, 0x2f, 0x63, 0x6f, 0x6e, 0x76, 0x31,
    0x64, 0x5f, 0x36, 0x5f, 0x31, 0x2f, 0x52, 0x65, 0x6c, 0x75, 0x3b, 0x73,
    0x65, 0x71, 0x75, 0x65, 0x6e, 0x74, 0x69, 0x61, 0x6c, 0x5f, 0x33, 0x5f,
    0x31, 0x2f, 0x63, 0x6f, 0x6e, 0x76, 0x31, 0x64, 0x5f, 0x36, 0x5f, 0x31,
    0x2f, 0x42, 0x69, 0x61, 0x73, 0x41, 0x64, 0x64, 0x3b, 0x73, 0x65, 0x71,
    0x75, 0x65, 0x6e, 0x74, 0x69, 0x61, 0x6c, 0x5f, 0x33, 0x5f, 0x31, 0x2f,
    0x63, 0x6f, 0x6e, 0x76, 0x31, 0x64, 0x5f, 0x36, 0x5f, 0x31, 0x2f, 0x63,
    0x6f, 0x6e, 0x76, 0x6f, 0x6c, 0x75, 0x74, 0x69, 0x6f, 0x6e, 0x2f, 0x53,
    0x71, 0x75, 0x65, 0x65, 0x7a, 0x65, 0x3b, 0x73, 0x65, 0x71, 0x75, 0x65,
    0x6e, 0x74, 0x69, 0x61, 0x6c, 0x5f, 0x33, 0x5f, 0x31, 0x2f, 0x63, 0x6f,
    0x6e, 0x76, 0x31, 0x64, 0x5f, 0x36, 0x5f, 0x31, 0x2f, 0x53, 0x71, 0x75,
    0x65, 0x65, 0x7a, 0x65, 0x3b, 0x73, 0x65, 0x71, 0x75, 0x65, 0x6e, 0x74,
    0x69, 0x61, 0x6c, 0x5f, 0x33, 0x5f, 0x31, 0x2f, 0x63, 0x6f, 0x6e, 0x76,
    0x31, 0x64, 0x5f, 0x36, 0x5f, 0x31, 0x2f, 0x63, 0x6f, 0x6e, 0x76, 0x6f,
    0x6c, 0x75, 0x74, 0x69, 0x6f, 0x6e, 0x00, 0x00, 0x04, 0x00, 0x00, 0x00,
    0x01, 0x00, 0x00, 0x00, 0x01, 0x00, 0x00, 0x00, 0x08, 0x00, 0x00, 0x00,
    0x10, 0x00, 0x00, 0x00, 0xca, 0xfc, 0xff, 0xff, 0x00, 0x00, 0x00, 0x01,
    0x10, 0x00, 0x00, 0x00, 0x10, 0x00, 0x00, 0x00, 0x0d, 0x00, 0x00, 0x00,
    0x40, 0x00, 0x00, 0x00, 0xb4, 0xfc, 0xff, 0xff, 0x31, 0x00, 0x00, 0x00,
    0x73, 0x65, 0x71, 0x75, 0x65, 0x6e, 0x74, 0x69, 0x61, 0x6c, 0x5f, 0x33,
    0x5f, 0x31, 0x2f, 0x63, 0x6f, 0x6e, 0x76, 0x31, 0x64, 0x5f, 0x36, 0x5f,
    0x31, 0x2f, 0x63, 0x6f, 0x6e, 0x76, 0x6f, 0x6c, 0x75, 0x74, 0x69, 0x6f,
    0x6e, 0x2f, 0x45, 0x78, 0x70, 0x61, 0x6e, 0x64, 0x44, 0x69, 0x6d, 0x73,
    0x31, 0x00, 0x00, 0x00, 0x04, 0x00, 0x00, 0x00, 0x01, 0x00, 0x00, 0x00,
    0x01, 0x00, 0x00, 0x00, 0x0a, 0x00, 0x00, 0x00, 0x08, 0x00, 0x00, 0x00,
    0x66, 0xfe, 0xff, 0xff, 0x00, 0x00, 0x00, 0x01, 0x14, 0x00, 0x00, 0x00,
    0x14, 0x00, 0x00, 0x00, 0x0c, 0x00, 0x00, 0x00, 0x00, 0x00, 0x00, 0x02,
    0x40, 0x00, 0x00, 0x00, 0x20, 0xfd, 0xff, 0xff, 0x30, 0x00, 0x00, 0x00,
    0x73, 0x65, 0x71, 0x75, 0x65, 0x6e, 0x74, 0x69, 0x61, 0x6c, 0x5f, 0x33,
    0x5f, 0x31, 0x2f, 0x63, 0x6f, 0x6e, 0x76, 0x31, 0x64, 0x5f, 0x36, 0x5f,
    0x31, 0x2f, 0x63, 0x6f, 0x6e, 0x76, 0x6f, 0x6c, 0x75, 0x74, 0x69, 0x6f,
    0x6e, 0x2f, 0x45, 0x78, 0x70, 0x61, 0x6e, 0x64, 0x44, 0x69, 0x6d, 0x73,
    0x00, 0x00, 0x00, 0x00, 0x01, 0x00, 0x00, 0x00, 0x04, 0x00, 0x00, 0x00,
    0xc6, 0xfe, 0xff, 0xff, 0x00, 0x00, 0x00, 0x01, 0x14, 0x00, 0x00, 0x00,
    0x14, 0x00, 0x00, 0x00, 0x0b, 0x00, 0x00, 0x00, 0x00, 0x00, 0x00, 0x02,
    0x1c, 0x00, 0x00, 0x00, 0x80, 0xfd, 0xff, 0xff, 0x0f, 0x00, 0x00, 0x00,
    0x61, 0x72, 0x69, 0x74, 0x68, 0x2e, 0x63, 0x6f, 0x6e, 0x73, 0x74, 0x61,
    0x6e, 0x74, 0x39, 0x00, 0x00, 0x00, 0x00, 0x00, 0xca, 0xfd, 0xff, 0xff,
    0x00, 0x00, 0x00, 0x01, 0x10, 0x00, 0x00, 0x00, 0x10, 0x00, 0x00, 0x00,
    0x0a, 0x00, 0x00, 0x00, 0x1c, 0x00, 0x00, 0x00, 0xb4, 0xfd, 0xff, 0xff,
    0x0f, 0x00, 0x00, 0x00, 0x61, 0x72, 0x69, 0x74, 0x68, 0x2e, 0x63, 0x6f,
    0x6e, 0x73, 0x74, 0x61, 0x6e, 0x74, 0x38, 0x00, 0x02, 0x00, 0x00, 0x00,
    0x20, 0x00, 0x00, 0x00, 0x10, 0x00, 0x00, 0x00, 0x06, 0xfe, 0xff, 0xff,
    0x00, 0x00, 0x00, 0x01, 0x10, 0x00, 0x00, 0x00, 0x10, 0x00, 0x00, 0x00,
    0x09, 0x00, 0x00, 0x00, 0x1c, 0x00, 0x00, 0x00, 0xf0, 0xfd, 0xff, 0xff,
    0x0f, 0x00, 0x00, 0x00, 0x61, 0x72, 0x69, 0x74, 0x68, 0x2e, 0x63, 0x6f,
    0x6e, 0x73, 0x74, 0x61, 0x6e, 0x74, 0x37, 0x00, 0x02, 0x00, 0x00, 0x00,
    0x04, 0x00, 0x00, 0x00, 0x20, 0x00, 0x00, 0x00, 0x42, 0xfe, 0xff, 0xff,
    0x00, 0x00, 0x00, 0x01, 0x10, 0x00, 0x00, 0x00, 0x10, 0x00, 0x00, 0x00,
    0x08, 0x00, 0x00, 0x00, 0x1c, 0x00, 0x00, 0x00, 0x2c, 0xfe, 0xff, 0xff,
    0x0f, 0x00, 0x00, 0x00, 0x61, 0x72, 0x69, 0x74, 0x68, 0x2e, 0x63, 0x6f,
    0x6e, 0x73, 0x74, 0x61, 0x6e, 0x74, 0x36, 0x00, 0x04, 0x00, 0x00, 0x00,
    0x10, 0x00, 0x00, 0x00, 0x01, 0x00, 0x00, 0x00, 0x03, 0x00, 0x00, 0x00,
    0x08, 0x00, 0x00, 0x00, 0x86, 0xfe, 0xff, 0xff, 0x00, 0x00, 0x00, 0x01,
    0x10, 0x00, 0x00, 0x00, 0x10, 0x00, 0x00, 0x00, 0x07, 0x00, 0x00, 0x00,
    0x1c, 0x00, 0x00, 0x00, 0x70, 0xfe, 0xff, 0xff, 0x0f, 0x00, 0x00, 0x00,
    0x61, 0x72, 0x69, 0x74, 0x68, 0x2e, 0x63, 0x6f, 0x6e, 0x73, 0x74, 0x61,
    0x6e, 0x74, 0x35, 0x00, 0x04, 0x00, 0x00, 0x00, 0x10, 0x00, 0x00, 0x00,
    0x01, 0x00, 0x00, 0x00, 0x03, 0x00, 0x00, 0x00, 0x10, 0x00, 0x00, 0x00,
    0x00, 0x00, 0x16, 0x00, 0x1c, 0x00, 0x18, 0x00, 0x17, 0x00, 0x10, 0x00,
    0x0c, 0x00, 0x08, 0x00, 0x00, 0x00, 0x00, 0x00, 0x00, 0x00, 0x07, 0x00,
    0x16, 0x00, 0x00, 0x00, 0x00, 0x00, 0x00, 0x01, 0x14, 0x00, 0x00, 0x00,
    0x14, 0x00, 0x00, 0x00, 0x06, 0x00, 0x00, 0x00, 0x00, 0x00, 0x00, 0x02,
    0x1c, 0x00, 0x00, 0x00, 0xd0, 0xfe, 0xff, 0xff, 0x0f, 0x00, 0x00, 0x00,
    0x61, 0x72, 0x69, 0x74, 0x68, 0x2e, 0x63, 0x6f, 0x6e, 0x73, 0x74, 0x61,
    0x6e, 0x74, 0x34, 0x00, 0x01, 0x00, 0x00, 0x00, 0x03, 0x00, 0x00, 0x00,
    0x1e, 0xff, 0xff, 0xff, 0x00, 0x00, 0x00, 0x01, 0x10, 0x00, 0x00, 0x00,
    0x10, 0x00, 0x00, 0x00, 0x05, 0x00, 0x00, 0x00, 0x1c, 0x00, 0x00, 0x00,
    0x08, 0xff, 0xff, 0xff, 0x0f, 0x00, 0x00, 0x00, 0x61, 0x72, 0x69, 0x74,
    0x68, 0x2e, 0x63, 0x6f, 0x6e, 0x73, 0x74, 0x61, 0x6e, 0x74, 0x33, 0x00,
    0x01, 0x00, 0x00, 0x00, 0x04, 0x00, 0x00, 0x00, 0x56, 0xff, 0xff, 0xff,
    0x00, 0x00, 0x00, 0x01, 0x10, 0x00, 0x00, 0x00, 0x10, 0x00, 0x00, 0x00,
    0x04, 0x00, 0x00, 0x00, 0x1c, 0x00, 0x00, 0x00, 0x40, 0xff, 0xff, 0xff,
    0x0f, 0x00, 0x00, 0x00, 0x61, 0x72, 0x69, 0x74, 0x68, 0x2e, 0x63, 0x6f,
    0x6e, 0x73, 0x74, 0x61, 0x6e, 0x74, 0x32, 0x00, 0x01, 0x00, 0x00, 0x00,
    0x10, 0x00, 0x00, 0x00, 0x8e, 0xff, 0xff, 0xff, 0x00, 0x00, 0x00, 0x01,
    0x10, 0x00, 0x00, 0x00, 0x10, 0x00, 0x00, 0x00, 0x03, 0x00, 0x00, 0x00,
    0x1c, 0x00, 0x00, 0x00, 0x78, 0xff, 0xff, 0xff, 0x0f, 0x00, 0x00, 0x00,
    0x61, 0x72, 0x69, 0x74, 0x68, 0x2e, 0x63, 0x6f, 0x6e, 0x73, 0x74, 0x61,
    0x6e, 0x74, 0x31, 0x00, 0x01, 0x00, 0x00, 0x00, 0x10, 0x00, 0x00, 0x00,
    0xc6, 0xff, 0xff, 0xff, 0x00, 0x00, 0x00, 0x01, 0x10, 0x00, 0x00, 0x00,
    0x10, 0x00, 0x00, 0x00, 0x02, 0x00, 0x00, 0x00, 0x1c, 0x00, 0x00, 0x00,
    0xb0, 0xff, 0xff, 0xff, 0x0e, 0x00, 0x00, 0x00, 0x61, 0x72, 0x69, 0x74,
    0x68, 0x2e, 0x63, 0x6f, 0x6e, 0x73, 0x74, 0x61, 0x6e, 0x74, 0x00, 0x00,
    0x01, 0x00, 0x00, 0x00, 0x20, 0x00, 0x00, 0x00, 0x00, 0x00, 0x16, 0x00,
    0x18, 0x00, 0x14, 0x00, 0x00, 0x00, 0x10, 0x00, 0x0c, 0x00, 0x08, 0x00,
    0x00, 0x00, 0x00, 0x00, 0x00, 0x00, 0x07, 0x00, 0x16, 0x00, 0x00, 0x00,
    0x00, 0x00, 0x00, 0x01, 0x14, 0x00, 0x00, 0x00, 0x14, 0x00, 0x00, 0x00,
    0x01, 0x00, 0x00, 0x00, 0x14, 0x00, 0x00, 0x00, 0x04, 0x00, 0x04, 0x00,
    0x04, 0x00, 0x00, 0x00, 0x01, 0x00, 0x00, 0x00, 0x78, 0x00, 0x00, 0x00,
    0x03, 0x00, 0x00, 0x00, 0x01, 0x00, 0x00, 0x00, 0x0a, 0x00, 0x00, 0x00,
    0x08, 0x00, 0x00, 0x00, 0x05, 0x00, 0x00, 0x00, 0x50, 0x00, 0x00, 0x00,
    0x34, 0x00, 0x00, 0x00, 0x24, 0x00, 0x00, 0x00, 0x14, 0x00, 0x00, 0x00,
    0x04, 0x00, 0x00, 0x00, 0xd0, 0xff, 0xff, 0xff, 0x19, 0x00, 0x00, 0x00,
    0x00, 0x00, 0x00, 0x19, 0xdc, 0xff, 0xff, 0xff, 0x09, 0x00, 0x00, 0x00,
    0x00, 0x00, 0x00, 0x09, 0xe8, 0xff, 0xff, 0xff, 0x28, 0x00, 0x00, 0x00,
    0x00, 0x00, 0x00, 0x28, 0xf4, 0xff, 0xff, 0xff, 0x03, 0x00, 0x00, 0x00,
    0x00, 0x00, 0x00, 0x03, 0x0c, 0x00, 0x0c, 0x00, 0x0b, 0x00, 0x00, 0x00,
    0x00, 0x00, 0x04, 0x00, 0x0c, 0x00, 0x00, 0x00, 0x16, 0x00, 0x00, 0x00,
    0x00, 0x00, 0x00, 0x16
};

const unsigned int g_model_len = sizeof(g_model);

#endif /* MODEL_H */
